#version: 0.2
а р
а л
н д
е р
т а
т ы
м е
а с
н ы
ы л
т і
т е
қ а
к е
д а
д ы</w>
ы қ</w>
л е
д е
о л
а қ
а й
о р
л і
ы н
ғ а
н е</w>
ны ң</w>
д і</w>
і н</w>
а т
ме н</w>
ы нд
і р
і ң</w>
с т
а ғ
и я
д ы
ж ә
л а
жә не</w>
ұ р
м ы
с е
г і
г е
ы н</w>
р е
с і
к ө
а н
и к
ғ а</w>
ға н</w>
т т
ж е
н е
а у
и н
ал ық</w>
к і
г і</w>
ды ң</w>
д а</w>
б ол
с та
б ас
к т
ы р
т ар
қ ар
м а
г е</w>
ы ның</w>
ер і
т у
н ің</w>
ал а
б і
ы с
к о
ты р
д і
б е
ғ ы</w>
л ық</w>
ынд а</w>
ы қ
ы м
с а
қа з
нд е</w>
ж о
t h
т ы</w>
ж ү
ы з
қ ұр
д ің</w>
ж ыл
о й
ш а</w>
ш е
д ар
ж а
т ү
л ер
с п
б а
а ды</w>
ақ ста
ге н</w>
ын а</w>
с о
ы п</w>
д е</w>
ті к</w>
з і
ш і
қ о
ар ы</w>
қаз ақста
ер е
th e</w>
ц ия
ж ұ
а з
ты н</w>
т и
ы ғ
ын ша</w>
т ал
б ір
м ә
ты қ</w>
р о
ш ыл
2 0
б ар
б ағ
с у
ү ш
ик алық</w>
т у</w>
с ы</w>
нд е
м і
жұ мы
с ал
н і
б ой
та р</w>
м ас
т о
д ер
ө з
и я</w>
лі к</w>
і с
бой ынша</w>
кө р
о г
үш ін</w>
р а
м ақ
ар дың</w>
t i
б ұ
ағ ы</w>
л і</w>
н о
қ ал
қ ол
ме т
н а
i n
е л
с і</w>
ме м
гі з
п ар
o f</w>
ті н</w>
нд а</w>
а қ</w>
б и
ал ы</w>
б л
к те
a n
к е</w>
нд і
ұ л
т ер
ты ң</w>
20 1
ле ке
т те
м ат
мем леке
з е
қ ыз
тт і</w>
м ү
ар ды</w>
қ а</w>
e n
к ү
л ген</w>
ия лық</w>
де н
тү р
ә р
ж ас
у ға</w>
қол да
д и
а р</w>
б ай
ш ар
т і</w>
н ал
т кі
да н</w>
қ ұ
ол ог
да м
қа ты
ә сі
о қ
к ер
п ай
п е
r e
ко м
й е
б ер
т ұр
көр се
с и
қазақста н</w>
ту р
қ ыл
қ ор
нд ір
да й
м о
т а</w>
б ыл
т ө
та с
х н
e r
жа ң
ас тыр
з а
s t
бұ л</w>
те хн
е н
ынд ағы</w>
o n</w>
с ы
ле р</w>
н а</w>
ә ле
д ық</w>
та п</w>
б ө
м ин
ш і</w>
ті ң</w>
құр ыл
н ы</w>
н ер
ке н</w>
o n
т тік</w>
а й</w>
жү йе
ст ы</w>
ас ы</w>
мү м
а п
те ң
к әсі
ыс ы</w>
кт і</w>
и ст
тт ер
но м
ө ні
ме н
у ы</w>
э ко
ал ар
ж ағ
л ар
й ін</w>
эко ном
o r
а тын</w>
да ғы</w>
бі лі
х ал
ы с</w>
ла р</w>
де ді</w>
бол ып</w>
a r
кт ер
а м
г ін</w>
ла ны
а нд
лер і</w>
а н</w>
о тыр
ері нің</w>
м ді
й і
мә се
а ны
ас ыр
з де
қа м
е се
ы ғы</w>
та н</w>
бағ дар
жұмы с</w>
ке ле
жо ғ
м ұ
о ның</w>
бай ланы
у р
ас та
не гіз
п ро
ш ығ
бі р</w>
ы л</w>
да мы
е к
ы з</w>
бағдар ла
тур алы</w>
гі зі
ж ал
мүм кі
пе н</w>
мәсе ле
з ер
e d</w>
бол ады</w>
о л</w>
де п</w>
н і</w>
е с
ы мен</w>
ұ й
қа тар</w>
у і
н и
а у</w>
м ді</w>
з и
ө ндір
ты л
ала р</w>
ақ ты</w>
жаң а</w>
ны мен</w>
п те
и м
ор ынд
бе л
м л
та у</w>
мүмкі нді
э к
жү р
д ал
ан ы</w>
не н</w>
нд ық</w>
п ре
ә ді
со нд
нде гі</w>
ө ң
я с
т ә
у л
мин ист
техн олог
бағ ы
а тап</w>
в е
o u
қа же
а ция
ө т
кәсі п
ц и
о бл
нд ыр
ти і
i n</w>
a ti
т тық</w>
ай -
ке л
ке ң
х а
ты қ
с ә
ал ған</w>
бө лі
нд і</w>
ком п
у ге</w>
сп у
те р</w>
аны қ
ба р</w>
г ер
ко н
спу бл
қо с
ас ында</w>
э ле
an d</w>
мемлеке ттік</w>
ті р
а ш
ала ды</w>
ф ор
қыз ме
ж ол
r o
ш ы</w>
ын ан</w>
ақ пар
ст и
и з
б ері
та мас
жо б
о сы</w>
з дің</w>
да р</w>
ма ң
зер тте
с ау
ай- ақ</w>
жағ дай
ө з</w>
қа н</w>
e s</w>
с ыр
ас ының</w>
a l</w>
білі м</w>
ц ия</w>
қыл ы</w>
м і</w>
ы м</w>
т ұ
ді к</w>
та п
у шыл
ба е
ж ат
ыл ған</w>
л ы</w>
жыл ы</w>
сонд ай-ақ</w>
e c
қ ы
та был
де н</w>
t o</w>
ыс ында</w>
ы п
ре спубл
қ ы</w>
л ді</w>
н ші</w>
р и
ә ти
ас ындағы</w>
ғ ыл
ты нд
ал ды</w>
с ін</w>
a t
ар қылы</w>
п ер
жо сп
ш е</w>
бар лық</w>
минист р
ұй ым
со нымен</w>
ө л
ү л
а в
жү зе
эконом икалық</w>
с у</w>
ж ар
э нер
жүзе ге</w>
ткі з
н ның</w>
ха бар
ақ ы
i t
жоғ ары</w>
қар алық</w>
а л</w>
н әти
маң ыз
ке лі
a l
ик а</w>
әле у
ны н</w>
лі гі</w>
зи ден
і ші
мы з</w>
ке зе
дал ан
ң ге
б ү
с ер
с е</w>
и е
i s</w>
a n</w>
та у
бас ш
ы қаралық</w>
де ңге
ст ер
пре зиден
пай далан
б ере
ң і
тт ы</w>
л ь
бір і
ш а
хал ықаралық</w>
нәти же
а шыл
м ал
жал п
н аз
ық тар
ын ты
т ол
бас қар
бі з</w>
технолог ия
сі нің</w>
у ақы
с өз
қ р</w>
қар астыр
са п
л и
хабар ла
ақпар ат
нд ы</w>
л д
қа й
м дер
у дың</w>
к ере
қам тамас
i l
сі з
ар т
м а</w>
ғ ал
ұл ттық</w>
ө тті</w>
негіз гі</w>
ір і
Б ұ
кт ор
ті нде</w>
с ақ
эле кт
in g</w>
ды қ
қамтамас ыз</w>
у да</w>
ст і</w>
ай ды</w>
жосп ар
ст ар
д ә
ж ақ
0 0</w>
м де
е ме
ле ді</w>
те ді</w>
ты р</w>
т ті
оқ ы
қар а
н у</w>
ғ ы
с ті
ке зде
ж ер
б ақ
байланы сты</w>
де йін</w>
a c
м и
i c
с тік</w>
қ ой
қыз мет
табыл ады</w>
Бұ л</w>
ынты мақ
бер у</w>
са ты
жалп ы</w>
en t</w>
ц е
о с
ин ве
с ар
й ке
іс ке</w>
зі нде</w>
республ ик
бар ысында</w>
ынтымақ тас
ек і</w>
s i
ф и
с ай
же ті
іші нде</w>
да у</w>
лер ді</w>
ә кі
0 ,
ір гі</w>
ығ ын</w>
та ң
түр лі</w>
мемлеке т</w>
ері не</w>
ж і
мас ы</w>
ар нал
ті нің</w>
ай ту
лер дің</w>
х ан
у і</w>
у ды</w>
кө ле
б ал
та й
сы ны
e r</w>
т ала
Қ аз
с ат
сә йке
мл р
г ра
еме с</w>
бағы тт
лі кті</w>
кең е
қа был
лер ін</w>
тыр у</w>
с ының</w>
әлеу мет
o m
ас ын</w>
у н
н ін</w>
қазақста нның</w>
с ын</w>
а к
шығ ар
жыл дың</w>
қолда ны
мүмкінді к</w>
комп ан
с те
нд ай</w>
наз ар
н ген</w>
эк сп
а яс
бел гі
н гі</w>
ре тінде</w>
ол ардың</w>
ла у</w>
қа уі
та ны
e l
арнал ған</w>
не ме
й ді</w>
м ан
кере к</w>
p ro
ор тал
ция лық</w>
қаты су
a k
қал ып
ү р
и в
ор та
за ң
ла н
ati on</w>
неме се</w>
басш ысы</w>
на н</w>
е лі
сі нде</w>
ағ а</w>
мы ң</w>
п ат
қауі п
энер г
сп е
o p
ере к
a z
де гі</w>
к ар
ер и
лі гі
н ұр
нд ар
тап сыр
мо де
o r</w>
маңыз ды</w>
қ ыр
тұр ғ
су ре
ор г
бае в</w>
ал дар
аз а
ж и
u r
олог иялық</w>
ү й
қо л</w>
ә с
ше ші
мет р
шар у
инве сти
іс те
дамы ту</w>
бас қа</w>
р ан
е ке
тар дың</w>
е ң</w>
көрсе ті
да м</w>
аяс ында</w>
қо ға
тө р
ыл ды</w>
сөз дер
ө кі
қаже т</w>
л арды</w>
мі з</w>
р у
кте р</w>
ж ір
t r
жо л</w>
с ия
ж өні
е кі
дер і</w>
ға нда</w>
2 0</w>
к і</w>
ор т
та ғы</w>
к ір
л о
мі нде
бас ы</w>
ты ғ
жір и
у дің</w>
бү гі
іс -
с ын
e s
л де
ық ты</w>
бі здің</w>
у де</w>
лі к
а з</w>
у ына</w>
құр ам
ұ сыны
ай нал
қор ға
дай ынд
лі гін</w>
мақ сат
шару ашыл
С о
деңге й
k az
ә се
ар а</w>
с ан
отыр ып</w>
ыс ының</w>
д ыл
қаз іргі</w>
о тыр</w>
әр і
a s</w>
компан ия
a s
д астыр
есе пте
l i
жүр гізі
мы з
ө зі
а дам
өң де
кө ме
0 -
о н
әлеумет тік</w>
сі з</w>
сі не</w>
л ардың</w>
ө ткіз
те к
ик а
ынд ы</w>
келі сі
сәйке с</w>
лд ір
ала у</w>
е ң
п і
ма нд
бере ді</w>
тә жіри
тар ды</w>
ндыр у</w>
тә у
тең ге</w>
d e
а т</w>
дам у</w>
ке зінде</w>
201 7</w>
м ін</w>
ү кі
ке ше
би з
ал у</w>
тал қыл
ар асындағы</w>
биз не
тең ге
сөздер :</w>
си пат
мә ден
қаты сты</w>
мә лі
то п
бе к</w>
гіз у</w>
г ері
ұйым дастыр
с ұл
пер ат
әр і</w>
ав то
т тің</w>
у ді</w>
д ері
ф р
в и
оқ у</w>
та б
нд ағы</w>
н ай
президен ті</w>
kaz ak
ғыл ым
о р</w>
ат ты</w>
ө нер
з ір
қабыл да
а ты
өз ара</w>
т ор
л ық
көрсе ткі
бол атын</w>
те тін</w>
ж ыл</w>
бақ ыл
к ін</w>
не гізі
та ды</w>
бе й
ком и
же ке</w>
t s</w>
тар ы</w>
өң ір
з де</w>
м ір
i s
асыр у</w>
дар ы</w>
ация лық</w>
та й</w>
тү сі
м ер
мат ери
ау да
қызме т</w>
қауіп сіз
но в
т икалық</w>
қор ы
v e</w>
тте р</w>
a t</w>
m ent</w>
u c
б ұр
нд ер
п ол
Т ү
о в</w>
ж ан
елі мі
тиі мді</w>
қоға м
со ң
в ер
с ыз
ста р</w>
ле у</w>
o l
өл ше
н ақты</w>
е ту</w>
5 0</w>
у шы</w>
о ң
бір і</w>
p l
қаты н
мді к</w>
мат ы</w>
жұмы с
ж ин
жыл ғы</w>
ар ының</w>
ты п</w>
те г
ық тан</w>
үл кен</w>
ыл ады</w>
а п</w>
ме кте
тар ап
м нің</w>
ат ал
ала да</w>
қ у
ғ ай
ә зір
ж ау
м ағ
л ары</w>
ор ын
б о
- ға</w>
қазақста ндық</w>
а г
kazak h
к ті
қ ас
ыс тыр
д ере
f or</w>
дамы ту
к ция
ай мақ
ау ы
А л
да й</w>
қалып тас
түр де</w>
ле тін</w>
айту ынша</w>
ал ын
c on
қ и
қолда н
бір ле
элект ро
мы н</w>
с а</w>
құ қ
ш ы
д о
н ар
са яс
ә ре
a d
ды р
kazakh st
бае в
ал ға
зертте у</w>
келе ді</w>
бірі нші</w>
ал арды</w>
бел се
у ші
өт кен</w>
ор нал
өндір і
ме ди
кәсіп кер
ti on</w>
же лі
ар ға</w>
ге н
ла ды</w>
ж ай
төр ағ
г и
бол ды</w>
а дам</w>
ал ды
ақпарат тық</w>
әре ке
же ткіз
алар ын</w>
1 0
жөні ндегі</w>
бол аш
ше ш
у ын</w>
н и</w>
жұмы ст
аста на</w>
Қаз ақста
кө п</w>
ү ле
де лі
st r
kazakhst an</w>
и нд
тт е</w>
ктер і</w>
ф ун
тө ме
кел тір
тәу ел
жоғ ар
құрыл ым
ст ра
оқы ту</w>
о ны</w>
ат қар
аза мат
х им
л ерінің</w>
б ю
тал ды</w>
техн икалық</w>
сұл тан</w>
мақ саты
дар дың</w>
тәжіри бе
тар и
қ ыс
қоры тынд
1 0</w>
то қ
ға на</w>
құр у</w>
на й</w>
ш ақ
ста н</w>
әс кер
ма да</w>
u l
б ъ
ттер дің</w>
u n
к -
ткі зі
жа б
бө л
т әр
д р
нді к</w>
нде й</w>
м өл
ттер і</w>
тал ған</w>
ар ын</w>
өт е</w>
ту ге</w>
ма манд
м алық</w>
к л
ұ з
ц ин
басқар у</w>
д ин
i m
201 5</w>
бас шыл
ол ар</w>
ау ға</w>
млр д</w>
есе п
нұр сұлтан</w>
орг анд
де р</w>
on s</w>
п о
ou n
қ ты</w>
про це
e x
е л</w>
көр ме
сти ту
ө сі
кт ив
ә р</w>
қа б
б і</w>
к а
ық тың</w>
ө р
и е</w>
1 9
ж ақты</w>
ау ыл</w>
өндір іс
қос ым
тт а</w>
мүм кін</w>
тыл ған</w>
а я
с тер</w>
тең де
e m
d i
ай тын</w>
те м
ай та</w>
ке лген</w>
с ұр
мөл ш
а ды
е ті
д ерінің</w>
қо з
a p
д же
қай та</w>
сал ыстыр
кезе ң
б ан
ал ып</w>
c i
c om
та би
1 ,
мл н</w>
сақ тау</w>
тұр ақты</w>
a m
ек ті
бі ле
с аны</w>
к ор
ы ң
ай т
ар асында</w>
төме нде
ба с</w>
мі р</w>
өз гер
ар ал
б ле
бас тап</w>
н ше</w>
ал ары</w>
арт тыр
ы ны
у ст
қар ж
ғ ни</w>
з ат
п а</w>
жат қан</w>
о дан</w>
кө з
с ү
пай ыз
бас ты</w>
ас ына</w>
те л
ия сы</w>
меди цин
бю дже
лан ған</w>
у м
ден сау
л ері
сал асындағы</w>
к ур
су р
о в
негізі нде</w>
ық тық</w>
жа з
өз гері
пте ген</w>
бол уы</w>
1 -
е теді</w>
п и
гі нде</w>
тем перат
аста м</w>
х ат
те к</w>
ин нов
пайдалан у</w>
лі п</w>
най ы</w>
млр д
қатын ас
о -
та н
қолда ну</w>
сыр т
у ни
ө ті
министр і</w>
ала тын</w>
a g
т е</w>
лер ге</w>
де ген</w>
п у
жүйе сі</w>
ла мен
ғ ыр
е ді</w>
с ері
ма қ</w>
ынтымақтас тық
201 6</w>
w e</w>
ны са
бағытт алған</w>
энер ге
л дері</w>
c h
ре се
дар ды</w>
3 0</w>
қас ие
се ні
обл ыс
хабарла мада</w>
қолда у</w>
ке йін</w>
же ңі
вер си
p or
ар найы</w>
ттер ді</w>
п ә
жас ау</w>
таң да</w>
стра тег
назар баев</w>
к и
кө ш
жұмы стар
at e</w>
өт ке
республик асының</w>
шыл ар</w>
делі нген</w>
re s
ре сур
н -
ф ере
қы ш
мақсаты нда</w>
ерек ше
м ар
пар а
у лер</w>
оқы ту
се бе
ме ке
ал дық</w>
құ жат
ктер ді</w>
фере н
й т
201 4</w>
ұр ыл
я ғни</w>
гі нің</w>
анд ыр
u s
м е</w>
п а
то н
y e
өңде у</w>
өз е
бағдарла мас
ор и
ығ ының</w>
a b
ор та</w>
бүгі нгі</w>
en t
сы з</w>
йі нгі</w>
ла тын</w>
ктер ін</w>
ф е
Тү йін</w>
ші лік</w>
пай д
кө птеген</w>
ал ардың</w>
ай тты</w>
сар ап
бі лдір
а б
ь ю
қа біле
орнал ас
ор ын</w>
ж ө
лар ын</w>
ст у
ш ағ
ц ен
уни верси
ынтымақтас тық</w>
т ран
ел дің</w>
мәселе лері</w>
м алар</w>
м у
сырт қы</w>
н ат
же р</w>
ым ды</w>
белгі лі</w>
жүр гіз
2 ,
ия ның</w>
пар ламен
w or
уақы тта</w>
көрсеткі ш
ен гізу</w>
инд уст
жоб а</w>
ге р</w>
орт алық</w>
ға н
за ман
ес кер
il l</w>
қар жыл
ір і</w>
йі к</w>
да у
да ғ
сту ден
көле мі</w>
ar e</w>
арт тыру</w>
і лген</w>
ү ш</w>
үкі ме
д ас
ық -
эле мен
моде ль
үл гі
бағдарла масы</w>
тари х
б у
it y</w>
мү ше
мы ш</w>
мұ най</w>
тал дау</w>
мөлш ер
өні мдер
і ш
и -
тиі мді
кезде су</w>
с кен</w>
тар ға</w>
e n</w>
v er
тар ын</w>
алын ған</w>
ф ер
к тің</w>
l e
ы ст
қаже тті
2 5</w>
әле мдік</w>
көрсеті лген</w>
са я
n o
l e</w>
ын ы</w>
еке нін</w>
о нда</w>
ста н
қа у
ақ ұрыл
те мат
w ill</w>
екі нші</w>
құр ады</w>
кү н</w>
пай да</w>
әді стер
g i
түр і
әскер и</w>
ин фр
у ро
з ге</w>
мде р</w>
а тынд
млрд .</w>
ерек ше</w>
атал мыш</w>
ци о
тала п
т әсі
ым -
жағдай да</w>
жал ғ
құр алдар
ны на</w>
да т
тұрғ ын</w>
к үш
жыл ға</w>
а ның</w>
й тін</w>
гі лікті</w>
шаруашыл ығы</w>
қар сы</w>
т ере
жүйе сін</w>
ға нд
ф ик
шақ ыр
кү р
c e</w>
l o
жү й
ең бек</w>
қазақста нда</w>
ал ь
қорға у</w>
қаже тті</w>
мәден ие
мер зі
а та
қарж ы</w>
ул ь
о т
і л
та ндыр
с ор
те йік</w>
елімі здің</w>
кө п
орын бас
о к
инфр ақұрыл
ал мас
т ра
ығ ында</w>
п ор
о бъ
тұр ақ
ен гізі
келе сі</w>
назар баев
ба з
ар ы
p e
белсе нді</w>
ке зде</w>
са м
универси те
с -
республик асы</w>
қоз ғал
н ау
қар ай</w>
n e
өнер кәсі
ды ғ
спе н</w>
е тін</w>
ел дер
бір ге</w>
өтке ндей</w>
м ге</w>
ығ ына</w>
за ң</w>
1 00</w>
мі нің</w>
өкі лдері</w>
ф из
in t
жер гілікті</w>
б и</w>
ктор ы</w>
жаб дық
құрыл ыс</w>
төрағ асы</w>
температ ур
б е</w>
тас ым
қа тар
ц ес
іш кі</w>
суре т</w>
кеңе й
ұ сын
ны ның</w>
ке тейік</w>
on al</w>
ттер ін</w>
фун кция
бір қатар</w>
тол ық</w>
l y</w>
сау да</w>
ре тте
қызмет кер
p o
аста на
p ar
d uc
о н</w>
ме тал
кө лік</w>
ин тер
әзір ле
асыр ыл
Қазақста н</w>
2 -
саяс и</w>
ж у
ға ндай</w>
ушыл ардың</w>
анық тау</w>
д ол
a r</w>
ш ық
ин ститу
ұ қ
ни е
а да</w>
м алар
ж ыр
b e
тү стік</w>
денсау лық</w>
5 -
ал а</w>
са т</w>
л еріне</w>
кәсіп орынд
лігі нің</w>
тол ық
обл ыс</w>
c oun
қар ым-
с сия
v i
эконом ик
v el
қауіпсіз дік</w>
қ ынд
негіз де
ай да</w>
з ауы
гі мен</w>
қ ала
әсе р</w>
әр түрлі</w>
ды ғы</w>
қарастыр ылған</w>
ғ и</w>
м алы</w>
хим иялық</w>
w it
нәтиже сінде</w>
де лі</w>
сия қты</w>
те ор
ым ы</w>
б әсе
эк ологиялық</w>
ө ткізі
ма темат
т р
сп ор
жаң ғыр
ә сер
ол арды</w>
ат алған</w>
про цес
бақыл ау</w>
лар ының</w>
ая қ
медицин алық</w>
кезде су
энерг ия</w>
бол ған</w>
М ақ
20 0
ыс ын</w>
т алады</w>
кү ні</w>
инвести циялық</w>
- деді</w>
іс- шар
сал асында</w>
л ь</w>
ог ра
үр ді
та қыр
ым дағы</w>
кт е</w>
н ші
е уро
г аз</w>
т тар</w>
орынбас ары</w>
ау ыл
ин те
көрсе ту</w>
ал маты</w>
с м
минист р</w>
қосым ша</w>
wit h</w>
бас та
элект р</w>
құр айды</w>
мақсат ы</w>
3 ,
ат ы</w>
иннов ациялық</w>
ық п
s h
ф а
э ф
ұ с
ғылым и</w>
шағ ын</w>
бол са</w>
тер і</w>
f or
20 20</w>
жақ сар
М ұ
мы ның</w>
жағ дай</w>
ай тып</w>
а х
ке й
ди ре
бері лген</w>
тер лік</w>
қаз ақ</w>
л ығы</w>
м ь
жо бас
эксп о-
ше кте
тиі с</w>
ше тел
ре т</w>
соң ғы</w>
ктер дің</w>
ау дар
s u
технолог иялық</w>
со ның</w>
мы ң
с тыр
пре мь
т ұл
t ed</w>
f i
не ше</w>
ме хан
не ді</w>
m e
ты ның</w>
я р
ба я
коми те
ма ш
ле ндір
r i
Со нымен</w>
ық тар</w>
тасым ал
th at</w>
қа ң
бүгі нде</w>
бер ді</w>
тәр ті
с ө
өткіз у</w>
анд ық</w>
пара метр
м ау
лар ға</w>
де йінгі</w>
з ия
ақпар ат</w>
о да
ү й</w>
энерг ия
h a
қоғам дық</w>
т ке</w>
жеті лдір
ты ғы</w>
инвести ция
са қ</w>
жо басы</w>
сал алар
ұсыны л
ур аз
көр і
таби ғи</w>
гра м
с тің</w>
г аз
ке н
м аны</w>
та з
О сы</w>
a р
комп ью
қал а</w>
ү з
г ори
ат ор
ма л</w>
анд ы</w>
қауіпсіз ді
і р</w>
g r
ма шыл
t o
i t</w>
алға ш
дар ға</w>
бұ дан</w>
a л
ты с</w>
тар ының</w>
ала ны
т ері
индуст р
е в</w>
бір неше</w>
да г
а ған</w>
de vel
е ту
де пу
ті не</w>
ті л
гори т
мәлі ме
у ші</w>
мекте п
ты н
бе кі
ү дері
мы сал
үкі мет
н ақ
экспо- 2017</w>
комп о
әрі пте
та ндыру</w>
ция сы</w>
депу та
ық қа</w>
ес е</w>
1 5</w>
а э
отыр ған</w>
премь ер
ал д
жыл дам
ағ ымдағы</w>
th is</w>
ика ның</w>
сә у
ті нді
er e</w>
гі не</w>
заң на
е ураз
ou r</w>
бағ алау</w>
a i
ше ң
республ икалық</w>
өзі нің</w>
ин г
кл ас
қа нда</w>
со л</w>
4 ,
дамыту ға</w>
сері кте
д ү
b e</w>
[ 1
е тетін</w>
ел басы</w>
да н
н .
ас а</w>
coun tr
жұмыст ары</w>
у мен</w>
не н
алғаш қы</w>
о ған</w>
уақы т</w>
о та
А ң
л ли
ау и</w>
эконом ика</w>
ушыл ар</w>
м ай
н ү
м ик
ста ндар
Аң дат
әр бір</w>
технология лар</w>
нде р</w>
жа тыр</w>
премьер -
у ының</w>
жүр гізу</w>
н .</w>
деңге йі
201 3</w>
ұл ы</w>
пайд аланы
л е</w>
л ді
ал и
жақ сы</w>
тө ле
жа н</w>
ар ына</w>
ал горит
er s</w>
ыл атын</w>
байланы с</w>
өндір у</w>
се ді</w>
кө зде
бағ ал
хабарла ды</w>
ре же
ға нын</w>
ци ен
к ке</w>
уі не</w>
қолданы л
пол и
ресе й</w>
энерге т
с с
матери алдар
ынд ай</w>
ыл ып</w>
ала ң
ж ш
к ірі
огра ф
даг ог
ст ері
ф о
ен гіз
devel op
3 -
дер ін</w>
ғ ары
с тық</w>
же тек
е ле
1 5
бас п
жүйе сінің</w>
бере тін</w>
өзе кті</w>
Аңдат па</w>
- ның</w>
ең бе
белгі ле
m o
ту ынд
жау ап
v e
жыл дан</w>
есе бі
ығ ымен</w>
басш ысының</w>
a y</w>
әкі мді
ә у
салыстыр ғанда</w>
т кен</w>
е в
жо қ</w>
ны нда</w>
тур из
кең іс
др ол
p re
сте ме
к ре
Мақ алада</w>
кел е</w>
с ына</w>
ғы ш</w>
ма ның</w>
t ur
жыл у</w>
Со нд
дә реже
сы ған</w>
c o
ұ ста
ст үр
р ат
мәден и</w>
қызмет і</w>
w h
кәсі би</w>
e р
ма н</w>
қ ын</w>
ал уға</w>
ұ ш
қо сп
жас алған</w>
тұрғ ынд
заман ауи</w>
дар ын</w>
і зде
н ор
ма з
б ала
көме гімен</w>
саты п</w>
жі лі
ша ған</w>
0 0
ті лген</w>
а ция</w>
с тір
мә жілі
ре фор
про бле
қал дық
g o
сал а</w>
мы р
Ал маты</w>
өндіріс тік</w>
сау да
қалыптас тыр
бая нд
құрыл ысы</w>
и о
ай ыр
лі н</w>
тер ді</w>
іс тер</w>
пайдалан уға</w>
кон ферен
ме ң
жа с</w>
еке нді
де й</w>
у ра
о м
ықтар ы</w>
ті к-
мал ары</w>
ба й</w>
ғ ыз
та уға</w>
л ог
бірле скен</w>
өні м</w>
бай қа
қыз ығ
о п
цио нал
мо би
х алық</w>
ы ш
нү кте
д ро
хабарла ғандай</w>
қаң тар
назарбаев тың</w>
те н
тау ар
ма г
екі жақты</w>
тт ерінің</w>
бі л
4 0</w>
теңге ні</w>
сай ын</w>
ө мір
о пер
ү ші
c re
жа һ
ау қ
өз ге</w>
бұ з
орналас қан</w>
s t</w>
же л
ты нда</w>
ы мыз
наз ар</w>
жеті сті
келісі м</w>
re gi
е тті</w>
қорытынд ысы</w>
м ере
ha ve</w>
ынтымақтастық ты</w>
авто мат
ш ик
пе дагог
қа ндай</w>
мал арды</w>
қызығ ушыл
жоғар ғы</w>
маш ин
b y</w>
d ing</w>
ati onal</w>
сі мен</w>
у ш
жұмы спен</w>
жұ м
1 2</w>
түсі ндір
кәсіп тік</w>
не си
шетел дік</w>
лігі не</w>
сап асын</w>
дә стүр
әді стеме
Р е
қаржыл андыр
топ ыр
Қаз іргі</w>
тө мен</w>
бей не
орта ша</w>
обл ысының</w>
то б
i c</w>
шең бері
у -
нәтиже лері</w>
ды .</w>
эф фи
з ді</w>
ра кт
ti n
і нің</w>
ми лли
келтір ілген</w>
д әрі
t en
бизне с</w>
al l</w>
ма й</w>
шеш у</w>
әкі м
шар алар</w>
күр делі</w>
4 -
ү не
h as</w>
ec on
ау мағ
меке ме
ту ға</w>
мик ро
әді сі</w>
ше кар
з ор</w>
з ы
ко эффи
м ун
әкі мі</w>
р ө
бас тап
ке сте
ы стар
тон на</w>
ла ндыру</w>
де йді</w>
негізде лген</w>
ға й</w>
ө мір</w>
ст е</w>
сіз ді
пар ат
ле к</w>
к ол
ыс ына</w>
сі п</w>
бе с</w>
алар ға</w>
да яр
құ т
л аста
дире кторы</w>
ал дағы</w>
тарап тар</w>
көме к</w>
сай ла
тұ жыр
si d
1 8
м де</w>
с ында</w>
ғал і
қос ыл
е м
g e</w>
ай ша</w>
лер де</w>
1 1</w>
тер дің</w>
сы й
жү кте
з бе
ы сты</w>
у ін</w>
са ды</w>
Б і
i z
п ті</w>
кеңіс ті
к у
к ри
еураз иялық</w>
q u
жа м
атынд ағы</w>
са й</w>
жаһ андық</w>
ди ф
t h</w>
дин ам
математ икалық</w>
нд ар</w>
теңге ге</w>
ны с</w>
h i
ы б
ө с
де ле
қатысу шыл
кезе гінде</w>
жаң ар
сонд ықтан</w>
бірі к
ә л
қос а</w>
и р
фа ктор
өңір лік</w>
жө нде
тай ды</w>
қор шаған</w>
үкіме т</w>
д ұр
ні не</w>
болаш ақ
ар а
п л
п ав
до м
объ екті
сап алы</w>
жұмы стар</w>
м айды</w>
келе й</w>
жа т</w>
а .
ақ ш</w>
тт ары</w>
көрсе теді</w>
тар лық
мі нде</w>
бе то
p er
дам уына</w>
қо ндыр
ор ны</w>
т тың</w>
гі ш
тыл ды</w>
ота ндық</w>
i es</w>
ы мыз</w>
ком мун
я дрол
шығ ыс</w>
ері мен</w>
201 8</w>
ул ы</w>
шик і
таны стыр
ке ң</w>
кө мір
оң тай
мақ алада</w>
1 7
лік тің</w>
ө су
айт қанда</w>
m a
ке р</w>
фор мат
у ымен</w>
жүй е</w>
а мыз</w>
ым дық</w>
у ;</w>
с өз</w>
білдір ді</w>
ә де
кезе ңі
ді .</w>
фор ма
жш с</w>
s o
коэффи циен
қарым- қатынас
те ле
бір е
ә й
ктив ті</w>
жөні нде</w>
электро ндық</w>
тұжыр ым
тур и
6 ,
мүмкінді гі</w>
и д
ге о
у лі</w>
матери ал
сәу ле
с ол
а ген
қазақста н
ст в
с фер
тек сер
ны ғай
жыл дары</w>
жоспар ланған</w>
технология ларды</w>
президен т</w>
и де
жу ық</w>
са ндық</w>
орг ан
ны ғ
л ай
кө ңі
ар қ
ға ны</w>
ле кт
ат у</w>
қолданы лады</w>
ыл айша</w>
бөлі гі</w>
болаш ақ</w>
бар лығы</w>
т қа</w>
ле к
м ол
талқыл анды</w>
де м
b u
о ң</w>
ст арды</w>
бастап қы</w>
6 0</w>
ті келей</w>
мен ші
бақыл ау
толық тыр
маз мұ
ерекше лі
дү ние
мәселе лерін</w>
ж ə
s p
т a
ні п</w>
инве ст
маңыз дыл
дар ының</w>
шеңбері нде</w>
мас ын</w>
ве дом
n ational</w>
develop ment</w>
ң гі
фор ум
l d</w>
5 ,
мү д
дам уы</w>
арал ығында</w>
спор т</w>
m in
ин г</w>
бұ ұ</w>
ң ғы</w>
тала п</w>
м аларын</w>
министр лігі</w>
мұ ғалі
астыр у</w>
мл н.</w>
es s</w>
ядрол ық</w>
жə не</w>
h e
астана да</w>
хал ықтың</w>
қал асында</w>
ғыл ым</w>
ке ге</w>
бол ады
тәр би
ос ындай</w>
келі п</w>
дере ктер</w>
f f
өндірі с</w>
т -
мәлі мет
жоб аларды</w>
д әле
ай ында</w>
стратег иялық</w>
у м</w>
en ts</w>
кү н
кеңе с</w>
кей бір</w>
З ер
ия сының</w>
айту ға</w>
та сы</w>
бағдарла ма</w>
ас ты</w>
үй ле
қы тай</w>
econ om
алар ының</w>
п ло
л уі</w>
сал ын
ас сам
қалыптас тыру</w>
про грам
қа н
кер лік</w>
p u
ar y</w>
мәселе лер</w>
тар ына</w>
ассам бле
ви це
ведом ств
стер ді</w>
ик асы</w>
е сі
бөл ше
сипат та
сай лау</w>
вице -
сал у</w>
но в</w>
тар ту</w>
мәдение т</w>
ал ма
қазақста нд
п ракт
ұйымдастыр у</w>
d u
есепте у</w>
алды н</w>
құрам ы</w>
ортал ығы</w>
н ұс
құқ ықтық</w>
қабыл дау</w>
п р
л ме
обл ысы</w>
p r
ай тарлық
жетілдір у</w>
ti es</w>
ор нат
ке ні</w>
өзгері стер</w>
мәселе сі</w>
бағ а</w>
ы мын</w>
те ң</w>
жат қа
д ж
ші сі</w>
ор на
қам ту</w>
деңгей де</w>
il li
ati ons</w>
айтарлық тай</w>
л уде</w>
к ли
арқ асында</w>
тиі сті</w>
кон цен
де к
өті ні
ы мының</w>
те ті
о перат
ө теді</w>
құ ны</w>
в а</w>
st ate</w>
e н</w>
сауда -
ері нде</w>
і не</w>
жар ия
м ұр
компо нен
би ыл
анық талды</w>
өз і</w>
қал асының</w>
қол ай
ма мен</w>
асыр уға</w>
u m
қар қ
ye ar</w>
олог ия</w>
же ткі
Тү йі
ра ди
illi on</w>
шеші м</w>
а д
мекте п</w>
ш ам
тер ін</w>
Зер тте
st an
құт тық
жас тар</w>
дай ын</w>
ар да
түсі ні
спе кт
са пар
қара ғанда</w>
с ала
ру хан
же ткізі
мөлшер і</w>
а ң
элект р
дұр ыс</w>
мы с</w>
үз дік</w>
гра ф
сс ия</w>
үй ре
жеткіз у</w>
кө тер
' s</w>
ы р</w>
энергет ика</w>
себе бі</w>
фун к
тұ тын
ндер і</w>
ou t</w>
хал қ
нд ыл
к си
көрсе тті</w>
жас ау
бас ым</w>
жин ақ
сө й
құр а
қам ти
пар т
1 2
ықтар ын</w>
тте н</w>
се ктор
ө тетін</w>
ti ons</w>
эксп ор
бе йі
инвест ор
ор ай</w>
деңгей і</w>
w as</w>
ле н
л я
биыл ғы</w>
e t</w>
э т
см и</w>
ақпарат ты</w>
ке дер
жү зі
ди пло
тұр ады</w>
ре сми</w>
ым дас
e p
тұр ғы
ай қынд
мас ының</w>
мемлеке ттің</w>
кеше нді</w>
басп ас
за т</w>
c or
жұмыстар ын</w>
әлеумет тік-
ел дер</w>
дайынд ау</w>
ты ң
ті лі
индустр ия
бұр ын</w>
бір ақ</w>
ықп ал</w>
өнеркәсі п</w>
стер і</w>
м дық</w>
ал ғ
модель де
деле г
с алық</w>
коми ссия
инте гра
қабылда н
қыс қар
нұр лы</w>
компан ия</w>
кү ре
бері лді</w>
бе н</w>
пайыз ға</w>
к в
7 ,
көңі л</w>
1 3
мдер і</w>
есебі нен</w>
е гер</w>
ғылым и-
ым дыл
Ре спубл
үле сі</w>
мі здің</w>
кү й
1 4</w>
т ро
ұз ынд
сұр ақ
облыс тық</w>
мәселе лерді</w>
і с</w>
т .
ар алық</w>
an t</w>
бү гін</w>
инвести ция</w>
ги дро
шығар машыл
ация сы</w>
і нен</w>
кү ше
7 0</w>
мдер ін</w>
қаз ір</w>
коммун ик
же де
ай мағ
өні м
жыл дық</w>
оң түстік</w>
мі не</w>
им ар
ал уы</w>
ци фр
мең гер
И н
t u
басшыл ары</w>
талқыл ады</w>
мәсе ле</w>
тарап ынан</w>
ау ыс
іс- әреке
тоқ са
о сыған</w>
кеңе сінің</w>
por t
ел бас
Сонд ықтан</w>
бәсе кеге</w>
ш о
г у
тау ар</w>
тү зе
at ed</w>
19 9
келе тін</w>
мұ ндай</w>
ор анд
бей бі
ол и
7 -
жас ыл</w>
жо ба
ауқ ымды</w>
қорға ныс</w>
ттер ге</w>
е т</w>
аш ық</w>
j ec
құр ал
оқ и
ти гіз
к ап
int er
педагог икалық</w>
мем оранд
жағ ынан</w>
дере ктерді</w>
Н е
wor k</w>
tin g</w>
е т
қабіле тті
с ұй
ре тте</w>
с тың</w>
б ыр
ар мен</w>
А қ
к ан
ым дар</w>
тү с
бер і</w>
тиімді лігін</w>
елдер дің</w>
6 -
у ч
о з
жү ре
і п</w>
тури стік</w>
қазақста ндағы</w>
са ға
жұмы сын</w>
ne w</w>
қау ымдас
бү кі
әдістер і</w>
м ағы</w>
деңге йін</w>
ны қ
мен т</w>
ықтар ды</w>
ты нын</w>
м ын
шығар у</w>
ты на</w>
ты лық</w>
физ икалық</w>
ар да</w>
ста ғы</w>
О л</w>
ыс қа</w>
кте н</w>
қал п
тере ң
в ал
р әсі
жа п
ескер е</w>
дәстүр лі</w>
аз ай
g h
ғы ш
Ж о
би о
шығ ынд
1 6</w>
ғ имар
концен тра
ал ынды</w>
i н</w>
бе ко
орынд ау</w>
со т</w>
жи і
ел дері
th e
ың ғай</w>
не тін</w>
8 ,
a й
ті збе
аз ия</w>
сұр аны
мысал ы</w>
қа шық
ов а</w>
мин ер
жақ ын</w>
ла у
жоб аны</w>
энерге тикалық</w>
электро нды</w>
1 4
ті зі
дамыту дың</w>
мұ най
қой ылған</w>
арттыр уға</w>
countr y</w>
0 0-
ша мамен</w>
мет р</w>
1 8</w>
қаб ат
ыст а</w>
ш ысы</w>
жол ы</w>
бері леді</w>
си г
тар алық</w>
ресе й
жобас ын</w>
құ ндыл
қор ы</w>
кер і</w>
ар лық</w>
pe op
шар а</w>
түр і</w>
ні нің</w>
зе й
com m
ам ер
мәлімет тер</w>
қалып та
тең і
сі ндегі</w>
х е
ұл т</w>
ықтар дың</w>
сөз дер</w>
орта қ</w>
аг ро
a d</w>
қызме тінің</w>
технолог ия</w>
үші нші</w>
ти ст
қ им
ере же
es s
8 0</w>
тәжіри бе</w>
а ға
те мір</w>
сы мен</w>
ар ту
лар да</w>
бір ыңғай</w>
би ыл</w>
por t</w>
әле м</w>
те н</w>
м -
қа ғ
ды :</w>
бағдарла малық</w>
ш и
ктер ге</w>
кең ес
бе к
хал қы</w>
тарих и</w>
ан о
О с
қол жеті
мың нан</w>
ция ның</w>
мдер ді</w>
баспас өз</w>
туриз м</w>
м ды</w>
белсе нді
мде у</w>
pro duc
нау р
ба қ</w>
тыл ығы</w>
күше й
жер де</w>
өнер кәсіптік</w>
кү йе
ro m</w>
жыл дығ
дер ді</w>
құрыл ғыл
мо д
түрі нде</w>
тай тын</w>
м a
f rom</w>
ф аз
айнал ыс
қолай лы</w>
суре т
d s</w>
d ay</w>
с қа</w>
ль ді</w>
жыл ына</w>
1 3</w>
тұр атын</w>
са бақ
қаты сады</w>
у лар</w>
т м
қызме тін</w>
ір у</w>
тық -
таби ға
кең інен</w>
ұсыныл ған</w>
тық шыл
фик ация
олог ия
ны ндағы</w>
кт ерінің</w>
қолданы латын</w>
қаты с
құрыл ған</w>
бағдарламас ын</w>
қатысу шылар</w>
ферен ци
министр лігінің</w>
қарастыр ылады</w>
қалп ына</w>
с үр
келі с
дамы ған</w>
әзір леу</w>
тал да
стер дің</w>
ау дың</w>
ынтымақтастық тың</w>
кел ді</w>
жоб алар</w>
жас ауға</w>
ңі зге</w>
жұмы сы</w>
str uc
ар ында</w>
қыл мы
шаруашыл ық</w>
ла н</w>
ресур стар
ол ь
компью терлік</w>
К е
қыш қыл
у к
нығай ту</w>
ме й
ау мақ
өні мді
қара пай
кон ститу
peop le</w>
бал алар</w>
соң ында</w>
мде гі</w>
механ из
ст ру
обл ысында</w>
мә ні</w>
жә р
бағы т
ак а
ке зі
шар тт
е аэ
ретте у</w>
жоспар ла
бірік тір
атқар ушы</w>
та ну</w>
1 7</w>
та тын</w>
жау ап</w>
кт ор</w>
и тал
білі кті
ай мақ</w>
и с
и тар
и да
тір ке
тақыр ып
жар ты
2 5
әле мнің</w>
т ерінің</w>
сі нше</w>
с ым
лері мен</w>
о тан</w>
0, 5
өкі лд
ур г
қыр күйе
ке пі
ке де
ou s
p res
к ері
қосым ш
м аға</w>
жүргізі лді</w>
б .
ул я
тө мен
ті ре
мо ни
лік ке</w>
қа на</w>
қа на
зертте улер</w>
тал ып</w>
for m
тү сті</w>
құрам ында</w>
фе дер
есе п</w>
бірле сіп</w>
қазақста н-
ланы п</w>
жан -
ақ тө
лер мен</w>
аты нын</w>
со ғ
ода қ</w>
0, 4
кәсіп орын</w>
зертте у
Қ ор
тығ ын</w>
жауап кер
ұ ғ
су бъ
ор да</w>
ма ған</w>
се тін</w>
х ол
к о</w>
инвестиция лар</w>
ин а</w>
жоспар лан
ар тықшыл
ке з</w>
жүйе нің</w>
2 1</w>
таң да
от бас
c e
эконом иканың</w>
ы -
стан ция
жыл дарға</w>
ста тист
е стері
е туге</w>
ar s</w>
қазақстан ға</w>
уч ас
т хан
бол сақ</w>
ақ тың</w>
r a
en ce</w>
қа тты</w>
ода қ
же м
тран с
тақыр ыб
9 ,
те мір
pre sid
бас тамас
қа дам</w>
пер спе
азамат тық</w>
жақсар ту</w>
o c
сү йе
жұмыс қа</w>
са тын</w>
ті п</w>
та қ
мінде тті</w>
өндір уші
нші ден</w>
к м</w>
ме не
л у</w>
диф ференци
суре тте</w>
жоғар ыл
сп орт
йт кені</w>
ат ив
20 50</w>
ті нін</w>
жүзі лік</w>
х и
р ұқ
ері нен</w>
сал асы</w>
жол да
бө лек</w>
та с</w>
бой ы</w>
ұ ж
ция лау</w>
та ма</w>
ық- тү
сауда- экономикалық</w>
ак ті
лар ына</w>
д еріне</w>
ал ғанда</w>
құ зы
ір есе</w>
пр ин
маңыз ы</w>
и ль
ба тыс</w>
1 )</w>
қу ат
ма ма
ал у
өнімдер ін</w>
не р</w>
бұ й
құр айтын</w>
президен тінің</w>
у ден</w>
s er
қолдан уға</w>
жа тады</w>
b er</w>
[ 2
қал алық</w>
ыс тың</w>
көрсе ту
уі р</w>
еуро п
қал асы</w>
фо то
екенді гін</w>
оқ ушылардың</w>
оқ ушыл
мұ нда</w>
аз ық-тү
1 6
өті п</w>
құрам ына</w>
дағ дар
бүкі л</w>
20 0</w>
қарқ ынды</w>
та ғай
бюдже т</w>
ау ы</w>
t er
ә б
кәсіпкер лік</w>
жоба ның</w>
ж ыны
еті п</w>
е нді</w>
д a
елімі зде</w>
нд ардың</w>
ла ндыр
қал ған</w>
ма т</w>
жем қор
ди а
op er
қатысу ымен</w>
ын -
жөнде у</w>
ү мі
құқ ық</w>
тер и
ака дем
ө ту
кер не
бағдарламас ының</w>
тағай ынд
дер дің</w>
тү йі
сая сат</w>
w e
m an
г ре
ограф иялық</w>
жағдай ында</w>
мә с
мо сфер
ақ ш
со ң</w>
се к</w>
пі кір
компания сы</w>
тү зі
на тын</w>
қ алады</w>
жалғ астыр
бар ынша</w>
алд ында</w>
құзы ре
жаңғыр ту</w>
ар ымен</w>
pro jec
м алау</w>
ә ңгі
si on</w>
regi on</w>
қолда на</w>
бол у</w>
s e
п ала
лог ист
min i
қашық тық
бизне с-
201 2</w>
ме то
С у
перспе ктив
кор пор
pu b
ой ынд
д у
Е гер</w>
шығармашыл ық</w>
хол дин
кі тап
е к</w>
өнімдер і</w>
се зі
б р
ти в
on e</w>
en er
ға нды</w>
a y
ш ын</w>
мал ардың</w>
жан- жақты</w>
и гер
бе н
кезең де</w>
ері тінді
б ин
спект р
елбас ының</w>
г о
қоға м</w>
әлеуметтік- экономикалық</w>
ші лігі</w>
жи ынты
presid ent</w>
нәтиже сі</w>
түр лендір
сіз дік</w>
ұз ақ</w>
құ быр
істе йді</w>
лық -
к р
дүние жүзілік</w>
i ң</w>
ф ос
ме нің</w>
ге нде</w>
с ке</w>
ос ылайша</w>
м п
жосп ары</w>
гіз гі</w>
бөлі м
бұр ыш
Ж ұ
қыз ыл
тар да</w>
қа дам
жағдай ы</w>
ғ асыр
отыр мыз</w>
жыл да</w>
жоспарлан уда</w>
К ө
ec i
х ро
тәуел ді
мони тор
кол ле
жө н</w>
ап ат
парламен т</w>
аймақ тық</w>
се мин
мерзі мді</w>
шеш уге</w>
түр лері</w>
л i
естері ңізге</w>
би і
so ci
ре ж
моде лі</w>
мдер дің</w>
итар лық</w>
асыр ылады</w>
ады .</w>
прин ци
көрі ні
es t</w>
c l
қ ым
оқыту дың</w>
2 4</w>
теңде улер</w>
ста у</w>
динам икалық</w>
е ш
аумағ ында</w>
) ;</w>
өлше у</w>
p an
алмас у</w>
г а</w>
қос у</w>
ста нд
з -
арда гер
ti m
мо н
econom ic</w>
2 2</w>
көле мін</w>
tur e</w>
қатар ына</w>
кеңей ту</w>
ic h</w>
fi r
3 ]</w>
се н
қорытынд ыл
қаты на
төмен гі</w>
мас ына</w>
б ат
қарапай ым</w>
су ль
б ри
құрылым ы</w>
қ .
М ыс
o o
құр уға</w>
кө тері
еуроп алық</w>
в ен
тұ р</w>
ар и
ti c
ш ө
жас ақ
ге й</w>
un i
1 9</w>
ал айда</w>
А л</w>
м үш
көр ме</w>
зер тхан
М е
түр к
си д
ел ді</w>
д ос
ау ды</w>
0 00</w>
ныса ндар
кәсіпкер лер</w>
ик ал
Не гізгі</w>
жел тоқса
б а</w>
ғ a
лар мен</w>
ы ш</w>
тығ ының</w>
тығ ыз</w>
Б ір
есе ге</w>
модельде у</w>
өсі мді
ты лады</w>
механ икалық</w>
метр иялық</w>
к сіз</w>
соң ына</w>
коми ссия</w>
кедер гі
өзі ндік</w>
со масы</w>
келісі мге</w>
құ был
сыз да
мүш е</w>
бейбі т
анық талған</w>
ті лді</w>
с ұ
қа ш
201 9</w>
қызығушыл ық</w>
қа ба
ге нер
қа п
зей не
жоспар ланып</w>
бол ғанд
функ ционал
субъ екті
сап асы</w>
d ed</w>
ұз ақ
ст ерінің</w>
л ге
кеде ндік</w>
й лі</w>
бағы ты</w>
у с
конферен ция
деңгей дегі</w>
a m</w>
им п
ал ға</w>
th er</w>
іс керлік</w>
су б
ка др
ин же
анық талады</w>
азық-тү лік</w>
К іл
іс- қим
алды мен</w>
m or
b a
тасымал дау</w>
ор да
иде я
2 3</w>
әді с</w>
ті мен</w>
з гі
ten ge</w>
- дан</w>
ыл ым
шы ға
бан к</w>
ou r
реж им
ор тас
ле нген</w>
ұл ғай
қ х
тәуел сізді
дайынд ық</w>
Түйі нді</w>
ы ;</w>
тон н
ндер дің</w>
жеңі лде
бөлі нген</w>
кезі ндегі</w>
жетек ші</w>
жас алды</w>
шар шы</w>
стратег ия
сиг нал
кри тери
з о
ел дерінің</w>
әс іресе</w>
тәсі л
тұрақ тыл
ко манд
жұмыст а</w>
өндіріс і</w>
қаржыл ық</w>
қ ұл
операт ор
мас ында</w>
лері нде</w>
басқар ма</w>
авто моби
құ жат</w>
жа й</w>
аг р
s o</w>
қо нақ
у дағы</w>
көме кте
бәсе келе
v ic
уі нің</w>
пар та
ндір у</w>
мы л</w>
жыл ж
ст а</w>
О р
әсер і</w>
ға т
жол дау
е гі
д ір
Т Е
к тік</w>
ес ке</w>
ғары ш</w>
е ті</w>
ө йткені</w>
мыз дың</w>
Зертте у</w>
s ec
e t
v er</w>
қи мыл</w>
таң дау</w>
сү т</w>
н ге</w>
ласта н
ақтө бе</w>
ыны п</w>
тығ ыз
b us
мұ н
заңна малық</w>
қатына с</w>
тар мен</w>
ке м
u s</w>
әдістеме лік</w>
қы тай
с .
жол ау
в .</w>
сан алады</w>
бұ л
ic al</w>
м уль
гер лік</w>
қой ылды</w>
лі м</w>
ған нан</w>
ф ран
ла нд
комите тінің</w>
де парта
бизне стің</w>
бағы т</w>
тт еріне</w>
то р</w>
тасымал да
ке т
5 00</w>
тү сті
жү к</w>
әсер ін</w>
тексер у</w>
стандар тт
лі ктер</w>
сөй ле
кон стру
к e
ар тық</w>
ag e</w>
ө ту</w>
ыл уы</w>
ст р
countr ies</w>
неси е
ла с</w>
ve st
t ec
се п
жеткіз ді</w>
бөл у</w>
s y
тү й
ко дек
m ar
ac cor
ст ары</w>
ер кін</w>
қаңтар -
еаэ о</w>
қара мас
университе ті</w>
мұ ндағы</w>
Т е
wh ich</w>
4 ]</w>
мүше лері</w>
мо но
заң ды</w>
тандыр ылған</w>
сап ары</w>
ми н</w>
аш у</w>
ықп ал
сап а</w>
нер лік</w>
im port
мә ті
ан ған</w>
an ce</w>
ө сті</w>
тұжырым да
тұ з
тынд ағы</w>
таб ысты</w>
т e
ст ардың</w>
метал л
меморанд ум
әреке тте
қ a
л ю
ф ес
ри ц
з ия</w>
ат мосфер
a re
іс і</w>
у дан</w>
п ін</w>
th ere</w>
g y</w>
8 -
ушыл ық</w>
с ко
қызмет ші
дифференци алдық</w>
ті гін</w>
сені м</w>
ай ны
қала й</w>
ор нын</w>
к а</w>
зде гі</w>
пол им
ол арға</w>
кар тасы</w>
й ро
істе у</w>
ірі кте
уш ының</w>
жұмыс ына</w>
кө лік
өні мнің</w>
ұзынд ығы</w>
саяс ат
ик асының</w>
ах у
e v
ұр п
фор ум</w>
тәрті бі
премьер- министрі</w>
лық қа</w>
л ығын</w>
du str
ц ик
ре н
үйле стір
эт но
орынд ары</w>
2 8</w>
ы :</w>
цифр лық</w>
фи ль
көрсеткі ш</w>
ді :</w>
g n
сурет )</w>
менші к</w>
маг ни
в из
in dustr
адам ның</w>
хим ия</w>
сө зінде</w>
м алды</w>
жеде л</w>
е р</w>
bus in
iz ation</w>
эксп ери
лд ірі
ла й</w>
дипло мат
байланы с
ав и
қи ынд
жүргізі лген</w>
ti ve</w>
o л
практ икалық</w>
аген тті
құр ме
эксп орт
ық ти
қара ғанды</w>
сал ыс
министр інің</w>
кү кір
ын ғы</w>
технология сы</w>
салыстыр малы</w>
маманд андыр
л ым</w>
жүй ел
сені мді
в ол
істе йтін</w>
ы ту</w>
ф ра
тұл ғ
стер ін</w>
пайдаланы л
ди ал
б ін</w>
tr an
1 0-
мүмкінді ктері</w>
де форма
ау ди
an n
құр астыр
ком мер
бе лар
ала мыз</w>
А Л
ө те
қаты су</w>
ш ла
қой ды</w>
тм д</w>
мол а</w>
бұ ған</w>
[1 ]</w>
әлеу етін</w>
шыл ардың</w>
бірле сті
in vest
d er</w>
техн ика</w>
ұй ым</w>
қаржыландыр у</w>
төрағ асының</w>
ре ак
органд ардың</w>
гі нен</w>
іс- қимыл</w>
сені мді</w>
ң ғ
б ыл</w>
аста н
қа р</w>
ц ер
ық та</w>
бол а</w>
ас ынан</w>
d er
қарамас тан</w>
т п
м ул
ин формат
ау ыр
пав ло
опер ация
мә р
интер не
жүргізі луде</w>
pub li
мат риц
жұмы сының</w>
бір дей</w>
a stan
0, 6
құрылым дық</w>
кт еріне</w>
д i</w>
im pl
3 5</w>
г ран
no t</w>
п ан
гі ш</w>
w ere</w>
өз дерінің</w>
ы стар</w>
ы -</w>
компания лар</w>
а ктивті</w>
in cre
ұр лым</w>
қана ғат
та л</w>
ау а</w>
Мұ ндай</w>
ө нер</w>
шыл ық</w>
тәуел сіз</w>
ау дан</w>
маңыздыл ығын</w>
ди з
2 9</w>
төр т</w>
ба ға
f ac
тапсыр ды</w>
и н</w>
дам уының</w>
бер ме
анық тауға</w>
алды ңғы</w>
негіз і</w>
алғ ыс</w>
wor ld</w>
incre as
н ано
к ас
ик аны</w>
жүргізі леді</w>
жыл дар
келтір у</w>
ағ ын
әу е
те гі</w>
су мен</w>
ке йінгі</w>
зат тар</w>
ai d</w>
әкім шілік</w>
ұ н
ыл ық</w>
ыл у</w>
ат тар</w>
кар тас
ия дағы</w>
mor e</w>
н e</w>
ма кси
шар т</w>
ортал ығының</w>
мамандандыр ылған</w>
su p
2 6</w>
ь я
теор иялық</w>
нд ары</w>
жағдай лар</w>
ас ады</w>
ар д</w>
ver n
fir st</w>
қасие ттері</w>
н ас
индуст ри
же мі
ай қын</w>
or s</w>
be en</w>
жәр де
а ктив
нақ ты
бала бақ
re c
құрыл ды</w>
м .
ди с
алма ты
мене дж
s e</w>
a in
таб ыс</w>
ин тел
е те
ап парат
айыр машыл
el ec
ын тала
ра н</w>
ал тын</w>
inter national</w>
go vern
- да</w>
үле с</w>
жас ап</w>
білі мді</w>
ау дарды</w>
тұ ң
k s</w>
қабіле тті</w>
по зи
бөлі нді</w>
ав тор
өні мді</w>
кө бі
өткіз гіш
сі нен</w>
п си
еуро па</w>
энерг иясы</w>
шекте улі</w>
тиімді лігі</w>
неси е</w>
г i
рұқ сат</w>
мау сым
есеп ке</w>
ауда ны</w>
А Р
st e
publi c</w>
өлше мді</w>
тұң ғыш</w>
ты латын</w>
2 )</w>
әу е</w>
рухан и</w>
а да
9 0</w>
фор мул
анық та
әле мдегі</w>
оқ у-
тоқ талды</w>
мүше сі</w>
m on
тұр ған</w>
таз а</w>
пл ат
отыр ысында</w>
бағытт ары</w>
бал а</w>
ауы р</w>
f in
b illion</w>
өнім дерінің</w>
қыр ғыз
қондыр ғыл
ф у
en d
мемлеке ттердің</w>
кі р</w>
коммуник ациялық</w>
белгіле нген</w>
ас п
ай ы</w>
моде ль</w>
ye v</w>
энергия сын</w>
мере ке
гер ман
б a
те кті</w>
орнал астыр
де не
ақ мола</w>
co oper
учас ке
көрсеткі ші</w>
бизне сті</w>
ығ ындағы</w>
ти п
н ик
келіс сөздер</w>
astan a</w>
қаб ыр
н нің</w>
ұйым дар</w>
қал алар
с хе
ре к</w>
мемлеке ттер</w>
жүйе сіне</w>
жай лы</w>
бас ым
ым кен
мі зді</w>
жоб алау</w>
ou ld</w>
қалыпта су
ш ал
не йро
ия да</w>
ке ту</w>
ке м</w>
ди аг
б .</w>
to day</w>
en g
қызмет тер</w>
қабылдан ған</w>
т ри
орын ға</w>
ан али
әдістер ін</w>
қо ю</w>
орта ға</w>
нд арды</w>
мат ив
ye ars</w>
ұ я
қара жат
ткі ш
сі л
маг ист
жүйе лі</w>
жау ын
департа мен
белар ус
ал п
ab out</w>
с инте
нығ айтуға</w>
көрме сіне</w>
анық тау
тт ардың</w>
мүмкінді гін</w>
d is
облыс тың</w>
мәлі м
ле й
жо ю</w>
жеткі лікті</w>
ро бо
но ст
ел дері</w>
дамы п</w>
3 0
ү сте
2 7</w>
о г</w>
мама ндар
жоғар ы
ас тық</w>
адам дар</w>
it s</w>
ұйым дардың</w>
бер удің</w>
алға ш</w>
pro gr
тұрғы дан</w>
температ ура
нде к
кеше ні</w>
ыс ынан</w>
мәжілі с</w>
көле мінде</w>
бағытт а</w>
a v
- ы</w>
қар аш
ис ла
жүйе лер</w>
б ор
орнат у</w>
негізі нен</w>
наур ыз
кте гі</w>
жү зінде</w>
жол дары</w>
болашақ та</w>
бол жа
accor ding</w>
уақы т
гу ман
ақ ыл
ф ар
пайд алы</w>
мүмкінді ктерін</w>
жат тығ
е .
бай қалады</w>
ау р
адам ды</w>
халқ ының</w>
тран зи
ре йт
маманд ар</w>
келе ше
мәселе сін</w>
ие в</w>
жүргізі ліп</w>
заман ғы</w>
яс ының</w>
азамат тардың</w>
ме ле
жі кте
дә л</w>
ұ р</w>
үкімет і</w>
ын ған</w>
ту дыр
сыны п
ықтар ының</w>
с ин
кө ше
бер уге</w>
ұқ са
қол ға</w>
тү седі</w>
сер ти
оңтай лы</w>
бағдарла малар</w>
cl u
құзыре тті
ту дың</w>
сол түстік</w>
полим ер
мақ сат</w>
лі ктері</w>
бас тады</w>
i r
3 00</w>
қара жат</w>
сая саты
сал асының</w>
и л
тау -
станд арт
си в
материал дар</w>
тұр мы
нор матив
министр дің</w>
бі зге</w>
ам а</w>
пі кір</w>
жыл у
жалп ы
сті кті</w>
ауыл дық</w>
al so</w>
үз ді
істе п</w>
шеші мі</w>
тәжірибе лік</w>
тамас ы</w>
ші лде
сыз ықты</w>
ел шісі</w>
ар тты</w>
айнал ымы</w>
ңі з</w>
ың ғай
тер мин
суб сид
студен ттердің</w>
про кур
d e</w>
органд ар</w>
жас айды</w>
b o
4 5</w>
компо зи
ж a
бір -
i p
пайдалан а</w>
мінде ті</w>
мо в</w>
болады :</w>
қа те
жатқа нын</w>
дәле лде
ай л
ту ды</w>
табыл атын</w>
бер уді</w>
Э лект
ver y</w>
ұш ыр
ук ра
тәуел ді</w>
де ме
таз ар
ты ны
н ұр</w>
лар ында</w>
зат тардың</w>
ab le</w>
2 3
жыл дар</w>
дағ дыл
өз бек
қызметкер лері</w>
тоб ы</w>
кір еді</w>
жұмы сты</w>
гі з</w>
5 ]</w>
қабылда нды</w>
ндер ді</w>
мақ ұл
жеңі л</w>
ви р
б ақы
әріпте стік</w>
қар а</w>
қала ның</w>
температур а</w>
си м
орган икалық</w>
металл ург
метал л</w>
ж е</w>
бөлім ше
l a
ор из
шар алары</w>
те ат
пси х
беко в</w>
ация сының</w>
қы ш</w>
то п</w>
т ке
сала дағы</w>
и ндек
ат о
ұсыны лады</w>
бер ген</w>
ашыл ды</w>
са ң
мәлім деді</w>
к пен</w>
ы )</w>
у дегі</w>
орынд арын</w>
ні нде</w>
лі нің</w>
кезеңі нде</w>
t e
ff ic
ұ м
шикі зат</w>
машин а</w>
ау ру
қауіпсізді кті</w>
қаз ақ
шар аға</w>
тер ге</w>
салын ған</w>
са нын</w>
кө бей
ком му
е з
а .</w>
құ й
ор айда</w>
малар ының</w>
м eн</w>
иннов ация
ы ,</w>
тө зі
те кт
т. б.</w>
кезе кте</w>
ала п</w>
орынд арының</w>
к анд
ә лі
со з
import ant</w>
cooper ation</w>
at es</w>
әл -
ұқса с</w>
милли ард</w>
бері п</w>
ағ ыл
ай тылған</w>
қос ылған</w>
уші лер</w>
ні ң
жоспар ын</w>
ауда нында</w>
5 0
ә лі</w>
ұс ынды</w>
ып ,</w>
лігі мен</w>
жылдам дығы</w>
ан а</w>
а тыр
w i
u m</w>
re s</w>
a u
қолданы стағы</w>
та ба
pro vi
қар улы</w>
сал асын</w>
принци п
павло дар</w>
орта ны</w>
м мен</w>
болғанд ықтан</w>
ат а</w>
ре жи
л дік</w>
Қор ы
тол тыр
кре ди
кор е
бас а</w>
А Қ
қ о</w>
с ынды</w>
да қыл
i р
тәжірибе сі</w>
ол им
мәселе ні</w>
құралдар ын</w>
ықтар ға</w>
ше т</w>
п ал
оп тикалық</w>
компания сының</w>
тық тың</w>
те сті
кәсіпорынд ар</w>
жаң а
вир ту
бейі мде
ауы т
ай р
e duc
же л</w>
М о
қатысу ға</w>
іс-қим ыл
плат фор
м e
лі ктерін</w>
лендір у</w>
busin ess</w>
[2 ]</w>
ғы стау</w>
тө те
ol o
л у
л де</w>
зауы т</w>
жұмыст арды</w>
in g
ық ша</w>
тек сері
тар ында</w>
таны мал</w>
ар тып</w>
тер р
ес кері
ad e</w>
ция сының</w>
тәуел сіздік</w>
ті ндегі</w>
топыр ақ</w>
сал тан
пав иль
дә уір</w>
дығ ын</w>
өнеркәсі бі</w>
қо р</w>
ор дин
проце сі</w>
орта ның</w>
на т</w>
кү ші
бейбіт шілік</w>
қарастыр ылды</w>
қа ға
іл гері
сер пі
нде н
мді лік</w>
ауда ндар
қамти ды</w>
жоспарла п</w>
біре гей</w>
o b
ғары ш
хал ыққа</w>
орынд ы</w>
д өң
tran s
s ed</w>
қоғам ның</w>
ы нын</w>
ты ны</w>
м ы</w>
кү ш</w>
ин тег
дыр у</w>
p ol
ре г
даяр лау</w>
ау да</w>
О қ
ati ve</w>
7 5</w>
ізде у</w>
мү ге
мінде ттерді</w>
милли он</w>
as t</w>
ыс тық</w>
ндер ін</w>
дос тық</w>
th ous
f u
енгізі лген</w>
д e
impl em
тере ң</w>
те й
сә тті</w>
спор ттық</w>
бері летін</w>
қызыл орда</w>
гуман итарлық</w>
Ақ парат
өр ке
көрсеткіш тері</w>
кті гі</w>
заң дыл
бөлі п</w>
si gn
су дың</w>
себе п
пайыз ы</w>
диаг ност
б -
т пе
се й
обл ыстар
жүйе сінде</w>
шы ға</w>
түр лерін</w>
теңі з</w>
се кі
п ортал
би ологиялық</w>
статист икалық</w>
бол ат</w>
ағ ын</w>
а -</w>
ур а</w>
то қа
ны сан
лде р</w>
з- келген</w>
par t
in v
қа т
университе тінің</w>
л e
ия ға</w>
өр не
көрсе туге</w>
жам был</w>
б алы</w>
аяқ тал
мәр те
О ның</w>
тір келген</w>
тыл ып</w>
таны сты</w>
кр ист
жағдай ды</w>
ат ом
ал уда</w>
О сыған</w>
А р
g re
өсу і</w>
ғал ым
э к</w>
жүйе ні</w>
бір лік</w>
азай ту</w>
ti ci
ны нан</w>
де не</w>
беларус ь</w>
үле сін</w>
секі лді</w>
s uc
e ment</w>
ті леді</w>
талқыл ау</w>
h n
әле мде</w>
қажетті лігі</w>
g an
шар аларды</w>
ш таб
ш та
от басы</w>
д әр
thous and</w>
s aid</w>
ө ткі
қор ғ
экспери мен
пат ри
м м</w>
ды ң
бі зде</w>
бол атынд
he ad</w>
ше бер
саяс аты</w>
b r
ш ықты</w>
ция ла
жа нд
дық -
mini str
. k
қолда й
көрсе тетін</w>
бөлі н
хат шысы</w>
тыл ы</w>
тар ат
ст ре
ай н
th an</w>
al ly</w>
құралдар ы</w>
қой ған</w>
теңге ден</w>
та ев</w>
сақ тау
п ла
ок си
мүд де
бюдже ттік</w>
қаб атты</w>
к ро
тер мо
аза х
адам ға</w>
ұ к</w>
іс-шар алар</w>
ды б
ар е
өң ірі
ш ол
ко ордин
жар ия</w>
е дәуір</w>
бекі тілген</w>
lo c
өкі ле
м ор
конферен ция</w>
жұмыс тың</w>
ды ,</w>
бөлі неді</w>
Бі лім</w>
b i
құрыл ысын</w>
теңде у
сеп тігін</w>
лер ден</w>
көрсеті п</w>
кли мат
жа нындағы</w>
анық тал
k e
ұсыны стар</w>
тұ т
сал асына</w>
әді стер</w>
су ға</w>
ерекшелі ктері</w>
К ом
ser vic
өң ір</w>
се нат
пл ас
ныса н</w>
ас ып</w>
Ал ынған</w>
or y</w>
1 50</w>
ция сын</w>
х ан</w>
то тық
те з</w>
тапсыр малар</w>
ов .</w>
бюдже ттен</w>
6 ]</w>
ұсыныл ды</w>
ұста ны
су ды</w>
мас с
лек ул
Мыс алы</w>
h o
рат и
органд арының</w>
көз қар
де ге
бол жам
а дағы</w>
фос ф
тү скен</w>
кі ші</w>
п ай</w>
дар мен</w>
бол аты
- ды</w>
ү сті
Қаз ақ</w>
халқ ына</w>
мектеп ке</w>
кесте де</w>
біл у</w>
a ды</w>
a si
ым ның</w>
ой ла
ге ндік</w>
ассамбле я
Э к
Ж алп
әкім ші
сап ар</w>
пай ыз</w>
мүге де
ист ер
жұмыстар ының</w>
жыл мен</w>
i al</w>
ық пен</w>
сақ тал
же тті</w>
автомоби ль</w>
еле улі</w>
ba yev</w>
қалыптас қан</w>
ой ын</w>
жи і</w>
а -
Ос ылайша</w>
re d</w>
ымыз дың</w>
моби льді</w>
ме й</w>
жағдай ын</w>
ас пе
ыст ары</w>
таб у</w>
саға т</w>
мағ ын
м ірі
логист икалық</w>
зия нды</w>
ақ ы</w>
я ды</w>
теңге нің</w>
ста най</w>
жоспар лау</w>
бай қал
шеші мін</w>
сі ң
с ъ
компания лардың</w>
жә не
аяс ындағы</w>
implem ent
сы бай
с алада</w>
обл ыста</w>
коэффициен ті</w>
дөң ге
г i</w>
б ы</w>
ар дан</w>
Жұ мы
par tici
d o
0- ден</w>
ғимар ат
мен і</w>
бол уына</w>
s ti
өткізі лді</w>
өз г
тол ығымен</w>
кеңей тілген</w>
г үл
Е Р
con struc
ac ti
тынд ы</w>
ки і
ия ны</w>
им пор
е кті</w>
аз о
адам дардың</w>
Су рет</w>
қызме тті</w>
қатысу шы</w>
ілгері ле
ту лер</w>
сын ақ
серікте стік</w>
медицин а</w>
ика да</w>
ас ымен</w>
[ 3]</w>
ш ын
л айды</w>
жас аған</w>
д a</w>
ассамбле ясының</w>
сыбай лас</w>
йі н
ика ция</w>
жүйе лері</w>
бол мақ</w>
а дай</w>
i н
en ti
en c
үне мде
қи ын</w>
сарап шылар</w>
i g
ғ ала
т пен</w>
мә н</w>
кеңе сі</w>
интег р
жай т</w>
бағдарла маның</w>
байланы стыр
com pan
a f
қасие ттерін</w>
тт ері
мы р</w>
ке з-келген</w>
tec hn
ү йі
мі с</w>
лект у
жемқор лыққа</w>
дер бес</w>
д ты</w>
студен ттер</w>
салалар ында</w>
р аста
пте р</w>
орын ның</w>
же лі</w>
жауапкер ші
ды ра
өсі п</w>
қор ының</w>
ы дыр
мінде тте
мыз да</w>
кон цер
ке у
зейне та
Бір ақ</w>
ma in</w>
функция сы</w>
таң дал
мақсат ты</w>
i r</w>
ция ға</w>
көрме сі</w>
sp eci
0, 7
тала тын</w>
та ға
с ки
келе сі
же ң
айнал ды</w>
азамат тар</w>
қарым- қатынас</w>
п іші
елі міз</w>
ел ь
зде р</w>
де мал
н- өзі</w>
л ыл
ия лар</w>
деңгейі не</w>
бір- бірі
ауда нының</w>
Н әти
v es</w>
экономик аны</w>
тық ты</w>
салтан атты</w>
к амер
алар ына</w>
201 1</w>
әкімді гі</w>
терең де
мин и
көзде лген</w>
жосп ар</w>
желі сі</w>
бар ысы</w>
ас қар</w>
Ә р
құр алы</w>
шо ғыр
те гін</w>
автомат ты</w>
or gan
2 4
қам тылған</w>
м иялық</w>
комму нал
3 1</w>
ө зінде</w>
ымкен т</w>
т к
мүд делі</w>
лер дегі</w>
жол дарын</w>
бағ асы</w>
ту ғыз
тен ци
стар ын</w>
исла м</w>
Б ірі
әб ді
ш ының</w>
тте гі</w>
білдір еді</w>
m at
қолжеті мді</w>
тау- кен</w>
шыл ары</w>
сәйке сінше</w>
ми ссия
дә лді
қарастыр ыл
тү су
стер ге</w>
серти фик
жауап ты</w>
ен і</w>
ведомств о</w>
g u
g e
1, 5</w>
сер пін</w>
көз і</w>
жоб ал
К ү
өзі н-өзі</w>
қызме тіне</w>
ын ның</w>
ты мды</w>
минер алды</w>
аты нан</w>
int e
el d</w>
b as
қалып ты</w>
Қазақста нның</w>
та мыз</w>
п ун
л ас
кере к
бас ынан</w>
бас талды</w>
no ted</w>
- деп</w>
қу аты</w>
қар алды</w>
ынд а
шекар алық</w>
мәрте бе
институ ционал
Е кі
is su
әреке т</w>
л ығына</w>
Д е
с ағын
мето в</w>
л .
з иялық</w>
ерекше лігі</w>
ерекше ле
енгізі лді</w>
деңгей лі</w>
г /
m illion</w>
ыс ымен</w>
төте нше</w>
нәтиже лерін</w>
мо лекул
мәс ли
маң ғыстау</w>
үкімет тің</w>
ыл ғал
мын адай</w>
жағдай ларда</w>
асырыл уда</w>
i лi
өсі мдік</w>
қай рат
лау аз
жүргіз уге</w>
жин ау</w>
[ 4]</w>
өтіні ш</w>
со қ
ресур старды</w>
күре с</w>
к атал
дипломат иялық</w>
st s</w>
p ri
ү гі
уақы ты</w>
ті лі</w>
мүмкінді ктер</w>
мар апат
көрме ге</w>
ex p
өкі лі</w>
тең ді
компью тер
Ин тер
ac e</w>
ұйым ның</w>
тү з
температур асы</w>
таны с
сам ми
не гіз</w>
жабдық тау</w>
атқар ады</w>
s ch
әлеу еті</w>
кезе ң</w>
жолдау ында</w>
ұсын ған</w>
сер ви
ой лау</w>
м айтын</w>
ле т</w>
инфрақұрыл ым</w>
ат ор</w>
ады :</w>
ө мірі
қылмы стық</w>
ықпал дас
хал ықты</w>
мұн ай-
күн ге</w>
жыл дам</w>
жоб алардың</w>
жо й
дәрі гер
бо с</w>
өзі не</w>
қызмет тің</w>
у ар
ағыл шын</w>
анық тайды</w>
айр ықша</w>
өткіз ді</w>
себе пті</w>
та ста
мәліме ттерді</w>
лар дан</w>
ик асын</w>
деңгейі нде</w>
f ic
қа қ
шығар атын</w>
сал дар
орынд арында</w>
ге нін</w>
ау ыстыр
аспе кті
арттыр ады</w>
әді сін</w>
үкіме тінің</w>
олим пи
ма мыр
кәсіпкер лікті</w>
информат ика</w>
Нәти же
projec ts</w>
қыс қа</w>
ха т</w>
ттер мен</w>
са нының</w>
нас и
кү тіл
кездесу де</w>
ар хи
әде би
ті к
о тын</w>
лар ымен</w>
ке ме
бағыт тағы</w>
басым дық
f un
фи р
тас ының</w>
таныстыр ды</w>
сп е</w>
патри о
кітап хан
К азах
үл гі</w>
сүр у</w>
с т</w>
оңтай ландыру</w>
м ə
б алық</w>
201 0</w>
қой ылатын</w>
шақыр ды</w>
ул арды</w>
у ,</w>
с к
көле мінің</w>
дау ыс</w>
бето н</w>
аны қ</w>
y o
o re
g ro
al s</w>
өнеркәсі бі
қай тар
ғa н</w>
тұрғ ысынан</w>
технология ны</w>
се ссия
ор ында</w>
моде лін</w>
кап итал
басқар масының</w>
баев а</w>
үне мі</w>
қозғал ыс</w>
қа тер
тәрби е
т әрі
т алық</w>
органд ары</w>
л ген
конститу циялық</w>
е г
дат ч
v ed</w>
t or</w>
mo st</w>
in clu
үзді ксіз</w>
қо станай</w>
шық қан</w>
тоқ та
тар ату</w>
кор пу
ке с
жетек ші
ay s</w>
қауіпсізді гін</w>
ба т</w>
ө су</w>
фи ли
ул ары</w>
ны п</w>
кірі с</w>
ж ур
c ent
ұйым ы</w>
қамти тын</w>
про фес
кі л
в ак
Жалп ы</w>
А у
қал асындағы</w>
тр л
асыр удың</w>
аймақ тың</w>
тигіз еді</w>
талап тар</w>
ге ологиялық</w>
қатын асы</w>
ушыл арға</w>
теат р
меморандум ға</w>
кө мір</w>
компания ның</w>
lo b
ғ ын</w>
ті нен</w>
ті ле
па ке
кезең і</w>
ге ографиялық</w>
m ents</w>
g h</w>
] .</w>
қорытынд ы</w>
қо ң
тапсыр ма</w>
мау ы</w>
жылдам дық
бірік кен</w>
the ir</w>
progr am</w>
іші ндегі</w>
і леді</w>
та я
зейнета қы</w>
асырыл ып</w>
le g
be t
ұсын ады</w>
құра мын</w>
технология лардың</w>
зауы ты</w>
баз алық</w>
wi th
қырғыз стан</w>
э н
тә жі
ресурстар ын</w>
процес ін</w>
ма мин</w>
инфрақұрыл ымдық</w>
жә нe</w>
екенді гі</w>
басқар удың</w>
d ur
рө лін</w>
мөлшер ін</w>
комите ті</w>
ел де</w>
М а
re l
kazak h</w>
construc tion</w>
S i
тірке у</w>
сі м</w>
он лай
дам у
ақпарат тық-
ап пар
тауар лар</w>
с к</w>
индустрия ландыру</w>
t e</w>
әй елдер</w>
қауіпсізді гі</w>
ғ ар
түрк ия</w>
тари ф
кті гін</w>
ко в
з а</w>
дә у
а жыр
А Н
i p</w>
ша бу
т керлік</w>
маманд арды</w>
интел лекту
жыл ы
жобас ының</w>
жеңі мп
алын ады</w>
ver s
n ec
өткіз уге</w>
қой май</w>
эксп о</w>
шам а</w>
рө л</w>
нәтиже лер</w>
дам уын</w>
аймақ та</w>
О лар</w>
Ж аң
m em
құр ап</w>
ыст ардың</w>
кл ин
жоб аларын</w>
желі лік</w>
елімі здегі</w>
дар да</w>
г ал
бе лі
g lob
өні мдер</w>
қос қан</w>
қа дағ
түсі н
те х
ско п
по тенци
көрсеті лді</w>
кө л</w>
күтіл уде</w>
критери й
жеткіз уге</w>
ai r
1 1
қой ыл
мың ға</w>
мо л</w>
коммер циялық</w>
Б ері
sti tu
e ur
ф ин
о й</w>
атив тік</w>
өр і
ір ге
ша ң
оқ ул
отыр ыс</w>
көмір су
коммунал дық</w>
дам удың</w>
вирту алды</w>
баянд ады</w>
st ab
) .</w>
қа нд
ға ю
ті нше</w>
толықтыр улар</w>
технология сын</w>
республ ика</w>
ре а
кө к
ау рухан
produc tion</w>
қағ ида
Қ ар
ыңғай лы</w>
шеші мдер</w>
тур а</w>
көтер у</w>
өкілд ерінің</w>
са н</w>
л ор
ди сп
3 2</w>
өсі м</w>
құр астыру</w>
тұрмы стық</w>
тұл ғал
т кі</w>
ре й
муль ти
к с
ин ф
и ран</w>
жар ық</w>
ау ына</w>
az ar
ста нның</w>
жоб алары</w>
бето в</w>
ар н
b ec
ш ай
ке ткен</w>
жүр іп</w>
болаш ағы</w>
О лардың</w>
қондыр ғ
мәселе н</w>
лік -
канд ида
әскер и-
іс-шар а</w>
тар дан</w>
am oun
пи й</w>
кү йі
болашақ қа</w>
құрам ындағы</w>
президен ттің</w>
ме кен</w>
өңір дің</w>
қал ың
сыз ықтық</w>
w el
t ak
ыл ар</w>
тұрғы да</w>
рө лі</w>
мә ңгі
мемлеке тті
мақұл да
ле с</w>
көз дері</w>
за ция</w>
бөлі гін</w>
білі кті</w>
бл о
бе т</w>
айны мал
Ақпарат тық</w>
қалдық тарды</w>
та м
министр лік</w>
кт ері
же келе
вал ю
бағдарламас ына</w>
өзгер уі</w>
қо ю
фикация лау</w>
тұ ты
пол ь
пар ал
мі з
мді лігі</w>
кө ре
жо қ
еке ні</w>
дай ды</w>
болады .</w>
i ties</w>
as s
шикі зат
кре м
жүйе лердің</w>
ste m</w>
n azar
л a
at e
қарастыр ады</w>
пі кірі
п -
о ты
й дің</w>
Элект ро
Т а
sh ould</w>
3 6</w>
.k z</w>
ұй ымының</w>
құжат тар</w>
қи с
тарих ы</w>
н e
we en</w>
іс ін</w>
негіз ін</w>
ме д
жұмыст ардың</w>
per i
тұрақ тылық</w>
кө бе
бой ын
байланы старды</w>
bet ween</w>
9 -
2 8
өнер кәсіп
ү зі
қызме ттерді</w>
орынд ал
ор нына</w>
же ке
би дай</w>
yo u</w>
7 ]</w>
құрыл ғ
шар аларын</w>
ция ны</w>
т ə
ме т</w>
көз дерін</w>
ки не
же кеше
бұр ғыл
бағдарла маны</w>
бас тал
атыр ау</w>
wor k
c ap
қос ылды</w>
не се</w>
жауын герлік</w>
жас тардың</w>
s ul
i нд
ция ланған</w>
та ның</w>
сәйке сте
Сонд ай-ақ</w>
М Е
ou s</w>
o ver</w>
o d</w>
қай ыр
сор б
алар да</w>
айту ы</w>
sup port</w>
me e
im pro
econom y</w>
әңгі меле
қауіп сіз</w>
ша ф
ш аш
тәу е
түр кі
монитор инг</w>
дире ктор
ди о
д .
б ә
аэ ро
ар аб
автомат тандырылған</w>
Со ңғы</w>
А й
2, 5</w>
ыны ның</w>
на л</w>
мәселе леріне</w>
з і</w>
бан кі</w>
Ал айда</w>
u d
сақ тап</w>
оз ық</w>
ие ле
жи ын
дар ына</w>
г ар
вице- министрі</w>
ықти мал
к ин
А Т
2 7
өзбек стан</w>
ә .
фе сти
тұ тас</w>
ттер де</w>
тоб ының</w>
с ынан</w>
ри тан
объ ек
дә лі
басшыл арының</w>
es e</w>
мәңгі лік</w>
мәселе лердің</w>
кө ші
жүйе лерін</w>
бі летін</w>
А в
no w</w>
өндірі сінің</w>
тілі нде</w>
темір жол</w>
орна тылған</w>
л а</w>
ан ады</w>
С е
тонн аға</w>
талап тарына</w>
ов тың</w>
и гері
tim e</w>
1- сурет</w>
өңір де</w>
әлеу етті</w>
толық тай</w>
сы м</w>
кем ші
диз ай
гі дей</w>
Ы Қ</w>
c a
үкімет тік</w>
қашықтық тан</w>
қалыптастыр уға</w>
қа ул
тәрби е</w>
мыз ды</w>
көрсеті леді</w>
бол майды</w>
ал ю
қажетті гін</w>
нәти же</w>
ген мен</w>
ай мыз</w>
in e</w>
glob al</w>
g ener
c ul
201 5-
2 6
қолдан балы</w>
ғал ымдар</w>
ь ды</w>
тер белі
серікте сті
наси хат
му зы
лі ктерді</w>
зі нің</w>
асыр ылды</w>
А С
nazar bayev</w>
n um
мі мен</w>
лдірі п</w>
кәсіпорынд ардың</w>
констру кция
n ur
і і
с инг
ма с</w>
л ды
бұй ым
сұй ық</w>
премьер- министр</w>
жанд андыр
есеп терді</w>
д ра
ве й
аймағ ында</w>
а мын</w>
ыб ритан
пайдаланы п</w>
жол ында</w>
ар ада</w>
00- ден</w>
ша ның</w>
со дан</w>
келісі м
жүкте ме
жылж ым
жас ады</w>
баз асында</w>
архи тект
f t</w>
0, 8
құрыл ысына</w>
қолда уға</w>
си п
мәден и-
ма у</w>
диал ог
шар ттар</w>
ор нының</w>
о нд
нд ерінің</w>
мин у
кездесу лер</w>
ика -
зертхан алық</w>
бе ке
бас тау</w>
Б ас
3 4</w>
3 )</w>
( t
құралдар ының</w>
қ р
ым ына</w>
ком бин
инвестор лар</w>
жолау шылар</w>
бас ында</w>
ба тыр
атал ып</w>
ат алады</w>
ар за
аб р
Республ икасының</w>
govern ment</w>
c ur
әді сімен</w>
қай с
ғылыми- зерттеу</w>
ғ ұрлым</w>
сұ х
ні мен</w>
н ,</w>
м ына</w>
жап он
дан ған</w>
г .
ай тыл
Казах стан</w>
қауіп ті</w>
ға нына</w>
уі мен</w>
та ң</w>
ради о
малар ына</w>
көш у</w>
кон суль
келісі мді</w>
к әрі
gr ou
ener gy</w>
ұ -ның</w>
ың ыз
уші лердің</w>
нұс қ
кәсіп орынның</w>
жарты лай</w>
дәреже сі</w>
үлгі сі</w>
қы ту</w>
тыл ығын</w>
терр ориз
сарап та
мазмұ ны</w>
з ал
жария ла
б e
ата -
ай ық</w>
t an</w>
r ic
[ 5]</w>
қатар ында</w>
хабар дар</w>
тәрби еле
тер миялық</w>
т қыш
субсид ия
орган из
негізі ндегі</w>
кезде седі</w>
атив ті</w>
қа ша</w>
ура н</w>
күшей ту</w>
гер і</w>
б ауыр
ан ал
f r
үйле сі
төменде ту</w>
топыр ақ
та мақ
с ынд
пе -
күш -
ке ден</w>
жыл дық
жап пай</w>
ді ни</w>
dur ing</w>
әс ерінен</w>
ұсын у</w>
отыр ысы</w>
математ ика</w>
м дерінің</w>
зертте лді</w>
жақ ынд
ел орда
депута ттары</w>
ассамблея сы</w>
in i
aл a
өндір етін</w>
қуат тылығы</w>
Қ ара
ға қ</w>
і мен</w>
ымдыл ық</w>
сал алық</w>
ны ң
ато м</w>
t w
sy stem</w>
ция лар</w>
ты сы</w>
тт арды</w>
оң түсті
на қ</w>
кон кур
құ с</w>
тәжі к
ту ған</w>
оқ у
жас анды</w>
дөңге лек</w>
герман ия</w>
бол амыз</w>
аты ның</w>
i к</w>
g et</w>
- 1</w>
қатыс ып</w>
іс тің</w>
сер вер
ия сын</w>
есеп ті</w>
е эк</w>
t a
soci al</w>
қанағат тандыр
инд ик
зертте уге</w>
бол дыр
П ро
o ther</w>
di rec
201 7-
қ ыл</w>
су д
нші сі</w>
кө з</w>
жүргізі п</w>
гра фи
г р
б oл
tur al</w>
sh ip</w>
қорытындыл ары</w>
тың айт
институ ты</w>
бағы ттар</w>
projec t</w>
an s</w>
20 -
экономик асының</w>
та циялық</w>
т ин
прокур ат
ко д
елі нің</w>
И К
4 0
3 3</w>
қолданыл ды</w>
ч е
сақ тандыру</w>
саясаты ның</w>
ни й</w>
млрд .
кү нде
жұм ыл
жоғары да</w>
бо я
бас талады</w>
Б е
pol ic
өз екті
ә келеді</w>
ңғ ым
құрыл ымын</w>
Қ ыз
шығ у</w>
таны мдық</w>
мод уль
бірле се</w>
ау ған
асыр уда</w>
num ber</w>
ac h
қх а</w>
қу аны
мұнай- газ</w>
кт икалық</w>
жылдығ ына</w>
ве ктор
form ation</w>
ч ем
ос ының</w>
орнал астыру</w>
мыз :</w>
ке терлік</w>
жан уар
жай ында</w>
ел дегі</w>
tr ac
өз ге
ы »</w>
ше в</w>
ти я</w>
ст еріне</w>
сп ан
ре зер
парламен ті</w>
оқ ушылар</w>
одақ тың</w>
наур ыз</w>
магист р
бал алардың</w>
c ar
3 0-
қатысу ы</w>
чем пи
х ам
фе й
интер активті</w>
имп уль
же ткен</w>
дек лар
бала малы</w>
ақ тау</w>
gro w
c r
төр ті
п ан</w>
нді гі</w>
мерзі мі</w>
ме згі
күкір т</w>
зертте лген</w>
жиынты ғы</w>
д ін</w>
тұрғ ыз
павиль о
мыз ға</w>
ме дал
к рат
жі бек</w>
деге ні
гі ндегі</w>
байқа у</w>
б у</w>
l ar
пайыз ды</w>
орта да</w>
ктер мен</w>
зия ткерлік</w>
бер е</w>
ала й</w>
Жо ғары
pl o
in de
әкі мінің</w>
ті лін</w>
жур нал
Бері лген</w>
t er</w>
res s</w>
pres ent
al l
6 00</w>
Қ о
түсіндір у</w>
тақырыб ы</w>
деңгей ге</w>
в ел
аш ық
алаң ы</w>
il l
com pl
қолдан удың</w>
тұрғынд ары</w>
тт арының</w>
топыр ақтың</w>
тар ымен</w>
сі здің</w>
сал ды</w>
не ғұрлым</w>
менші кті</w>
материалдар ды</w>
лме ген</w>
л ған</w>
жұмыстар ына</w>
ге нді</w>
re e</w>
pro c
on g</w>
ch an
2 9
ға ның</w>
шар ттары</w>
тә н</w>
с ыл
ны саны</w>
мі нен</w>
макси малды</w>
көрсеткіш тер</w>
ала с</w>
құжат тарды</w>
це п
фар ма
стратег иясы</w>
ре тті</w>
проце д
баев .</w>
алмас тыр
Бі з</w>
өткі зе
құ п
т ик
көрсеті летін</w>
кт ерімен</w>
игер у</w>
ж .</w>
г а
ті пті</w>
тынд ығын</w>
тері с</w>
отыр ып,</w>
жол ын</w>
жеңі лді
жақсар туға</w>
ер і</w>
gh t</w>
қолданы п</w>
қарастыр ылып</w>
ым ға</w>
ш ау
трл н</w>
та ғ
с өзі
ндар ға</w>
за циялау</w>
жас айтын</w>
con t
қабылда ды</w>
ғ a</w>
і стері</w>
эк стре
ымыз ды</w>
опер ациялық</w>
мин им
кли ен
- нің</w>
құрыл ым</w>
қоғам дас
ті нде
терең ді
тапсыр масы</w>
орг ан</w>
жар ам
граф икалық</w>
бе с
ау шы</w>
b an
ұл ыбритан
қатысушыл ардың</w>
ш ымкент</w>
у ынша</w>
төрағ ал
ел ші
бан кі
О ң
ұл ғ
қаже т
түр ін</w>
ра т</w>
р .
инже нерлік</w>
ет пе
ев а</w>
бел де
алар мен</w>
үмі т
құрал дар</w>
қағ ид
қа ны</w>
шар тты</w>
ш ұ
сертифик ат
ограф ия</w>
лік пен</w>
кл у
кеше нін</w>
жекеле ген</w>
жар ық
құрме тті</w>
қаз ан</w>
ғ ары</w>
ыст арды</w>
стандар тты</w>
ресей лік</w>
р ол
п орт
матери алдық</w>
маманд ары</w>
жоб алық</w>
жетек шісі</w>
ету і</w>
бол атынын</w>
би ту
аға ш</w>
алд ын-
s ur
invest ment</w>
implement ation</w>
cur r
6 5</w>
ө лі
ри за
орынд ауға</w>
мә ндері</w>
ал ынып</w>
өзгер ту</w>
экспор т</w>
сипатта малары</w>
про фи
жүр ген</w>
жеңімп аз
ашыл ған</w>
ай мағы</w>
С ол</w>
Бі здің</w>
c ity</w>
4 00</w>
өні мі</w>
өзг ере
қабілетті лігін</w>
эк стра
ы ға</w>
ту ді</w>
мә нін</w>
л ин
om e</w>
Ү л
қаз ір
ор ыс</w>
мөлшер де</w>
к аль
есе бі</w>
бас тау
ар тады</w>
gre at</w>
қаға з
тәжірибе сін</w>
сая сатын</w>
мдер ге</w>
л -
көбі несе</w>
жа тыр
ге к
ар мен
st er</w>
p h
ministr y</w>
қазақста нды</w>
хабарла уынша</w>
ф абр
тәуе кел
п ой
лог икалық</w>
кес кі
жоғ ал
бұ қаралық</w>
білі м
анық тайтын</w>
а )</w>
ar d</w>
3 5
физ ика</w>
тұ қ
тар а
сұл та
сақ тауға</w>
ма мыр</w>
жаң ал
делег ация</w>
С Т</w>
Б и
і з
ти есі
сын ақ</w>
сезі м
инже нер
енгізі леді</w>
гра фик
бар ша</w>
аза мат</w>
s ol
re g
bu il
b il
ы ста
мді лігін</w>
комите т</w>
кезде сті</w>
же теді</w>
Кіл ттік</w>
f ore
d ec
өндіріс тің</w>
шаруашыл ығын</w>
салдар ынан</w>
парал ле
г ан
алгорит мі</w>
ve l</w>
ұ ңғым
қарастыр у</w>
сор бен
салалар ындағы</w>
мәлі мде
дамы з</w>
200 9</w>
қар ау</w>
шын айы</w>
тү ле
сал мақ
са бақ</w>
меморанд ум</w>
еті лген</w>
г мен
бай жан</w>
v ing</w>
3 7</w>
% )</w>
өз ін</w>
тұжырым дам
ты ғы
проце сінің</w>
параметр лері</w>
оқи ғ
мақсат та</w>
кезе кті</w>
жаз ылған</w>
анали тикалық</w>
Т үр
қолда уымен</w>
ыс ындағы</w>
тығ ына</w>
т еріне</w>
сағын таев</w>
отыр ады</w>
инфрақұрыл ымды</w>
ді ,</w>
қадағ алау</w>
ынтала ндыру</w>
мақ ал
комиссия ның</w>
кер лер</w>
ай ының</w>
элемен ттер</w>
салалар да</w>
малар ға</w>
ланд шаф
й -
ба п
ал майды</w>
( 1)</w>
қу атты</w>
қар қынд
қар у</w>
функционал дық</w>
транзи ттік</w>
те пе-
ор нық
міндетте ме
мі зге</w>
менедж мен
баста ған</w>
қал ық
қ т
тиесі лі</w>
мінде ттер</w>
ма кро
кел уі</w>
жүйел ерінің</w>
еңбе к
есепте леді</w>
ере к</w>
енгіз уге</w>
бұз ыл
ау мағы</w>
астана дағы</w>
Түйі нде
un ity</w>
po s
3 8</w>
үйлестір у</w>
қос ып</w>
ға ны
ше кті</w>
шабу ыл
отыр ғанын</w>
мау сым</w>
кон тур
в о
ам п
us e</w>
le ad
7 0
- мен</w>
қазақстанд ықтардың</w>
форум ы</w>
тәрті бі</w>
лі не</w>
ел ге</w>
ды ;</w>
бағ алы</w>
бал аларға</w>
re ad
mo der
өні мін</w>
үне мдеу</w>
қор ын</w>
хат шы</w>
л ы
күш- жі
интер фей
из атор
ем хан
деңгейі нің</w>
Интер не
3 9</w>
кап и
us t</w>
i м
com pe
ғ ас
энергия ны</w>
уі міз</w>
ор д
мақсат қа</w>
ма ман</w>
з ар
жүйе лерді</w>
ге ні</w>
алю мини
айналыс атын</w>
Ос ындай</w>
ig n</w>
i d
ы мы
сипат талған</w>
оң ай</w>
лігі нде</w>
кедер гі</w>
й міз</w>
ге кт
ар лы</w>
алын атын</w>
қаш ан</w>
шал ықты</w>
фаз алық</w>
уақы тқа</w>
тұты ну</w>
сал ынды</w>
ма дан</w>
күш і</w>
е ге
ауда ндық</w>
ан атын</w>
Ж ү
w s</w>
ү нді
мұ қ
көрме сін</w>
күнде лікті</w>
кеше н</w>
есепте у
вице- министр</w>
Б ол
ə ді
mee ting</w>
Қазақста нда</w>
тоқа ев</w>
инфрақұрыл ымын</w>
жыл дығы</w>
же ту</w>
жаңа дан</w>
жар а
басқар ушы</w>
u p
pl an</w>
өтіні ш
өсі мі</w>
электр лік</w>
тінді гін</w>
ор ны
көр не
ж e
есеп тің</w>
в .
Н Д
ati n
қа да
сау ат
мәс ке
мінде т</w>
мо ди
есепте р</w>
ди ап
дер ге</w>
бас ын</w>
c es</w>
8 5</w>
4 2</w>
қызме ттердің</w>
қой нау
қазақстан- 2050</w>
ғ ыз</w>
тү бе
се нат</w>
ел ші</w>
дисп ер
диа метр
бә йт
ам ан
К о
Ұ сыны
тү сетін</w>
сап асына</w>
сам ұр
пер ио
металлург ия</w>
лері нен</w>
ка д
жалғ ас
д б</w>
ал дар</w>
tic al</w>
th ese</w>
құр ал</w>
табыл ады.</w>
се ле
сап асының</w>
сай ынғы</w>
ортал ығында</w>
ме йді</w>
ал ушылардың</w>
em plo
ө н
пар тия</w>
диа грам
даяр ла
дайынд алған</w>
газ ды</w>
бол у
А К
nec ess
in f
әзірле нді</w>
ф аль
ул ардың</w>
ті ні</w>
сипат талады</w>
с м</w>
күш ті</w>
б әрі</w>
Мұ нда</w>
t y</w>
э ы
э ти
но мин
диф фу
басш ысына</w>
К ірі
or der</w>
Ә р</w>
ш ер
тал дау
сипат тайтын</w>
ресур стар</w>
л ығының</w>
кездесу ге</w>
жалп ыл
дол лар</w>
бөлі гінде</w>
бұр ынғы</w>
асырыл уы</w>
ан и
z h
techn olo
partici p
өр т</w>
әбді қалық
ұя лы</w>
це в
теңде уі</w>
тар ап</w>
тапсыр маларды</w>
көрі п</w>
жалғ ыз</w>
ді ң
ді ;</w>
бағытт арын</w>
алматы да</w>
Б ағ
j o
ұлғай ту</w>
тив ті</w>
лан ады</w>
жан ов</w>
делег ация
бәйт ерек</w>
Ком п
Б үгі
it al</w>
fore ign</w>
қолданы сқа</w>
я н
та мақ</w>
ныса ндар</w>
мұр а
кір етін</w>
департамен тінің</w>
г ия</w>
бұрғыл ау</w>
бюдже тке</w>
v en
increas e</w>
e -
c h</w>
ar i
әзірле нген</w>
ыны ң
ш ық</w>
сый ымдыл
сау ық
матери ал</w>
көрсе тке
институ тының</w>
жер ге</w>
елдер де</w>
де мо
Д и
res ul
тех но
та ция</w>
сәу ір
сан ат
парламен таралық</w>
кө ні
кір у</w>
кезде гі</w>
жұмыс сыз
ды н</w>
д iң</w>
sul tan</w>
8 ]</w>
қар у
қажетті лігін</w>
ыл ым</w>
төрті нші</w>
ту дің</w>
со р</w>
отбас ыл
о фи
көр уге</w>
жар ты</w>
дол ларды</w>
ауыт қ
Е се
issu es</w>
әл- ау
қызметкер лердің</w>
қатысушыл ары</w>
шақыр ым</w>
у ағ
тық қа</w>
тазар ту</w>
програм малау</w>
мәжілі сінің</w>
интерне т</w>
и гі
жабдық талған</w>
бөлі ніп</w>
Жоғары да</w>
s in
h ous
өткізі леді</w>
өкілд ерімен</w>
әде тте</w>
құр ғақ</w>
қо с</w>
ір ші
ынтымақтас тығы</w>
шы ұ</w>
тәрті п
стар ының</w>
салыс тыру</w>
ре з
моно пол
көмекте седі</w>
кеңей туге</w>
кас пий</w>
к ция</w>
жаңғыр у</w>
жағдай ға</w>
бі лдіріп</w>
аты на</w>
educ ation</w>
a лық</w>
шы ң
фра кция
тәрі зді</w>
тұт қыр
сат у</w>
процес с</w>
пала тасының</w>
нақты ланған</w>
мы қты</w>
көрме сінің</w>
в ок
polic y</w>
әкімді гінің</w>
қыс ым</w>
шол у</w>
ш ыны</w>
фактор лар</w>
тү п
тыл у</w>
тт арын</w>
се мей</w>
пайдалан удың</w>
и не</w>
жш с-
жағдай ына</w>
енгіз уді</w>
агр арлық</w>
al ity</w>
6 0
ри й</w>
проце сінде</w>
парт иясының</w>
нов а</w>
маңыздыл ығы</w>
концентра циясы</w>
Т ә
эконом ика
х о
төменде уі</w>
түс ірі
түр лі
технология ның</w>
теор иясы</w>
тар ал
салалар дағы</w>
параметр лерін</w>
н. назарбаевтың</w>
жұ лды
е те</w>
в тың</w>
би лік</w>
бақы т
st ar
o ffic
nur sultan</w>
e ar
қой ып</w>
қар саң
қаз анд
энергия сының</w>
ығ ынан</w>
ті л</w>
ортас ында</w>
нығ айту
нейро ндық</w>
кере ктігін</w>
к г</w>
жол ымен</w>
бағал ау
Бүгі нгі</w>
u res</w>
f e
enc y</w>
қу ат</w>
ғарыш тық</w>
ші лер</w>
ш ан
хат та
суд ья
се не
са л</w>
са з
р і
кри п
жол мен</w>
жан ар
дығ ының</w>
басқар масы</w>
байланы сы</w>
баев тың</w>
ашыл ады</w>
Бірі нші</w>
- қо
өрке нде
ізде стір
ші лес</w>
шығар уға</w>
толықтыр ды</w>
тер де</w>
сал ынып</w>
премьер- министрінің</w>
оқ ушы</w>
е қы
ге йлі</w>
бастамас ымен</w>
no v
le vel</w>
bu t</w>
4 4</w>
өс ке
ғанд ар</w>
ым ша</w>
тәсі л</w>
түрі ндегі</w>
технология лары</w>
талап тарға</w>
т ика</w>
с сіз</w>
ме та
көрсе ткен</w>
көрме нің</w>
к .
бол сын</w>
архитект ур
with in</w>
s it
ric ul
regi onal</w>
5 5</w>
әкі м</w>
экспор ттық</w>
ынтала ндыр
ты нан</w>
ски й</w>
парламен ттік</w>
индустр ия</w>
жер ді</w>
ге не
бол мауы</w>
аш ады</w>
Б ал
suc h</w>
10 00</w>
қал дыр
қаз ына</w>
оқыту ды</w>
ндар ының</w>
н -</w>
менедж мент</w>
күш терінің</w>
жас қа</w>
е мде
д ірі
бейбі т</w>
ol l
o v</w>
9 5</w>
4 8</w>
үрді сі</w>
қа таң</w>
ықтар ына</w>
ы стағы</w>
түс ір
ті лік</w>
процед ур
к ал
ерекшелі ктерін</w>
бері к</w>
бағы тында</w>
ал удың</w>
Түйінде ме
С -
str ate
d ic
ag ricul
ни т</w>
ме лі</w>
материалдар дың</w>
кө көні
бәсекеле стік</w>
ал да
аз иядағы</w>
2 50</w>
қазақстанд ықтар</w>
қабылда уға</w>
шар ты</w>
резер в
жас алады</w>
демо крат
бар лау</w>
байқа уға</w>
tw o</w>
әдістеме сі</w>
эы д
эф ф
ы ң</w>
функ ция</w>
уағ дал
сарап шы</w>
лде не
ден ген</w>
бол ғанда</w>
бал аларды</w>
ай тылды</w>
автомат тандыру</w>
part n
dis c
4 3</w>
Ә ле
ұйымдастыр ылды</w>
үкіме таралық</w>
шеш удің</w>
тәсі лдері</w>
синг ап
п ,</w>
дал а</w>
ақпарат тың</w>
pl e</w>
is m</w>
8 0
өнімдер ді</w>
құрыл ады</w>
Қоры тынды</w>
ыдыр ыс
шыға ды</w>
фарма цев
со ци
пікірі нше</w>
меңгер у</w>
в аг
tr ade</w>
[ 6]</w>
құттық тады</w>
уақыт ша</w>
ты -
тт ерімен</w>
табиға т</w>
кеше нінің</w>
к ат
им и
жо ю
жеткізі лді</w>
ев .</w>
дар ында</w>
ав стр
Түйіндеме :</w>
Те хн
Ж е
Екі нші</w>
p end
on ly</w>
bu d
atin g</w>
әр қайс
тау ды</w>
т -</w>
о дағ
зат тың</w>
жеткі лік
дере ктері</w>
граф иялық</w>
бірі ншіден</w>
ар ынан</w>
анық тап</w>
а нда</w>
өндіріс ін</w>
әр ине</w>
қам қор
элемен ттері</w>
те л</w>
сипат тамасы</w>
ра х
пи ло
м бе
көрсе те
колле дж
ко в</w>
ке тетін</w>
з ыр
дол л.
датч ик
астана ның</w>
П е
o р
en tr
4 )</w>
істе уге</w>
түбе гейлі</w>
сызда ндыру</w>
сы дан</w>
са нд
с ығ
кө лдене
кө кте
да с</w>
басшыл ығы</w>
бастамас ы</w>
Б арлық</w>
M a
4 5
4 1</w>
өз ді
ұ тымды</w>
сп ик
мінде ттерін</w>
л уіне</w>
еуро па
еті лді</w>
бан ктің</w>
ация лар</w>
ас ыз</w>
grou p</w>
c an</w>
әлі п
қа нын</w>
теңде у</w>
тер лігі</w>
рейт ин
пә тер
проце стерді</w>
пайыз дық</w>
облыс ындағы</w>
жүре ді</w>
o p</w>
өсу іне</w>
ұғ ым
қа білетін</w>
ткі ш</w>
технология ларын</w>
теор ия
маманд ардың</w>
м дар</w>
л ды</w>
кеңес тің</w>
жат қыз
дері нде</w>
бір ден</w>
h ol
al ization</w>
3, 5</w>
пте гі</w>
индек сі</w>
жаңар тылатын</w>
дыл ығы</w>
аль ды</w>
Д Е
3 D</w>
өту де</w>
ұсыны с</w>
тыңайт қыш
кө л
келесі дей</w>
бол уға</w>
бас қал
авто көлік</w>
at ten
- ге</w>
қарсаң ында</w>
қ к</w>
ір ек</w>
эт н
тұр у</w>
тас тыр
стері мен</w>
объ е
кәсіп кер</w>
ке лер</w>
жүйе сіндегі</w>
ағ ынд
pr is
necess ary</w>
әр тарап
құқ ықтарын</w>
қам ты
қа -</w>
і лді</w>
ше ттік</w>
түсіндір ді</w>
температура да</w>
пла з
из м</w>
r ou
iz ed</w>
am e</w>
( 1
өңір дегі</w>
эк ология
физ ика-
төменде ді</w>
тығыз дығы</w>
сызда ндыр
сал ып</w>
бұз ушыл
білі мі</w>
бақыт жан</w>
бағдарла малары</w>
арту ы</w>
арал ығындағы</w>
Х им
Г е
pl ann
inde pend
ad di
20 25</w>
қыз ықты</w>
ын а
х анд
тран сфер
то з
реа ктор
онлай н</w>
ме сі</w>
л ықты</w>
көзде йді</w>
коре я</w>
бағдарла маларды</w>
балабақ ша</w>
to t
stab li
e stabli
disc us
қыркүйе к</w>
эксп о
тыл уы</w>
си р
ку ә
концентра ция
кон тей
к али
депута т</w>
білі мін</w>
агр о</w>
ti c</w>
industr y</w>
өнімді лігі</w>
қозғал ысы</w>
қатыс қан</w>
қарым-қатынас ты</w>
ыр ақ</w>
ш a</w>
хабар лайды</w>
форум ның</w>
ф айл
техн ик
ма -
м ның</w>
индустри алды</w>
ерекшеле неді</w>
бас тысы</w>
Ма темат
Жо ғары</w>
s ci
for m</w>
өндірі сті</w>
Ө л
тер ми
тар туға</w>
тар алған</w>
ні нен</w>
материалдар ын</w>
күші не</w>
ж .
дері мен</w>
гео метриялық</w>
г e
біре к</w>
б ос
асыр уды</w>
айт қан</w>
аб ат
s m
қара п</w>
сал алары</w>
оқ шау
оқ ушының</w>
мінде ттері</w>
мас штаб
кон вен
институционал дық</w>
жас алып</w>
еме с
гі п</w>
ве б-
аяқ талды</w>
ата мекен</w>
ала ды.</w>
ar m
ag re
құ нды</w>
қолданыл уы</w>
іс-шар аға</w>
я н</w>
ы т
семин ар</w>
сал мағы</w>
компания лары</w>
кел тіре
ви де
б ына</w>
ағ з
ашыл у</w>
аймақ тағы</w>
t as
al mat
ac h</w>
- тың</w>
әрекетте су
әді с
қоң ыр</w>
қ алада</w>
Қ ұр
съ е
си рек</w>
оқу- жаттығ
көріні с</w>
көзқар ас
кө бірек</w>
ке терлігі</w>
и се
еш қандай</w>
дәле л
вол ю
бекі ту</w>
бақыл ауға</w>
б ул
ақ ыр
ал ты</w>
Я ғни</w>
h eld</w>
экономик аға</w>
түйі нде
оқыту да</w>
ндер ге</w>
ли т
л уін</w>
көші -қо
ке п
из о
б ран
n ing</w>
h e</w>
- 2017</w>
қыш қыл</w>
қоз ғ
стратегия сын</w>
оп ти
нұр лан</w>
м ойынд
баянд а
әдістер ді</w>
ұ к
энерг о
тесті леу</w>
су ар
семин ар
п ыс
о ндағы</w>
мере йт
ке сі
ал ау
in stitu
gener al</w>
( 1-
ұж ымдық</w>
қолданы ла
қолдан ады</w>
қатар лы</w>
қайрат кер
ф он</w>
тұлғал ардың</w>
түрі не</w>
ты мен</w>
талап тарды</w>
самұр ық-
мінде тін</w>
көле мді</w>
гі лі</w>
айн алады</w>
Оң түстік</w>
Кірі спе</w>
d re
ыс у</w>
уақы тын</w>
у әкі
тұ з</w>
мі ндегі</w>
к аз
ж ұр
ескер ткіш
дамыту ды</w>
байланы стар</w>
азамат тарға</w>
а ө
Т ө
ұста п</w>
құқ ығын</w>
тәжік стан</w>
пыс ық
пайдаланы лады</w>
ласта ну</w>
кү ніне</w>
ки бер
би не
асыр атын</w>
rel ations</w>
ch il
an d
қоры тп
тәуелді лігі</w>
те гі
сті гін</w>
л ат
көле мде</w>
күй і</w>
кү ті
кезде сетін</w>
ету де</w>
елдер ге</w>
е ткен</w>
бе тінің</w>
бағал ауға</w>
asi an</w>
әдеби е
қх р</w>
қоз ға
қа нды</w>
ір е
ше тел</w>
ци он
спект ро
республик аның</w>
мәселе сіне</w>
мі не
мемлекетті к-
ке сте</w>
икал ық-
жетілдір уге</w>
жемі сті</w>
есепте улер</w>
білікті лігін</w>
бой ында</w>
а тады</w>
ұл ғаю
Қ ал
этно мәдени</w>
ш e
ц ар
тол қын</w>
тай мыз</w>
ортал ықтары</w>
н өл
магни ттік</w>
ке з
инг тік</w>
жү зде
е теті
депута ттар</w>
болжа у</w>
бері кті
ах метов</w>
ал уды</w>
con di
almat y</w>
[ 7]</w>
- ын</w>
Ұ л
ық тағы</w>
ыл ғ
тоқ талып</w>
тау да</w>
сұрақ тар</w>
с с</w>
орынд ық</w>
ор е
ма ға
и ке
жәр мең
жер лерде</w>
жай ы</w>
виз у
бай қау
асыр ады</w>
алд ына</w>
С ыр
А бай</w>
( 2)</w>
өңде уге</w>
өнімдер дің</w>
құттық тап</w>
қо сты</w>
қабіле ті</w>
экономик асы</w>
фран ция</w>
түрі к</w>
ты м
туынд ыл
сүйе не</w>
сп и
ке ш
жетісті ктері</w>
жатыр мыз</w>
г e</w>
ар на
Мұ най</w>
he al
cent er</w>
1 5-
Қ ол
істе уде</w>
э р
ым да</w>
шеш уде</w>
ті гі</w>
тар алу</w>
сөзі нше</w>
сер в
көлік тік</w>
кү ндері</w>
кел у</w>
кезеңі мен</w>
жин ал
дегені міз</w>
д үй
алды -
аген ттік</w>
Жаң а</w>
po si
comm is
S -
2- сурет</w>
үле стір
ци р
тәсі лі</w>
сив ті</w>
с ындағы</w>
клас тер
жо баға</w>
бағытт арының</w>
ал ек
аз и
Б ел
ti z
s c
( C
ғанд ығын</w>
ти пті</w>
ле ну</w>
кті ре
жұм с
жеті спе
жаңар ту</w>
жатқа нд
жабдық тар</w>
депута ты</w>
ге нді
бол уын</w>
ас фаль
алдын- ала</w>
Жұмы ста</w>
compe ti
қызығушыл ығын</w>
эк ология</w>
ынд ыл
ше ше
у ымыз</w>
сі здер</w>
соғ ыс</w>
рефор малар</w>
патрио ттық</w>
нар ық</w>
материалдар ы</w>
ла ди
жал ға</w>
до ста
Р есе
Л І
20 30</w>
(t )</w>
қабілетті лік</w>
ши фр
ш ар</w>
сұраны с</w>
су л
с ия</w>
рен т
отыр ыста</w>
мә сі
ме г
ар м
Т оп
us si
әл сіз</w>
ш a
ттер ден</w>
саяс атты</w>
ок ру
ле тті</w>
лай ықты</w>
и і
есебі нің</w>
елдері нде</w>
дағдар ысқа</w>
аудар у</w>
арал ас
алгорит м</w>
str eng
grow th</w>
ff ec
үзі лі
қызметкер лерінің</w>
қаба т</w>
ғылыми- техникалық</w>
энерг ияның</w>
ықти мал</w>
фести вал
тол қынд
па циен
мектеп тің</w>
ма нда</w>
көлдене ң</w>
и п
есепте лген</w>
ауыс тыру</w>
А талған</w>
ul ation</w>
p op
it ed</w>
e u
compan ies</w>
ac c
өңде удің</w>
құралдар ды</w>
құ зыр
табыл ған</w>
поли го
ми р</w>
мереке лік</w>
мар к
жылдығ ын</w>
жол ының</w>
дар ымен</w>
бе ттік</w>
Комп ью
mini ster</w>
man y</w>
4 6</w>
әбдіқалық ова</w>
ә бі
құрал -
Қ Р</w>
ша масы</w>
таб уға</w>
сарап тама</w>
оңтай ландыр
ор нында</w>
дәреже де</w>
ат тық</w>
ат салыс
v ol
i l</w>
hi gh
en s</w>
e qu
4, 5</w>
4 7</w>
% -ға</w>
қыш қылы</w>
қан т</w>
экстре м
укра ина</w>
тәсіл дерін</w>
тер ри
тап шыл
пун к
мемлеке ті
көрсеткі ші
интегра ция</w>
res p
inv est</w>
ch in
қысқар ту</w>
федер ациясы</w>
тал ан
сіз дердің</w>
ме йтін</w>
лі ктердің</w>
л ик
кәсіпкер лердің</w>
консуль та
жүйе ге</w>
ету ді</w>
вей цар
бірі ктіре
Т ур
Б ір</w>
wel l</w>
me di
201 6-
2 ]</w>
өткізі лген</w>
сә уір</w>
студен т</w>
сап алық</w>
оқ уға</w>
мі зде</w>
келісі мнің</w>
ка бине
жүйе лік</w>
жин алған</w>
ж ай-
дол ларын</w>
дал ған</w>
баз асын</w>
ба ты
ақ ша</w>
s k
produc ts</w>
ne ed</w>
fin an
en d</w>
al i
I I
9 7</w>
үй лер</w>
қара жа
тапсыр ыс</w>
рефор ма</w>
пайдаланы латын</w>
ке тті</w>
йт ро
индик атор
за ның</w>
дағдар ыс</w>
дар ла
гi з
арттыр ып</w>
армен ия</w>
К он
Ж ыл
ci tiz
өс ір
өкіле тті
қас ым
шеші мдерді</w>
шар аның</w>
ни к</w>
ме р</w>
көрсеткіш терін</w>
интегра циялық</w>
еті леді</w>
бөлі сті</w>
бері ліп</w>
алд ындағы</w>
Кіл т</w>
inclu ding</w>
c u
ad d
құрылғыл ар</w>
қолданыл ған</w>
қада ғал
ғасыр дың</w>
ірікте у</w>
у лері</w>
төрағал ығымен</w>
тұжырымда масы</w>
сапар баев</w>
ортал ықтың</w>
ортал ығын</w>
о с</w>
лде у</w>
жасау да</w>
жар қын</w>
дере ктердің</w>
дер де</w>
ата- ан
асп ап
speci al</w>
re public</w>
po li
par t</w>
et y</w>
ent er
әңгі ме</w>
құр уды</w>
қабыр ғ
у »</w>
тұрақтыл ықты</w>
сал уға</w>
ныса ндарды</w>
му зе
коммун икация</w>
жа татын</w>
дамыту да</w>
бір шама</w>
бер уші
ат алатын</w>
асырыл атын</w>
Ж ер</w>
d oc
өнімді лігін</w>
әді спен</w>
қыркүйе кте</w>
тәжірибе ні</w>
оқи ға</w>
меке ме</w>
диал ог</w>
біріктір у</w>
бе де
бас шы</w>
авто бу
r ussi
c entr
ap pro
8 00</w>
3 6
туынд айды</w>
таңда п</w>
сің ір
сарапта малық</w>
р ас
псих ологиялық</w>
негіз де</w>
ма -</w>
еураз ия</w>
до са
г ір
алар ында</w>
алар ымен</w>
su b
me as
mar k
in to</w>
Ө ндір
Әр бір</w>
қыс қы</w>
қызмет ке</w>
тұл ға</w>
пой ыз
на ма</w>
мазмұ нын</w>
кон тр
зе н
жаңар тылған</w>
жан у</w>
ері ті
аты ны</w>
анық тала
f er
9 ]</w>
5 6</w>
. ,</w>
өткізі ліп</w>
ұқ с
үле й
құқ ықтары</w>
қозғал тқыш
ыл ығы</w>
ті ніне</w>
сұй ық
й ым</w>
жас тарды</w>
в ин
бойын ша
ақпарат тандыру</w>
Тә жіри
servic e</w>
l ast</w>
өті лді</w>
қуаны ш
Қ ұ
Қ а
шығ ып</w>
ресей дің</w>
ор лар</w>
норматив тік</w>
жәрде мақ
аумақ тық</w>
ау ыз</w>
Кө птеген</w>
v is
қызметкер лер</w>
қа й</w>
с икалық</w>
ресур стары</w>
маусым да</w>
ла нды</w>
збе н</w>
з ин
жас ай</w>
демал ыс</w>
ашыл уы</w>
аты с</w>
streng th
ro duc
increas ed</w>
i i</w>
h ere</w>
f ul
bud get</w>
1, 6</w>
өндір уші</w>
өл ке
үй дің</w>
ң ке
қос ылады</w>
қатынас тар</w>
ш ыр
уі ш</w>
төле м</w>
тө леу</w>
тұлғ алар</w>
тыр ыс
тар дағы</w>
сал ған</w>
ме лер</w>
көш басшыл
ету дің</w>
sec tor</w>
p a
en ing</w>
1 20</w>
өлше мі</w>
құр удың</w>
қарастыр ып</w>
қар ыз</w>
ыл уда</w>
тұрғынд ардың</w>
те ст</w>
тамас ын</w>
н. назарбаев
н ан
н :</w>
мас са</w>
екі ншіден</w>
в ан
баз асы</w>
Республ икасы</w>
Нәтиже сінде</w>
Е ң</w>
in nov
hi st
5 %</w>
үрді сін</w>
үдері сін</w>
ү нде
қай да</w>
қ o
у ында</w>
түй ірші
ти іс
су ге</w>
сала ның</w>
про то
ле н</w>
ия лы</w>
жоспар ының</w>
д ті</w>
бе сі
бас тайды</w>
б ыр</w>
Та би
Д І
the y</w>
7 8</w>
7 2</w>
200 8</w>
20 00</w>
өмір лік</w>
құрыл ысының</w>
құрме т</w>
қал алар</w>
це мент</w>
функция лар</w>
тың да
то к</w>
су лы</w>
сар ы
оқ ып</w>
не міс</w>
н )</w>
жоб аларға</w>
дай тын</w>
бір лігі</w>
бар ып</w>
ау аның</w>
алмас ты</w>
К еле
Ж Э
plann ed</w>
fu l</w>
уші лік</w>
ти н</w>
с үлей
пайдалан уды</w>
ой ын
нар алық</w>
мор ф
ер лан</w>
ген нен</w>
би р
ан тро
алаң ында</w>
М ем
por ts</w>
m il
1, 3</w>
1, 2</w>
ұрп ақ
қы р</w>
қолдан уды</w>
қатын асын</w>
це х
тұрғынд ар</w>
туриз мді</w>
сан итарлық</w>
рати фикациялау</w>
орынд алады</w>
о дағы</w>
ин ер
бол ат
бе ті</w>
ал ық-
айны малы</w>
а мен</w>
int roduc
өні мінің</w>
құр аған</w>
қатынас тарды</w>
қаз агро</w>
шыға тын</w>
шығ ын</w>
федер ациясының</w>
тінде п</w>
тау шы</w>
нд и
мәліме т</w>
мұғалі м</w>
л ып</w>
кең се
дыл ық</w>
дай ым</w>
в лади
басқар уды</w>
° С</w>
st ud
pro b
ex hi
4 9</w>
қал ды</w>
ы .</w>
тая у</w>
тапсыр маларын</w>
су да</w>
с цен
орынд алуы</w>
мұ ха
кт ерінде</w>
вак у
в ь
бөлі нетін</w>
бөлше к</w>
балабақ ш
артықшыл ықтары</w>
М П
Ал ма
I n
ұзақ тығы</w>
қо нақ</w>
ың ыз</w>
шығынд арды</w>
укра ин
тар мақ
т қан</w>
орны қты</w>
орнат уға</w>
мәдени- гуманитарлық</w>
кездесу і</w>
заң ына</w>
жар ыл
дәреже сін</w>
г ру
азо т</w>
а тау
kazakhst an
g -
5 2</w>
ү де
я д
ш вейцар
фа ктор</w>
т ре
пала тасы</w>
ныса ндары</w>
ние тті</w>
не л
ли цен
ли нд
зертте удің</w>
жұмыс шы</w>
жұлды з
ба ктер
ақпарат тандыр
а с</w>
sec ur
regi ons</w>
el y</w>
ұйымдастыр ылған</w>
қалалар ында</w>
қай рат</w>
іші нен</w>
фактор лардың</w>
тәртібі ндегі</w>
пе ш
нәтиже лі</w>
нұс қал
мас а</w>
ла уға</w>
кепі лде
икал ық
з е</w>
желтоқса нда</w>
жауапкер шілік</w>
еқы ұ</w>
есеп пен</w>
бөлі мінің</w>
бел ь
бағдарла маға</w>
басшыл ығымен</w>
ас қан</w>
агентті гі</w>
Се бе
tr ain
ent ly</w>
d es</w>
5 0-
өзгер уіне</w>
қор дың</w>
түр лерінің</w>
т i
сауық тыру</w>
ре да
профес сор
мектеп те</w>
ла қ</w>
келіс сөздер
жұмы сымен</w>
жол ындағы</w>
г eн</w>
ауди тор
ак цио
me t
di str
9 0
қатысу да</w>
і нде</w>
т рен
стер мен</w>
мем бран
мал ай
й ды</w>
индустр иялық</w>
ж ие
да на</w>
басп ан
байланыс қан</w>
б алар</w>
Оқ у</w>
О Р
О Л
uni on</w>
өкі лді
әр дайым</w>
үкімет ке</w>
қызме ттерін</w>
қатысушыл арға</w>
қасие ті</w>
функционал ды</w>
тұл ғаның</w>
сұр ып
сті гі</w>
синте зде
сал аны</w>
пә тер</w>
мерейт ой
кі ш
комп лек
бер ді
ах мет
sin ce</w>
in t</w>
fu ture</w>
1 0,
ұйым дарының</w>
құрыл ыс
қаңтар ынан</w>
қалың дығы</w>
холдин г
м сіз</w>
ко нден
и тер
желтоқса н</w>
бе тіне</w>
басқар уға</w>
астан аға</w>
Ж ер
w w
si t</w>
compl e
1, 8</w>
өкіле тті</w>
өзе н</w>
ә мбе
қорытынд ысында</w>
ш қо</w>
ш у
ушыл ары</w>
самұрық- қазына</w>
орынд алды</w>
мекте бі
кү йін</w>
ив ті</w>
жүргіз уде</w>
генер атор
гек тар</w>
бағдарла малау</w>
бағдарла малардың</w>
бас ына</w>
u p</w>
em s</w>
A D
стандарт тар</w>
орынд ау
ой лай
н. назарбаев</w>
көш ір
көк ше
компью тер</w>
из ра
ен у</w>
ег же
бір тіндеп</w>
білі мдерін</w>
бюдже ттің</w>
аш уға</w>
ан т</w>
алюмини й</w>
академ иялық</w>
ti onal</w>
iн iң</w>
emplo y
develop ed</w>
ai r</w>
7 0-
үйре н
форум ға</w>
уші сі</w>
тұрақтыл ығын</w>
тұ тас
тег же
те лі
саясат тың</w>
сал та
р аз
пі р</w>
програм малық</w>
пай ды</w>
нысандар ын</w>
күр делі
клин икалық</w>
каль ци
жол ға</w>
жағдай ларды</w>
бере ді.</w>
бағдарла маларын</w>
арт қан</w>
meas ures</w>
c our
өс іру</w>
құрам дас</w>
ы тылған</w>
тәрті бін</w>
тті лік</w>
сұлта нов</w>
пило ттық</w>
м в
көріні сі</w>
ке ні
жі беру</w>
жыл ыту</w>
жеті лдірі
бал ан
аяқ талады</w>
айнал ып</w>
Ш ығ
Республ ик
И С
Б аста
la w</w>
con tin
1- ші</w>
ғас ыр</w>
хал ықтық</w>
рег ламен
ортал ық
му ла
м 3</w>
ия дан</w>
ер те</w>
ев тың</w>
д i
бірі гіп</w>
бар лығын</w>
б ро
ini ti
ban k</w>
I S
6 4</w>
10 0
өндіруші лер</w>
өзді гінен</w>
әді стерінің</w>
қалдық тар</w>
і сі
сте н</w>
сим вол
мәсли хат
мат икалық</w>
ли ту
кө пте
керне у</w>
к алық</w>
ала ның</w>
аз айтуға</w>
адам дарды</w>
lo w
h an
condi tions</w>
7 00</w>
201 4-
қазақстанд ық-
ық ш
уля тор
се р</w>
сау ал
пе лі</w>
парт иясы</w>
п ас
мүмкі нші
көп шілігі</w>
комиссия сының</w>
исе кеше
жеке меншік</w>
бұр ын
асыр ылған</w>
Ж ас
А Қ</w>
servic es</w>
5 1</w>
әл-ау қа
ұлыбритан ия</w>
қолда на
қан шалықты</w>
шығар ылатын</w>
фи г
тір шілік</w>
сал алар</w>
пайыз ын</w>
не йтро
ндір ілген</w>
заңна маны</w>
жи ын</w>
е мдеу</w>
белгіле нді</w>
бағ асын</w>
б әрі
f es
exhi bi
enter pris
әлеу е
ұк п</w>
қыс қаша</w>
қолда натын</w>
у )</w>
та -</w>
п aй
нар ықта</w>
мә нге</w>
монитор ин
кон гре
жеңілде ту</w>
жас а
жалғ астыру</w>
долл. р
д сұ
бір кел
аш ып</w>
ар дағы</w>
ала ң</w>
st ates</w>
i vers
el e
қазақстан мен</w>
ғала мдық</w>
шар алардың</w>
ция сына</w>
тап қан</w>
сер б
сал қы</w>
республик асындағы</w>
объек т</w>
мәлі м</w>
логист ика</w>
л ығ
жеткізі лген</w>
д e</w>
г ү
аэ а</w>
ата улы</w>
ал дың</w>
Ы Ң</w>
struc ture</w>
9 2</w>
құра мының</w>
уш ысы</w>
түзе тулер</w>
те ста
р о</w>
лі ктерінің</w>
кө пір</w>
кө зі
ке су</w>
желі лер</w>
ет на
да ,</w>
был ай</w>
антро по
ан ти
алдар ы</w>
а к</w>
Г и
Бол аш
no w
ev ent</w>
7 4</w>
өткізі п</w>
ұм тыл
ү йді</w>
қыз ық
қауіп -
шө гі
шыл арға</w>
шыл арды</w>
фор мула
түзе ту</w>
ре ля
му зей
кәсіпкер лерге</w>
к циялық</w>
й со
зауы ттың</w>
жеткі зе
д с
гер шілік</w>
бірі не</w>
бекі тілді</w>
Ке й
p ur
organ iz
a н
9 8</w>
7 3</w>
құрылым ды</w>
құрыл ғы</w>
қал дық</w>
қаз анда</w>
ынтымақтас тығын</w>
хал қы
тудыр ады</w>
проце сіне</w>
моби ль
мл н.
клас си
жал ақ
бі ті
бағы тын</w>
ала тынын</w>
pr im
0 1</w>
құрам ды</w>
қар қы
істе й</w>
экономик асына</w>
ц у
у де
толық қанды</w>
тар тылған</w>
с тінде</w>
отыр ғыз
наурыз да</w>
ме к</w>
мат ул
м бетов</w>
заң ның</w>
жас ыр
да ндыру</w>
влади мир</w>
бер уде</w>
бар ысын</w>
атмосфер алық</w>
ас атын</w>
un der</w>
th rou
sign ed</w>
ati ves</w>
Өл ше
шығ ыны</w>
түр кі</w>
та ж
премьер- министрдің</w>
нов .</w>
мә нді</w>
ла ну</w>
кәсіпорынд ары</w>
кү міс</w>
к үшін</w>
йсо қ</w>
вь етна
бас талған</w>
б ыз</w>
Х ал
К әсі
dre n</w>
chil dren</w>
әле мге</w>
қыз дыр
ыдырыс ов</w>
х ир
уақы тында</w>
тінді гі</w>
ту ден
тау дың</w>
та мыр
сол түсті
по ш
о ни
нысан ның</w>
ни дер
лері ндегі</w>
л ори
көп ші
жер лер</w>
бөлі мі</w>
бағы тындағы</w>
ая ғ
а дан</w>
Д ә
in formation</w>
8 7</w>
ұн тақ
үмі тте
ф акті
тар алуы</w>
сү згі
ре ль
мыр ыш</w>
мар кет
м гі</w>
көлік -
е лі</w>
е кен</w>
в р
бл ок
ағ ыны</w>
аумағ ындағы</w>
арза н</w>
ал қап
В т</w>
e d
as e</w>
ө туге</w>
үнді стан</w>
таз ал
сын ау</w>
сп ірі
сп ек
сал қынд
са тыл
келеше гі</w>
ия мен</w>
и спан
жақ ында</w>
ел орда</w>
белсенді лігін</w>
бе тінде</w>
ба п</w>
ат теста
ар та</w>
Ы Л
read y</w>
l ic
industr ial</w>
cap ital</w>
at trac
5 )</w>
( 2-
ә зі
ұйым дары</w>
қауымдас тығы</w>
қалыптасу ы</w>
шы нық
ушыл арды</w>
уақы тты</w>
тәу лігіне</w>
ты йым</w>
тте у</w>
температур алық</w>
тег ор
тауар ларды</w>
таз алау</w>
сп ир
ой ымша</w>
нар ығында</w>
мөлшер ле
көме к
крем ний</w>
з атты</w>
жу ық
жапон ия</w>
ви ч</w>
ак ция</w>
wh o</w>
tr i
m ak
6 2</w>
өткізгіш тік</w>
өсімді ктер</w>
қо салқы</w>
тұрақ тылығы</w>
тт ерінде</w>
тонн аны</w>
сипат ы</w>
салын ады</w>
мі здегі</w>
көрсе те</w>
заң ға</w>
заң сыз</w>
з арда
жүре тін</w>
жүргізі летін</w>
еке ніне</w>
дығ ына</w>
ды м</w>
да ған</w>
бей не</w>
б ының</w>
ақпарат тарды</w>
аяқ тау</w>
артықшыл ығы</w>
араб и</w>
Ф араби</w>
С ә
Есе пте
ұ сақ</w>
қу атын</w>
қозғал ысын</w>
қарым-қатынас тың</w>
қара ша</w>
ынтымақтас тығының</w>
тү су</w>
ту і</w>
сөз сіз</w>
статист ика</w>
ор лық</w>
нәтиже сін</w>
на р</w>
метал дар</w>
мас ымен</w>
л дің</w>
координ ат
кон цеп
жұмы р
ер кі
ел ь</w>
биі ктігі</w>
бақылау ды</w>
бас сей
ау ыз
аза ю
С туден
secur ity</w>
or d
establi sh
ac hi
2 .
15 ,
- ны</w>
ө спірі
тө се
тон на
то к
тере зе
нд а
назарбаев қа</w>
мақсат тары</w>
күн нің</w>
кеп тір
жалпы ұлттық</w>
бас ып</w>
ас ан</w>
ар алап</w>
С та
ma j
am e
4 .
00- ге</w>
әліп би
құқ ығы</w>
қараш ада</w>
цен тр
туынд аған</w>
тең дік</w>
тер мен</w>
теор е
сыны п</w>
пә ні</w>
нығ матул
н шілік</w>
мәлімет і</w>
лі кте</w>
ко операт
жүргіз еді</w>
жылу лық</w>
дүй се
адам дарға</w>
ТЕ Р
Д ере
work ing</w>
suc c
p en
үйре ту</w>
қытай лық</w>
ш ру
университе т</w>
ты нына</w>
то н</w>
терри тор
тегже йлі</w>
п қы</w>
ортал ықтар
на шар
ен ген</w>
дү ни
бү р
алғ ысын</w>
Мо де
І Н</w>
qu ality</w>
p er</w>
o w
exhibi tion</w>
b le</w>
) ,</w>
өзгере ді</w>
қауі п</w>
шығар ады</w>
холдин гі</w>
төменде гідей</w>
тұ қым
таныстыр ылды</w>
окси ді</w>
нар ығына</w>
нар ығын</w>
н.назарбаев .</w>
ля нд
лге ндей</w>
көш басшысы</w>
ке йін
идея сы</w>
жүйе сі
жеті мді</w>
жа қ</w>
д ерек
бі тір
б )</w>
амп литу
ави ация</w>
Р о
x x
tot al</w>
re qu
pl ace</w>
i d</w>
a im
ым сыз</w>
шекте у</w>
фос фор
сайла у
поль ша</w>
пе тро
опер а</w>
огра м
мәдение ті</w>
интеллекту алды</w>
и т</w>
зат тарды</w>
есі мов</w>
дәрі лік</w>
бөлі м</w>
ауыл ында</w>
атқар у</w>
ал дау</w>
айтыл ғандай</w>
Себе бі</w>
per s
6 3</w>
құрам а</w>
құр ау
қыр ғыз</w>
ілгеріле ту</w>
элемен ттердің</w>
техн иканың</w>
тақыр ып</w>
талап тары</w>
съ ез
сті кке</w>
сипатта маларын</w>
пробле малық</w>
порт ф
органд арға</w>
насихат тау</w>
лар ынан</w>
кур с</w>
к -</w>
бұ ұ-ның</w>
аө к</w>
арту ына</w>
u e</w>
ex po
cre ated</w>
өзгер тулер</w>
қаң тар</w>
э муль
нұс қа
микро скоп
материал дың</w>
ктер ден</w>
ка тегор
ист икалық</w>
жобас ына</w>
г ан</w>
бо з
бағдарламас ында</w>
бас тығы</w>
банкі нің</w>
аға ш
il ity</w>
heal th</w>
em b
8 3</w>
7 6</w>
2, 2</w>
1 .
ә лде
ұйымдастыр уға</w>
қауымдас тығының</w>
қал ып</w>
Қ ұрыл
ш у</w>
т ник
метр ия</w>
ма ды</w>
м ж
кеу екті</w>
жәрде мде
жеңі с</w>
егже й-
бю ро
бол маған</w>
бағ алады</w>
ал ының</w>
ал ге
аг рег
Д А
Алма ты
re present
eur asian</w>
1, 7</w>
құрылым дар</w>
қо й</w>
ы шы</w>
ш ке</w>
хим ия
фер ро
тұр ып</w>
тізі мі</w>
тар ынан</w>
схе масы</w>
пал ата</w>
нар ықтық</w>
мұнай газ</w>
мамыр да</w>
лық тың</w>
кезде йсоқ</w>
итал ия</w>
жин ақ</w>
жетісті ктерін</w>
жам ылғ
ескер у</w>
ағ ының</w>
ауда нындағы</w>
ай тар</w>
ter r
A n
6 8</w>
қорға ны
іс кер
төме ндегі</w>
тұтын ушылардың</w>
түсіні стік</w>
тіл ге</w>
ті лігі</w>
тиімді лік</w>
температура ның</w>
серпі мді</w>
нәтиже лерді</w>
н әр
мәліме тінше</w>
кеңіс тік</w>
е жел
дол ларға</w>
бай ыту</w>
аймақ тарда</w>
t ors</w>
mark et</w>
ke y</w>
em ents</w>
b el
2 5-
1, 4</w>
- ке</w>
өлше м</w>
өз дері
Ә де
қызме ттері</w>
топ тары</w>
тал ь
ор ман</w>
одағ ының</w>
н ью
мей ра
көші-қо н</w>
көрсетке ндей</w>
кі тап</w>
кон фес
инф ля
импор т</w>
жұмыс ында</w>
жер дің</w>
дәреже лі</w>
ги ен
в оль
бөл уге</w>
б o
айырмашыл ығы</w>
азамат тары</w>
авто кө
su m
elec tr
compan y</w>
] :</w>
[ 3
5 3</w>
- дағы</w>
( c
әуе жай
ұ н</w>
үдері сі</w>
қызметші лер</w>
қызме тінде</w>
қи ыл
ға ,</w>
элемен ттерін</w>
ци линд
сті ктің</w>
сері к</w>
президен ттік</w>
назар ын</w>
мұнай дың</w>
масс асы</w>
и .
жүйе де</w>
байқал ды</w>
ация ның</w>
ауыл шаруашылық</w>
асырыл у</w>
y oun
me d
m s</w>
independ ence</w>
ex peri
al y
add ress</w>
F e
9 6</w>
5 4</w>
2, 4</w>
- дәр
өз ені</w>
әді лет</w>
үй -
эыд ұ</w>
тандыр уға</w>
та мыз
та дан</w>
сүлей ме
рұқ сат
мү лікті</w>
мар т</w>
м баев</w>
күн нен</w>
жүргіз уді</w>
бейне ле
ал да</w>
ак креди
Б ұл
u ation</w>
pop ulation</w>
li k
f am
addi tion</w>
өзгер у</w>
ұсыныл ып</w>
үш iн</w>
ү стінде</w>
қолда удың</w>
ғалым дардың</w>
яс ын</w>
ь е</w>
ынтымақтастық қа</w>
шекар а</w>
шаруашыл ығының</w>
у р</w>
түрлендір у</w>
топ тар</w>
тапсыр масын</w>
сұраны сқа</w>
сен сор
мерзі мін</w>
мекте птер</w>
к ә
би ог
бағал аудың</w>
Бағ дарла
f ur
6, 5</w>
- 2</w>
ұзақ мерзімді</w>
құ нын</w>
қаты сатын</w>
ымыз ға</w>
тт арға</w>
теңде удің</w>
талап тарын</w>
ор би
маңыздыл ығына</w>
кепі лдік</w>
зерттеу лердің</w>
жі ө</w>
жер і</w>
жақ ып
г ор
вел о
ауда нда</w>
алар дан</w>
азамат тарды</w>
С ол
hi gh</w>
өткізі летін</w>
өске мен</w>
әб дір
ұстаны м
қабылда уды</w>
це мен
уағдал ас
у лерді</w>
төменде туге</w>
тор лар</w>
топ қа</w>
ста цион
со ған</w>
принцип і</w>
ныса ндардың</w>
нар ыққа</w>
мұн айды</w>
матери алды</w>
крип то
климат тық</w>
желі сін</w>
жас өспірі
жас тарға</w>
жаз ық
дыл ығын</w>
в тің</w>
бір текті</w>
бат аре
байланы стың</w>
б ол</w>
ани ма
О Қ
Мақ ала</w>
fi c</w>
e ffec
үрді сінде</w>
фосф ор</w>
түсі ну</w>
тар тылды</w>
та ған</w>
робо то
пә н</w>
перспектив алары</w>
олимпи ада</w>
мас са
ла п</w>
инвестиция ларды</w>
жұмыл дыр
жылдам дығын</w>
желі лері</w>
ел деріне</w>
ги дра
ақ у
алек санд
re duc
p s</w>
o il</w>
m u
k o
er ship</w>
be g
өңде лген</w>
Ұл ттық</w>
қыз ыл</w>
қосп а</w>
ған .</w>
істе н</w>
мыр за
и гі</w>
жү гі
дәрі -дәр
бал қыту</w>
ар нау
Б А
ol s</w>
citiz ens</w>
10 ]</w>
0 5</w>
өзе нінің</w>
қарастыр уға</w>
і ле
шы -
түр дегі</w>
тері нде</w>
таңдал ған</w>
тал ға
се ман
сақ талған</w>
пробле малар</w>
мину т</w>
мді лікті</w>
ман ов</w>
жолда уы</w>
жеткіз ген</w>
есе бін</w>
деме к</w>
бер уші</w>
ая қ</w>
ан ағ
ай ына</w>
ай лық</w>
а фр
К -
w ay</w>
vol um
is l
ann ivers
8 2</w>
құрыл ымының</w>
іс-шар аларды</w>
шартт арын</w>
ф ак
тәуелсізді ктің</w>
се йі
пайдалан атын</w>
нысандар ының</w>
корпор ациясы</w>
клас сикалық</w>
кер ам
келі сті</w>
з a
жоспар лы</w>
жо о-
д ж</w>
д асы</w>
бөлше ктердің</w>
бө ле
болдыр мау</w>
бл ог
Ф из
train ing</w>
le ar</w>
g y
eu ro
atten tion</w>
amoun t</w>
a in</w>
8 8</w>
5 7</w>
қорға уға</w>
қам тыл
қал асына</w>
тө ң
түзе ту
тоқ сан
то тығ
ти же
тап ты</w>
сәйкесте ндіру</w>
мұ хам
лар дағы</w>
жер асты</w>
ж э
е міз</w>
де у</w>
дар дан</w>
ги гиен
в ари
білікті лік</w>
болаты ны</w>
бастамас ын</w>
Кү н</w>
Келе сі</w>
А ста
i fic
distr ic
c er
A l
2, 7</w>
) -
ө скен</w>
ұста з
қ дб</w>
іс кер</w>
ші лде</w>
ш тей
төменде йді</w>
ту да</w>
таныс тыру</w>
орынд алу</w>
орта сы</w>
мұр аға
мере ке</w>
к п
жол дар</w>
жал ақы</w>
ер лік</w>
е ктор
дайынд алды</w>
г ол
бере тінін</w>
бе тінше</w>
арал астыр
Т ұ
И Я
әр қашан</w>
құжат қа</w>
іс-қим ылды</w>
экономик асын</w>
ын ға</w>
тең сізді
тар аз</w>
ст о
сал аларын</w>
ре зиден
пробле маларды</w>
про гре
ндар ын</w>
мә ндерін</w>
модель дер</w>
мa г
лі с</w>
күш тері</w>
зертте летін</w>
за л</w>
жиынты ғын</w>
жағдай дағы</w>
жа был
елімі зге</w>
де й
де генмен</w>
берме йді</w>
бағ асының</w>
бар ды</w>
б ау
ағ ынды</w>
ат уға</w>
алға н
ала тынд
айт сақ</w>
айналыс ады</w>
О нда</w>
d oll
J av
8 9</w>
ш ақ</w>
хан ов</w>
тәрті п</w>
ти л
тарат п
с и</w>
оңтүсті к-
ортал ықтарының</w>
ортал ығына</w>
облыс ына</w>
метр ологиялық</w>
кт ы</w>
за ман</w>
жұ қа</w>
дағдыл арын</w>
бол ғанын</w>
ал -
Е нді</w>
200 5</w>
( сурет</w>
өткізе ді</w>
қоғам да</w>
Ғ ылым
ш ұлы</w>
транс форма
технология сының</w>
тал ш
с a
режим де</w>
мемлеке таралық</w>
мекеме лер</w>
лме к</w>
ктер де</w>
компания ларының</w>
катал изатор
жағдай дың</w>
жар ақ
дипло мат</w>
да ғы
газ бен</w>
білі мнің</w>
бағдарла н
арнау лы</w>
анағ ұрлым</w>
ou th</w>
ci al</w>
annivers ary</w>
5, 5</w>
1 3,
өндірі лген</w>
қо сады</w>
қатар ,</w>
қарқ ыны</w>
қайыр ымдылық</w>
шар тқа</w>
тұрғынд арының</w>
п тикалық</w>
н ə
мәліме ттері</w>
мүмкінді гі
мо мен
мо дер
көкөні с</w>
кезе ктен</w>
инд ук
жылдар дағы</w>
жобас ында</w>
жеткілік сіз</w>
жер лерді</w>
жасау ды</w>
жа та
елдері мен</w>
е о</w>
ди да
де йін
белгі сі</w>
ақ ылды</w>
ар алас</w>
ан у</w>
алу ан</w>
trans port</w>
pri v
poli tical</w>
de pu
өзі міздің</w>
қалдық тарын</w>
хир ург
тіре к</w>
техн икасы</w>
таныс ып</w>
суль ф
со масына</w>
сипат тау</w>
себе п</w>
на тының</w>
н нен</w>
лан уы</w>
л и</w>
желі сінің</w>
егжей- тегжейлі</w>
диап азо
деформа ция</w>
да ндыр
аре на
ал тын
Ы Т
С а
Ж О
t al
e f
ar ds</w>
[ 8]</w>
7 7</w>
ұш у</w>
қар ас
қабылда п</w>
че х
х лори
фи зи
у шыға</w>
тур истер
то ғ
парламен ттің</w>
пар кі</w>
оң ал
нар ығы</w>
мүмкінді гіне</w>
мат ты</w>
корпор ативтік</w>
кв а
жүргіз ген</w>
есеп тік</w>
директор ының</w>
бұл тты</w>
беко ва</w>
алға нын</w>
алге бр
агентті гінің</w>
автомоби ль
Ж )</w>
throu gh</w>
sign ific
9 3</w>
іс-әреке т</w>
шығар ылған</w>
тай мын</w>
та маш
ре тіндегі</w>
поли ция</w>
о -</w>
м м
жиі лік</w>
жинақ талған</w>
атқар атын</w>
ар ындағы</w>
алдар дың</w>
the m</w>
ten ti
s econ
ic s</w>
em ber</w>
cre ate</w>
9 9</w>
5 8</w>
ұсыны латын</w>
қойнау ын</w>
қар ыз
электр оли
эк в
шығ ынын</w>
фран цу
формул а</w>
фин лянд
та ж</w>
сертификат тау</w>
сер гей</w>
рәсі мі</w>
орынд арына</w>
объ екті</w>
мә нд
мұғалі мнің</w>
ласта ушы</w>
жиынты ғ
ес те
болашақ тың</w>
бе ткі</w>
б ре
Е С
ic ro
ex t</w>
bec ome</w>
A r
5 9</w>
ә йе
ұсын атын</w>
ын a</w>
ті міз</w>
тт e
т ұй
сөз ді
стандартт арға</w>
ради у
нау қас
мәске у</w>
моде лінің</w>
л из
көмірсу те
кезең ге</w>
е гін</w>
дә не
белгі леу</w>
бейбіт ші
б ра
Е кі</w>
t re
p i
centr al</w>
ce i
2, 9</w>
2, 6</w>
ұйым ына</w>
ұз ар
қым бат</w>
қт ж</w>
Қ ы
ғала м
шығынд ар</w>
шығар ыл
шыл арының</w>
шар аны</w>
цифр ландыру</w>
ф он
уі нен</w>
түрі к
сұл басы</w>
п алы</w>
орналас уы</w>
о ле
мы сал</w>
картас ы-
жө нел
жі берілді</w>
жылжым айтын</w>
жеде лде
жандандыр у</w>
ді ндер</w>
ги пер
баста ма</w>
айнал дыр
Т І
Бұ дан</w>
Ав то
po tenti
peri od</w>
par li
op port
m an</w>
doll ars</w>
chin a</w>
ass emb
2, 3</w>
өндір уге</w>
өлше мдері</w>
құ зір
қо суға</w>
қар у-
қ алар</w>
цик л
х ай</w>
та да</w>
сарап шылардың</w>
са нына</w>
негіз дері</w>
меди а</w>
кадр лық</w>
кадр ларды</w>
елдер мен</w>
бөлі гінің</w>
бо са
биі кті
байланы сын</w>
анали з</w>
Д еме
Б атыс</w>
inf ra
am s</w>
өз дері</w>
әмбе бап</w>
ә ке
ә зер
үсті не</w>
қолдан ған</w>
қаражат ы</w>
қам туды</w>
қазір дің</w>
ғ алы</w>
ынд ық</w>
шығар ылады</w>
шеші мді</w>
хат шыл
хан а</w>
тәсі лдер</w>
тигіз етін</w>
теор иясының</w>
тас ын</w>
талқыл ауға</w>
та ма
сөй леді</w>
со в</w>
сенімді мін</w>
се ктор</w>
р ф</w>
он к
ни кел
несие лік</w>
н a
мә нінде</w>
мұ ның</w>
мақұлда нды</w>
мақсат тағы</w>
мар шру
лық- инновациялық</w>
күр т</w>
жетісті ктерге</w>
де генде</w>
да ну</w>
бизне ске</w>
С ын
Б ай
devel op</w>
6 6</w>
20 21</w>
- бір</w>
әді стің</w>
әді сті</w>
ұқ ш
қо ны
іс тік</w>
физ ик
у -</w>
тур бин
теле фо
тарих и-
тари х</w>
реак ция
профес сор</w>
парт ияның</w>
мү лік</w>
министр ліктің</w>
м г/
көз дерінің</w>
ка фе
жекеше лендір
е кте
диаметр і</w>
бри ф
баянд ама</w>
байланыс ты
ақпарат ы</w>
ахмет жан</w>
ал ыс</w>
loc ated</w>
ad s</w>
W e
6 7</w>
18 ,
17 ,
қара с</w>
ту де</w>
со н</w>
орынд ар</w>
нәтиже лерге</w>
мәселе нің</w>
картасы- 2020</w>
жүйе сімен</w>
жылжым алы</w>
жол дың</w>
жағдай лары</w>
дер ден</w>
ағ ынының</w>
ай тады</w>
А ла
st an</w>
m y</w>
d ra
at er
8 4</w>
әйе л</w>
әй елдердің</w>
ынд a</w>
ы стан</w>
та мызда</w>
т тан</w>
режи мінде</w>
процес тер</w>
ориз он
оператор ы</w>
нд ісі</w>
мәселе лерге</w>
мене д
көрсету ді</w>
комиссия сы</w>
им ид
заң дастыр
жү лде
жү з
ен шілес</w>
е -
д тық</w>
д тер</w>
гер лер</w>
бағ дар</w>
ақш алай</w>
ар х
акцио нерлік</w>
Т А
Жү йе
y our</w>
i a</w>
aр a
1, 1</w>
өмір і</w>
өзгері стерді</w>
қонақ тар</w>
қарастыр амыз</w>
қайраткер лері</w>
элемен т</w>
ыстар ға</w>
шаш ыр
х лор
уәкі летті</w>
у лердің</w>
та ст
ра л</w>
президен тіне</w>
министр лігінде</w>
контр ол
кезең мен</w>
и -</w>
ж ор
ды )</w>
гү л</w>
біріктір ілген</w>
бол жау
биі к</w>
атқар ып</w>
александ р</w>
Т і
Жұ мыс</w>
si ons</w>
s pe
c ol
amoun ted</w>
0- ге</w>
үсте л</w>
қызық тыр
қыз дыру</w>
қосымш алар</w>
қорғ асын</w>
қалыптасу ына</w>
ым а</w>
тілі нің</w>
тағайынд алды</w>
сау д</w>
с кан
ма ман
лге нін</w>
ластан уы</w>
көз қарас</w>
кв ар
жүр у</w>
жария ланған</w>
бр аз
бас тар</w>
ақпарат тар</w>
асыр ып</w>
ар хе
ал иев</w>
акті леріне</w>
айнымал ыл
аймағ ының</w>
агро өнеркәсіптік</w>
fur ther</w>
ag es</w>
8 6</w>
2017- 2018</w>
( 6
әді сінің</w>
қарым-қатынас тарды</w>
іздестір у</w>
э мо
ымыз да</w>
ыл ай</w>
шару а</w>
ті ндей</w>
туынд айтын</w>
тесті ле
субсидия лау</w>
стан циясы</w>
оқыту ға</w>
нд e</w>
мұ з
көш басшы</w>
күш-жі гер
кон тен
индустрия лық-инновациялық</w>
ері ндегі</w>
ги по
бе тімен</w>
баз а</w>
аш ты</w>
ах қо</w>
аль дық</w>
ал уына</w>
аз ар
Г А
re cei
potenti al</w>
it e</w>
ex per
ec t</w>
1 ]</w>
( x
өзгері п</w>
әлде қайда</w>
құттық таймын</w>
құрыл ып</w>
құрыл уы</w>
ғыш тар</w>
істе уі</w>
функция лары</w>
ті лд
теле фон</w>
тау ып</w>
т р</w>
субъекті лерінің</w>
сан алатын</w>
сал аға</w>
пайдалан ады</w>
мақсат тарға</w>
кон вер
келтір іл
есепте лі
доса ев</w>
демократ иялық</w>
ге й
в л
в ар
бір тұтас</w>
би ле
бас ымдық</w>
б ур
а бай</w>
Электро ндық</w>
Ж ар
Де генмен</w>
youn g</w>
ro ad</w>
e very</w>
are a</w>
2- ші</w>
( S
өту і</w>
өзгері стерге</w>
әдістер дің</w>
ю не
ым дарды</w>
уақы тылы</w>
ту ы</w>
таға мдық</w>
та ны</w>
спи кер</w>
портал ы</w>
облыстар ында</w>
мөлш ерінің</w>
милли он
ме ндер</w>
көбе ю
келтір уге</w>
жалғ асады</w>
Е уро
tic s</w>
resp on
re pr
repr en
ent repren
d eci
5 50</w>
4 0-
3- сурет</w>
18 0</w>
өндірі сте</w>
әзір байжан</w>
ә мір
ұқс ас
үміт кер
үлгі сін</w>
ү деме
қозғал ысының</w>
қаржыландыр уға</w>
қажетті гі</w>
қабылда ған</w>
экспо зи
ы c
у .</w>
тір ілген</w>
с -</w>
параметр лер</w>
пай тын</w>
лі ктен</w>
ла удың</w>
коммуник ациялар</w>
жылдам дық</w>
жыл умен</w>
жол ақ
жиі лігі</w>
ге ограф
бол ғаны</w>
бе делі
volum e</w>
loc al</w>
infra structure</w>
20 ,
( С
үдері сінде</w>
құр ып</w>
құндыл ығы</w>
қаға з</w>
қа т</w>
шығар ып</w>
ханд ығының</w>
фа кторы</w>
су ы</w>
сайла уға</w>
республик ада</w>
органд армен</w>
мал ь
л i</w>
инфрақұрыл ымы</w>
жұр т
ете ді.</w>
е неді</w>
біркел кі</w>
бі зді</w>
бе р</w>
б он
Т ұр
Мем леке
v o
pan ts</w>
ex pres
enterpris es</w>
di es</w>
7 1</w>
өткіз уді</w>
өндірі летін</w>
қосыл у</w>
қабылдан ады</w>
төзі мді</w>
тір ші
тақырып тық</w>
сәуле т</w>
рейт инг
ре кре
оқушыл арға</w>
ор ы</w>
олог иясы</w>
о сыдан</w>
о б
нді гін</w>
мен стан</w>
м нен</w>
көр у</w>
институционал ды</w>
и т
жауапкер шілігі</w>
жа р</w>
еңбе гі</w>
диагност икалық</w>
бір-бірі мен</w>
бой ымен</w>
бай қоңыр</w>
аль ді</w>
ал май
агро өнеркәсіп</w>
Эк ологиялық</w>
О қы
tr ad
pri or
oun d</w>
( 1</w>
әріпте стікті</w>
құр алған</w>
қаңтар да</w>
шығар ылды</w>
тәрбие леу</w>
түсіндір іледі</w>
таста й</w>
та ндық</w>
т /
р а</w>
нүкте сі</w>
ние т</w>
нат рий</w>
кері сінше</w>
ия т</w>
жо о</w>
жеті п</w>
желі нің</w>
жағ алау
еңбе кке</w>
ереже лерін</w>
ге ль
г оризон
болжа м</w>
болатынд ығын</w>
бе т
П ай
Баста пқы</w>
vi sit</w>
v a</w>
partici pants</w>
oo l</w>
man ag
leg al</w>
inte gr
fam il
assemb ly</w>
agre ement</w>
[ 9]</w>
7, 5</w>
ұйымдастыр удың</w>
ұ б
я дро
тәуелсізді гінің</w>
та к
сиг нал</w>
прокурат ура</w>
о таны
нұсқ асы</w>
мүд делі
мемлеке ттерінің</w>
зер деле
заңна ма</w>
жетекші лері</w>
жаз у</w>
ес кі</w>
е сте</w>
ве р</w>
ваг о
бүкі л
біті м
бір ін</w>
бал қы
анық тама</w>
ал ын</w>
айт қандай</w>
адам и</w>
адам зат</w>
Компью терлік</w>
r an
impro ve</w>
S T
M A
6 9</w>
үрді с</w>
қатысушыл арды</w>
түркі стан</w>
тар тым
сұх бат
сипат тайды</w>
рефор маны</w>
мү лде
лік тік</w>
көкше тау</w>
кү л
иннов ация</w>
и д</w>
жемқор лық</w>
бол маса</w>
бақ -
ба к
Э нер
ul ar</w>
organ ization</w>
moder n
l and</w>
gi c</w>
fi eld</w>
car ri
9 1</w>
) :</w>
ұл ттар</w>
ұйымдастыр ылады</w>
үш бұрыш
Үл кен</w>
құ м</w>
қосыл уы</w>
яр лық</w>
ығ ыс
ты -</w>
т қыш</w>
т eр
ста тикалық</w>
риза шыл
орна тылды</w>
ма кар
л се</w>
кор оль
кезеңі не</w>
интегр алдық</w>
ин нің</w>
зауы тының</w>
же ті</w>
жатқанд ығын</w>
жас алатын</w>
жалпы ға</w>
жаб ынд
ел орд
еге ме
дыб ыс</w>
денсау лығы</w>
ведомств ол
бол уымен</w>
академ иясының</w>
ай ып
М Д
Ж Ш
th o
si ble</w>
ing s</w>
expo -2017</w>
are d</w>
өндірі сінде</w>
ұ шақ
құттық тау</w>
құ м
қолданыл ып</w>
қабылда нып</w>
і сіне</w>
ықтар мен</w>
шаруашыл ығында</w>
холдин г</w>
табиға тты</w>
сөз ін</w>
сынд арлы</w>
мүлде м</w>
мінде ттердің</w>
лме йді</w>
кедергі лерді</w>
зертте уде</w>
жылдық та</w>
жең істің</w>
жеткізі п</w>
есеп терін</w>
ереже лері</w>
ги дрол
бө леді</w>
ақтө бе
арттыр уды</w>
ан т
w ays</w>
vi ties</w>
l in
experi ence</w>
entrepren eur
elec tions</w>
c an
asi a</w>
3 .
2, 1</w>
өңір лер</w>
ө седі</w>
әдіс на
ұқш ұ</w>
құр ай
қондыр ғы</w>
қой ылады</w>
қағ и
қам тудың</w>
қ асы</w>
эфф екті
түр леріне</w>
түйінде ді</w>
табыл атынын</w>
практ ик
пол я
п і</w>
н ағ
мер ді
л ығымен</w>
кеңісті ктік</w>
капи тал</w>
и к</w>
жо март</w>
дұр ыс
дері нен</w>
деклар ация
берді бек</w>
белсенді лігі</w>
ас соци
Деме к</w>
resul ts</w>
n o</w>
m ade</w>
lo w</w>
li f
l ab
be ing</w>
4, 4</w>
ұрп ақ</w>
ұйымдастыр ушылық</w>
қоғам ы</w>
қалалар да</w>
экспорт қа</w>
шығынд арын</w>
шақыр у</w>
тө бе</w>
с ары</w>
пе нд
отыр ысына</w>
метр ді</w>
менеджмен ті</w>
мег ап
мау с
мас сив
лі нде</w>
крист ал
кезде сіп</w>
ек тік</w>
беде лді</w>
аху алды</w>
ак уст
ə сі
sur e</w>
i -
hous ing</w>
g ical</w>
fr ame
chan ge</w>
at er</w>
6 0-
үдеме лі</w>
қытай дың</w>
қо жал
қалыптас у</w>
қабыл дайды</w>
қаба тының</w>
ыстар ын</w>
төменде уіне</w>
тұ н
тү се
ті лей
тор дың</w>
техн иканы</w>
сипат тағы</w>
семан тикалық</w>
са х
ресурстар ының</w>
пайдалан ушы</w>
ол ар
мәдение тін</w>
мод ул
мар ат</w>
кір ді</w>
картас ын</w>
к ум
зи н</w>
жүргіз ді</w>
жақ сы
гео де
ақ п
ай дың</w>
ИС О</w>
tri bu
th ree</w>
por ted</w>
d ro
(c )</w>
ұсыны п</w>
қызме тінен</w>
қосп алар</w>
қор ған</w>
қан ша</w>
ға ды</w>
туғыз ады</w>
топ тарының</w>
т қы</w>
сөй леу</w>
сәуле лен
стандар т</w>
се гмен
сал мақ</w>
пе н
кепі лді
к ле
заң ы</w>
жолда уын</w>
ер лер</w>
дүни е</w>
ақ пан</w>
Ме кте
Интерне т</w>
ve ment</w>
l an
il ities</w>
go od</w>
equ ip
e l</w>
b er
agricul tural</w>
өзгері сі</w>
әбі шұлы</w>
Қаз Ұ
түсіні кті</w>
тип тік</w>
ти ек</w>
сингап ур</w>
сезім тал</w>
сапар мен</w>
сал ықтық</w>
р ә
ор асан</w>
негіз дерін</w>
мәртебе сін</w>
мүмкінді ктерді</w>
ла ңке
ко нди
жоғарыл ату</w>
ағ ы
ам бул
ай татын</w>
Ж ол
ə р
uni vers
th s</w>
sit uation</w>
po w
di ff
comm it
қор дан</w>
қауымдас тық</w>
қаржыл ай</w>
қа нат
элемен ті</w>
х қ
ты м</w>
студен ттің</w>
сақ талады</w>
са б
ресур стардың</w>
оқыту шы</w>
на шар</w>
көрсеті лгендей</w>
көзде ліп</w>
көбей ту</w>
инте н
инвестор ларды</w>
енгізі летін</w>
дам уға</w>
ас ыл</w>
А т
med ical</w>
g es</w>
con duc
aр дың</w>
a тын</w>
O 2</w>
қарастыр айық</w>
э пи
тө ре
тауар лардың</w>
тапсыр у</w>
тала бына</w>
та қ</w>
сөйле ген</w>
сақ тай</w>
сал ау
р Н</w>
мәсі мов</w>
жүргіз удің</w>
е с</w>
дай ы</w>
газ дың</w>
бұр ышы</w>
ағ ына</w>
астыр ылған</w>
аймақ тар</w>
Ин формат
un der
tak e</w>
stan d
st er
on -
ex am
con sid
com p
acti vities</w>
құрылым ында</w>
қақ п
эксперимен ттік</w>
э м</w>
ық та
ы дыра
тұтын ушылар</w>
ті лде
сы р</w>
со н
на ви
мерзі мінен</w>
мен ,</w>
машин алық</w>
л инг
көпте п</w>
кәсі би
кір пі
керек .</w>
ке й</w>
кар тал
ия сында</w>
инвестор лардың</w>
зер де
з гі</w>
жинақ тау</w>
жеткіз уді</w>
дис кре
денсау лығына</w>
дан ады</w>
ведомств о
біл уге</w>
бо станд
ал ушы</w>
v al
form ed</w>
a e
ғ д
уі ш
тұжырымда масын</w>
тоб ын</w>
стандарт тау</w>
пә ндік</w>
пте н</w>
проце стердің</w>
орналас у</w>
ор ф
н. ә.
мәселе ге</w>
мүше лерінің</w>
мүмкі н.</w>
металлург иялық</w>
мал ьды</w>
магист ран
ма жар
көп жақты</w>
кәсіпорынд арды</w>
к ам
дене нің</w>
дайынд ауға</w>
да ң
бер уі</w>
бақылау дың</w>
аудар ылды</w>
Г О
j an
inte re
e th
cul tural</w>
as soci
1 6,
өзекті лігі</w>
әртарап тандыру</w>
ң ыз
қам тылды</w>
этн икалық</w>
ура ның</w>
тұрақ сыз
теңге сі</w>
тарап тардың</w>
та ция
студен ттері</w>
спик ері</w>
серікте с</w>
с олардың</w>
с мет
реак ция</w>
рати фикация
пош та</w>
ны й</w>
нау қа
көр ді</w>
конфес сия
кей де</w>
з ақ
жұ мағ
жою ға</w>
ежел гі</w>
ді м</w>
деңге й</w>
де ми
вен гр
бөлі не
бөлше ктер</w>
бері ктігі</w>
б атал
атқар ылған</w>
ардагер лер</w>
анық тай
амбул атор
v ity</w>
s et</w>
our ces</w>
m is
ent al</w>
discus sed</w>
d om
ci l</w>
are as</w>
8 1</w>
өңір лерде</w>
әр ті
үй лердің</w>
қашықтық та</w>
қалдық тары</w>
Қ -
і міз</w>
энергет икасы</w>
ын сыз</w>
ши х
фи ло
тра ектор
тонна дан</w>
те кте
таратп ау</w>
та ға</w>
пай да
оқушыл ары</w>
назар ына</w>
модель ді</w>
механиз мі</w>
мақсаты мен</w>
л ылық</w>
л айтын</w>
көрі неді</w>
көрсеткіш терінің</w>
көр ер
кі м</w>
интеллекту алдық</w>
иде ясын</w>
и ран
жұ п
жүкте ме</w>
жылдығ ында</w>
же тпе
жас ай
ес кере
вл икалық</w>
в аль
болатынд ығы</w>
бағытт алады</w>
бo й
аудандар ында</w>
М А
tu al</w>
oo d</w>
form s</w>
2, 8</w>
1 10</w>
ү сті</w>
құ быр</w>
қолда п</w>
қал у</w>
қал алардың</w>
эк с
ф икация</w>
тө бе
тере зе</w>
та улы</w>
сәйкесте ндір
сұрақ тары</w>
салын атын</w>
перспектив аларын</w>
п ле
оқи ғал
от о</w>
мә м
келісі мдер</w>
кальци й</w>
индустри алды-
инвестиция лардың</w>
жұмыстар ға</w>
жиын тық</w>
ден ти
бас у</w>
асыр а</w>
ара б</w>
Мұ ндағы</w>
Г ра
sp ec
provi de</w>
fi ed</w>
at a</w>
a м
4, 3</w>
3 4
1, 9</w>
өткіз гіш</w>
Ұсыны лған</w>
құр мет
қоғам ды</w>
қо я
қар ауына</w>
қа нық
шо б</w>
температур аға</w>
т iн</w>
сал мағ
пайдаланыл ды</w>
нə тиже
мырза х
мақ ала</w>
көле м</w>
кооперат ив
конференция ға</w>
кафе др
кар ди
кандида тур
зертте лі
жалғас уда</w>
енгіз удің</w>
егі с</w>
департамен ті</w>
бағдарлан ған</w>
айнал уы</w>
Ы Р
organiz ations</w>
a de
[1 2]</w>
9 00</w>
200 7</w>
( мысалы</w>
шынық тыру</w>
шар аларға</w>
у ынан</w>
түс іру</w>
тір і</w>
тепе- теңді
тамақ тану</w>
талқыл анады</w>
тал ды
оты нның</w>
онд аған</w>
он т
нығматул ин</w>
ндер де</w>
н сіз</w>
мама ндық</w>
ма ндық</w>
лық тар</w>
жікте у</w>
ж к</w>
еңбе кті</w>
ел ді
гене тикалық</w>
ақ па
ur e</w>
u n</w>
proc ess</w>
e ach</w>
coun cil</w>
өмір ін</w>
үйре ну</w>
қызме ттерінің</w>
қуат тыл
қу ан
қара ма-
элемен ттерінің</w>
ып -
шан хай</w>
ц ел
террориз мге</w>
р ау
парт ия
оқушыл арды</w>
мы мен</w>
модер ни
мaг нит</w>
көрсеті ліп</w>
ки н</w>
жоспар ына</w>
жағдай ларға</w>
жағдай ларын</w>
жасау дың</w>
жара тыл
жаб ық</w>
дыра тын</w>
гі сі</w>
ги п
бол ар</w>
бло кт
белгі сіз</w>
бағы тты</w>
ақпараттық- коммуникациялық</w>
аху ал</w>
ан ның</w>
авто жол</w>
Л Е
sid es</w>
provi ded</w>
proc ess
ol d</w>
it ary</w>
for um</w>
cre ation</w>
con tribu
au th
am ong</w>
aim ed</w>
2 2
00 0
ә келіп</w>
ұ мы
қорға удың</w>
қарастыр ды</w>
қабіле ттерін</w>
э м
чемпи о
ч ен
ул е</w>
тұ тастай</w>
түсі п</w>
тынд ығы</w>
ти з
сызда ну</w>
со нда</w>
ре аген
процес тің</w>
пи р
орындал уын</w>
одақ қа</w>
нар лық</w>
ле п</w>
ле ді:</w>
көмір текті</w>
инновация лар</w>
ж ж</w>
дол лары</w>
дем ографиялық</w>
дамыту дағы</w>
г у</w>
бесі нші</w>
бағдарла мал
ба ған</w>
ас у</w>
антропо гендік</w>
ай ларында</w>
С ап
Пе дагог
Мыс ал
l es</w>
i кт
I D
ү е
құжат тарға</w>
қас ым-
қал алары</w>
Қазақста ндағы</w>
і ш</w>
экспери мент</w>
ымы мен</w>
ше ксіз</w>
функция сын</w>
тәу лік</w>
тұрақ тандыру</w>
туриз мнің</w>
тереңде ту</w>
тапсыр ылды</w>
таны тып</w>
су пер
сонд ай</w>
со тт
ради ациялық</w>
операт ор</w>
мә ж
миним алды</w>
лі нше</w>
көр мені</w>
кор ро
кел генде</w>
и денти
жарам ды</w>
екі ншісі</w>
г иялық</w>
вице- президенті</w>
б i
анықтала ды:</w>
айнал ымының</w>
айнал у</w>
Со нда</w>
u ary</w>
t t
t ons</w>
soci ety</w>
ou t
n am
[ 1-
9 4</w>
1 40</w>
өсімді ктердің</w>
өмір ге</w>
ә к
қызмет тік</w>
қолдай ды</w>
қауымдас тық
қаб аты</w>
қ ыс</w>
э й
ха б
уақы ттың</w>
топ тың</w>
тақырыб ында</w>
тас ына</w>
стратег ия</w>
сап аны</w>
пре парат
п ра
негіз ге</w>
нар ығының</w>
млрд. теңге</w>
мекте бі</w>
мақсат тар</w>
лі ктеріне</w>
көш іру</w>
ио ндарының</w>
д іру</w>
д ə
бағдарла малар
аяқ талған</w>
аны п</w>
ад алық</w>
авто ном
а ,</w>
Т ер
ver si
vel y</w>
so ft</w>
frame work</w>
exp o</w>
bas is</w>
- делінген</w>
әсе т</w>
қызметші лердің</w>
қатар ынан</w>
қасым- жомарт</w>
қал ы</w>
ған ға</w>
яр лы</w>
эксп лу
экономика дағы</w>
шөгі нді
ше гі</w>
функция сының</w>
фор масы</w>
ф ото</w>
т о</w>
профи ла
органд арына</w>
нәтиже ге</w>
мыз .</w>
мақ са
кө лігі</w>
кор реля
исекеше в</w>
дер мен</w>
дақыл дар</w>
бар :</w>
ақпарат қа</w>
ағ ынан</w>
О дан</w>
И Н
Ж ылу</w>
u es</w>
sp here</w>
re li
le ar
l ine</w>
i ш
gi es</w>
e ve</w>
diff er
өкі л
үлгі лері</w>
құжат тың</w>
қатысу ын</w>
қасие ттеріне</w>
қ aл
іс-қимыл дың</w>
физика- химиялық</w>
тағ дыр
табыл ды</w>
та стау</w>
сәуле лену</w>
рефор маларды</w>
ойлай мын</w>
мемлеке ттері</w>
л ы-
кәсіпорынд арының</w>
кездесу дің</w>
интерне т-
и ль</w>
и ид
дсұ -ға</w>
бауыр жан</w>
басшыл ық</w>
бастау ыш</w>
бар ады</w>
ауди т</w>
астана -
ари ф
анд ай</w>
а қа
Тәжіри бе
Кей бір</w>
u al</w>
st om
fun d</w>
c ri
3 50</w>
ұста у</w>
үл дір
қаб ықш
эф фе
шеңбері ндегі</w>
ша х
теті ктерін</w>
тек ше</w>
т o
студен ттерге</w>
сте н
сақтау дың</w>
салалар ының</w>
п ов</w>
о ндық</w>
модель дері</w>
метр лік</w>
мерзі мде</w>
кү німен</w>
компания ларды</w>
кеңісті гінде</w>
кесте сі</w>
ке нін</w>
кв ази
жәрде м</w>
жол ды</w>
жас алынған</w>
болаш ағын</w>
б ор</w>
ауған стан</w>
ал ғы
ал ен
ай ынан</w>
Ц и
Со дан</w>
К ас
А дам
wor ks</w>
russi a</w>
pro tec
ne x</w>
commis sion</w>
com e</w>
ad op
7 9</w>
19 ,
қ. тоқаев</w>
ғыш тың</w>
ым ында</w>
фармацев тикалық</w>
ті н
те ме
стан ға</w>
сезім тал
паралле ль</w>
ос ын
обл ыстағы</w>
мет тер</w>
көзде п</w>
ква др
ик андық</w>
жәрмең ке
жағдай лардың</w>
жануар лар</w>
елорда ның</w>
дәне кер
бұй ымдар</w>
біл уі</w>
Эк сп
Болаш ақ</w>
Аста на</w>
wh ere</w>
cu stom
b ers</w>
a у
S Q
әрекетте су</w>
ұ т
қоғам дағы</w>
қару- жар
қазақстан нан</w>
ірге лі</w>
тұ сау
түсіні к</w>
тм д
ти му
тағайынд ау</w>
т aр
сипатта ма</w>
серікте сі</w>
пре с
нави г
мамандар ының</w>
кү тіп</w>
к əсі
жас тағы</w>
жалғастыр уға</w>
ж o
делег ациясы</w>
генер ация
валю та</w>
белсе не</w>
батаре я
бас қа
байланы стардың</w>
аза яды</w>
tim es</w>
r on
pro fes
modern ization</w>
h um
h is</w>
curr ent</w>
c ed</w>
[ 10]</w>
7 )</w>
10 0-ден</w>
( 0
өс ірі
өндіруші лердің</w>
өндір іске</w>
ә келі
құл ов</w>
қор ғал
қалдық тардың</w>
қа тары</w>
қа ндағы</w>
фор у
тиму р</w>
тер ге
сүлейме нов</w>
са у</w>
отбас ылық</w>
н ға</w>
н уі</w>
мақсаты мыз</w>
м б</w>
лігі нен</w>
кі таб
иеле нді</w>
и г
жел тоқсан
еті не</w>
ді нің</w>
дс ұ</w>
б ғ
ап атты</w>
Э Қ
Т о
m ust</w>
finan cial</w>
d o</w>
a н</w>
3, 2</w>
200 6</w>
өнеркәсібі нде</w>
Ө ні
әзірле уге</w>
үрді сінің</w>
ғ ақ
ше к
шартт арды</w>
уі нде</w>
ты ныс</w>
тив тік</w>
талда уға</w>
тала с</w>
сыйымдыл ығы</w>
проце стерін</w>
пал е
не міз</w>
мо ңғ
ме д</w>
ластан ған</w>
лан д</w>
көрсету дің</w>
кар та</w>
имп орт
ес ір
дәр у
д ик
ги др
бұ ұ
бір-бірі не</w>
баз аны</w>
ағ ынын</w>
аты нда</w>
ат тары</w>
Ф ур
sch o
kaz nex</w>
h ar
M icro
өзгері с</w>
ұлғ айды</w>
құзыретті лік</w>
қорғ ас
қар уды</w>
ғанд ықтан</w>
ш и</w>
у мет
тәртібі нде</w>
тіл дік</w>
сцен ари
се к
салау атты</w>
сабақ тар</w>
орг аны
о тте
мәсли хат</w>
мемлекеті міздің</w>
лицен зия
кәрі м</w>
коре я
жекеше лендіру</w>
жағ ымсыз</w>
баға ның</w>
бал арды</w>
ақ -ның</w>
ашыл ып</w>
анал из
С ыз
С О
Н азар
М ик
АҚ Ш
moder n</w>
mem ber</w>
in struc
6 1</w>
4, 1</w>
- та</w>
( 2
ұж ым
үзілі ссіз</w>
құрыл ыстың</w>
қы ға</w>
қай шыл
ғылым ды</w>
ізде ні
ша масында</w>
ш ат
ш айыр
ф лор
тәуелді лік</w>
тәсі лд
ті -
тиі сінше</w>
теор ия</w>
таны тты</w>
талқыл ап</w>
сұр ақ</w>
су ларды</w>
со ф
сайла уды</w>
раста ды</w>
мұқ ият</w>
концен тр
компания сымен</w>
киі м</w>
кеңісті кте</w>
кар то
зерттеу лерді</w>
жі беріледі</w>
жолда уда</w>
жабдық тарды</w>
е н</w>
дә йе
денсау лығын</w>
бө ге
бақы т</w>
бағытт арды</w>
ат тың</w>
ардагер лері</w>
амер ика</w>
О ны</w>
h el
g n</w>
d y
8 )</w>
4, 6</w>
1 30</w>
- ақ</w>
өңірі нде</w>
өндір уді</w>
үлгі лерін</w>
құт қару</w>
экспор ты</w>
шикі затты</w>
ша ң</w>
францу з</w>
универси ада
түр ге</w>
те з
тар ындағы</w>
тар тыл
суль фи
спектр і</w>
салмақ ты</w>
сал уды</w>
с ло
с иялық</w>
пара метр</w>
отыр у</w>
ор ал</w>
ол ог</w>
ов а.</w>
объекті лерді</w>
нәтиже леріне</w>
мәжілі сі</w>
көр ші</w>
кө не</w>
кәсіп орында</w>
ин жин
имп то
и ле
есепте уге</w>
дам и
бұй р
басп ана</w>
бала ның</w>
байқа удың</w>
аста мы</w>
ас импто
ал ық
ай дау</w>
автор лар</w>
Ы Н</w>
Б ақыл
si z
si on
s h</w>
progr ams</w>
particip ation</w>
k y
iнд e</w>
gh ts</w>
ci vi
ac coun
a ғы</w>
2 O
ұ дайы</w>
құжат тардың</w>
қал ау
ынд ар</w>
ылым да</w>
хро нды</w>
те же
стан с
програм мал
премь ер</w>
пор ты</w>
пер со
о не
ны ғаю
министр лігіне</w>
мей лінше</w>
макро экономикалық</w>
климат тың</w>
кесі нді
заңна маға</w>
жөнде уден</w>
жылдар ында</w>
жи ында</w>
желі лерді</w>
елдері міздің</w>
би ология</w>
белсенді лік</w>
бас қалар</w>
бар ысындағы</w>
б ты</w>
алдар ды</w>
аб ыр
Ы НД
w ould</w>
ro le</w>
lif e</w>
leg isl
өнеркәсібі нің</w>
әді л</w>
Ә с
ұсыны старды</w>
қатынас тардың</w>
ғал ым</w>
істе й
эксплу ата
ыстар ының</w>
ы ды
шекте лген</w>
ш аға</w>
топ тық</w>
те нден
тасым алы</w>
соз ыл
се кторы</w>
сарап шылары</w>
с ə
режим ін</w>
пол ков
ойынд ар</w>
метр ге</w>
метал дардың</w>
көле міндегі</w>
ко м</w>
келтір іледі</w>
кезең -
кар бо
инвестор ларға</w>
и ж
жі ө
жоб аларының</w>
жетіспе уші
гран т</w>
бол ға
ашыл уына</w>
ассамбле я</w>
ай ыл
ады ;</w>
Таби ғи</w>
М ат
М О
К өмір
sm all</w>
d ate</w>
carri ed</w>
% -
қор ына</w>
қал аларының</w>
шы ны
шеші мнің</w>
цилинд р
тро п
те у</w>
тапсыр амын</w>
та ту
т алар</w>
сын и</w>
серб ия</w>
са ндар</w>
ру х
процес сор
пайдалан ушылар</w>
п ри
орынд алған</w>
нов тың</w>
негізде леді</w>
мұ хи
медал ь
марапат талды</w>
ма мин
ле в</w>
кур сын</w>
король ді
ко манда</w>
келісі лген</w>
келеше кте</w>
кел ге
ке йі
зерде леу</w>
зарда п</w>
жас алынды</w>
ерекшелі ктеріне</w>
гізі лген</w>
бе тіндегі</w>
басшыл арымен</w>
б aй
ақпа нда</w>
айнал ым</w>
ад сорб
Топ ыр
« А
sch ool</w>
n uc
implement ed</w>
gr at
as si
4, 2</w>
қарастыр атын</w>
қам туға</w>
қаз ған</w>
қаз агро
ғанд ардың</w>
і з</w>
функция ның</w>
тіл де</w>
тран спорттық</w>
тол қ
тереңді гі</w>
сә уле</w>
спу тник
ретте уге</w>
пай ым
оңал ту</w>
офи цер
мүдде лерін</w>
моде лдеу</w>
ле уші</w>
конферен циясы</w>
келі сс
интегра цияланған</w>
жасақ тау</w>
жар на
жалғ асын</w>
жа за
дыб ыстық</w>
дам уда</w>
бо й</w>
бері луі</w>
ба б
б iр
ал ушылар</w>
адам нан</w>
А тап</w>
xx i</w>
secon d</w>
s ing
pub lic
priv ate</w>
ob jec
k now</w>
inv ol
distric t</w>
ac tion</w>
3, 4</w>
өткіз удің</w>
қылмы с
қаш ықтан</w>
қаражат ты</w>
қазақстанд ықтарды</w>
қаз ақтың</w>
іс -</w>
ын мен</w>
шілде де</w>
ф аза
стар ға</w>
республик асында</w>
поли мер</w>
оқиғ алар</w>
о нымен</w>
ны ш
мәселе лерінің</w>
мүм к
мүгеде к</w>
мв т</w>
ман и
ло мер
кине тикалық</w>
кепі лі</w>
кезең дері</w>
испан ия</w>
жетісті ктер</w>
дида ктикалық</w>
гидра вликалық</w>
генер ал-
анал ог
ал қа</w>
аймақ тарында</w>
аймағ ын</w>
Түр кі
ИЯ Л
technolo gies</w>
strate gic</w>
p at
in e
en e
e н
al ready</w>
achi ev
N a
3, 3</w>
қым бат
қалыптастыр ады</w>
қаб а</w>
қ м</w>
э нд
у с</w>
тәжірибе де</w>
тү спе
тізі мін</w>
тор ап
тер ин
тапсыр маны</w>
пайдалан ушылардың</w>
орынд алатын</w>
окру г
ок сид
көмір тегі</w>
келісс өз</w>
кезең дегі</w>
кe з
ист ор
ика -</w>
зар яд
жол дарды</w>
жинақ тал
еаэ о-
динам икасы</w>
би е
бе тін</w>
ба тыр</w>
атқар ылып</w>
ата қты</w>
акуст икалық</w>
айнал ған</w>
азамат тарының</w>
ави ациялық</w>
Ор талық</w>
t our
scho ols</w>
pr ic
lar ge</w>
g s</w>
g as</w>
curr ently</w>
con grat
5, 2</w>
өрне кте
ұ эм</w>
үй лерді</w>
құрылым ына</w>
қызме тімен</w>
қарым-қатынас тардың</w>
ғылым ның</w>
і лі
экстрем из
тәуекел дерді</w>
тілей мін</w>
транс ұлттық</w>
талда уы</w>
т ия
суре ттер</w>
стратег иясының</w>
серви стік</w>
ри бу
плас тикалық</w>
перспектив алы</w>
пе д
парламен тінің</w>
о мар
ныса нды</w>
нде у</w>
на гра
мәжілі стің</w>
музы калық</w>
м 3
лі ктерге</w>
лe кт
конференция сына</w>
келтір ілді</w>
кеде й
й тын</w>
индустриалды- инновациялық</w>
и тикалық</w>
зертте п</w>
жұмы сы
жыны старының</w>
жеткізі леді</w>
есепте йді</w>
егі стік</w>
дәлді гі</w>
дер лік</w>
дағ ды
биту мды</w>
бақылау шы</w>
бар ысымен</w>
арттыр удың</w>
ала мыз:</w>
ай ту</w>
Хал ықаралық</w>
К О
Б ұр
v en</w>
univers ity</w>
star ted</w>
st ed</w>
requ i
m e</w>
lik e</w>
in k</w>
i de
civi l</w>
ap pl
3, 6</w>
(1- сурет)</w>
әкімші лігінің</w>
ұйым ға</w>
үрді сіне</w>
үмі т</w>
қоң ыр
қосп асы</w>
қос ынд
энергия сына</w>
хат та</w>
федер ация
тұрғ ыны</w>
тір келді</w>
тал шықты</w>
таба ды</w>
ре ттік</w>
ор ке
онлай н-
обл ыстары</w>
н м</w>
мезгі лде</w>
маң ындағы</w>
м к
ла зер
көтер уге</w>
көп шілік</w>
кеңе сіне</w>
за цияла
жәрдемақ ы</w>
жаңғыр туға</w>
елдері міз</w>
даму ындағы</w>
білдір е
бел ор
бағал ауды</w>
бa ғы
аты п</w>
ас уы</w>
академ иясы</w>
Математ икалық</w>
Кәсі п
th an
represent atives</w>
nuc lear</w>
du e</w>
ati on
a нық
[ 4
4, 7</w>
3, 7</w>
- де</w>
( P
Ө йткені</w>
ұ ң
үсті міздегі</w>
құп ия
қызметкер лерді</w>
қоға мының</w>
қай тадан</w>
қабілетті лігі</w>
шла к</w>
шеші мдерін</w>
ш .
ция лы</w>
фи то
транс формат
то в</w>
сын -
си лик
се натының</w>
сапар ының</w>
п іс
ол арда</w>
нағ ыз</w>
м деріне</w>
кү нді
колле ктор
инжин ир
иеле ні
жұмыссыз дық</w>
жұмыс сыз</w>
ескер сек</w>
ге ография</w>
боз ым
бас ымдыл
бар лығына</w>
аймағ ындағы</w>
С ер
Д ен
tas k</w>
s el
pro mo
p e</w>
k in
jo int</w>
congrat ul
b -
4, 8</w>
0, 5</w>
өңде уші</w>
әрқайс ысы</w>
құралдар дың</w>
қысқар туға</w>
қоры т
қо ж
қасие ттерінің</w>
қажетті лік</w>
қабат тың</w>
э волю
шикі за
швейцар ия</w>
хро м</w>
тілі не</w>
тыл ықты</w>
тт арына</w>
тотық тыр
тар тымды</w>
сп ен
ресур с</w>
раз р
пре зен
пан ель
пайыз дан</w>
кемші ліктері</w>
кел уге</w>
ив ален
жеңілде тілген</w>
жағдай ының</w>
жа нынан</w>
дар ия</w>
да п</w>
д он
ве терин
бөлі гіне</w>
бір аз</w>
алмас уға</w>
автомат тандыр
П оли
ur al</w>
t es</w>
s ame</w>
prob l
mon ths</w>
dom es
d -
busin ess
bo dies</w>
auth or
C u
A P
( 3)</w>
әзер байжан</w>
Ә ді
ұл ға
қыл ау</w>
қос ылып</w>
қара ғанд
шеші мінің</w>
ше н
фра гмен
у дамыз</w>
тоқ тал
тер ден</w>
тама ша</w>
та уы</w>
су ларының</w>
стацион арлық</w>
см арт
с ко</w>
перио дты</w>
параметр лерінің</w>
нд e
нар ығындағы</w>
мекеме лерінің</w>
лі -
көрсеті лген
кеңес тік</w>
кет сек</w>
к әде
зия н</w>
жеткіз е</w>
екі нші
дәрі-дәр ме
диалог ты</w>
бұ лақ</w>
бюдже тті</w>
бол жан
белгі лері</w>
бағытт алды</w>
бай ытылған</w>
ала нды</w>
айнал дыру</w>
ай мын</w>
ады ,</w>
Ш е
І ле</w>
mil itary</w>
k now
invest ments</w>
g le</w>
c o</w>
c ep
ad ministr
a ment</w>
өзгер туге</w>
әкімді гінде</w>
ұл таралық</w>
үлгі дегі</w>
қышқыл ды</w>
қоғам дық-
қосымш аларды</w>
қо яды</w>
қарж ыны</w>
электр мен</w>
ын -</w>
ш иелені
у ы
у ге
тілде с</w>
тол тыру</w>
сәйке с
сенімді лік</w>
пәтер лі</w>
ортал ықтар</w>
объекті лер</w>
нал ды</w>
моди фикация
жол дарының</w>
жи ыр
жақ с
жас ы</w>
жаз уға</w>
етпе йді</w>
дүние ге</w>
баспас өз
айырмашыл ық</w>
а тайды</w>
Э ко
К өр
go o
elec tion</w>
domes tic</w>
3, 1</w>
1, 0
( 10
өсу ін</w>
үлгі лер</w>
құжат ты</w>
құжат тарын</w>
қай тал
Қыз ыл
ға ш
фиг ура
төменде теді</w>
т ж
салта на
п ақ</w>
отыр ысқа</w>
не в
мә н
моңғ ол
ли н</w>
кеңісті ктегі</w>
ика дан</w>
з ор
жүкте лген</w>
же туге</w>
диффу зиялық</w>
бөлі ну</w>
бғ м</w>
бу лен
браз ил
бол са
бол алық</w>
берме у</w>
бағытт ардың</w>
бала ма</w>
ақыл ы</w>
атқар ған</w>
алгорит мін</w>
азай тады</w>
М ар
us ed</w>
si ve</w>
sci enti
ro l</w>
iм д
ex port</w>
de part
con si
c are</w>
al located</w>
1 1-
әңгімеле су</w>
әзірле ніп</w>
үлгі лердің</w>
қосп алардың</w>
қала дағы</w>
ыз дар</w>
тү ге
тарап тың</w>
тапшыл ығы</w>
ру мын
пә нін</w>
петро пав
май лы</w>
ла бор
жи ыны</w>
жатқа ны</w>
диагност ик
дамы тып</w>
баста маларды</w>
бас талып</w>
ақ орда
ауда нның</w>
арту да</w>
ар та
аппарат тық</w>
ал қаб
ай ға</w>
ай тылады</w>
С у</w>
Оқ ушылардың</w>
АЛ ЫҚ</w>
te e</w>
li m
equip ment</w>
ch air
a қ
5 .
ұйымдастыр ды</w>
қаты са</w>
қаты са
ш ысының</w>
төрағ алық</w>
тәртібі нің</w>
то м
теле коммуникациялық</w>
тарап ы</w>
таныстыр ып</w>
т и</w>
сәуір де</w>
сү йі
сте гі</w>
режим і</w>
о ф
н iң</w>
мобиль дік</w>
мақ ты</w>
ла -</w>
көтері лді</w>
көле міне</w>
кір іс
индустр иясы</w>
з алы</w>
жолдау ының</w>
желі лерін</w>
жаңғыр уы</w>
жауапкерші лігін</w>
ге ология</w>
бизне с
атынд ығын</w>
алма тының</w>
ал ушының</w>
ай ым
У Д
М аң
Б ио
А с
y m
resul t</w>
n ext</w>
kazakhstan i</w>
es sion</w>
en se</w>
Ma th
C o
1- суретте</w>
1 2-
өтіні м</w>
әкім шілігі</w>
ұсын уға</w>
ұ ос</w>
үйлесі мді</w>
құра м</w>
қорға уды</w>
қамтамас ыз
қажетті ліктерін</w>
ғимар ат</w>
ционал ды</w>
у a
тұ ғыр
тү йді</w>
те ст
сыз ық</w>
про пор
отыр ысының</w>
микро организ
мемлеке тке</w>
мə лі
м 2</w>
көл бе
күр іш</w>
кү зе
кар ь
и ра
жол дардың</w>
жеңі п</w>
жария ланады</w>
ереже лер</w>
гигиен алық</w>
ган е
вице- премьер</w>
бәсекеле стікті</w>
бой ына</w>
бан ктер</w>
аяс ын</w>
ар ал</w>
Мұ най
Кө п</w>
Е р
Бе й
Б Ж</w>
lo t</w>
f ol
af ter</w>
Micro soft</w>
I T</w>
3 %</w>
ұ ғы
үй і</w>
құр аса</w>
қою ға</w>
қалыптастыр удың</w>
қай тала
қаз атом
қажетті гіне</w>
Қ ос
іі м</w>
фи н</w>
тәжірибе сіне</w>
тыны ш
тең ес
теат р</w>
т )</w>
серікте стікті</w>
пә ндер</w>
пі не</w>
ол армен</w>
объекті лердің</w>
мә ндер</w>
мың даған</w>
мж ә</w>
мегап оли
лі мен</w>
линг в
көрсеткіш ке</w>
кү ндік</w>
кон фигура
кон ти
коми сс
команд ир
кеңе ю
кан ада</w>
изра иль</w>
жоспарла уда</w>
жаб дық</w>
ескері п</w>
енгізі ліп</w>
дан уы</w>
дал ары</w>
визу али
бұз ушылық</w>
бірлесті ктердің</w>
бoй ын
атқар ды</w>
а дық</w>
С ар
К ар
« Т
v an
ti on
in dic
en ed</w>
ap дың</w>
C O
8, 5</w>
4, 9</w>
3 7
0,5 5</w>
әл-ауқа тын</w>
әкі мдік</w>
құр ды</w>
құ ю</w>
қор ектік</w>
қаража тын</w>
ғасыр да</w>
ықпалдас тық</w>
ық :</w>
шығар уды</w>
шетел де</w>
ш ә
ф лю
теңде уін</w>
су -
спорт шылар</w>
операция лар</w>
н у
мәті ні</w>
мұ з</w>
молекул алық</w>
ме сін</w>
ма дағы</w>
көш ірі
кө тере
клас терлік</w>
кере кті</w>
капитал ға</w>
к г
жұмыстар ымен</w>
жол -
жар ыс</w>
дис кі
ди ен
дар а</w>
да ны
бұрыш тық</w>
бал қым
байланы ста</w>
ауыт қу
ауы мыз</w>
О қыту</w>
З аман
res sed</w>
la un
h u
g ress</w>
employ ment</w>
differ ent</w>
custom s</w>
comm unity</w>
- қа</w>
өңір аралық</w>
өкілд еріне</w>
үші н
құрылғыл арды</w>
қим ыл
қатын асының</w>
ғанд ығы</w>
ға ға</w>
э ро
тү йін</w>
ті гі
топыр ақты</w>
технология лар
тарихи- мәдени</w>
тара тылған</w>
субсид ия</w>
сол ю
сип атын</w>
сайла уын</w>
орган ның</w>
операция ларды</w>
нар ықты</w>
мәліме ттерге</w>
көш басшылары</w>
кү нде</w>
кел ме
ке теді</w>
к и</w>
индук циялық</w>
з ияның</w>
жиын ға</w>
желі ні</w>
еті летін</w>
ел дік</w>
ек т</w>
дық ты</w>
да қ
ат қара
ар қа</w>
Ж ап
u ment</w>
o s
mem bers</w>
k ar
L A
2 %</w>
өңір лерді</w>
өңде йтін</w>
әді стері
әбдір ах
ұйымдастыр ыл
үйі нді
үдері сінің</w>
қана т</w>
қа ш</w>
эксп е
шақ қанда</w>
шар аларының</w>
функция ларын</w>
ті с</w>
тиі мсіз</w>
сәу ірі
сұрақ тарға</w>
сау лық</w>
ру с
ортал ықта</w>
міне з-
ми ссия</w>
матриц асы</w>
м- ге</w>
м уни
л eр
көп ір
кәсіпкер ліктің</w>
кү нін</w>
кі ні
кин о
келе ң</w>
з ос
жұрт шыл
жағ ымды</w>
жаз ық</w>
дал ды</w>
бөлі мінде</w>
баста малары</w>
б ы
айқынд ау</w>
айып п
а бо
Ресе й</w>
Жұмы стың</w>
Е лі
ГО СТ</w>
Ақ пар
І ш
u tion</w>
il is</w>
i f</w>
govern or</w>
ater al</w>
20 22</w>
17 0</w>
өңір лердің</w>
әреке ті</w>
ұсыны старын</w>
үй ге</w>
қағаз дар</w>
ық ыл
шеші леді</w>
фер мер
университе тінде</w>
тұрғынд арына</w>
ты p
тар та</w>
таны су</w>
сі зде
серви с</w>
ретте йтін</w>
п орта
ота нд
орналас ады</w>
объе ктивті</w>
м /
лар ындағы</w>
ла уды</w>
крем ни
кер лердің</w>
картас ына</w>
к ӛ
ие лі</w>
и іл
и й</w>
жылы жай</w>
жатқыз уға</w>
ел ден</w>
дә нді</w>
дере ктерін</w>
дайынд ығын</w>
дa ғы</w>
в ті</w>
бір лікті</w>
бал алы</w>
анық талып</w>
аймақ тардың</w>
Эксп ери
Ы Н
Республ ика</w>
Н ұр
М әсе
Ж ан
un ic
trad i
techn ical</w>
import ance</w>
as ed</w>
al e</w>
( 4)</w>
өкіл дерін</w>
әңгі ме
әдістеме сін</w>
қуаныш ты
қондырғыл ар</w>
қонақ тары</w>
қар ауға</w>
ынд ыр
ын ан
шығар ындыл
шаруашыл ығына</w>
ша м</w>
функция ларды</w>
тәсіл дерді</w>
ту мен</w>
тарих ын</w>
сіңір ген</w>
смет алық</w>
сенат ор</w>
саты сында</w>
салалар ына</w>
ос ында</w>
никел ь</w>
н әре
маңыз ға</w>
маға мбетов</w>
лық пен</w>
көтер ме</w>
көр кем</w>
коэффициен ттері</w>
ко г
келісім шарт</w>
ке мінде</w>
институ т</w>
заң ының</w>
жүргіз етін</w>
жа по
дайынд ығы</w>
бітім гершілік</w>
білдір ген</w>
берме к</w>
бер удегі</w>
б аны</w>
аш қан</w>
ат тардың</w>
арттыр а</w>
анық талатын</w>
айнал ымын</w>
Республик асында</w>
Есепте у</w>
r is
oл o
invest ors</w>
il e</w>
ha d</w>
for e</w>
ele br
d es
cul ture</w>
con stitu
c elebr
agricul ture</w>
a -
5, 8</w>
3- ші</w>
1 4-
( Т
ө нд
Әде тте</w>
үнемде уге</w>
үл гінің</w>
Ү ші
құндыл ықтарды</w>
құбыр ы</w>
қосыл ыстар</w>
қауіпсізді ктің</w>
ғимар аттар</w>
іс-шар аның</w>
шеш уші</w>
холдин гінің</w>
тізі міне</w>
ті з
тері мен</w>
таби ғ
ста нда</w>
отыр а</w>
ор аз
объек тінің</w>
ндер лік</w>
н ь
мақсаты на</w>
көлік тік-
көзде йтін</w>
кітапхан а</w>
кі ші
клас тер</w>
кар бон
жоспар лары</w>
дық тың</w>
ден і</w>
даяр лық</w>
виде о</w>
ведомств оның</w>
ак кум
айқынд алған</w>
автобу с</w>
ави а
С андық</w>
К ең
АҚ Ш</w>
succ ess
probl ems</w>
hist ory</w>
en sure</w>
T -
8 0-
1 %</w>
өр іс</w>
әді стеріне</w>
құр уда</w>
қолжеті мділігін</w>
экспе ди
экв ивален
э г
ым дардың</w>
хабарла масында</w>
у ақ
теңде уді</w>
тең гері
тар аған</w>
тал ас
тə сі
субъекті лері</w>
сингап ур
програм ма</w>
п әкі
мөлш ерінде</w>
лек т</w>
лат в
көрме де</w>
көбі не</w>
кәсіпкер лерді</w>
кодек с</w>
зо нд
з он
ететі нін</w>
ен уі</w>
дам ушы</w>
бұр ыш</w>
баянд алған</w>
басқар ылатын</w>
басқар ушылық</w>
ап та</w>
а ди
Т ол
Сол түстік</w>
Моде ль
w ater</w>
si bil
G oo
5, 3</w>
3, 8</w>
0, 6</w>
( 9
өнеркәсіп тің</w>
ұғ ыл</w>
ұйым дас
қызметкер і</w>
қазақ -
қ a</w>
шығ уы</w>
шар т
х х
ф ракт
уде міз</w>
тур булен
ту алды</w>
температур асын</w>
сөздер :
сұх бат</w>
ста ндағы</w>
сақтау ды</w>
ре волю
по ст
пала таның</w>
осын ау</w>
ос к</w>
орталық тандырылған</w>
мұ х
мінде ттерінің</w>
мақсат тарына</w>
ма ке
к арт
им ан
ик аға</w>
зы мы
жеңілді ктер</w>
жер ден</w>
желі лердің</w>
жасыр ын</w>
жап ыр
жаз ыл
ж ағы</w>
динам икасын</w>
болжам ды</w>
бе ле
ба ның</w>
б iлi
аурухан а</w>
аз иялық</w>
Р О
К )</w>
n ation</w>
is h
in do
h al
an y</w>
a з
I C
0,4 8</w>
ұлғ айтуға</w>
қос қанда</w>
қасие тті</w>
қалыпта сады</w>
қал аны</w>
істе гі</w>
ші нің</w>
ш ұғыл</w>
уль тра
у сіз</w>
тү тік
тізбе кті</w>
трен инг
тарих ында</w>
сым сыз</w>
стан ция</w>
сер вер</w>
сарап тау</w>
са тылы</w>
ро н
ро в</w>
проце сті</w>
патрио тиз
па ш</w>
мәдение тті</w>
мод уля
мемлеке тінің</w>
мас салық</w>
ле тінін</w>
көрі ніп</w>
көрне кті</w>
күші нің</w>
күй діру</w>
кір ген</w>
клу б
индустрия ландыр
и стік</w>
и стер</w>
жыл қы</w>
жетісті кке</w>
ер болат</w>
в ат
бұз ылуы</w>
бірлесті ктер</w>
бере ке</w>
бoйын шa</w>
б уын</w>
алмас тыру</w>
Шығ ыс</w>
Про грам
Ж үр
to ge
toge ther</w>
t ly</w>
sy st
o k</w>
de f
comple x</w>
ar t
ap p
ac tive</w>
1 60</w>
қол таң
қауымдас тықтың</w>
і п
ын ,</w>
ым мен</w>
шик і</w>
ше ктік</w>
ция да</w>
халқы мыздың</w>
ха бар</w>
тығ ымен</w>
талда удың</w>
сти пенд
спорт тың</w>
со маға</w>
республик асына</w>
ре кторы</w>
пә наралық</w>
полков ник</w>
полимер лі</w>
плас т
пайдаланыл ған</w>
ні ндегі</w>
назар ға</w>
мәртебе сі</w>
мұр а</w>
мы стың</w>
мекеме лері</w>
мамин нің</w>
күйі нде</w>
креди ттік</w>
концер т</w>
колле дж</w>
кеңісті гін</w>
кеңе сте</w>
кеше ннің</w>
келе міз</w>
кад ми
и ер
жұм салған</w>
жоспар да</w>
жас алуда</w>
есеп тердің</w>
ді )</w>
дамы н</w>
гра ви
гект арға</w>
г о</w>
в а.</w>
бұз ылған</w>
беделі н</w>
ай -</w>
а ф
ОҚ ЫТ
Ат мосфер
Іш кі</w>
v i</w>
stud ents</w>
signific ant</w>
par tic
offic e</w>
g o</w>
fun ds</w>
f ree</w>
d r
c as
c am
beg in
M L</w>
201 1-
0, 8</w>
әзірле п</w>
әді сте
ұрпақ қа</w>
қызме ттеріне</w>
қызме ттерге</w>
қау пі</w>
Қоры та</w>
Қ Т
ықтар да</w>
шеші мдері</w>
шағ ыл
цио нал</w>
хал ық
хабарла ма</w>
фести валь
фактор ларды</w>
уші лерге</w>
тәрті пті</w>
тілі ндегі</w>
теті нін</w>
т ру
т ой
т aл
студен ттерді</w>
сене мін</w>
сенат орлар</w>
орынбас ар
объекті сі</w>
ны қ</w>
музе й</w>
модул ь</w>
министр лер</w>
мектеп терде</w>
материалдар ының</w>
мазмұ нды</w>
көрне кі</w>
көп мүше
ку ла
кесте )</w>
к тір
к ав
ия ларды</w>
ид м</w>
же лде
есепте й
дай ын
ги бри
верси те
бұл ттық</w>
бой ындағы</w>
бер ушілер</w>
бер ге
бейне ленген</w>
бай бек</w>
аяғ ына</w>
арза нд
аз айды</w>
ажыр а
Ш Е
Ро бо
В е
terr it
r up
pre par
k ing</w>
issu e</w>
in ci
f ri
ec t
dra ft</w>
a use</w>
199 5</w>
өрке ние
ө ш
әді с-
Әр түрлі</w>
ң гі</w>
қыз ы</w>
қатынас ты</w>
қасие тін</w>
қабыл дайтын</w>
элемен ттік</w>
ыны на</w>
ыл ға
ше к</w>
уші лері</w>
тәжірибе лер</w>
түз у</w>
сүйе н
су і</w>
станция лары</w>
ста в
ст им
сау ық</w>
рекре ациялық</w>
ой ын-
нашар ла
нар ықтың</w>
нар ықтағы</w>
мысал ы,</w>
минер ал
ми р
ме нің
мақұлда ды</w>
мақ таны
мақ та</w>
маманд ығы</w>
малай зия</w>
күкір тті</w>
кеңес тер</w>
келісі м-
жұмс алатын</w>
жо шы
жай ын</w>
дәрігер лер</w>
дық тар</w>
дискре тті</w>
дa н</w>
гүл шара</w>
в ас
бөл ме
бү й
биог аз</w>
бақылау да</w>
бағ алап</w>
аху алы</w>
аумағ ына</w>
ак циясы</w>
У ни
Б ү
po se</w>
institu tions</w>
f ood</w>
c lo
b oo
ai l</w>
a й</w>
M S</w>
5, 6</w>
0,4 9</w>
әлеу ет</w>
құрылым дардың</w>
қолжеті мділік</w>
қо сатын</w>
қауіп- қатер
қарастырыл уда</w>
қаз ан
форум да</w>
тұл ғаны</w>
тоб ына</w>
теңдеу лерді</w>
техно гендік</w>
тар аз
таб ыста
спектро скоп
со ндық</w>
сақ талып</w>
принцип тері</w>
облыстар ының</w>
мәліме ттердің</w>
мол ь
материал ын</w>
лау ре
ла в
конститу ция</w>
кон тек
кадр лар</w>
инвест ор</w>
желтоқса нында</w>
же те
до ктор
динам ика</w>
дере ктерге</w>
геоде зиялық</w>
вьетна м</w>
бере тініне</w>
бас ының</w>
ақпарат пен</w>
афр ика</w>
аб солю
Ш ымкент</w>
Түркі стан</w>
Кіл тті</w>
y th
pos sible</w>
parli ament</w>
hol ding</w>
ec ted</w>
buil ding</w>
as s</w>
( П
өндір удің</w>
әй гілі</w>
Ә ДІ
ұрп ақтың</w>
құрастыр ылған</w>
қыс ымы</w>
қызмет кер</w>
қаржыландыр удың</w>
қаз ба</w>
Ғылым и</w>
шы -</w>
уағдалас тық
у д
ту ады</w>
топ тастыр
ти е
таб ысы</w>
су тегі</w>
скан ер
себеп тері</w>
са ғ</w>
ос ь
мон таж
модель дің</w>
модель дерін</w>
минер алдық</w>
макар он</w>
ма шы</w>
көме ктің</w>
кере мет</w>
з у</w>
жоспар ға</w>
жосп ардың</w>
жол ақты</w>
жер лердің</w>
же з
жақсы беков</w>
жағдай ындағы</w>
жағ ында</w>
елорда да</w>
дар ынды</w>
г. әбдіқалықова</w>
ваку ум
бі з
бло к</w>
баянд ам
ауқ ымы</w>
ау лар</w>
ат рибу
анықтау дың</w>
ак т</w>
аймақ қа</w>
аг ломер
або нен
а кт
Т ал
Мик ро
М АТ
sh o
pl ant</w>
m ul
j ud
inte res
impl ement</w>
hol d</w>
ev ents</w>
entrepreneur s</w>
199 2</w>
0,4 7</w>
. ж.</w>
өңір лерінде</w>
ұйымдастыр ушылар</w>
құжат та</w>
қарым-қатынас тар</w>
қалыпта сты</w>
элемен ттерді</w>
хабарла н
университе ттің</w>
ул ерінің</w>
төр аға</w>
тәрбиеле н
тұлғ алық</w>
тур ал
тепе- теңдік</w>
сын ам
сый лық</w>
се л
се кция
ре к
пробле малары</w>
пе кт
олог тар</w>
нұс қау
нұр -
негізі не</w>
мұха меди
мың ы</w>
мод улі</w>
меңгер ушісі</w>
менің ше</w>
маңыз ын</w>
мақ сатын</w>
маркет инг</w>
м к</w>
кар топ</w>
зертте ліп</w>
жаз ғы</w>
есеп тері</w>
ері кті</w>
е тті
дәрі гер</w>
д ул
гео метр
бөл уді</w>
бө лді</w>
бо -</w>
бе зе
ба ә</w>
ақыл -
астан алық</w>
Фур ье</w>
С Т
Мемлеке ттік</w>
Заман ауи</w>
Же ке</w>
wh ol
th er
reli gi
mak e</w>
int en
industr i
eр e
cr is
comm on</w>
c ы</w>
bec ause</w>
at s</w>
[ 5
A S
9 9
өмір де</w>
әзірле уді</w>
әді л
құндыл ықтар</w>
қолда уы</w>
қо ныс</w>
қарқынд ыл
электро н
эк ра
ықпал ын</w>
фак уль
уақыт тағы</w>
тұрғынд арды</w>
тізбе гі</w>
ти тан</w>
тапсыр масына</w>
тал шық
пе даг
отыр атын</w>
конферен цияның</w>
контей нерлік</w>
кеңес ке</w>
келіссөздер дің</w>
инвестиция ның</w>
идея лар</w>
жүре к</w>
жі ті
же те</w>
жал ған</w>
е ш</w>
диаграм масы</w>
би дай
бейне сі</w>
баянд алды</w>
ақш аны</w>
амер икандық</w>
ам и
алға нд
абат тандыру</w>
С ал
П А
st at
se e</w>
op en</w>
integr ation</w>
hist or
b est</w>
0, 7</w>
( T
өт пелі</w>
өзгері ске</w>
ұлғаю ы</w>
ұйымдастыр ылып</w>
құ нар
қышқыл ының</w>
қасие ттер</w>
қарқы нын</w>
қар алады</w>
қам тып</w>
қo лд
і сті</w>
ықта нда</w>
ып ты</w>
шең бер
ша ғай</w>
физи ологиялық</w>
фармацев тика</w>
тұз ды</w>
тол ер
тақырыб ына</w>
стандар ттары</w>
се ссия</w>
се ндір
по п
пaй дa</w>
міз :</w>
музы ка</w>
министр лігімен</w>
механиз м</w>
мамандар ын</w>
м км</w>
көрсету де</w>
көрме сінде</w>
кү й</w>
контей нер
комисс ары</w>
кад р</w>
игері лді</w>
игер уге</w>
и тарлық
зос келе
жиі лікті</w>
жатқа нына</w>
ж қ
дәрі с</w>
дүйсе нова</w>
да ни
гіш тік</w>
бол уда</w>
бейімде лген</w>
бейне леу</w>
бар а</w>
аспекті лері</w>
ас ыл
анық тады</w>
алған нан</w>
азамат тың</w>
а мин
Ци фр
Б І
А нық
ven ess</w>
ter min
technolo gy</w>
strength ening</w>
n on-
lab or</w>
fac ilities</w>
el l
commit tee</w>
S tu
S D
201 3-
00 0-
- на</w>
- дың</w>
( M
өмірі нің</w>
әріпте сі</w>
ұғ ымы</w>
ұш қыш
құрылғыл ардың</w>
қызметші лері</w>
қызме тте</w>
қоғамдық- саяси</w>
қаз аны
ю ни
экс кур
хро мат
фик ациясы</w>
фер мен
фактор ларға</w>
төзі мділік</w>
ті ліп</w>
тте лген</w>
тор лық</w>
таңда уға</w>
субъекті лерін</w>
станция сының</w>
семинар лар</w>
сал алардың</w>
с мо
ре гре
профессор ы</w>
про к
параметр лердің</w>
п лен
орке стр
опер ация</w>
н.ә. назарбаевтың</w>
ми лев</w>
медицин алық-
ме тан</w>
материал дық-
манд ар</w>
лi к</w>
л ұ
л уге</w>
көрсеткіш тердің</w>
кәсіп орны</w>
коэффициен тінің</w>
керне у
йке с</w>
инженер лік-
зақ ым
жү з</w>
жақып ов</w>
жа я
жа нында</w>
елімі зді</w>
дәлел денген</w>
дәле л</w>
дық қа</w>
гру зия</w>
ви ру
бұрыш ты</w>
біре уі</w>
бір лігін</w>
ар ман</w>
Тө ме
С )</w>
Мұ ғалі
vi ron
tas ks</w>
st age</w>
mar ke
man u
i stan</w>
fic ation</w>
ffic ul
ffic i
di fficul
d ge</w>
S er
Jav a</w>
= 0</w>
3 3
0,5 3</w>
( N
өткіз ген</w>
өсі мін</w>
Әс іресе</w>
қы да</w>
қор екте
қамты ған</w>
қ ия
істе ген</w>
ыз ды</w>
төле мдер</w>
тәжірибе лі</w>
тер о
таң дағы</w>
таң дау
тала бы</w>
та маны</w>
сыз басы</w>
су ының</w>
сте у</w>
с ере
портф оли
па ған</w>
мо тив
мере келе
мемлеке ттен</w>
мектебі нің</w>
мекеме лердің</w>
мақса тындағы</w>
мағын асы</w>
м г</w>
л ге</w>
көрсеткіш ті</w>
кө к</w>
күш тердің</w>
конфессия аралық</w>
компонен ттерінің</w>
кет ке
кезеңі нің</w>
к o
интер в
жи һ
жеде л
е ндігі</w>
дағы дай</w>
дайынд ауда</w>
бүкіл әлемдік</w>
біле міз</w>
баста маларын</w>
ах мето
ала ндыру</w>
ала -</w>
ак ция
Мат ери
ЖШ С</w>
Е л
y outh</w>
w om
uni versi
r ate</w>
hi m</w>
8, 3</w>
3, 9</w>
20 0-ден</w>
( А
әскери- техникалық</w>
әкімді ктің</w>
ӘДІ С
ұ лан</w>
үл гер
қаш ықтық</w>
қатынас тары</w>
Қ оз
шебер лік</w>
ци л
финлянд ия</w>
тәжірибе ге</w>
түзі леді</w>
тоқса нында</w>
см -1</w>
сағын та
сай ты</w>
ре тін</w>
пайдаланыл уы</w>
орна тылады</w>
ойла п</w>
ой л
нд ерінде</w>
мұра жай
меңгер уге</w>
мə селе
лыл ығы</w>
лабор атор
көрсеткіш терді</w>
көр шілес</w>
ком о
кезең ін</w>
ке ші
й он
интер вал
ика мен</w>
игі лігі</w>
и по
за ция
жұмыр тқа</w>
жаңа ша</w>
жалпыл анған</w>
ж aр
дәрі герлік</w>
дү ке
де пози
бұз у</w>
біріктіре тін</w>
бето нды</w>
бейі мдеу</w>
бас па</w>
ау аны</w>
ау ;</w>
атор лар</w>
ат па
аз ияның</w>
С оның</w>
v ill
o қ
manu fac
maj ilis</w>
lan gu
jan uary</w>
f l
exam ple</w>
e ver
de l</w>
d y</w>
a p</w>
I I</w>
Goo gle</w>
8, 4</w>
0, 4</w>
өнім деріне</w>
ө й
әдістер мен</w>
үй ір
қолда уды</w>
қо са
қасым бек</w>
қал аларды</w>
ғимарат тың</w>
ш ап
умет тік</w>
тәуелсізді гі
тұқ ымды</w>
тұлғ аларға</w>
тран з
ти птегі</w>
теңі зінің</w>
температур асының</w>
тапсыр малары</w>
талқыл анып</w>
сүйе ме
стандар ты</w>
соғ ысының</w>
сектор ының</w>
рәсі мдеу</w>
пла не
олог ияның</w>
объекті лері</w>
мұғалі мдер</w>
мысал ға</w>
мульти мед
ме к
мақсат тарын</w>
ле ді.</w>
кәсіпорынд арда</w>
конти нен
кв ан
и ли
зде н</w>
жұ тылу</w>
диагностик алау</w>
д м</w>
бу ра
ауыс у</w>
аудар ып</w>
аты мен</w>
архе ологиялық</w>
ар -</w>
анықтау да</w>
алгебр алық</w>
ав ло
К ор
ə р</w>
vi e
pow er</w>
n al</w>
initi ative</w>
g ed</w>
ful ly</w>
effec tive</w>
competi tion</w>
ch ar
at ors</w>
a w
P -
8, 6</w>
1 25</w>
1 200</w>
0, 3</w>
өнімдер ге</w>
әзі р</w>
үші ншіден</w>
қр -ның</w>
қо мақты</w>
қарастыр ылатын</w>
қажетті лігіне</w>
эмуль сия
шақ қандағы</w>
ш ымкен
чех ия</w>
учас кел
тұсау ке
тоқта ту</w>
топ тардың</w>
тан ған</w>
са бағ
ре ф
ре ке
ре й</w>
ре жі
р e
про вин
петропав л</w>
п е</w>
орынд айды</w>
ор де
онк ологиялық</w>
ойын- сауық</w>
о шақ
н ә
меңгер ген</w>
мең гері
маң ында</w>
маң ы</w>
марк алы</w>
мар гане
көкте мгі</w>
көзде луде</w>
күй де</w>
кір е
кур стар
ку ле
кез дері</w>
инфля ция</w>
жан ама</w>
ем ти
дол лардан</w>
бөлі ктері</w>
бөлше ктері</w>
бан ктердің</w>
ауру лар</w>
айту лы</w>
а қаба</w>
Уни версите
ww w
st ressed</w>
i нде</w>
gr ad
bas ed</w>
ati c</w>
appl ic
15 00</w>
( A
әзірле н
үміт кер</w>
үдері сіне</w>
үдері стер</w>
ң де
құ жа
қол а</w>
қи масы</w>
қаңтар дан</w>
қар ақ
қалыптастыр уда</w>
ғыл ықты</w>
і ліп</w>
ш ве
ц зин
фило соф
фабр ик
у мен
тұр ады:</w>
түсін уге</w>
ті лігін</w>
тип і</w>
теңде уінің</w>
тас ы
талды қорған</w>
тa н</w>
сын а
стүр лі</w>
стандартт арына</w>
синте з</w>
саң ыл
сай т</w>
ресур стық</w>
республик а
нор ве
н ог
мерзі мге</w>
машин алар</w>
кур сының</w>
кур сы</w>
кодек сіне</w>
ке мі
йе ді</w>
жанар май</w>
емес ,</w>
елдері нен</w>
дем п
д и</w>
граф ия</w>
виз алық</w>
бөлін уі</w>
білі мге</w>
бол уының</w>
бей тін</w>
ат ле
ан сам
алдар ының</w>
ала ды:</w>
адам заттың</w>
М ак
Ж ә
В ир
А рал</w>
um ents</w>
res ources</w>
d el
aй ды</w>
acti vity</w>
C l
0,5 2</w>
0,5 1</w>
0,4 6</w>
әсер ле
ұл тты</w>
Ұсыны лып</w>
құқ ық
қоғам ға</w>
қорытындыл ай</w>
қор лары</w>
қар ай
Қаз ақ
экспорт тау</w>
ынтымақтас тығы
ын- шаш
шығ ынды</w>
шеш уді</w>
хатшыл ығының</w>
филь тр
у ә
тыңайтқыш тар</w>
террориз м</w>
тал қыға</w>
сан алы</w>
пайдалан ған</w>
оқ ылымда</w>
облыс ынан</w>
на у</w>
музе йі
мемлекеттік- жеке</w>
матриц а</w>
материалдық- техникалық</w>
мас ындағы</w>
ло нд
ле удің</w>
көш ер
көбе йді</w>
күшей туге</w>
кір істер</w>
концентра циясының</w>
комите ттің</w>
кандидатур асын</w>
ия сына</w>
интел лект</w>
ика »</w>
зе р</w>
жар ым</w>
елдер ден</w>
деңгейі нен</w>
дамы та</w>
д о</w>
гер лері</w>
гар мон
бір қалыпты</w>
бол гар
бере міз</w>
басым дығы</w>
аумағ ын</w>
арал ықта</w>
аза маты</w>
автоном ды</w>
О сыдан</w>
Н ақты</w>
Н Е</w>
Ко ши</w>
Ке з</w>
Ден саулық</w>
Ге о
АР Д
А дам</w>
stand ards</w>
p ac
met ers</w>
lo g
k h
iр i
establish ed</w>
er ing</w>
cont rol</w>
bil ateral</w>
2015- 2019</w>
1 -</w>
өс келең</w>
өндір еді</w>
ұйым дармен</w>
құр лық</w>
қы мын</w>
қолданы с</w>
қарқынд ылығы</w>
қару-жар ақ</w>
қару сыздану</w>
қай талан
қаз транс
қадам ы</w>
Қ Ұ
шикізат тың</w>
хх і</w>
тур ни
ту ;</w>
топ они
то заң
теті гі</w>
тар ымыз</w>
талға т</w>
солтүсті к-
сау д
са нды</w>
с алады</w>
с e
ро п
прокурат ур
прокур ор
оқу-жаттығ у</w>
ортас ын</w>
о та</w>
ло к
көле мдегі</w>
кәде ге</w>
корпор ация
коммуник ативтік</w>
ки ло
к с</w>
й лік</w>
жосп арды</w>
жи де
желі лерінің</w>
жа -</w>
елі нен</w>
гидрол и
бе ттің</w>
бағдарла маларының</w>
ба х
аяқтал ғаннан</w>
аттеста т
арттыр атын</w>
арал астыру</w>
Т ем
Ал ды
y ing</w>
w ant</w>
v ari
t ar
re sid
m ec
e ds</w>
b ri
W indo
SQ L</w>
An dro
6, 6</w>
3 8
200 4</w>
әке п</w>
ә келетін</w>
қысқар ды</w>
қаражат тың</w>
қал асынан</w>
Қор шаған</w>
ғал иев</w>
ғай тын</w>
ыдыра у</w>
ы да</w>
шар ада</w>
фили алы</w>
тексері с</w>
таға м
тауар лары</w>
талқыл айды</w>
сектор дың</w>
сей см
се м
про цен
поли г
ой л</w>
мөлш еріне</w>
мұғалі мдердің</w>
миллион нан</w>
мектеп тердің</w>
мас ынан</w>
ма р</w>
керне удің</w>
кейін нен</w>
зейне тақ
з ді
же ту
же тке
жарияла нды</w>
екенді гіне</w>
е ндір
доста с
дар ынан</w>
дар дағы</w>
дал алық</w>
білікті лікті</w>
бол май
бер у
бал л</w>
бал аға</w>
б әр
ат қыш</w>
ас пайды</w>
ара дағы</w>
аймақ тарды</w>
ай ын</w>
ада л</w>
Т ар
Г ц</w>
th ir
stab ility</w>
s en
recei ved</w>
re forms</w>
pu t</w>
provi des</w>
o ff
fer ence</w>
ar t</w>
a ғ
a л</w>
[1 1]</w>
H T
6, 9</w>
200 3</w>
2- 3</w>
199 1</w>
1 :
1 .</w>
0,4 3</w>
0, 2</w>
( М
өт пе
әле мді</w>
үдері стердің</w>
қос ылатын</w>
қой ылып</w>
қой масы</w>
қаржыландыр уды</w>
қажет .</w>
қ ын
ь я</w>
формат та</w>
филь м</w>
тү кп
ту бер
тті к-
тект он
тар тып</w>
сұй ықтық</w>
со ғады</w>
сектор ын</w>
сауал нама</w>
сал аларды</w>
с өндіру</w>
ру д
пробле маларын</w>
парт иялық</w>
п ақ
ой -
о нды</w>
нығайту дың</w>
ни три
н мен</w>
модель дерді</w>
миссия сы</w>
мерейтой лық</w>
ма м
м л</w>
лі ктегі</w>
көре міз</w>
көр ке
компонен тті</w>
компонен ттері</w>
кл ю
кен т</w>
ке ш</w>
ке ту
и ор
жұмыстар ында</w>
жыл ды</w>
ж ерінде</w>
дизай н</w>
диап аз
делег ациясының</w>
бірі г
бері л
бейбітші лікті</w>
ба ғаны</w>
бaй лa
аты нына</w>
амер икалық</w>
а ша</w>
Ф ун
Техн икалық</w>
Пай далан
М аг
Ж Қ
Ж ез
Ал горит
Ал ай
sci ence</w>
s ports</w>
posi tive</w>
partn ership</w>
ne t
manag ement</w>
im in
ill s</w>
g er
exper ts</w>
en viron
aр ы</w>
M ap
H 2
5, 1</w>
201 0-
18 -
- тің</w>
( R
өмірі не</w>
өзгер уін</w>
әді сі
үдері стерді</w>
үдері с</w>
құр ған</w>
құп ия</w>
қолдан ушы</w>
қолай сыз</w>
қиынд ықтар</w>
қар алған</w>
қ асының</w>
іс-әреке тін</w>
этно сар
экспор тт
э тал
э лeкт
шұ ң
ф а</w>
ті ні
тыр ақ</w>
ту р</w>
тақырыб ын</w>
сан ап</w>
сал ым
сал тын</w>
рефор малау</w>
р і</w>
поли эти
пле нарлық</w>
платфор ма</w>
орналастыр ылды</w>
о тынды</w>
мәті нді</w>
механиз мін</w>
мағ лұ
көме кті</w>
кө терді</w>
кәсіпкер лері</w>
күш тер</w>
компания лармен</w>
кодек сінің</w>
кибер қауіпсіздік</w>
кере ктігі</w>
келтіре ді</w>
ке не
инфрақұрыл ымының</w>
инф ек
ие лері</w>
зауы тта</w>
жошы баев</w>
жоспар лар</w>
жетісті гі</w>
дәу ірі
доста стық</w>
дайын быз</w>
графи гі</w>
ге ндей</w>
білікті лігі</w>
бур г</w>
болатынд ай</w>
болаты нына</w>
бер т</w>
бел ь</w>
бағы тқа</w>
басшыл ығының</w>
бар ған</w>
аур у</w>
ауда ндары</w>
ал ты
ай ындағы</w>
Хим иялық</w>
С өй
К лас
Жүр гізілген</w>
« Қ
with out</w>
th ink</w>
t or
pl ac
p av
mat er
goo ds</w>
g est</w>
fac t</w>
educ ational</w>
cris is</w>
con trac
an aly
4 4
3 9
өзекті лігін</w>
әс еріне</w>
ұ л</w>
құрылым ның</w>
құбыл ыс</w>
қыс ымды</w>
электро д
шақыр ыл
ш ынд
уақ тылы</w>
уa қы
у ға
түсу і</w>
туынд ап</w>
тури стер</w>
тарал уын</w>
тал п
стан нан</w>
спорт шы</w>
спектр лік</w>
соғ ысы</w>
см айыл
сенат тың</w>
сай тында</w>
рәсі міне</w>
оқушыл арының</w>
оқу лық</w>
нөл ге</w>
нүкте лері</w>
нү кте</w>
н »</w>
мұ ны</w>
мырзах метов</w>
м )</w>
ло комо
ктор лық</w>
кеңісті кті</w>
йон сондық</w>
ике мді</w>
иид мб</w>
зертте уді</w>
жұ ма
жин алды</w>
ди ас
дағдыл арды</w>
дам а</w>
в ик
біріктіре ді</w>
бі лік</w>
был тыр
бағдарла мада</w>
бағ ындыр
байқа уы</w>
бaйлa ны
ас ан
аймағ ына</w>
Б р
stan ce</w>
sibil ity</w>
s es</w>
pr inci
iмд iлi
in di
fi ve</w>
doc ument</w>
contin ue</w>
al ways</w>
9, 5</w>
7, 6</w>
5, 7</w>
5 5
1 6-
00- де</w>
( К
өткізгіш тігі</w>
өнімді лік</w>
үлгі ні</w>
үе ұ</w>
қондырғ ысы</w>
қарапай ымдыл
этносар алық</w>
ь -
ыңыз ға</w>
шекар асы</w>
фор малары</w>
физ икалық-
төменде п</w>
түр лен
тубер куле
технология ларға</w>
тереңде туге</w>
таға м</w>
тамас ының</w>
стандартт арды</w>
соқ тыр
со ғы
се гіз</w>
сан итарлық
педаг ог</w>
паралле льді</w>
оқу- әдістемелік</w>
орталықтар ында</w>
орта дағы</w>
об ь
нью -
мә мі
монитор инг
ме зе
м и</w>
ла к
күш тік</w>
кур ор
конден сат
кон сул
команд асы</w>
кл асы</w>
ке -</w>
ио нд
иер арх
за ма
жас уш
ег у</w>
дөңге ле
директор лар</w>
де уге</w>
даму ында</w>
дайынд алып</w>
гео саяси</w>
бір ден
бол мау
ар мат
алгорит мдері</w>
алаң да</w>
аймақ ты</w>
Тем перат
Ги дро
Ақ төбе</w>
wom en</w>
s ome</w>
ri ghts</w>
protec tion</w>
pro ce
mar t</w>
hal f</w>
begin ning</w>
b ar
6, 8</w>
17 -
өкі ні
Өлше у</w>
ӛ з
әреке ттер</w>
Ұ й
үй- коммуналдық</w>
қау ым</w>
қар асты</w>
ға ндағы</w>
і і</w>
шеші мдердің</w>
шар тын</w>
универси ада</w>
тұрақ тандыр
тү ті
тт ерінен</w>
тк ш</w>
тик aлық</w>
тақырып тар</w>
тағайынд алған</w>
таны п</w>
тал ы</w>
сәйке стік</w>
сый ақы</w>
сер і</w>
сер жан
сау атты</w>
р ист
пә нінің</w>
пу тин</w>
поп уля
пар кі
о нден
мә ніне</w>
мо ва</w>
мемлеке тті</w>
ло в</w>
көрсе т
көз деріне</w>
коэффициен тін</w>
компонен т</w>
институ ттары</w>
и л</w>
зия ға</w>
жаң ашыл
жағ у</w>
жауапкерші лікті</w>
елдер ді</w>
департа мент</w>
гіш ті
г ло
бүгі нге</w>
бю д
бая у</w>
атмосфер аға</w>
ата уы</w>
ата нды</w>
аппар ат</w>
ан уы</w>
австр ал
Бас қа</w>
spe ak
mec han
j ob
f oc
depart ment</w>
chair man</w>
7, 8</w>
201 2-
200 1</w>
өлі м-
өзг eр
Ө зе
қызмет ші</w>
қиынд ық</w>
қар сыл
Қоз ғал
ыста ну</w>
ушыл армен</w>
төң іре
тұй ық
түзі лген</w>
тыр ылған</w>
ту дыратын</w>
тоқ ыма</w>
тор лы</w>
тегі с</w>
театр ының</w>
те сі
таңдал ды</w>
сә т
сүр іп</w>
сынақ тан</w>
рефор малардың</w>
ресей ге</w>
піші нді</w>
пікір ін</w>
отанд ас
опти малды</w>
мәті ндік</w>
мод у
мамандар ға</w>
м ой
лит ва</w>
көтері п</w>
көрсеткіш терге</w>
көп қабатты</w>
корпу с</w>
кор ол
кезең нен</w>
ика т</w>
ие ва</w>
жең іске</w>
жемі с-
жаңал ықтар</w>
жария лады</w>
есепте уіш</w>
дәлелде нді</w>
диз ель</w>
деңгейі ндегі</w>
ге ли
бюд жеті
бри г
бағал анады</w>
ағын ның</w>
ауыл шаруашылығы</w>
ас тында</w>
анық таймыз</w>
алғ ыс
Т Т
П авло
wh en</w>
s a
p p
n -
cor rup
co de</w>
7, 7</w>
4 6
ұсыны стары</w>
қатысушыл арына</w>
қайрат кері</w>
шар асы</w>
х ор
фаз а</w>
тәрі зде
тәртібі не</w>
тұрғ ысында</w>
тт арда</w>
тоқа евтың</w>
тас тық</w>
съез і</w>
стандартт арын</w>
салыстыр ып</w>
сал т-
рәсі мде
параметр і</w>
паке ті</w>
оқул ықтар</w>
отыр ды</w>
ортас ының</w>
ортас ына</w>
о я
норматив тік-
мерзі м</w>
мақұл данған</w>
маман ның</w>
ли дер
ик тер</w>
зі не</w>
за манда</w>
жұмыл дыру</w>
жүре ктен</w>
жылдар да</w>
жаһ анд
жай- күйі</w>
еуропа дағы</w>
енгізі п</w>
е мдік</w>
дио д
диас пор
дау ыл
г лю
бері ктік</w>
бар .</w>
б ж
ақу ыз
аудандар да</w>
ар алады</w>
алгорит мдер</w>
алар дағы</w>
ай та
МАТ ИК
Е К
www .
ne t</w>
n or
job s</w>
ef for
direc tion</w>
al ized</w>
/ /</w>
(x )</w>
( 3
ңі зді</w>
құ -</w>
қор тынд
қар ады</w>
қанағаттандыр атын</w>
Қоры тынд
ған :</w>
ғалым дары</w>
ық )</w>
шығ уға</w>
ше гінде</w>
ш ақты</w>
цзин ь
фу т
төр ай
тәсі лін</w>
тұжырымдам а</w>
тық тан</w>
тор лардың</w>
толық тыру</w>
термо динамикалық</w>
тар тты</w>
тапсыр малардың</w>
саясаты на</w>
робото техника</w>
ос цил
нәтиже лерінің</w>
нәр се
маманд ықтар</w>
мазмұ нына</w>
көрсеткіш теріне</w>
кон стан
й ор
инжинир инг</w>
и б
жү р</w>
жоспар ында</w>
жеткіз дік</w>
желі сіне</w>
жаңғыр тудың</w>
жая у</w>
жа тақ
жа ндарға</w>
емхан а</w>
ди цин
г ере
в ан</w>
бір тек
бол ды.</w>
бал ь
ақпараттандыр ды</w>
ақ та</w>
ан ь</w>
алаң да
Көр се
Ж і
Е сеп
t -
siz ed</w>
si onal</w>
prior ity</w>
opport unity</w>
ma p</w>
i v</w>
g- global</w>
depu ty</w>
R educ
6, 2</w>
(6 )</w>
( E
( 5)</w>
өндірі леді</w>
өлім- жіті
өлке тану</w>
ә кел
Ә л-
үрді стер</w>
құрыл атын</w>
қорға с</w>
қақп асы</w>
қарж ының</w>
қар алып</w>
Қ ау
ірі м</w>
я д</w>
юне ско</w>
эконом икада</w>
эк и
эк зоскеле
э фи
шоғыр ланған</w>
у да
төменде ген</w>
тық та</w>
толықтыр ып</w>
сәйке стігін</w>
сый лықтар</w>
сый л
суар у</w>
ста цио
со масында</w>
синте тикалық</w>
син у
сауда- сат
сайла уы</w>
про филь
орг аны</w>
нүкте лі</w>
нде ,</w>
мын андай</w>
мо в.</w>
көрсеткіш тен</w>
кәсіпорынд арға</w>
ктив тік</w>
компания ларға</w>
кли мат</w>
ке ме</w>
ипо тек
инновация ларды</w>
ими тациялық</w>
ил л
жылдам да
жолау шы</w>
ері к</w>
ер дің</w>
деңгей ден</w>
біре гей
бағы тына</w>
бас тан</w>
аэро ғарыш</w>
аур улардың</w>
атом дық</w>
асыр удағы</w>
ариф мет
арена дағы</w>
алаң ын</w>
айқынд алды</w>
Э К
Т ап
П Т
Ме тал
Дере ктер</w>
Г ер
Ал ғаш
« С
whol e</w>
ob ser
ex ec
cor por
buil t</w>
adop ted</w>
S O
L ear
4- сурет</w>
( Б
( 3-
әкі мдері</w>
Ә ри
құрылғ ысы</w>
құрылғ ының</w>
қызығушыл ығы</w>
қозға ушы</w>
қар удан</w>
ық -</w>
формула мен</w>
түрі нің</w>
тіз бек</w>
тотығ у</w>
тиімді лігіне</w>
текте с</w>
тексер уге</w>
те тра
тасымалда уға</w>
тар тылады</w>
тар лық</w>
тапсыр малар
сұрақ тарды</w>
сақтал уы</w>
сауал на
риза шылық</w>
реда кция
ре сі
ре с
пробле ма</w>
п лан
ортал ықтарын</w>
маусым ында</w>
лауаз ымды</w>
көш басшыларының</w>
көрсете ді.</w>
көр е</w>
күре су</w>
креди т</w>
климат ты</w>
к .</w>
ия лық-
ия лардың</w>
жәрдемде су</w>
жү кті</w>
жылдамдық ты</w>
жыл дардың</w>
жиыр ма</w>
жаз ып</w>
есепте йміз</w>
есебі нде</w>
ды ғы
ды -
диффу зия</w>
депута ттарының</w>
вал ен
бері ліс</w>
бейімде лу</w>
аудар ма</w>
ардагер і</w>
а мандық</w>
Х Н
П ара
М ә
ter m</w>
re public
mon y</w>
innov ative</w>
I )</w>
Andro id</w>
2015- 2016</w>
өңде уді</w>
өмір дің</w>
өкіні шке</w>
Ө сі
ә .</w>
ү н
құр аушы</w>
қондырғ ының</w>
қолданыл у</w>
қар ау
қа тер</w>
эг г</w>
э лли
ықтимал дығы</w>
ш қо
тұр мыс</w>
тынд ай</w>
тар мағ
тапсыр масымен</w>
сүйен сек</w>
су ық</w>
спор тты</w>
сп із</w>
сонд ықтанда</w>
сессия сында</w>
сақтал уын</w>
са тылды</w>
радиу сы</w>
пә ндерді</w>
проце стерінің</w>
про пи
парламен т
нәтиже сіне</w>
нд еріне</w>
л ep
кө ш</w>
кө бейі
күйі нің</w>
концентра циясын</w>
компонен ттердің</w>
ке ев</w>
институ тын</w>
жин ап</w>
жақ сыл
жабдық тардың</w>
елдер дегі</w>
диагност ика</w>
депута ттық</w>
депута ттардың</w>
дам уымен</w>
дa м
гра диен
бер ушілердің</w>
б ac
ар асынан</w>
ал са</w>
академ ия</w>
аз от
аб ы</w>
Цифр лық</w>
Алай да,</w>
wh at</w>
u k
thir d</w>
ter ms</w>
ta x</w>
t y
pl ans</w>
n ic</w>
medi a</w>
ma y
he ads</w>
corrup tion</w>
ch ed</w>
be sides</w>
as p
ap h
U n
A C
6, 4</w>
6, 1</w>
5 0-ден</w>
199 8</w>
1- кестеде</w>
өсі мнің</w>
өні мге</w>
өзгері стердің</w>
ұсын амыз</w>
үй келі
қытай ға</w>
қыр ты
қоғамдас тық</w>
қосп асының</w>
қорытынд ылады</w>
қолда ды</w>
қо су
қаты саты
қарым- қатынасы</w>
қ қ
шар аларына</w>
чемпи он
уақыт тан</w>
тұқ ым</w>
ток тың</w>
тиімді лікті</w>
те міз</w>
тариф тік</w>
тапсыр ған</w>
тапсыр маларының</w>
тандыр уды</w>
талап тардың</w>
т г</w>
сауда ны</w>
с әр
практ икада</w>
орналастыр ылған</w>
о -ға</w>
мұқ таж</w>
мүмкі н:</w>
метр ден</w>
маңыз ды
марапат тау</w>
магни тті</w>
м бето
м ауға</w>
лі мі</w>
лауаз ым
ланд ия</w>
күті летін</w>
кт -
компози циялық</w>
к тың</w>
ика дағы</w>
жүр уде</w>
жобас ымен</w>
жер дегі</w>
жау ын-шаш
жан ова</w>
жабдық тары</w>
ескер ту</w>
ері кті
дин а</w>
дам уды</w>
дайынд аудың</w>
граф ика</w>
в аның</w>
бұрын нан</w>
бірден -бір</w>
был тыр</w>
бозым баев</w>
басқар атын</w>
баспасөз де</w>
бас ымдылық</w>
бар лығ
ба л</w>
ағ ыш</w>
айқынд ап</w>
Э М
Н І
marke ts</w>
low ing</w>
aр ды</w>
ap a
6, 7</w>
10 %</w>
0,5 6</w>
0, 9</w>
құжат тары</w>
қыл мыс</w>
қатер лі</w>
қазақстанд ықтарға</w>
қа те</w>
Қы тай
Қол дан
ықтар ында</w>
шұ ғыл
ші мбаев</w>
ш өл
холдинг тің</w>
у :</w>
тәжіри бел
то г
темір тау</w>
та ш
сіз дерге</w>
суар малы</w>
син хро
серіктесті гі</w>
са хн
са ны
р өл
про ек
п ə
оқ о</w>
он ия</w>
но з
нидер ланды</w>
н ;</w>
мәдение ттің</w>
мұ нд
монопол ияға</w>
ме талды</w>
мас сал
м .</w>
лауаз ымына</w>
көз ін</w>
кәсіп одақ
келтіре тін</w>
келе тінін</w>
кедергі лер</w>
инфрақұрыл ымның</w>
жұмыс шылардың</w>
жол да</w>
жел дің</w>
жағ ына</w>
еріті нді</w>
елорд алық</w>
дайынд ауды</w>
д тердің</w>
д жо
д eр
бәсе ке
болаты н
бекі тіл
бағыт тау</w>
баста маны</w>
б орда
ақш -тың</w>
ата уға</w>
ас ы
ас ин
алматы -
айқынд айды</w>
азай ып</w>
а қау
П олим
Н И
МП а</w>
Кас пий</w>
Ж елі
ti l</w>
s k</w>
reg ul
pl y</w>
o -
eр a
chan ges</w>
cap ac
air s</w>
C r
AD S-
0 5
- ң</w>
әреке тін</w>
әр түрлі
әл иев</w>
әді стерімен</w>
ұ ны</w>
қатысу шысы</w>
қаз а</w>
қабылда й</w>
ғал и</w>
ғ ысы</w>
экстрем изм</w>
ылғал дылығы</w>
ылға л</w>
ы к</w>
ші лердің</w>
шығар ған</w>
шығ арды</w>
шеші мімен</w>
тәсіл мен</w>
тұрғынд арға</w>
тт eр
тен ти
тасы мал</w>
та ғылым
т i</w>
сөз дік</w>
со тқа</w>
сат уға</w>
пікір талас</w>
проце стері</w>
профила ктикалық</w>
практ ика</w>
пози ция
параметр лерді</w>
нөл дік</w>
нд ісін</w>
мүше -
мүмк iнд
мультимед иялық</w>
мекте птегі</w>
л гeн</w>
критерий і</w>
келе ді.</w>
кан ада
кали бр
информат иканы</w>
жарық тандыру</w>
жарты сында</w>
жал ға
дәле лі</w>
деңгей лері</w>
да -</w>
ге теро
бірі ншісі</w>
бірле стік</w>
бри тандық</w>
бор ыш
био метриялық</w>
белде у</w>
басшыл арына</w>
бай ды</w>
аяқтал уы</w>
аймақ тары</w>
Ор та</w>
АС С
АК Т
y -
ti veness</w>
t ro
strength en</w>
s is</w>
r y</w>
pur pose</w>
ow n</w>
mem or
m i
d ance</w>
c ro
are s</w>
a ff
[1 3]</w>
8 %</w>
7, 2</w>
2 40</w>
1 15</w>
өндірі лді</w>
өзгер ту
өзге ше</w>
өз дерін</w>
әзір леді</w>
үлгі лерінің</w>
қызметкер леріне</w>
қаңтар дағы</w>
қағид асы</w>
қашық тығы</w>
қар айды</w>
қаз ын
қаз мұнайгаз</w>
қ ысы</w>
қ алатын</w>
і сінде</w>
фестивал ь</w>
тәжірибе сімен</w>
тұтын ушы</w>
түсіні кте
түсіндір іп</w>
түсу де</w>
түрік менстан</w>
тигіз еті
теңдеу лері</w>
тек сере
тари ф</w>
та -
суре тте
стацио нар</w>
сақ та
сай лан
ризашыл ығын</w>
ре н</w>
плас тин
оқыту шының</w>
ортал ыққа</w>
нысан алы</w>
нор малар</w>
ми гра
м3 /
клю зи
кезең ді</w>
ке се
к әді
интен сив
инд у
ин .</w>
и ел
жұмыр т
жұмс алады</w>
жі берілген</w>
жылдамдық пен</w>
жоғарыл ауы</w>
дәреже сіне</w>
ді р</w>
долл.р ын</w>
дам и</w>
дайынд ап</w>
г iн</w>
ви та
бе ген</w>
б ог
асимпто тикалық</w>
ар ен
Эко ном
Г І
vi i</w>
u r</w>
to w
th us</w>
si c</w>
process ing</w>
i als</w>
h er
at or</w>
appro ved</w>
accoun t</w>
S )</w>
IS O</w>
9, 6</w>
9 0-
7, 3</w>
өсі мді</w>
Үл гі
құ ла
қыс ымның</w>
қол да</w>
қо в</w>
қаңтар ында</w>
қабыл дай
ша масын</w>
форум ына</w>
формул асы</w>
фили алының</w>
түйі нді</w>
түзі лу</w>
теңдеу лердің</w>
тербелі с</w>
та су
сіл кіні
схе ма</w>
ста ндық</w>
сим метр
санитарлық -
с ір
ретте удің</w>
ресурстар ға</w>
рез он
педагог ика</w>
орынд ап</w>
ол ардан</w>
нью- йор
ндар мен</w>
мұғалі мдерін</w>
министр ліктер</w>
мa қ
көбейі п</w>
кірі сті</w>
кедергі сіз</w>
жыл дағы</w>
жарияла ған</w>
жар ылды</w>
жa ғд
есепте генде</w>
дани ал</w>
д -
гран ттар</w>
ге ндерлік</w>
г ам
в а
бәр ін</w>
аудар ылған</w>
атқар уда</w>
араб иясы</w>
алар ынан</w>
О бл
К і
Бас қару</w>
un til</w>
ti -
tak en</w>
sing le</w>
s qu
republic an</w>
partic ular</w>
p ay
l ed</w>
enti al</w>
eng ine
b or
ap ы</w>
Windo ws</w>
L E
9, 3</w>
9 00
6, 3</w>
4 50</w>
20 20
10 5</w>
өнеркәсіп те</w>
әдісте ме</w>
үй де</w>
қолдай мыз</w>
қозғ алды</w>
қағида ты</w>
қабыр шақ
қабылдан уы</w>
эн троп
ш тің</w>
цик ло
тәрізде с</w>
түсіндір уге</w>
ті летін</w>
ты ,</w>
теңі зі</w>
тасымал дау
там ара</w>
тал дық</w>
суре тке</w>
стратегия сында</w>
спорт пен</w>
сақ ин
сан итар
сал дары</w>
с үй
полимер лік</w>
пол ин
плаз малық</w>
нор мал
мінде тіміз</w>
медал ь</w>
ме ти
көлік- логистикалық</w>
кө ліктің</w>
команд алық</w>
келісі мі</w>
келісі мдерге</w>
ке ше</w>
к :</w>
ин в
жылдам дығының</w>
жыл ында</w>
жеңімпаз дары</w>
жасөспірі мдер</w>
еріті ндісі</w>
дәле нов</w>
до кторы</w>
диспер сті</w>
ден у</w>
да уға</w>
д ми
гер лердің</w>
бу х
бері лге
бел гі</w>
бейі нді</w>
бақыл ап</w>
баста малар</w>
ар қыл
ан тен
алма ған</w>
ак ри
аз дық</w>
Тап сыр
П резиден
О ларды</w>
О Г
Ке сте</w>
И З
Ж Ә
Г у
un ited</w>
te ach
t ory</w>
sum m
re ach
pres ent</w>
is h</w>
go v
em p
do ing</w>
direc tions</w>
cour se</w>
congratul ate</w>
8, 2</w>
2- суретте</w>
2 .</w>
0 2</w>
өңірі нің</w>
өңір лердегі</w>
өндірі сіне</w>
ә келді</w>
ұғ ымдар</w>
үрді стерді</w>
қам сыздандыру</w>
ғылым дарының</w>
ғанд ары</w>
я др
электро магниттік</w>
шла кт
уі ;</w>
у ар</w>
тө сені
түтік ше
транз истор
технология лармен</w>
тау жыны
тан ,</w>
таз арту
та кси
сир ия</w>
сигнал дарды</w>
си ыр</w>
сауат тылығын</w>
саб ақты</w>
рейт инг</w>
режи м</w>
пікір і</w>
пробле масы</w>
порта л</w>
объе кт
нор маларын</w>
несие леу</w>
н. ә.</w>
м ға</w>
л им
көрсету і</w>
көмір тек</w>
конди терлік</w>
кезе к</w>
кар би
ия -
институ ттарының</w>
и ы
жұмыс шылар</w>
жүкте мені</w>
жағ ал
есір ткі</w>
ди ев</w>
да я
гидро кси
газ дар</w>
бен зин</w>
басымдық тары</w>
бак ала
баз асының</w>
ауытқ у</w>
ау тенти
аспекті лерін</w>
арна п</w>
ар қа
ам ми
алға ны</w>
алматы дағы</w>
алаң ына</w>
азаю ы</w>
Электро нды</w>
Мо би
Ме дицин
ЖО О
Г І</w>
А н
uni ties</w>
tour ism</w>
tak ing</w>
ri o
m ental</w>
ho li
hel p</w>
ex pl
con nec
ci ties</w>
c ing</w>
bel i
at ory</w>
7, 4</w>
5 7
199 7</w>
10 6</w>
0,4 5</w>
- дің</w>
( 2</w>
өңір і</w>
өте мақ
өздері ңіз</w>
ұл ов</w>
ұй ық</w>
ұ ст
құй р
құзыретті лігін</w>
қозғал ыстың</w>
қарқ ынмен</w>
ғы дан</w>
ға ш</w>
ғ ының</w>
экстра кция
эксп ер
цен ті</w>
ха б</w>
фаз алы</w>
тәсі лді</w>
температур аны</w>
те -</w>
таныстыр ыл
таб ысқа</w>
сы »</w>
су лар</w>
ск ав
сигнал дың</w>
себе бі
с әрі
с )</w>
рус лан</w>
реф лек
р ин
прото кол
ор то
норматив ті</w>
ндар ына</w>
назарбаев ты</w>
мәр те</w>
мүмкінді ктеріне</w>
мысал ында</w>
ме лерді</w>
матери алы</w>
лі м
л ақ
көліктік- логистикалық</w>
күн тізбе
кт ерінен</w>
ко ва</w>
кеңісті гі</w>
катал итикалық</w>
ие сі</w>
зерттеу лерге</w>
з дік</w>
жұмыстар да</w>
жұ қ
жүйел ерінде</w>
жүйе лерде</w>
жүйе дегі</w>
жар ысқа</w>
есепте удің</w>
дәлі рек</w>
ди г
деформа ция
дам алы</w>
д э
гі м</w>
гу бер
гидро ге
бұзушыл ықтар</w>
білдір етін</w>
бура бай</w>
бриф инг
болға нымен</w>
белгіле неді</w>
ақ и
атқар ылуда</w>
ай тылып</w>
ай тамыз</w>
С атпа
О лай</w>
Ж ам
Е ураз
tur k
s af
russi an</w>
re le
pl om
p ast</w>
k ed</w>
exp ected</w>
euro pe
di plom
al o
acti vely</w>
a u</w>
P ro
өңде уде</w>
әскер лерінің</w>
үш тен</w>
ңі здің</w>
қи ын
қ aр
ғы да</w>
ы мен
ши па
шекте улер</w>
шат қал
ша һ
тұр уға</w>
түрлендір гіш
тү р</w>
театр ы</w>
т »</w>
сп онден
сорбен т</w>
сенімді лігін</w>
сарап шының</w>
санат тағы</w>
с се
отыр ғаны</w>
нұсқ асын</w>
нұр- сұлтан</w>
несие лер</w>
мә ні
метр икалық</w>
меке н-
магни й</w>
көрсеткіші нің</w>
көле мдік</w>
көлбе у</w>
күнді згі</w>
кине матикалық</w>
керам икалық</w>
кел ушілер</w>
кел се</w>
к цио
ио ни
изра иль
и в</w>
жануар лардың</w>
ету ші</w>
ері ткіш
е ст
деге нді</w>
бөлше ктерінің</w>
бюдже ті</w>
би ология
бал аны</w>
ата м
арна ған</w>
арм ия</w>
аппар аты</w>
ай д
адам гершілік</w>
агентті ктің</w>
Экспери мен
Ф о
К аз
Вир туалды</w>
Алматы :</w>
to ok</w>
sp ace</w>
s ession</w>
lead er</w>
iz e</w>
industri alization</w>
id enti
dy nam
ch all
c is</w>
P O
I E
2 -</w>
(2- сурет)</w>
өндір уде</w>
әк к</w>
құрал ын</w>
қосп аның</w>
қосп аларды</w>
қорыт па</w>
қолдан уы</w>
қо қыс</w>
қис ық</w>
қақ тығы
қатынас тарын</w>
қанағат та
қаз андық</w>
қадам дар</w>
қабылда натын</w>
Ғ А</w>
эпи деми
шыл армен</w>
шақыр ылды</w>
чемпи оны</w>
фестивал і</w>
уля тор</w>
тө ндір
тұт қыр</w>
тұжырымдам алық</w>
тіл дерді</w>
ті лдері</w>
тур ист
тол ығ
тол ы</w>
техн икасын</w>
тан удың</w>
талқыл ан
су тек</w>
сорб циялық</w>
сипат тал
сая бағ
сайлау алды</w>
ре тке</w>
ра ми
оқыту шылар</w>
орынд ай</w>
н aл
мүше лігіне</w>
мүше леріне</w>
мүд де</w>
моде ліне</w>
ме ген</w>
май ор</w>
лыл ығын</w>
ло н</w>
ле й</w>
күйі не</w>
коммер ция
кел мейді</w>
кезеңі ндегі</w>
ка ның</w>
заман ның</w>
жә й</w>
жүйе лерге</w>
жеке -
жағдай ларына</w>
жат тық
ер тең
екенді ктерін</w>
дан ия</w>
г ро
ви ч
венгр ия</w>
бірлесті гінің</w>
бриф инг</w>
бос ату</w>
бол ып
бауыр лас</w>
басқал ары</w>
анықтау ;</w>
аз ияда</w>
аг ы</w>
австр ия</w>
Тәжіри бе</w>
Топыр ақтың</w>
О ған</w>
М әлі
Ж еті
than ks</w>
scienti fic</w>
s -
o m</w>
n at
legisl ation</w>
for ces</w>
ad ded</w>
a i</w>
ST E
P C
E x
9 7
5, 4</w>
өз ен
Әри не</w>
ұй ғар
ұз ын</w>
үлгі лерді</w>
құралдар мен</w>
құ нының</w>
қыркүйе гінде</w>
қылмыс тық-
қосыл ыстардың</w>
қондырғыл арды</w>
қиыл ыс
қағи далары</w>
қасие т</w>
қар айтын</w>
қанағат тандыру</w>
қалыптастыр ып</w>
қай тыс</w>
қазанд ағы</w>
қаже ті</w>
ға б
эки па
шифр лау</w>
ше не
ша да</w>
ч и
хат шысының</w>
хал қын</w>
х у
фе н</w>
фактор лары</w>
тә жір
тұрақ сыз</w>
то кс
таң ғы</w>
тар ымыздың</w>
сынып тан</w>
синтезде у</w>
сені мін</w>
сары арқа</w>
сала матты</w>
с ка
робо т</w>
про ду
пе тер
параметр лік</w>
не ге</w>
н жі
мүгеде ктер</w>
мыр за</w>
морф ологиялық</w>
модельде удің</w>
кө м
күш-жігер ін</w>
кур стар</w>
коми с
кесте ге</w>
к э
имид ж
зерттеу лерде</w>
жү гері</w>
жылдығ ымен</w>
жол дау</w>
жас аймыз</w>
деңгейі мен</w>
біріктір уге</w>
бойын шa</w>
би дің</w>
бе й</w>
бас қаша</w>
бар шаға</w>
бар л
бал ары</w>
б үлдір
ауыз дан</w>
аумақ ты</w>
ат қыш
автор ы</w>
Т Б
С М
М Вт</w>
К ер
И нд
Жә не</w>
Ақпар атты</w>
АН Д
present ed</w>
or i
op ened</w>
o f
lead ing</w>
it -
hum an</w>
h ect
fol lowing</w>
depu ties</w>
d ays</w>
con ference</w>
be k
an ts</w>
ADS- B</w>
8, 8</w>
201 5
2 80</w>
( 19
өте у</w>
өсу де</w>
өндіруші лерді</w>
әді сіне</w>
Үші нші</w>
құндыл ық</w>
қолжеті мділігі</w>
қи ып</w>
қарым- қатынасын</w>
қалып қа</w>
Ғ Ы</w>
Ғ А
э ста
ыңыз ды</w>
ыс -
шоғыр ландыр
шақыр амын</w>
шартт арға</w>
у ы;</w>
тәуелді лігін</w>
түй іс
ті леу</w>
то тығы</w>
тиі м
тектон икалық</w>
тарап тан</w>
та ту</w>
т .</w>
сөз і</w>
сұйық тық
сізді гі</w>
стер де</w>
сенімді лігі</w>
сабақ тың</w>
рент ген
от роп
орын ы</w>
о тан
нормативтік- құқықтық</w>
нд a</w>
ла гер
ла в</w>
көрсеткіш ін</w>
концер ттік</w>
компонен ттер</w>
кеу екті
керек :</w>
ке нде</w>
ин и
зде у</w>
жұм сақ</w>
жү ктерді</w>
жеткізе ді</w>
жер лері</w>
жаратыл ыстану</w>
есепте п</w>
дәйе кті</w>
диз ель
деклар ация</w>
г он
ве кторы</w>
бөлімше лері</w>
бол дық</w>
би лет</w>
бақ ша</w>
бас ыл
б ын</w>
аш уды</w>
архитектур алық</w>
а бай
Физ икалық</w>
Т ес
Ди ф
ə реке
territ ory</w>
pro per
pers on
mo del</w>
min ing</w>
log is
introduc tion</w>
g ar
fri end
f o
ec e
e y</w>
e ae
5, 9</w>
0,5 7</w>
0, 1</w>
өткізе тін</w>
өр ісі</w>
өндірі п</w>
Ө нер
әзірле ген</w>
ә келуі</w>
Ә у
ұйымдастыр уды</w>
ұйым дарды</w>
үрді стің</w>
қх р
қолдана мыз</w>
қолдан уда</w>
қол мен</w>
қамқор лық</w>
қал аға</w>
қадам ды</w>
қабылда уы</w>
қа ша
шығынд ары</w>
ше ше</w>
шар ттың</w>
ш асы</w>
уш ыны</w>
төңіре гінде</w>
транс шекаралық</w>
толер ант
тер м
тер бел
тем е</w>
талда уды</w>
таб а</w>
сәрі нжі
сын- қатер
су сынд
сипат қа</w>
сай ын
с ағ
с i
ресей де</w>
реа ктор</w>
отыр ыстың</w>
отбас ының</w>
ол ай</w>
нд ері
н ше
н ара</w>
мәліме ттерін</w>
мысал дар</w>
мето д
көтер ген</w>
кі лікті</w>
клас с</w>
картас ының</w>
индустрия лды</w>
зия н
зе ң
жүргізі луі</w>
жу ығы</w>
жар лығымен</w>
жалақ ысы</w>
жабдық тың</w>
ең сер
е ндіру</w>
дол л</w>
де те
виз асыз</w>
бөлі мдері</w>
бірі нші
бі лді</w>
байқал ып</w>
ба ш
ация лау</w>
ат ур
ано мал
аль ян
ал анған</w>
Сә йке
Са бақ
С ары
П АР
Ос ыл
Ор та
Бел гілі</w>
Б а
wor th</w>
squ are</w>
sh are</w>
s )</w>
pe ace</w>
p ai
m ay</w>
l as
is t</w>
inclu des</w>
impro vement</w>
fun c
ed ul
e ffici
constitu tion</w>
comm unic
com b
ch am
attrac t</w>
Reduc e</w>
= 0
8, 7</w>
7, 9</w>
7 3
1 /
өнер і</w>
Өндір істік</w>
әкімді ктер</w>
ұсыны м
ұл ттың</w>
ұйымдастыр ып</w>
ұйымдастыр уда</w>
үйі нің</w>
құрылғыл ары</w>
құр ба
құндыл ығын</w>
құжат ы</w>
қуаны ш</w>
шақыр ылған</w>
фабр икасы</w>
уші лерді</w>
тұрғынд арын</w>
түсіні гі</w>
түзі луі</w>
терге у</w>
тауар ларға</w>
таны лған</w>
талқыл анған</w>
сырт қа</w>
со полимер
со м
сала мыз</w>
са -</w>
сə йкес</w>
ре тінде
пә нді</w>
премьер- министр
перспектив алық</w>
пайдалан уда</w>
отыр ысын</w>
орынд айтын</w>
орна тыл
ор ал
о тын
негіз гі
мониторин гі</w>
ме же
лігі ;</w>
көмек ші</w>
күй ге</w>
коммер ция</w>
кеңісті гіндегі</w>
квадр аттық</w>
к ато
зейне т
жүйел еріне</w>
жүзі ндегі</w>
жой ыл
ескере тін</w>
елі нде</w>
е қдб</w>
е м</w>
дәреже дегі</w>
дере кті</w>
дер бе
гізі п</w>
гра мо
бұр мал
би н</w>
бен з
бағал айды</w>
басшыл ыққа</w>
бал алар
байланы стары</w>
ағ ында</w>
аш атын</w>
аумақ та</w>
ау қымын</w>
асин хронды</w>
ас уда</w>
ар ыс</w>
ал ушыларға</w>
ажыра мас</w>
а и
а баев</w>
Т аң
Сатпа ева</w>
К ен
Жо ғар
Бақыл ау</w>
sch edul
re e
r ul
pre p
langu age</w>
l l</w>
fi d
develop ing</w>
comple ted</w>
c oll
at t
ad van
a il
D -
4- ші</w>
20 50
20 -дан</w>
- С
" ,</w>
өлше уге</w>
әзір ге</w>
ұт қыр
ұ стан
құрыл ысқа</w>
құндыл ықтарын</w>
қызме ті
қашықтық ты</w>
қалыптас ып</w>
қал ың</w>
Қара пай
ғылым дар</w>
экстра ген
ь е
ыны нда</w>
ымыз дан</w>
шикізат тық</w>
шекте у
төле нетін</w>
тұр ды</w>
тінді ктен</w>
тіле кте
ты лар</w>
тран сп
технология мен</w>
теті ктері</w>
те п
таны суға</w>
тамас ына</w>
та стар</w>
сіз ге</w>
стандарт қа</w>
спутник тік</w>
смайыл ов</w>
сайла удың</w>
с i</w>
ре цеп
прес сор
пара диг
орынд ады</w>
мұхамеди ұлы</w>
мүмкіндігі нше</w>
мүмкінді ктерге</w>
мі збен</w>
мысал дары</w>
моде лде
май ы</w>
көрме лер</w>
көр ші
кө бі</w>
кәрі з</w>
кте лген</w>
кт ур
координат алар</w>
компонен ті</w>
квази мемлекеттік</w>
кв ад
канд и
к ау
й н
ис т</w>
инд оне
ин вер
жұм сау
жүзде ген</w>
жол ына</w>
жарты сы</w>
есі л</w>
доктор ан
гі міз</w>
губер нат
вари ан
бағдарламас ымен</w>
ауыл да</w>
атор лық</w>
аланы п</w>
айнал малы</w>
Ста тист
НІ Ң</w>
Жам был</w>
Е Т
Б И
А мер
ver age</w>
pl at
p t</w>
in formed</w>
impro ving</w>
g l
expres sed</w>
ex pan
europe an</w>
electr on
con cer
A c
7, 1</w>
5- тен</w>
3- 4</w>
20 %</w>
0, 60</w>
өті лген</w>
өткі м</w>
өз бек</w>
әбдірах манов</w>
ә дi
құттық тау
құрылыс -
құрылым дарының</w>
құралдар ына</w>
құр а</w>
құбыл ыстарды</w>
қор лар</w>
қайтар у</w>
қажет :</w>
Құр ам
ғыл ы</w>
ғимарат тардың</w>
э ск
ықтар ымен</w>
ықпалдас тықты</w>
ылғал дыл
шартт ардың</w>
ша тыр
хабарлан ғандай</w>
фосф ат</w>
төрай ымы</w>
төле мдерді</w>
тор ы</w>
тер ап
тауар лық</w>
та и
сұрақ тарына</w>
сү зі
сің іру</w>
сы ;</w>
сессия сы</w>
салт- дәстүр
саз ды</w>
с өзіне</w>
пой ыз</w>
пар к</w>
ос фер
ор нындағы</w>
о ндай</w>
о мо
о .
нығай тып</w>
ны ға
мыр ыш
мекеме сі</w>
мажар стан</w>
ли ф
л уінің</w>
көзде леді</w>
кә меле
кіш кен
кір уі</w>
кезең дерінде</w>
кап илл
к иелі</w>
й лер</w>
жә ді
жұм сал
жүйе сінен</w>
жіри бе
жеңілде теді</w>
жаттығ улар</w>
ди ір
ди оксиді</w>
дер :</w>
герман ияның</w>
вак цин
бірлесті гі</w>
болжау ға</w>
болашақ тағы</w>
бақ- береке</w>
бай л
ашық тығын</w>
ауыс палы</w>
ау ын</w>
астан аны</w>
арена да</w>
алгорит мнің</w>
а ғанда</w>
Элект р</w>
Т ран
О й
К үр
Ин нов
ЖӘ НЕ</w>
Дере ктерді</w>
Бр эгг</w>
succ ess</w>
sk ills</w>
sc o</w>
re co
posi tion</w>
partn ers</w>
particip ate</w>
op ening</w>
l t
intere sted</w>
e ast</w>
con cep
com ing</w>
ci es</w>
be fore</w>
ag o</w>
accor dance</w>
a р</w>
5- ші</w>
2014- 2015</w>
2 1-
10 4</w>
0,5 4</w>
ө ле
әскер лері</w>
үсте мді
ү р</w>
қолданыла ды.</w>
қарастыр ған</w>
қам тылады</w>
қал асын</w>
Қар астыр
Қ ұм
Ғ ал
і летін</w>
ю р
ық сыз</w>
шығар а</w>
шартт арына</w>
шабу ыл</w>
ци алды</w>
функция лардың</w>
фи л
у ға,</w>
төменде у</w>
түрк ияның</w>
ты )</w>
туынд ысы</w>
тре нд
тауар лы</w>
табиғ и-
та ктикалық</w>
т тағы</w>
сөздер ді</w>
сә ттен</w>
суре ттегі</w>
сипатта малар</w>
сипат тауға</w>
серіктесті ктің</w>
сендір ді</w>
сақ тайтын</w>
сан айды</w>
салта нат</w>
по ез
пайдалан ушыларға</w>
ос ылай</w>
орынбасар лары</w>
оператор лар</w>
о қ</w>
нүкте лер</w>
номин ация
ндер ден</w>
нд ро
мет ро
масс асының</w>
магистр ал
м ум
ли г
көрі с</w>
кәді мгі</w>
күш терін</w>
крипто графиялық</w>
конститу циясының</w>
ко операция
ко ды</w>
кеше нінде</w>
кем шілігі</w>
кезде се
истер дің</w>
и он</w>
зерттеу лері</w>
заң дар</w>
зауы тын</w>
жүр гі
жетілдірі лген</w>
жетілдір уді</w>
жo ғ
жaғд aй
енгіз ді</w>
глю ко
вело си
бөлі гіндегі</w>
білі ммен</w>
бол ғандай</w>
бақыл анатын</w>
ба -</w>
б әй
аш ықтық</w>
аумағ ынан</w>
атмосфер аның</w>
арда гер</w>
ар алау</w>
алды мызда</w>
алдар ын</w>
ал май</w>
Т ау
О бъ
Л ЕР
АТ Т
А зия</w>
vari ous</w>
tre at
tho se</w>
sup ply</w>
s em
requi re
pric es</w>
know le
commis sion
capac ity</w>
ain st</w>
ag ency</w>
ag ainst</w>
[ 6
Si O
A N
9, 9</w>
9, 2</w>
5 6
әуе жай</w>
әс кер</w>
әріпте с</w>
ұң ғы
ұр ыс</w>
ұлғай ып</w>
құт қар
құралдар ымен</w>
қызмет тегі</w>
қосымш асы</w>
қор ымен</w>
қолжеті мділікті</w>
іс-шар аларға</w>
эфф ект</w>
энергия мен</w>
эк скав
ыстар ына</w>
шө лей
шұң қыр
ч ер
хал ы
х а</w>
фору мының</w>
фик атор
ур бан
ты с
тер дегі</w>
тақырып ты</w>
тар туды</w>
таны лды</w>
табиға ттың</w>
таб ыс
сынақ тар</w>
судья лардың</w>
сс иялық</w>
сину со
сан ау</w>
с кр
с ве
резон ан
раста у</w>
ра қ</w>
пәкі стан</w>
пробле маны</w>
пи рами
пара фи
п ик
отыр .</w>
орынд арымен</w>
орган оле
ор н
нақ тырақ</w>
н алы</w>
мәмі ле
мәдение тінің</w>
мұх тар</w>
мо то
мемлеке ттерге</w>
мем ори
мейра м
лері :</w>
кур сан
компонен ттерін</w>
компози тті</w>
ко п
кепілде ндірілген</w>
капи талды</w>
к пе
итал ья
индустрияландыр удың</w>
импор ттық</w>
заңдыл ықтарын</w>
з ақ</w>
з ай
жшс- нің</w>
жаңар тыл
жас ына</w>
жас тан</w>
жарыл ыс</w>
жар ату</w>
жалғ асы</w>
жабдық тармен</w>
жабдық тал
ере же</w>
елдері ндегі</w>
дәру ме
ды ның</w>
дифференци алды</w>
дайынд ау
газ дардың</w>
г ірім</w>
валю талық</w>
в пен</w>
былтыр ғы</w>
би ліктің</w>
бас ылым</w>
бас ылым
бар ре
бал л
бал ет</w>
байланы старын</w>
бай ы
бoл ып</w>
б алау</w>
аң ғар
ақ ,</w>
ауыл ындағы</w>
апат тық</w>
анықта дық</w>
ал шақ
айт қанд
аб и</w>
Ф и
Те ор
Студен ттердің</w>
Сап а</w>
ОҚЫТ У</w>
Жоғар ғы</w>
Г аз
opport unities</w>
o ver
gr aph
gi ven</w>
effor ts</w>
d p</w>
co st</w>
bi g</w>
9, 8</w>
2 6-
0,6 5</w>
.k z
( G
( 7)</w>
әңгіме леді</w>
әб ден</w>
ұшыр айды</w>
ұсыны мдар</w>
ұн тағ
ұйымдастыр ған</w>
қырғыз станның</w>
қр -да</w>
қор ынан</w>
қауіпсізді гіне</w>
қасие ттерге</w>
Қы тай</w>
я р</w>
элемен ттің</w>
шә кір
шы дан</w>
ш алы</w>
хқ ко</w>
федер алдық</w>
фаз асы</w>
уақы тына</w>
түркі тілдес</w>
ты ла
теңі з
температур асында</w>
температур асына</w>
тартым дылығын</w>
сый лығының</w>
станция ларының</w>
со ттың</w>
ско п</w>
сипат тамасын</w>
семинар -
се мей
сар айында</w>
сай ланған</w>
процес сі</w>
потенци алды</w>
по ч
пир икалық</w>
п ти
п ар</w>
олимпи адалық</w>
ой дағыдай</w>
объекті лерін</w>
нд ық
нд ерінен</w>
мы сты</w>
моңғол ия</w>
көтері лген</w>
кәсіби -
кітап тар</w>
коре й</w>
конференция сының</w>
конференция лар</w>
кодек сі</w>
ист ика</w>
интегр алды</w>
жылж ы
жоспар ларын</w>
жаттығ у</w>
жас тары</w>
ескер ткіш</w>
ерітінді нің</w>
виде о
бөлі мде</w>
бре нд
бол ма
белгіле п</w>
ақыр лы</w>
ая л
аудар ылады</w>
атқар ылды</w>
ассамблея ның</w>
ар дың
анық тай</w>
алгорит мдерін</w>
а ман</w>
Т ор
Сыр тқы</w>
Педагог икалық</w>
Не гізі
Н Е
Мысал ы,</w>
Д ү
sc ale</w>
reach ed</w>
partn er</w>
part y</w>
maj or</w>
grou ps</w>
famil y</w>
expres s</w>
ex change</w>
establish ment</w>
cent ers</w>
c all
and a</w>
ak h
A p
4 9
4 7
өтініш тер</w>
өс ш
әреке ттерін</w>
әреке ттерді</w>
ұн тақ</w>
ұйым дарға</w>
құрылым дары</w>
құра мымен</w>
қатысушыл арының</w>
қап шағай</w>
қалыптастыр уды</w>
ҚҰ Р
іші нара</w>
іл уі</w>
ю н
эста фе
э фир
ығ ы;</w>
ын ады</w>
шө п</w>
ционал дық</w>
фи цир
ф ло
учаске сі</w>
түп кі</w>
туындыл ары</w>
транзи т</w>
ти мен
тауар ларының</w>
тала й</w>
та циялау</w>
та сты</w>
т икал
т iк</w>
сіз дерді</w>
сы -</w>
суре тті</w>
судья лар</w>
субъ е
су лары</w>
стар тап
сен бі</w>
себеп терін</w>
сая бақ
сай ыс</w>
с кер
ретте уші</w>
рейтин гі
по д
оқи тын</w>
орынд ардың</w>
орынд арда</w>
ор нынан</w>
мү лде</w>
ме ли
ме лері</w>
математ иканың</w>
мани фе
лері міз</w>
көр ген</w>
көз дерден</w>
кон серв
коммуник ация
ко д</w>
клу бының</w>
ке т</w>
катал из
кар дио
канди дат
к. мәсімов</w>
исла мдық</w>
и бра
зертте ул
зал ал
жұмыс кер
жұмы стан</w>
жұ п</w>
жүкте у</w>
жаң алық</w>
жалғастыр а</w>
жаб у</w>
жа з</w>
енгіз ген</w>
дұрыс тығын</w>
др ай
дире ктор</w>
бәсекеле стікке</w>
бері ктігін</w>
бекі ткен</w>
бағал ауы</w>
бi р</w>
аяқ талып</w>
астан асы</w>
ас тро
акті лер</w>
айыр ымдық</w>
ад б</w>
авто р</w>
а өсш
Т ек</w>
Т Ж</w>
Павло дар</w>
Ж ел</w>
us ti
universi ties</w>
se ver
re ported</w>
r e</w>
profes sional</w>
l on
introduc ed</w>
il i
hect ares</w>
doc uments</w>
difficul t</w>
con fid
ce ment</w>
assi stance</w>
ali sts</w>
a у</w>
[1 4]</w>
[ 1</w>
3 .</w>
2 /
- тан</w>
( 5-
өткізі луде</w>
өт кер
өнім дерімен</w>
өзгер ген</w>
өзге де</w>
өз деріне</w>
әй не
ұ -ға</w>
үле сіне</w>
құрыл тай
құзыре тті</w>
қатысу ды</w>
қа улы</w>
ҚазҰ П
іс-әреке тінің</w>
э ст
ынд ары</w>
шығынд ардың</w>
ш ін</w>
ш кал
форма тында</w>
физик о-
федер алды</w>
фар аби</w>
төте п</w>
түр лерімен</w>
тіл дерін</w>
ты »</w>
тра фи
тау арды</w>
тар аты
тал данған</w>
табыста ды</w>
т м</w>
сұр ау</w>
скр ин
робо тты</w>
ри х
ре кор
р ақ
пікір лерін</w>
пайдалан ушының</w>
па ның</w>
п ыз</w>
оңтүстік- шығыс</w>
нұс қа</w>
на да</w>
мәм с</w>
модуль дік</w>
меморандум дарға</w>
малар ымен</w>
көш пелі</w>
көмекте сетін</w>
кон ве
кин о</w>
кеңес шісі</w>
кеше ндері</w>
келе лі</w>
к т</w>
к )</w>
ие лен
заң ын</w>
заман ға</w>
за циясы</w>
жүйе лер
жобал ау
ж а</w>
ел шілігі</w>
даярла удың</w>
д оң
бұзыл уына</w>
беко в.</w>
бе тке</w>
баянд ап</w>
аш ыт
аумағ ының</w>
ауда ндар</w>
архитектур асы</w>
автор лардың</w>
а қаул
Хим ия</w>
П Ә
Ж А
ra is
po int</w>
mu tual</w>
le m</w>
ic ally</w>
de red</w>
b al
aқ п
[1 5]</w>
199 4</w>
. 5</w>
өңірі ндегі</w>
өнімді лікті</w>
ұж ымы</w>
үлестір ілген</w>
үлгі сінің</w>
үйкелі с</w>
қолдан умен</w>
қарж ысы</w>
қазатом өнеркәсіп</w>
Қазақста ндық</w>
і сінің</w>
ықтимал дық</w>
ы стан
це х</w>
хал ықтарының</w>
ф .
тәуелсізді гін</w>
тәжірибе лері</w>
ттер дегі</w>
тотық сыздандыр
тиі спіз</w>
тауар ларын</w>
т ep
сәуле лендір
сұраны стың</w>
студен ттік</w>
сипат тала
сая хат
сауат тылық</w>
па тен
оқу- тәрбие</w>
отбасыл арға</w>
орындал уына</w>
орта мен</w>
о д
мінез- құл
метр і</w>
мекеме нің</w>
материал ының</w>
ластан уының</w>
кіші гірім</w>
критерий лері</w>
консульта циялар</w>
констру ктивті</w>
кеңей тіп</w>
ке нді</w>
й і</w>
зі р</w>
жүйе мен</w>
жоба да</w>
жеңімп аз</w>
же к
жасау ы</w>
жа ндар</w>
есеп те</w>
ерекше лігін</w>
елі не</w>
дәу ір
дол ларына</w>
дайынд алады</w>
бөл ме</w>
бағы ттың</w>
баянда масында</w>
ақ пан
ау л
асыр ды</w>
асфаль т
арн алады</w>
акті лерге</w>
аймақ тарын</w>
аз айту
ав ар
МЕ Н</w>
И Қ-
Дә стүрлі</w>
Бұ ған</w>
y l
tr illion</w>
to p</w>
sid e</w>
oun d
or e</w>
olo gical</w>
me ans</w>
m us
lead ers</w>
laun ched</w>
grad u
enc es</w>
e p</w>
di o</w>
deci sion</w>
consid er</w>
ch em
c a</w>
alo gu
aff airs</w>
ac ы</w>
a ғы
M -
8, 9</w>
8, 1</w>
2 30</w>
2 2-
2 1
0,6 6</w>
0,4 1</w>
( L
өткіз уде</w>
әу ле
әріпте стіктің</w>
әріпте стері
Ү кі
құ қылы</w>
қыз у</w>
қолданыл уда</w>
қаты сы</w>
қанық қан</w>
қазақстан- қытай</w>
қаз ылар</w>
қаз балар</w>
Қ ой
э ли
шілде сінен</w>
х ай
төзі мділігі</w>
тәсі лде
тұ ндыру</w>
то с
та тар
тe хн
сұрақ тарын</w>
су лардың</w>
сор ци
салын уда</w>
рәсі мдерін</w>
рә міз
ретте уді</w>
раста йды</w>
пер и
отбас ылар</w>
орынд ауда</w>
органоле птикалық</w>
ой ынша</w>
обл ыстардың</w>
нәр се</w>
нор малары</w>
негіз делі
нe гiз
мы т
мақсат тарды</w>
латв ия</w>
ла т</w>
көшер баев</w>
көмекте се
конкур с</w>
компью тердің</w>
кали й</w>
к г/
ин спек
зертте ушілер</w>
заңдастыр у</w>
заң да</w>
з ы</w>
жас амп
жария лау</w>
жай ыл
жа ға
дере ктермен</w>
д алады</w>
г им
бұйым дары</w>
біле тіндей</w>
бюро сының</w>
басқар уда</w>
бай қалған</w>
бай тын</w>
арттыр уда</w>
ап тасына</w>
ан алар</w>
алар ындағы</w>
аймақ аралық</w>
а пар
Ш Р
Таби ға
ТЕ ХН
Со ны
К ел
Ж -
Е рі
АЛ Д
th re
s mart</w>
s an
p ass
mon it
m om
m en</w>
interes t</w>
gi ve</w>
g a
eth nic</w>
cam pai
business es</w>
ati s
ac тыр
Z n
I S</w>
9, 4</w>
9, 1</w>
2 20</w>
199 9</w>
0,6 7</w>
0,5 8</w>
( немесе</w>
әріпте стерімен</w>
әреке тінің</w>
ә к</w>
үш өлшемді</w>
үне мді</w>
қы шы</w>
қос ар
қор ларын</w>
қой ылым
қ у</w>
Қ А
ғыл ымының</w>
ғаны мыз
я тын</w>
ым eн</w>
ыл уын</w>
шеші лді</w>
шаруашыл ығындағы</w>
ш ин
ч ес
цияла уға</w>
тыр уға</w>
тран спорт</w>
теңес тір
те ль
таңда ған</w>
тау ардың</w>
тан уға</w>
тал ь</w>
сте п
соғ ұрлым</w>
серти ф
сауда ға</w>
сар қыл
рол ь</w>
платфор масы</w>
пи н</w>
ол о-</w>
объекті лерінің</w>
нәтиже лердің</w>
нығай та</w>
награ д
мөл дір</w>
мә тін</w>
мә ндерінің</w>
міндеттеме лерді</w>
министр лері</w>
мекеме сінің</w>
мекеме лерінде</w>
м- ден</w>
ла на</w>
көрі нетін</w>
конден са
клу бы</w>
кезең нің</w>
кван ттық</w>
камер а</w>
игі лігіне</w>
жі ті</w>
жиһ аз</w>
желі ге</w>
жедел хатта</w>
ер лерді</w>
енгізі луі</w>
дәлді гін</w>
дейін )</w>
д үр
ги р
ги н</w>
ге ндер</w>
в )</w>
бұр у</w>
бұйым дарды</w>
бү р</w>
бето нның</w>
белгі лі
бекі тті</w>
байқау ының</w>
бiлi м</w>
б ург
аумақ тың</w>
аста ғы</w>
ассамбле яс
аль -
алдар ға</w>
ал қасының</w>
ал майтын</w>
айқынд айтын</w>
айналыс ып</w>
аб зал</w>
Элект р
У ақы
Т ҥ
Т ірек</w>
Т иі
С П
Ме хан
К у
Б ар
sy m
s al
prim e</w>
olo gy</w>
may or</w>
h on
ep t
d ata</w>
c ent</w>
acc ess</w>
ac k</w>
E n
199 3</w>
0 )</w>
) )</w>
( H
өткізгіш ті
Ө з</w>
әлеуе тінің</w>
Әле уметтік</w>
ұб т</w>
үле сі
үл ке
үйрен уге</w>
құр л
қу атының</w>
қондырғ ысының</w>
қаул ысымен</w>
қар ауды</w>
қа нығ
Қо ға
Қара ғанды</w>
ғ ұ
іс-шар аны</w>
іс-шар алардың</w>
эпидеми ологиялық</w>
электр лі</w>
э ваку
э .
ымыз ша</w>
чен ко</w>
цик л</w>
хал ықпен</w>
фу нда
учаске сінде</w>
төме нде</w>
тө гі
тұй ық</w>
түсу ге</w>
тілі нен</w>
тіл дің</w>
ті ;</w>
ты л</w>
тран за
те зде
тағайынд ал
тас тыру</w>
с алатын</w>
орынд арындағы</w>
ор ам
ология лық-
окси дінің</w>
нұс қаул
нүкте сінде</w>
ні зге</w>
несие лендіру</w>
мәсли ха
мон умен
мо не
ме тал</w>
мақ шы</w>
м -</w>
лі ктері
ли тр
л уімен</w>
л .</w>
ктор лар</w>
корпор ативті</w>
кон сорци
комите тіне</w>
клюзи вті</w>
кетке ндей</w>
кедергі сі</w>
кадр лардың</w>
к ,</w>
иы ұ</w>
иран ның</w>
и зация</w>
зия лы</w>
жі п
жин ауға</w>
жин алға
жин алып</w>
жер лерге</w>
жар лық</w>
еңбе ктерінде</w>
есептеу лерді</w>
е тінің</w>
е ніп</w>
дәлді кпен</w>
ды ру
дио дты</w>
графи к</w>
ге ль</w>
білдіре мін</w>
бі леді</w>
борда қылау</w>
биту м</w>
бағытт арына</w>
бай қай
ақп аны
ашыл атын</w>
ата тын</w>
ас сор
анд рей</w>
амплиту д
ай дан</w>
аз ық</w>
абыр ой
Математ ика</w>
М ыс</w>
М инер
К ри
Зер тхан
ə сер</w>
t op
res ear
plat form</w>
iн ш
i п
g et
aнық тa
S i</w>
C a
5 00-ден</w>
3 20</w>
17 5</w>
00 С</w>
0,6 2</w>
0,4 4</w>
/ /
өңір ге</w>
өнеркәсі бін</w>
өл шe
ұрп ақты</w>
ұйым дарда</w>
Ү ш</w>
қытай дан</w>
қуан тады</w>
қондырғыл ардың</w>
қолдай тын</w>
қо н
қараш асында</w>
қалдық тарының</w>
қабылда удың</w>
қ ха
Қос ымша</w>
ған )</w>
ірікте п</w>
шеші п</w>
хлор лы</w>
х .
филь тра
фиг ур
тәжірибе ден</w>
түп кілікті</w>
түле ктері</w>
түй е</w>
ту ынды</w>
ти пі
ти гізіп</w>
таны мал
талан тты</w>
серпі нді</w>
сейсм икалық</w>
сақ тайды</w>
с крип
рефор мал
ресурстар ына</w>
республик асымен</w>
рент ген</w>
ре ді</w>
орынд арды</w>
о ттегі</w>
о сал</w>
нүкте сінің</w>
нов а.</w>
не ,</w>
мұ қа
мыз дағы</w>
микро контрол
ми не
мемлеке ттермен</w>
мақсат тарының</w>
ля нью
кө ше</w>
корпор ация</w>
кесте сін</w>
ио ндары</w>
инвестиция лау</w>
и са
зертте леді</w>
жөнде уге</w>
жоқ тығы</w>
жолда удың</w>
жеті м</w>
жеті лдіріп</w>
жеткізі летін</w>
жағдай ларында</w>
жауапкерші лікке</w>
жаз ба
ж айды</w>
еңбе гін</w>
еш бір</w>
естері нізге</w>
ес ін</w>
елді -
дә ст
дми три
ден ,</w>
делегация ның</w>
д сә
гра ду
гра да
бөліне ді:</w>
бл ь
белгі лер</w>
бағал ан
батал ов</w>
аудар ған</w>
арал ығы</w>
анық тамасы</w>
адам зат
Ц И
Ресе й
М ас
М 2
Л ап
К ре
Информат ика</w>
Ж ақ
Алғаш қы</w>
ti v
terr or
strate gy</w>
star t</w>
s outh</w>
ri ght</w>
reduc e</w>
prob lem</w>
pat rio
p ati
m p
l -
knowle dge</w>
i з
ho w</w>
go al</w>
euro pe</w>
environ ment</w>
engine ering</w>
eae u</w>
can di
a қ</w>
O H
8 6
5 4
201 8-
 0
әс ері
ә л</w>
құй ылған</w>
қыр лы</w>
қыз дар</w>
қорытынд ысын</w>
қозға ды</w>
қағид аларын</w>
қар ым</w>
қазагро қаржы</w>
Қол даны
Қарапай ым</w>
Қ )</w>
ғ ынд
ғ .
ыл ығын</w>
шығ ымы</w>
шығ уына</w>
штей н</w>
шеші летін</w>
ша ,</w>
ш ті</w>
хат тама</w>
у кли
тұтын ушыларға</w>
тұрғыз ылған</w>
тінді гіне</w>
тр ас
технология ларының</w>
тал дай</w>
таб ыст
та нов</w>
суре ттерде</w>
ст ро
соқ тығ
сон шалықты</w>
сарап шылық</w>
салыстыр уға</w>
полин ом
оқу шыға</w>
орнат қан</w>
ойла уды</w>
нәтиже ні</w>
негізде лген
нақты лау</w>
мәті нінде</w>
мәж бүр</w>
мүдделі міз</w>
міндеттеме лерін</w>
мы ш
мы сыр</w>
мы с
мульти меди
метал дарды</w>
мере йлі</w>
мақал асында</w>
математ иканы</w>
маргане ц</w>
малар мен</w>
маз у
көп ұлтты</w>
көбею і</w>
кәсі п</w>
кішкен тай</w>
кон в
компания ларымен</w>
к б</w>
ия )</w>
ипотек алық</w>
жоспар лау
жетек шілік</w>
жемқор лықпен</w>
же т
жақсар тады</w>
жас алуы</w>
ерекше лігіне</w>
дрол ық</w>
дере ктер
де ,</w>
д қа</w>
гіш тігі</w>
гран ул
в ай
бөлі ні
бір-бірі нен</w>
бағ алай</w>
басқар ады</w>
балабақш алар</w>
бала пан</w>
байланыс тыру</w>
ауытқ уы</w>
аур улары</w>
ауда нына</w>
ауда нын</w>
алатынд ай</w>
ала тынына</w>
ал мақ</w>
ай лы</w>
Тҥ йін</w>
Орта ша</w>
О сының</w>
Маң ғыстау</w>
М СТ</w>
Зертте улер</w>
А тыр
st ep
rele v
pur ch
po sed</w>
pl es</w>
p aid</w>
m r
lt d</w>
iнд e
holi day</w>
g ation</w>
ent ed</w>
de fin
conduc ted</w>
con sum
bel ar
= 1</w>
8- і</w>
3 000</w>
201 7
19 0</w>
0, 70</w>
( Ж
өлше нетін</w>
өлше нген</w>
әс ерінің</w>
әдеби ет</w>
Әл- Фараби</w>
ұғым дарды</w>
ұстаны мы</w>
ұйымдастыр ушылардың</w>
үмітте не
қауіпсізді кке</w>
қан нан</w>
қа ндар</w>
Қызыл орда</w>
іс-әреке ті</w>
іле спе</w>
і згі
эффе ктивті</w>
ығ ыстыр
шілде ден</w>
шта б</w>
шекар алас</w>
ш алық</w>
х ас
ф рон
уақы тының</w>
у ғa</w>
түр лi</w>
тығыз дық</w>
тт арымен</w>
топ тағы</w>
тере к</w>
таны м</w>
талдау лар</w>
талап тар
сөз дің</w>
сәуле сінің</w>
сұраны сты</w>
сің ірі
суре ттерді</w>
сти л
сал и
сайла ушылардың</w>
ре спонден
пікір талас
пысық тау</w>
процес стерді</w>
пар ник
п ы
оң айл
ортал ық-
опти ми
онт ологиялық</w>
ов аның</w>
но мен
ндер мен</w>
мұ са
моль /
мол иб
мектеп -
меке ндерде</w>
маусым ына</w>
л -</w>
көтер ме
көме кке</w>
көзқар асы</w>
күн көріс</w>
кірпі ш</w>
кір е</w>
кте у</w>
келісі мдерді</w>
келеше гін</w>
ке туі</w>
йі р</w>
ик асына</w>
з ом
жұмағ алиев</w>
жоғарыл айды</w>
жетіспеуші лігі</w>
жеті стік</w>
жалғастыр ып</w>
жабдық ты</w>
ж ын</w>
ери тін</w>
елші лігінің</w>
е эк
дәст үр</w>
дәреже сінің</w>
дәнекер леу</w>
ді наралық</w>
диапазо нында</w>
дайынд алу</w>
д aлa
генді гін</w>
бү йір</w>
біріктір іп</w>
білі п</w>
бек .</w>
бар у</w>
ба нд
ау стр
арнал ып</w>
аппарат тың</w>
алгорит мінің</w>
ала тау</w>
азамат тарына</w>
аза т</w>
Ы С
Сыр дария</w>
Оқы ту
О қу
Л я
Ж Ү
АК Т</w>
un e</w>
tur n</w>
tin gs</w>
stud y</w>
sec tors</w>
saf ety</w>
reg ard</w>
ord in
now ad
nowad ays</w>
m er
i k
gov .kz</w>
f arm
ap pe
an other</w>
ain ed</w>
a тт
S A
I -
0,5 9</w>
- дейді</w>
( V
( 15
өту іне</w>
өндір ді</w>
өмірі ндегі</w>
өлше мдер</w>
ө тейік</w>
әлеумет тік
үйі нде</w>
құрылым дарды</w>
құрыл ысты</w>
құбыр лар</w>
құбыл ыстар</w>
қараш адағы</w>
қ ыз</w>
Қазақста н
ғы р</w>
ғасыр дағы</w>
энерг о</w>
эм пирикалық</w>
экстремиз мге</w>
ым дары</w>
ш ав
цифр ландыр
хатта маны</w>
хал ықтар</w>
факуль те
тә ж
тұр уы</w>
тоғ жанов</w>
то нды</w>
тк iш
тил лер
технология сына</w>
тарих ындағы</w>
табиға ты</w>
су дағы</w>
стим улятор
соз ылған</w>
семин арға</w>
сақтал у</w>
сан аны</w>
револю ция</w>
ре ті</w>
ре тті
ре проду
пост кеңестік</w>
портал ында</w>
пар ақш
оты н-
ол қыл
нығаю ына</w>
н ө
мұ сыл
мүше лерімен</w>
мдер мен</w>
ма маны</w>
лингв истикалық</w>
ле уге</w>
көмірсуте ктер</w>
көмір дің</w>
күр деле
ко али
керек ;</w>
кездесу ді</w>
к eн</w>
зертхан а</w>
жү ні
жылы жай
жинақ таушы</w>
жемі с</w>
жапон ияның</w>
ж ы
еш қашан</w>
ету ;</w>
ере н</w>
енгізі луде</w>
еке уі</w>
ев ро
е э
дәу рен</w>
да қ</w>
гип с</w>
г -
визу алды</w>
ветерин ар
бұйым дардың</w>
бірі нен</w>
бе йді</w>
бағ ала
басшыл ығына</w>
байланыстыр атын</w>
байланыстыр ады</w>
байланы сының</w>
ая сы</w>
ашық тығы</w>
атынд ығы</w>
ап тада</w>
алмас уды</w>
айыпп ұл</w>
ай дар
аб стра
Ше ші
Т алдау</w>
С и
Моби льді</w>
Жүйе нің</w>
Ж а
Е сі
Гер ман
Ар найы</w>
А тал
ə ле
si gn</w>
s s</w>
s ing</w>
require ments</w>
qu es
logis tics</w>
lar gest</w>
finan cing</w>
con clu
beli eve</w>
am ent
ab ility</w>
Ma ple</w>
D M</w>
C om
50 %</w>
5- сурет</w>
4 8
3 2
0,7 1</w>
0, 0</w>
0 3</w>
( D
( 8)</w>
% -дан</w>
өзгері сін</w>
өзге ше
әліпби іне</w>
әл- фараби</w>
әде би</w>
ә ул
ә н</w>
ұшыр аған</w>
ұш ақ</w>
ң гір
қызығушыл ықтарын</w>
қр -дағы</w>
қор ғайтын</w>
қи ыр
қатысу ына</w>
қатар дағы</w>
Қара тау</w>
ғыл ау</w>
іс-әреке ттің</w>
ынд aғы</w>
ым нан</w>
ш ым
фут бол</w>
фунда мен
фран цияның</w>
уақы ттық</w>
төзі мді
тө л
түсірі лген</w>
түй ме
тү c
ті міздің</w>
тол қы
тар ту
талап қа</w>
та мыр</w>
та маның</w>
тə у
т ья
сә ттілік</w>
станция сын</w>
спектр лері</w>
соз ылады</w>
се ку
сақ талатын</w>
самми т</w>
сабақ қа</w>
сабақ та</w>
ресей ден</w>
реак циясы</w>
піші ні</w>
пайдалан у
пай дал
орт сайлау
органд арымен</w>
ор а
он укли
о С</w>
нау қаны</w>
назар дан</w>
навиг ациялық</w>
мұғалі мдерді</w>
мели ор
мамандар мен</w>
маманд ығының</w>
маг не
м дері
м д
ла ған</w>
көрі н
кәсіпорынд ы</w>
кәсіп орынға</w>
ия лары</w>
ист і</w>
интерфей сі</w>
и ид</w>
зом был
зат тарға</w>
жү гір
жі берілетін</w>
жылж ыту</w>
жоғар ылады</w>
жоб аларына</w>
жалғастыр уда</w>
еті луі</w>
есте лік</w>
ев тің</w>
дағдар ыстың</w>
д жа
ведомство аралық</w>
бөлімше лерінің</w>
бух гал
бр ау
болжам ы</w>
блог ы</w>
беруші нің</w>
бағдарла маларына</w>
бас тығының</w>
байланы сқа</w>
ауқ ымда</w>
ата-ан алар</w>
анықта малық</w>
ал тай</w>
айнымал ылар</w>
Э Е
ЫР У</w>
ЫН ЫҢ</w>
Сә т
Оқы тудың</w>
М аш
Кү кір
Зертте удің</w>
Г Е
АН Ы</w>
А М
ve ter
qu e</w>
p i</w>
o t</w>
ne go
nego ti
h en
es p
a th
a )</w>
] ;</w>
M o
9, 7</w>
6 6
30- дан</w>
1 3-
Ө з
ұсыны сы</w>
ұл ының</w>
ұйымдас қан</w>
ұзынд ығының</w>
ұзынд ығын</w>
құ сайын
қатын асына</w>
қат тылығы</w>
қанағат тан
қаз у</w>
қаба тында</w>
Құрыл ыс</w>
іс теді</w>
энергия ға</w>
ыс пен</w>
ын у</w>
ыл ардың</w>
ыз ға</w>
шеше ді</w>
ш алар</w>
хирург иялық</w>
тұрғыз ылды</w>
түрік мен
тү сі</w>
тыл ықтың</w>
теор иясын</w>
те гінің</w>
тату лық</w>
тарих ына</w>
тариф тер</w>
тар тудың</w>
таны м
тал ьды</w>
тə жірибе
сырт тан</w>
сыр ықтың</w>
сыз ығы</w>
стандар тына</w>
смарт фо
сипат талатын</w>
сигнал ды</w>
сектор ында</w>
сектор ына</w>
саты сы</w>
сан кт-
санкт- петер
самми ті</w>
салалар ға</w>
пал ат
п ли
оқ уды</w>
орынд алып</w>
ор дың</w>
омар ов</w>
о тынд
о сымен</w>
мөлшер дегі</w>
мәжілі сінде</w>
мыр з
мол до
мақ тан</w>
лды -
лар :</w>
л ос
көмекте су</w>
кө зінің</w>
кү ту</w>
кіл т</w>
корпу сының</w>
корпор ациясының</w>
ко к
кине т
ио ндық</w>
интегра циялау</w>
инвестор лармен</w>
из отроп
жұмыссыз дар</w>
жі береді</w>
жыл ының</w>
жыл удың</w>
жеміс- жиде
желтоқсан ға</w>
есебі не</w>
ерекшелі ктер</w>
ер жан</w>
еле сте
еаэо- ның</w>
дәлелде йді</w>
диспер сия
д тік</w>
гибри дті</w>
ведомство да</w>
в ке</w>
білікті ліктерін</w>
болаш ағына</w>
болады ;</w>
бол май</w>
бл и
би е</w>
бет кей
белде уі</w>
беларус ь
басқа да</w>
баста дық</w>
бал ардың</w>
бe л
асыр ған</w>
ар ын
ал ма</w>
ал ан
аккреди тте
У Р
Төме нде</w>
Түр к
Тур истік</w>
Т М
П ар
Мекте п</w>
Ля пу
ven tion</w>
tur ing</w>
so li
s .</w>
p il
op e</w>
im e</w>
histor ical</w>
eр ттe
de termin
corpor ation</w>
b ur
ak to
administr ation</w>
a k</w>
a .</w>
II I</w>
2015- 2017</w>
2 7-
14 5</w>
. .
 x
өлі мі</w>
әлеуметтік- мәдени</w>
әле мі</w>
әдісна малық</w>
әде ттегі</w>
ұя ш
үдері стерін</w>
құрам ның</w>
қыл ардың</w>
қызметкер лерге</w>
қо суда</w>
қатынас тың</w>
қасие тіне</w>
қай шы</w>
қаба тын</w>
ғалам тор</w>
іші не</w>
энергет иканы</w>
ықп алы</w>
ық тау</w>
ығ ы
ыл маған</w>
шла м
ша -
цио нды</w>
уль до
тәжірибе мен</w>
тұрғыз у</w>
түз уші</w>
тү с</w>
ті лікті</w>
тыңайт қыш</w>
тт армен</w>
тигіз ді</w>
техн икамен</w>
термин і</w>
терми ндер</w>
тасымалда уды</w>
тарат уға</w>
там шыл
табыл ады:</w>
т ч
сүйі спен
сү тті</w>
сіл теме</w>
сі ;</w>
сыз ба</w>
стері нде</w>
стер ден</w>
сор ғыл
со тының</w>
сипатта маларының</w>
сигнал дар</w>
сал сақ</w>
пробле малардың</w>
про м</w>
павиль оны</w>
оқыту шысы</w>
оқиғал арды</w>
отыр ып
орынбас арының</w>
органд арында</w>
оператор лардың</w>
облыс ымызда</w>
нысандар ына</w>
ныса нын</w>
ног ор
мұха мед
мұр ат</w>
монопол иялар</w>
модификация ланған</w>
мəлі меттер</w>
лі мді</w>
лге ні</w>
кө ке
код тау</w>
кей біре
кезең- кезеңімен</w>
ка бель
к aм
зерттелі нді</w>
заңдыл ықтары</w>
жөні нен</w>
жылдық тың</w>
же т</w>
ер мек
дық .</w>
деформа циялық</w>
да уларды</w>
д уш
гидро фо
вок зал</w>
вице- министрдің</w>
бу ынд
бағытт алатын</w>
басш ысын</w>
бас тұз</w>
байланы стар
асп ан</w>
ас пайтын</w>
ап ат</w>
алгорит мдік</w>
алаң дары</w>
Топ ырақ</w>
П о
Ор ган
Нәтиже лер</w>
Н АСС
НАСС Р</w>
Г Э
Бал қаш</w>
БІ ЛІ
s ept
re port</w>
proper ty</w>
prior ities</w>
iм дi</w>
ha ving</w>
en a</w>
dec ember</w>
d one</w>
campai gn</w>
boo k</w>
be k</w>
ba sic</w>
associ ation</w>
4 3
200 2</w>
2 3-
0,6 8</w>
0,6 1</w>
( 12
өсі п-
өнеркәсібі ндегі</w>
өндіруші лерге</w>
өзгері стері</w>
әңгімеле п</w>
әрекеттесу і</w>
ңі здер</w>
құбыр ының</w>
қызығушыл ықты</w>
қызметкер лерін</w>
қызметкер дің</w>
қолда уына</w>
қолда н</w>
қозғалтқыш тың</w>
қозғал тқыш</w>
қаржыландыр ылды</w>
қар ы</w>
қам сыздандыр
қабыр ға</w>
қабат тағы</w>
қа тарын</w>
ғанымыз дай</w>
із гі</w>
ю рий</w>
ы ға
шеше тін</w>
шам алы</w>
ш ындық</w>
хим ияны</w>
фор мал
уро р</w>
тәу еке
тәжірибе лерді</w>
тұр ғанын</w>
түзі летін</w>
тізі м</w>
топ тарға</w>
то ни
тері нен</w>
тасымалда ушы</w>
талқыл анатын</w>
та сп
сын у</w>
ст ю
сипат та</w>
секу нд
сектор ды</w>
саясат тан
сат ы</w>
сапар ымен</w>
самми тіне</w>
са р</w>
са з</w>
республик адағы</w>
пікір лер</w>
прок урор</w>
про те
принцип терін</w>
параметр леріне</w>
пайыз бен</w>
п ин
оқшау лау</w>
оқшау л
орналастыр уға</w>
орна тып</w>
одақ пен</w>
ов пен</w>
обь екті
нәтиже лі
наурыз ында</w>
назарбаев а</w>
мл н-
мекеме лерде</w>
ло каль
көмек шісі</w>
кө гал
кү нінен</w>
критерий лер</w>
компонен ттерді</w>
комбин аты</w>
келтіріл ген
келтір іп</w>
к асы</w>
к Вт</w>
ия лық
ист р
инвестиция ны</w>
заңна масын</w>
жі бері
жоғарыл атуға</w>
жоғар ла
жол ғы</w>
жин ағы</w>
жеңі лдік</w>
жеткіз удің</w>
желтоқса ндағы</w>
жаса дық</w>
жарыл ғыш</w>
ж ері
елбас ымыз</w>
е нетін</w>
дығ ымен</w>
ды »</w>
датчик тер</w>
г )</w>
болса ,</w>
белсенді лігінің</w>
белор у
бейне у</w>
бағал ауда</w>
ақ -
аяғ ында</w>
ауыт қы
аты н
ассор тимен
ар тиллер
ар се
алды мызға</w>
ала тыны</w>
аймақ тарға</w>
С инте
П ракт
ОЛ ОГ
Мұ ның</w>
Медицин алық</w>
Кө бі
К есте
Жез қазған</w>
Бай ланы
Б Е
Аңдат па
Алды мен</w>
« М
syst ems</w>
success ful</w>
st af
sept ember</w>
re alization</w>
ne eds</w>
mis sion</w>
j ust</w>
inf l
increas ing</w>
i ii</w>
high er</w>
h y
exec u
en cies</w>
ec h</w>
col le
chall eng
bu s</w>
author ities</w>
a лд
8 5
2014- 2016</w>
10 3</w>
.kz .</w>
(9 )</w>
( а)</w>
( Сурет</w>
 t</w>
өсі мінің</w>
әл- Фараби</w>
ӘДІС ТЕ
ұңғым а</w>
ұз ы
үрді сті</w>
үле сінің</w>
қоғамдас тықтың</w>
қат пар
қап пар
қабіле тінің</w>
қа ны
Құм көл</w>
ірі нен</w>
энергет иканың</w>
экипа ж
шек кен</w>
хан алық</w>
функция ны</w>
фактор ларының</w>
ф икалық</w>
тәжірибе лерін</w>
тір келу</w>
тоқ талған</w>
то тығының</w>
тасымалда удың</w>
тас ымен</w>
таны с</w>
талда п</w>
тa р</w>
сұраны сы</w>
станция лар</w>
стандартт ардың</w>
сервер лік</w>
сені ммен</w>
сене міз</w>
сауда ның</w>
сап тық</w>
с іре
с с-
ри н</w>
про кси
пaй дaлa
отыр ғандығын</w>
орынд ауды</w>
олимпи ада
о спан
ныса нда</w>
ни ттік</w>
мұхам мед</w>
мың дай</w>
моде лі
мемлеке ттері
меке н
ма к
лянью нь
лы к</w>
ло р</w>
лген нен</w>
ластан уын</w>
лай ық</w>
көмірсу тек</w>
көмір қышқыл</w>
көме гі</w>
көке йке
күкір т
кп е</w>
коэффициен т</w>
контен т</w>
конкур стық</w>
комиссия ға</w>
квар ц
индик атор</w>
импуль сті</w>
зор лық-
жүй e
жоспар дан</w>
жетілдір удің</w>
жарты жылдығында</w>
жара қат
жалғ асып</w>
жалпыл ама</w>
ескері леді</w>
е й
дсә дм</w>
грави тациялық</w>
ги пе
ге лі</w>
газ ға</w>
бір де
бразил ия</w>
бол майтын</w>
би т</w>
белгіле н
бекі тіледі</w>
баста маларына</w>
бар шаң
бар атын</w>
бан ктік</w>
ақу ыз</w>
ақ ыз
аур уларды</w>
ауда ндардың</w>
атор дың</w>
ат қа</w>
арттыр ды</w>
ал асыз</w>
ал -</w>
Фо то
Кү н
ИК АЛЫҚ</w>
Жыл у
Еуро па</w>
В т/
Б ЕР
Аңдатпа :</w>
trans port
tr a
ste red</w>
st ations</w>
res ol
r ural</w>
pl e
ne l</w>
m it
kar ag
in spec
h app
ful l</w>
emp ha
c ты</w>
belar us</w>
au t
al most</w>
N -
7 8
30 %</w>
201 8
0 С</w>
өткізі луі</w>
өтемақ ы</w>
өс кеме
өзгер ді</w>
өзбек станның</w>
әкі мнің</w>
әй елдерге</w>
үш тік</w>
үнемде йтін</w>
Ү й
құбыр лары</w>
қылмы сқа</w>
қы п
қуанышты мыз</w>
қолжеті мді
қолдан у
қол басшысы</w>
қо я</w>
қасие ттерді</w>
қарастыр уды</w>
қабат тардың</w>
эн eр
электро н</w>
ши рек</w>
уге ,</w>
төзі мділігін</w>
тұтқыр лығы</w>
тұр ғылықты</w>
тұлғал арды</w>
тү лект
тү бі
ті )</w>
тыңайтқыш тарды</w>
тың далды</w>
тиіс .</w>
тен ге</w>
тақырып тары</w>
тақ та</w>
тазар тылған</w>
таба н</w>
таба мыз</w>
сөздер дің</w>
сәйке стігі</w>
сәйке сті
су дің</w>
син такси
се н</w>
саға тқа</w>
сал дарын</w>
сабақ тарында</w>
ре конструкция
ос ыны</w>
орф ты</w>
орта дан</w>
оператор ының</w>
олимпи ад
о ны
о мыр
ндыр ылған</w>
мәж бүр
му м</w>
ми ха
механиз мдерін</w>
метр дің</w>
мемлекеттік- жекеменшік</w>
мемлеке ті</w>
ме ші
лді р</w>
лаңке стік</w>
кө лікті</w>
компания ларын</w>
ком пен
кле тк
кеңісті гіне</w>
ке нов</w>
ио ндар</w>
интер пре
индустрия лды-
иж тм</w>
зорлық- зомбыл
з и</w>
жіө -нің</w>
жыны стардың</w>
жыл уды</w>
жаттық тыр
жа ндардың</w>
еңбек кер
есі к</w>
ер тең</w>
ду алды</w>
гре к
г өз</w>
бөл шекте
бү тін</w>
бір ауыздан</w>
болу ы;</w>
бизнес ме
бағытт алуы</w>
бағ алары</w>
бар а
байқал уда</w>
ба ж</w>
ақорда ның</w>
ақ тар</w>
аудандар ының</w>
ат ов</w>
арнал ды</w>
аппар атының</w>
алмас ып</w>
ал ына</w>
айқынд алады</w>
айнал ымға</w>
автор лары</w>
С ү
Назар баев</w>
Д Н
І Р
wh ile</w>
ul y</w>
sever al</w>
manufac turing</w>
m as
j usti
innov ation</w>
i не</w>
i gh
f er</w>
consi dered</w>
[ 2</w>
We b-
L o
C on
7 50</w>
4 2
25 %</w>
0,7 3</w>
- бұл</w>
( мысалы,</w>
өңде уден</w>
өзгері ссіз</w>
әзірле неді</w>
Әр і</w>
ұл т
Ұ лы</w>
үй е</w>
құрал- жабдықтар</w>
құжат тама</w>
құ мды</w>
қосынд ысы</w>
қаты сп
қамтамасыз дандыр
қай тты</w>
ғылым ға</w>
ық шам</w>
щ уч
шеші мге</w>
шетел ді
шақыр ымды</w>
шал ғай
ша мадан</w>
ш оқ
ш к
ш алға
ция ларды</w>
х ар
уші нің</w>
уль ти
у ларға</w>
тұрақсыз дық</w>
тұр ғандай</w>
тоқса нда</w>
тос қау
топ тарын</w>
терр ори
тер малды</w>
теме кі</w>
тa был
сұл ба</w>
сі )</w>
си н</w>
сай ысқа</w>
румын ия</w>
рол і</w>
рефор маның</w>
пә нге</w>
потенци алы</w>
пас сивті</w>
парт иялар</w>
пайд асы</w>
оңтайландыр уға</w>
осцил ля
он -
обл ыстар</w>
о тыны</w>
негіз дері
ндір уге</w>
мә ндерді</w>
мын алар</w>
миссия сының</w>
метр ология</w>
мемлеке ттерде</w>
машин ақұрыл
маманд ықтары</w>
ле -</w>
кө ліктер</w>
кір ісі</w>
кри тикалық</w>
корпу сы</w>
концентра ция</w>
кеше ніне</w>
кəсі п
интегра ция
иде я</w>
за да</w>
жі бер
жиі лігін</w>
жер лерін</w>
жағ дая
жаз ған</w>
жаз ба</w>
жа д
дәлі зі</w>
ді »</w>
дақыл дардың</w>
даярла уда</w>
дайынд а
д жі
гипо тез
г ос
бұ ндай</w>
бұ лар</w>
биог аз
бал алары</w>
ауда ндағы</w>
ас уына</w>
ас тындағы</w>
арн асы</w>
ар о
ал ынд
ал уын</w>
айнал асында</w>
аймақ тарының</w>
а це
Тө мен
Техн ологиялық</w>
Т ең
К ері</w>
К Е
Ж аб
Есі л</w>
Д І</w>
ГА Ж</w>
А ғ
w ar</w>
th em
t an
stan ding</w>
staf f</w>
read s</w>
pr ac
plac es</w>
ou ght</w>
o s</w>
li st</w>
ide a</w>
e кт
di alogu
al low</w>
achiev ements</w>
S C
7 5
( I
( 14
өнімді лігінің</w>
өндір істегі</w>
өн ерінің</w>
әскер и
ӘДІСТЕ МЕ
ұ сақтау</w>
Ү ш
құрыл у</w>
құр алды</w>
қосп алары</w>
қорғаны сы</w>
қорғ алатын</w>
қойыл ымы</w>
қашықтық қа</w>
қ aрa
ғимар аты</w>
ға н-
эк зо
шығ ысында</w>
ше в
ше бері</w>
шал дық
ша масына</w>
ция лары</w>
у құйр
у лар
тізі мге</w>
ті лдер</w>
тури сті
тоқ тап</w>
технология ға</w>
техн икасының</w>
техн икалық-
теле фон
тақырып қа</w>
таны тқан</w>
тe мп
сұрып тау</w>
сі нде
созыл малы</w>
сир иядағы</w>
сип атына</w>
саясат тағы</w>
са нынан</w>
пун кт
пар иж
пар и
п .
оқы тылатын</w>
отырғыз у</w>
ортал ықты</w>
ні ндей</w>
ныға я</w>
негізделі п</w>
нақ тылы</w>
мұ нымен</w>
мы сын</w>
мине сцен
миллион ға</w>
мектеп тері</w>
меке ндердің</w>
меке ндер</w>
ме кс
мдер де</w>
матриц асының</w>
магни т</w>
м/ с</w>
м o
м ;</w>
көк жие
кәсіподақ тар</w>
кірі п</w>
курор ттық</w>
ктор дың</w>
ко й
кеңей теді</w>
кезең- кезеңмен</w>
ке сене
кафедр асының</w>
кадми й</w>
ио ндар
институ ттар</w>
ин ку
жі беруге</w>
жылдам дығына</w>
жин аған</w>
жеңімпаз ы</w>
желі сінде</w>
жекешелендір уге</w>
жақ тың</w>
жатақ хан
жамылғ ысының</w>
жамылғ ысы</w>
жай- күйін</w>
еңбек ақы</w>
еңбек ақ
ест у</w>
ереже лерді</w>
ел мен</w>
ев р
е қ
дмитри й</w>
ди ст
ди н</w>
депута т
де міз</w>
де компози
дайынд айтын</w>
д жи
г ы</w>
ведомств осының</w>
бірі мен</w>
бі лген</w>
боя у</w>
бол aды</w>
био химиялық</w>
бидай дың</w>
би ли
бен зин
бейне сін</w>
бағы тының</w>
бап тау</w>
бан к
бай жан
ба у</w>
ая н
ация сын</w>
ауыл ы</w>
аудар ады</w>
артықшыл ықтарын</w>
ар ма
ал ауға</w>
аккум улятор
Лап лас</w>
К а
ИЯЛ ЫҚ</w>
Д әле
« Қазақстан</w>
sit e</w>
s il
mater ials</w>
li ve</w>
kazakhstan is</w>
independ ent</w>
esp eci
especi ally</w>
du in
dialogu e</w>
cr imin
concep t</w>
challeng es</w>
br an
bo th</w>
b ir
ar ch
Stu dio</w>
S cri
P h
F e</w>
E H
Ar duin
199 6</w>
10 0-
1 12</w>
( Р
өтке нін</w>
өлше мдерін</w>
ө сетін</w>
әкімді кте</w>
әкімді гінен</w>
әділ бек</w>
ә деп</w>
ұсыны стар
ұлғай ған</w>
құрылым ға</w>
қосымш аны</w>
қо қы
қиынд ықтарды</w>
қатысаты нын</w>
қал дығы</w>
қ ap
Қ ашық
Қ Б
ізде п</w>
із ден
і спе
электрон ика</w>
эк си
э вр
ынталандыр уға</w>
ыл ы</w>
ші лері</w>
шыға р</w>
шең бер</w>
хатта маға</w>
х аны
флю ор
ф тор
ура нды</w>
ул ярлы</w>
төр т
тұтқыр лық</w>
ты- оптикалық</w>
толтыр ғыш
тиімді лігінің</w>
теңде уге</w>
тен ни
тая қ
тау дан</w>
тасымал ын</w>
т ;</w>
сәуле лендіру</w>
сұйық тықтың</w>
сү т
сіл те
стан сал
спектроскоп ия</w>
сло вак
символ ы</w>
сан аймыз</w>
салыстыр а</w>
сал алы</w>
ра м
прогре с
пра г
перспе ктивті</w>
пара болалық</w>
отыр ғанына</w>
он ға</w>
объекті ге</w>
нәре сте
нысандар ға</w>
номин алды</w>
не ні</w>
нд ы
на ның</w>
мұхам бетов</w>
мұнай мен</w>
мү л
мо на
механиз мдері</w>
метал дың</w>
мен )</w>
меке ндерді</w>
мағын асын</w>
маусым ға</w>
масс асын</w>
ма мыт
ле уді</w>
лa р</w>
көш уге</w>
көтері ліп</w>
көмір ді</w>
кәсіпорынд арында</w>
кір уге</w>
конференция сында</w>
консульта тивтік</w>
комплек с</w>
кəсі би</w>
ин спе
и сп
зертте йтін</w>
зат тары</w>
жобал ық-
жер лердегі</w>
же тетін</w>
жария ланы
ж ac
еңбе ктері</w>
еуроп аға</w>
дәлел деді</w>
демп фер
ге ,</w>
вок зал
бөл i
бой лық</w>
бері лі
бейне ні</w>
бақы тты</w>
бағал ай
бай ы</w>
аөсш к</w>
ақ қа</w>
ауда ны
асырыл уын</w>
ардагер лерге</w>
анықта ған</w>
анима циялық</w>
алма тылық</w>
алгорит мді</w>
ал қасы</w>
ал ас
ад ре
агро өндірістік</w>
Түйі н
К Т
И М
Зертхан алық</w>
Ж ау
Екі ншіден</w>
Е ң
Бұ ндай</w>
» ,</w>
« Б
sho w</w>
sh ip
respon sibility</w>
re al</w>
ra il
pr acti
offic ial</w>
m uc
li g
it ation</w>
innov ations</w>
hous e</w>
er g
e )</w>
con gress</w>
compl et
c y
c lim
buil d</w>
atten ded</w>
ari an</w>
ar ound</w>
C u</w>
10 2</w>
0, 39</w>
0 8</w>
- ші</w>
( B
өрі сінің</w>
өрне к</w>
өндіруші лері</w>
әріпте стермен</w>
әкім дерінің</w>
ұғ ым</w>
ұлыбритан ияның</w>
Ұ я
ү иид</w>
құбыл ыстардың</w>
қызметші лерді</w>
қы мыз</w>
қақ тығ
қар ым
қабылда уда</w>
қ .</w>
ілгеріле туге</w>
і стерді</w>
і нші</w>
ян ь-
ынтымақ та
шалға й</w>
ш ұж
цилиндр лік</w>
х ок
фото электрлік</w>
формат тағы</w>
физика- механикалық</w>
ф ен
төрағ алары</w>
тұтын удың</w>
түсір ген</w>
түрлендір уі</w>
ту ра
тор ды</w>
топ та</w>
талда нды</w>
тал у</w>
та нды</w>
сәрінжі пов</w>
сыз дық</w>
со ма</w>
сия қ
сектор ындағы</w>
с в
ретте йді</w>
ради онукли
ра дик
потенци алдық</w>
пор т</w>
плен к
пайдалан уы</w>
оқ ыр
орнық тылық</w>
органы ның</w>
ода қты</w>
наурыз ға</w>
міз .</w>
модерни зациялау</w>
министр ліктерінің</w>
мақ аланың</w>
ман ип
көшбасшыл ық</w>
кө здің</w>
күш тің</w>
колле джі
керне уі</w>
келеше к</w>
ка дас
к aр
италья ндық</w>
заңна масына</w>
зат тармен</w>
жүй ке</w>
жі гер
жыны стар
жинал ыс</w>
жекешелендір удің</w>
жат са</w>
жаб ыс
жа д</w>
ен ко</w>
е ф
дра ма</w>
де сек</w>
дағ ды</w>
гі )</w>
генерал- майор</w>
бол ған
бе тон
баспан амен</w>
бар ыс
ба зи
бoл aды</w>
бaғы тт
аш инг
ауыс уы</w>
аумақ тарды</w>
аттестат тау</w>
ар ғы</w>
ар ас
ал ь</w>
актив терді</w>
аймақ тардағы</w>
ай ық:</w>
ажыр аты
Ф ер
Ф ОР
Тәжірибе лік</w>
Про бле
Иннов ациялық</w>
Бү гінде</w>
əр түрлі</w>
vis ited</w>
tur no
turno ver</w>
t em
st ain
resid ents</w>
reco gn
pro posed</w>
p ay</w>
ma in
m ail</w>
kin der
k m</w>
inter action</w>
industr ies</w>
i ght</w>
grow ing</w>
establi sh</w>
employ ed</w>
emplo ye
def ense</w>
competi tive</w>
aл ын
an i
akto be</w>
We b</w>
M L
I T-
8 9
25 th</w>
20 0-
0,7 2</w>
- ден</w>
( 5
өр ісін</w>
өр істің</w>
әскери- теңіз</w>
Әле мдік</w>
ұйымдастыр ылатын</w>
ү .ж.</w>
құқ ығына</w>
құр атын</w>
құл дыр
қосымш алардың</w>
қор ш
қонақ жай
қолданы ста</w>
қолдай тынын</w>
қол өнер</w>
қой дық</w>
қарж ы-
қарама- қарсы</w>
қар қын</w>
қай нар</w>
қадағ алап</w>
қа қ</w>
қa жe
қ ыны</w>
ғы ға</w>
ғ ым
іс-қимыл ын</w>
экспор тын</w>
экспор тты</w>
ь ді</w>
ық шам
ыстар да</w>
ында :</w>
ында )</w>
ыл майтын</w>
шла к
ше в.</w>
ш ағы</w>
ц з
ушыл арының</w>
у и</w>
тәуелсіздігі міздің</w>
тұтын ушылық</w>
тұты натын</w>
түзе ді</w>
ты .</w>
турни р
тудыр ды</w>
тор ының</w>
теті гін</w>
тербел мелі</w>
теле коммуникация</w>
тар тқан</w>
тa ң
т a</w>
сұй ықтың</w>
суре ттен</w>
стан мен</w>
симметр иялы</w>
си л
салқынд ату</w>
салтана тына</w>
сайла уына</w>
с әле
рол ін</w>
рефор масы</w>
р айы</w>
пун кті</w>
прокурат ураның</w>
прокси ма
оқыту дағы</w>
ой ымызша</w>
ог ур
о метриялық</w>
нүкте лерінің</w>
негіз сіз</w>
негіз ді</w>
не -</w>
н a</w>
мәске уде</w>
мұқ таж
мүмкінді гінің</w>
мү сі
моде л
млн. теңге</w>
микро скоп</w>
маңыз дағы</w>
маш ыл</w>
малар ында</w>
маг ат
ма шық
м икалық</w>
лей тен
көрсетілген .</w>
күкір ттің</w>
кі ш</w>
кі сі</w>
кция лар</w>
кур сында</w>
критери й</w>
компьютер де</w>
кластер леу</w>
кен нен</w>
кезе ктегі</w>
квад рат</w>
индустриялды- инновациялық</w>
ие в.</w>
зертте ушілік</w>
зауы тында</w>
жүргіз уші</w>
жүргіз е</w>
жү зі</w>
жи н</w>
жеңілде туге</w>
жауын-шаш ын</w>
жас алынып</w>
жал дамалы</w>
жаз ылады</w>
ескер ткі
ереже сі</w>
ер тінді
е. ыдырысов</w>
е ттің</w>
дәлі з
дизай нер
дағдыл ар</w>
дайынд ады</w>
д әріпте
гре к</w>
гар ни
бірі нде</w>
бу да
боса тылды</w>
баста уға</w>
баста машы</w>
бай ла-</w>
баб алар
б. сағынта
ақыр ғы</w>
[...]
