#version: 0.2
t h
th e</w>
t i
o f</w>
i n
a n
r e
e n
o n
e r
o n</w>
s t
o r
a r
a ti
e d</w>
r o
an d</w>
i n</w>
a l</w>
a t
i t
e c
a l
in g</w>
e s</w>
t o</w>
o u
i s</w>
i c
e s
i l
a c
p ro
m en
e l
e r</w>
s i
a n</w>
ati on</w>
u r
o m
o r</w>
p l
a s
d i
o l
d e
u c
t r
a k
c on
a s</w>
a t</w>
o p
u l
t s</w>
i s
a z
m e
ati on
f or</w>
ti on</w>
men t</w>
i m
T h
c om
az ak
v e</w>
t er
u s
re s
a g
l i
a m
K azak
st r
u n
e x
c i
a d
d uc
h st
c h
l e
it h</w>
w ith</w>
a b
w or
Kazak hst
ou n
ti on
n o
p ar
Th e</w>
f or
s p
at e</w>
s ,</w>
it y</w>
ar e</w>
l o
v i
g i
e n</w>
a i
e m
c e</w>
a p
q u
s u
v el
t ed</w>
n e
v er
th at</w>
f i
p o
il l</w>
2 0
ti n
p or
i g
w ill</w>
o d
b e
y e
c re
p u
l y</w>
d ing</w>
b y</w>
w h
p er
r a
d en
th is</w>
b e</w>
f f
s h
t en
l e</w>
Kazakhst an</w>
ur e</w>
vel op
e d
s .</w>
i c</w>
for m
r i
men t
er e</w>
ation al</w>
i z
c oun
v e
h e
y ,</w>
pl e
ic al</w>
c or
de velop
p e
o g
re n
re gi
tin g</w>
m a
u m
c o
20 1
ti c
pro duc
t u
a r</w>
at ed</w>
en t
ro m</w>
ar y</w>
m o
t h</w>
s y
es s
in i
t e
th e
f rom</w>
c l
i t</w>
pu b
coun tr
s ai
b u
ti es</w>
e ,</w>
w as</w>
I n</w>
p re
g e</w>
ec h
j ec
es s</w>
p res
s o
a in
wor k</w>
er s</w>
str uc
re c
s e
ec on
s t</w>
es ,</w>
d u
a d</w>
tion s</w>
ec i
sy st
al l</w>
g r
ation s</w>
ou t</w>
in ter
Kazakhst an
develop ment</w>
t o
li c</w>
st ate</w>
t w
st an
in g
g e
en t</w>
ic h</w>
pub lic</w>
w e</w>
b il
m an
d .</w>
ou r
h a
ech n
por t
op er
g o
en er
n ational</w>
ou s
b er</w>
wh ich</w>
p r
cor ding</w>
ul t
an t</w>
pro c
ag e</w>
t echn
ou r</w>
w ere</w>
econ om
st u
i es</w>
s o</w>
a re
a y</w>
l d</w>
er v
li on</w>
th er</w>
regi on
t ro
form ation</w>
men ts</w>
R e
a y
sp eci
cre as
o b
d er</w>
es .</w>
' s</w>
ol og
f ac
ti ve</w>
tr an
in creas
si on</w>
h as</w>
ne w</w>
di s
ac h
m at
pro jec
ur ing</w>
ye ar
wor k
e duc
cl u
po s
no t</w>
com p
g an
e v
d ed</w>
im ple
ha ve</w>
o re
so ci
y .</w>
el ec
an ce</w>
p h
si den
m in
al so</w>
it s</w>
ig h
com m
ati ve</w>
ab le</w>
on e</w>
t er</w>
pro vi
ro u
d s</w>
pl e</w>
A c
b a
ti m
s ol
e m</w>
b as
m il
o c
s erv
n i
ff ic
or gan
qu i
du str
c e
f ic
me th
syst em</w>
sai d</w>
d e</w>
el d</w>
o d</w>
si on
p ol
m od
me e
p en
m or
por t</w>
ou s</w>
he ad</w>
I n
c ar
u m</w>
f u
c ap
no ted</w>
ur al</w>
i al</w>
i r</w>
ma in</w>
Re public</w>
o v
in dustr
e t
par t
ati n
i th
is su
pe o
d at
M ini
lo w
pl an
re d</w>
fi r
di tion
A l
s ec
ar i
c an</w>
or s</w>
Ac cording</w>
b o
re s</w>
w el
f in
su p
an g
ac ti
organ iz
a u
m on
es e</w>
sai d.</w>
atin g</w>
the ir</w>
t ure</w>
h i
f un
t e</w>
ed .</w>
ai r
b i
lo c
im port
al s</w>
si g
n ec
st s</w>
s e</w>
" said</w>
or y</w>
t a
re l
res ul
in formation</w>
co oper
o w
en ce</w>
us e</w>
ti c</w>
qu al
e en</w>
ation ,</w>
c al
st er</w>
tw een</w>
d ic
be tween</w>
th ous
per i
serv ic
produc tion</w>
ve st
v es</w>
ver n
re siden
s uc
ff ec
en c
in clu
0 0</w>
ab il
regi on</w>
e ment</w>
n um
econom ic</w>
ci p
d ,</w>
con si
n ed</w>
inter national</w>
ba ye
ab out</w>
g y</w>
g ra
par ti
e ren
be en</w>
thous and</w>
con struc
i r
en ter
l ar
fir st</w>
al ly</w>
sh i
k s</w>
ou ld</w>
c ur
wel l</w>
in to</w>
c h</w>
par t</w>
s ti
un i
b us
e .</w>
es t</w>
a f
in te
g re
th an</w>
d er
y s
o ther</w>
tic al</w>
r on
mor e</w>
parti cip
l a
am oun
sp or
ad e</w>
num ber</w>
f ra
as s
st at
imple ment
bil lion</w>
ig n</w>
in vest
di rec
a v
d es
tr ain
t ak
D e
k e
su b
syst em
as t</w>
im pro
al u
v ed</w>
t or</w>
ad dition
ed ,</w>
ac e</w>
s ci
ter min
C h
iz ation</w>
en ti
am e</w>
peo ple</w>
b r
sti tu
f l
comp an
a ,</w>
f ore
th ese</w>
m ar
g ro
v ol
w ith
de pen
i l</w>
bus in
stu den
ch o
h e</w>
l in
Th is</w>
ye ar</w>
increas e</w>
gra m</w>
d es</w>
e ffec
c es</w>
com ple
s ed</w>
g ener
v ing</w>
po si
e ar
al l
t ,</w>
sh ould</w>
implement ation</w>
is h
cooper ation</w>
w at
meth od
us ed</w>
p ri
ul ation</w>
gr am
az ar
tin g
cap it
construc tion</w>
ti al</w>
th ere</w>
il l
t y</w>
re g
ac h</w>
fi eld</w>
m s</w>
v en
dis c
I t</w>
issu es</w>
ver s
Kazakhstan ,</w>
er n</w>
proc ess
de termin
pl o
me as
com pe
on s</w>
k no
import ant</w>
ol o
t ain
P residen
le g
pres ent
fi c</w>
ener gy</w>
pro gram</w>
u res</w>
ap pl
countr ies</w>
i d
Kazak h</w>
al ,</w>
olo gi
pro gram
on g</w>
qual ity</w>
disc us
azar baye
er i
rou g
ve l</w>
mil lion</w>
u p
vi ron
tr i
techn olog
h igh
ver y</w>
en s
st e
Presiden t</w>
y p
tw o</w>
ten ge</w>
" the</w>
S t
v ari
it e</w>
0 ,
nec ess
m ini
di ff
n ing</w>
i ties</w>
v alu
suc h</w>
en tr
en g
h ol
d uring</w>
countr y</w>
A s</w>
di tions</w>
for m</w>
resul ts</w>
proc ess</w>
r ic
train ing</w>
on ly</w>
w e
as e</w>
produc ts</w>
elec tr
ation .</w>
educ ation</w>
bu il
si an</w>
en viron
tu re
N azarbaye
an al
necess ary</w>
o u</w>
le vel</w>
or der</w>
e i
re qui
addition ,</w>
tran s
th roug
str y</w>
Mini ster</w>
an ge</w>
at es</w>
t em
di str
Kazakhstan .</w>
al i
b ec
car ri
wor ld</w>
tr ac
kno w
educ ational</w>
1 0
projec ts</w>
h y
b le</w>
techn ologi
res p
at ure</w>
pr is
mo st</w>
at ten
projec t</w>
con tro
tr a
tran spor
per s
us ing</w>
re e</w>
c r
t s,</w>
an d
t al</w>
c ent
ac cording</w>
ment al</w>
at e
mee ting</w>
in dic
wat er</w>
ffic i
h o
om e</w>
d ec
lo w</w>
man ag
speci al</w>
el e
ment ,</w>
A n
c ol
t as
con ditions</w>
go vern
shi p</w>
diff eren
y ou</w>
ult ural</w>
ch ar
cur ren
soci al</w>
p er</w>
throug h</w>
, "</w>
abil ity</w>
t ur
em plo
C om
ren g
b le
stu d
ati ves</w>
g h
t ec
no v
st reng
s k
d oc
th em
busin ess</w>
e st
pub l
a .</w>
t ly</w>
Al mat
v is
carri ed</w>
tim e</w>
tro duc
ex peri
mee ting
ab l
sup port</w>
rec ei
k azak
f ul
u s</w>
bas ed</w>
ig h</w>
f ol
ex am
le ad
us t</w>
ic ation</w>
p op
en ts</w>
th er
in stitu
ap pro
enter pris
enc y</w>
s ult
pos si
ic e</w>
ex p
ar tic
o il</w>
D uring</w>
t od
fra me
ag re
an ts</w>
struc ture</w>
tion ,</w>
region al</w>
s cho
e qu
re present
h igh</w>
t yp
sol u
compe ti
bu t</w>
ay s</w>
gro w
c ity</w>
ge t</w>
ing ,</w>
it u
su m
year ,</w>
m an</w>
g rou
h ous
h eld</w>
s ame</w>
ter s</w>
te ach
in t</w>
depen den
n am
iz ed</w>
c er
ch em
F ig
re duc
c ul
frame work</w>
. "</w>
s :</w>
in troduc
inclu ding</w>
acti vi
p ur
fun c
dat a</w>
comm un
t .</w>
vari ous</w>
be g
ch il
olog ical</w>
n er
o l</w>
N ur
l y,</w>
ar d</w>
me m
sci enti
ti me
in e</w>
ch ang
C on
un der</w>
m is
R us
is ,</w>
t or
U ni
p s</w>
po w
s ur
s econ
amoun t</w>
n al</w>
P ro
l ec
c u
e ach</w>
with in</w>
method s</w>
meth od</w>
an c
pro ble
in ce</w>
kazak hst
ex hi
ce p
Fig ure</w>
plan ned</w>
A t</w>
ap h
ob jec
) ,</w>
studen ts</w>
f ur
sult an</w>
en ing</w>
e qui
low ing</w>
streng th
fic ation</w>
Mini stry</w>
ch ange</w>
j o
i e
is m</w>
G o
he al
st or
resp on
man y</w>
exhi bi
doc u
h is</w>
mat eri
t re
ta in</w>
el y</w>
ac coun
the y</w>
or d
de l</w>
artic le</w>
e ffici
pre ne
pro f
contro l</w>
technologi es</w>
sp ec
er al</w>
tic s</w>
cre ate</w>
kazakhst an</w>
h um
wh en</w>
re port</w>
f e
ti z
a st
- 201
af ter</w>
mod ern</w>
it y,</w>
an s</w>
2 0</w>
tri bu
ac c
loc ated</w>
chil d
sh ow
t s.</w>
s m
equi p
c entr
1 9
ci al</w>
fore ign</w>
fi ed</w>
ag ric
pre siden
publ ic
c our
ac ter
5 0</w>
me di
work ing</w>
% ,</w>
Nazarbaye v</w>
year s</w>
d o
u e</w>
c ri
stud y</w>
prene ur
un der
res ear
Nur sultan</w>
wh o</w>
sp e
di vi
lar ge</w>
ys is</w>
t ors</w>
le ar
Almat y</w>
posi tion</w>
fu l</w>
mo del</w>
ni fic
gre at</w>
Go vern
pro per
in nov
represent atives</w>
pl ac
invest ment</w>
it ed</w>
ag es</w>
ne t
li f
the m</w>
capit al</w>
bu d
pro pos
ish ed</w>
sig nific
industr ial</w>
o p</w>
as s</w>
technolog y</w>
pers on
pu ty</w>
t our
a im
ac tion</w>
con tin
bas is</w>
d ra
o k</w>
increas ed</w>
vol um
r it
a me
stan d
as si
di es</w>
v ity</w>
f o
le d
con tribu
com pu
u ro
A k
meas ures</w>
develop ed</w>
ci tiz
be ing</w>
pol ic
ne ed</w>
provi des</w>
ple ,</w>
m ak
t al
T o</w>
countr i
cor d
d y
w ay</w>
manag ement</w>
are d</w>
ai r</w>
air man</w>
ent re
tem per
tu al</w>
e l</w>
ech an
on -
ic s</w>
igh t</w>
ment .</w>
Th e
cre ated</w>
il i
1 0</w>
ati c
in dependen
d ro
char acter
re ad
time ,</w>
o v</w>
en ted</w>
activi ties</w>
vi e
meeting ,</w>
p i
inte gr
l ab
g as</w>
imple men
ati c</w>
b an
o s
stan ce</w>
a y,</w>
N ational</w>
es sion
cre ation</w>
y z
me d
ur ity</w>
a m</w>
our ces</w>
con nec
tod ay</w>
St ate</w>
amoun ted</w>
effec tive</w>
is h</w>
O n</w>
v .</w>
indic at
distr ic
servic es</w>
est abl
pl ace</w>
aim ed</w>
ac cord
g u
d r
ar m
o k
In ter
cent er</w>
provi ded</w>
po ten
lo b
in ten
techn ical</w>
tr ade</w>
m echan
industr y</w>
pl an</w>
servic e</w>
pro tec
ob tain
er ,</w>
entre preneur
consi de
fur ther</w>
h im
ation s,</w>
ul ar</w>
comple x</w>
know led
v en</w>
m ul
de part
d om
f am
en d</w>
si ve</w>
transpor t</w>
si z
ad s</w>
se t</w>
n at
" he</w>
tion al</w>
F or</w>
u p</w>
atten tion</w>
to tal</w>
resul t</w>
ang u
are a</w>
z h
vel y</w>
f eren
system s</w>
li a
it ary</w>
volum e</w>
an n
et y</w>
wor th</w>
ge .</w>
in e
du e</w>
y ing</w>
form ed</w>
s el
tak e</w>
d eci
im e</w>
f t</w>
l ed</w>
is t</w>
accord ance</w>
m ade</w>
comm is
con duc
tion .</w>
sion s</w>
au th
y m
ou th</w>
fol lowing</w>
1 .
requi re
ex pres
ult ure</w>
s em
ex t</w>
e ver
wh ere</w>
govern ment</w>
H e
o ffic
are as</w>
materi als</w>
ve ment</w>
l angu
g lob
resear ch</w>
econom y</w>
str ate
s itu
citiz en
i d</w>
is l
bil ity</w>
curren t</w>
in v
emplo y
pol i
% .</w>
mar ke
ini ti
in fra
g or
fu ture</w>
E x
ten t</w>
differen t</w>
work s</w>
n on-
impro ve</w>
discus sed</w>
loc al</w>
exhibi tion</w>
ing s</w>
ex per
ac tive</w>
mini str
er n
mod el
anal ysis</w>
v er</w>
t op
fore ,</w>
en d
temper ature</w>
pow er</w>
al ization</w>
p tion</w>
ov er</w>
ma in
scienti fic</w>
region ,</w>
T ur
s ince</w>
m u
e -
Ch in
t og
re fore,</w>
us ,</w>
M a
suc c
heal th</w>
u re
rel ations</w>
k ing</w>
possi ble</w>
valu e</w>
oun d</w>
sp h
sm all</w>
par tic
De velop
l im
pl es</w>
vel op</w>
chem ical</w>
op port
de m
compan y</w>
si t</w>
en e
com pl
ad v
m ust</w>
prof ession
accoun t</w>
de velop</w>
secon d</w>
region .</w>
an y</w>
pop ulation</w>
provi de</w>
den ti
l ast</w>
h el
particip ation</w>
pre par
sup pl
him ,</w>
le ar</w>
in struc
process ing</w>
on ic</w>
glob al</w>
y -
t om
med ical</w>
ph ys
it y.</w>
ture ,</w>
solu tion</w>
e th
at eral</w>
ten ge.</w>
A r
grow th</w>
them atic
re le
2 .
si m
i de</w>
bec ome</w>
ach ie
as soci
vers ity</w>
c enter
pres ented</w>
region s</w>
scho ol
por ts</w>
r aph
wor l
con om
w in
E conom
3 0</w>
res s</w>
mil itary</w>
) .</w>
re n</w>
c op
c as
fin an
fac il
cal cul
es tic</w>
c ultural</w>
E uro
f r
m it
bud get</w>
nat ural</w>
pl ant</w>
an i
P r
y oun
particip ants</w>
knowled ge</w>
am ong</w>
pr ac
m i
dom estic</w>
de v
hy dro
organiz ation</w>
fac e</w>
a il
ur a
poten tial</w>
W e</w>
c lo
par ame
ti es,</w>
speci ali
it al</w>
on g
th ree</w>
re public
k h
reg ar
experi ence</w>
ev ent</w>
res t</w>
at trac
ing .</w>
1 00</w>
recei ved</w>
leg isl
E n
W h
1 5
o -
environ mental</w>
con cep
p ac
olog y</w>
20 0
p ai
la w</w>
enterpris es</w>
i f</w>
ph o
conside red</w>
re li
an ti
low s</w>
dec re
compan ies</w>
t ons</w>
child ren</w>
jo int</w>
201 5
gi ven</w>
g e,</w>
ic ro
with out</w>
peri od</w>
2 5
impro ving</w>
ic es</w>
finan cial</w>
i denti
an u
l and</w>
li gh
w ar
in ation</w>
tas ks</w>
ou t
b el
ter rit
gener al</w>
con sum
is tics</w>
as ed</w>
import ance</w>
c an
com b
po in
o x
ci l</w>
f er
implemen ted</w>
part ner
A stan
t ly,</w>
b ers</w>
h ar
agre ement</w>
pr in
polic y</w>
obtain ed</w>
t es</w>
pri v
f re
s am
R ec
m al</w>
le vel
b er
P ar
sig ned</w>
th en</w>
mod ern
al .</w>
com position</w>
y 's</w>
countr y.</w>
Develop ment</w>
sec urity</w>
i bu
ma thematic
y r
rel ated</w>
appl ication</w>
pur pos
typ es</w>
lif e</w>
s en
s ing
d o</w>
no w</w>
1 ,</w>
require ments</w>
lin e</w>
y l
divi du
ens ure</w>
s elec
proper ties</w>
presiden t</w>
to ok</w>
con clu
agric ultural</w>
ura sian</w>
fl u
bil ateral</w>
inte re
cap ac
equip ment</w>
A s
ra di
er ial</w>
grou p</w>
youn g</w>
process es</w>
on ,</w>
t ation</w>
si a</w>
leg al</w>
compu ter</w>
at ory</w>
o w</w>
con tent</w>
year .</w>
n uc
al located</w>
ff air
e ther</w>
in dividu
poli tical</w>
l u
ul ar
lo g
mul ti
form s</w>
oper ation</w>
innov ative</w>
go od
h al
ad op
marke t</w>
distr ibu
di g
speci fic</w>
citizen s</w>
C ur
di tion</w>
chang es</w>
t el
Pr ime</w>
th an
3 .
strength ening</w>
r an
st ed</w>
stand ar
high -
determin ed</w>
J anu
ful ly</w>
issu e</w>
dy nam
ver age</w>
pri or
f il
electr onic</w>
te e</w>
comp on
S ec
w ays</w>
auth or
s ;</w>
st ar
Cur ren
D i
i de
em ber</w>
col lec
es ti
m icro
s al
201 7
sub jec
om e
exam ple,</w>
at or</w>
S o
signific ant</w>
im um</w>
gor ith
S e
1 4
ro le</w>
er s,</w>
expres sed</w>
1 2
in st
Z h
p at
5 0
p ass
n or
201 6
g ar
n ,</w>
hous ing</w>
contin u
ation s.</w>
ti ven
speci al
er ing</w>
par lia
organiz ations</w>
ver si
al low</w>
cre ating</w>
d ay</w>
op en
An g
The refore,</w>
C oun
sp ace</w>
develop ing</w>
scho ol</w>
emplo ye
l ay
si de</w>
direc tion</w>
E urasian</w>
infra structure</w>
ic ations</w>
par ties</w>
ti es.</w>
be k
s er
acti vity</w>
environ ment</w>
r ate</w>
W or
vi sit</w>
un d</w>
ro ad</w>
s ome</w>
iz e</w>
Euro pe
p a</w>
j ob
no ting</w>
gr ad
tak ing</w>
me mor
Curren tly,</w>
feren ce</w>
g l
1 ,
o se</w>
t ed,</w>
hi stor
Rus sian</w>
situ ation</w>
al gorith
P e
mon it
ar ch</w>
el l
au tom
ar ch
3 0
por ted</w>
st om
typ e</w>
res ources</w>
K ar
ec u
me t
mon th
c a
ass ess
con t
Ang dat
v ,</w>
proble ms</w>
he ads</w>
sur face</w>
st age</w>
ov .</w>
speciali sts</w>
og raph
lear ning</w>
mem ber</w>
m ess
un ity</w>
des ign</w>
e t</w>
man u
k ed</w>
Angdat pa</w>
n o</w>
s ing</w>
A .</w>
on .</w>
de f
ten ge,</w>
reg ul
countri es.</w>
201 4
pu t</w>
valu es</w>
b ly</w>
w s</w>
profession al</w>
a in</w>
A u
mat erial</w>
ad ministr
re t
hum an</w>
O n
j u
se ver
ati s
net work</w>
beg in
atten ded</w>
1 8
des cri
exp an
tog ether</w>
com e</w>
s or
s cal
De puty</w>
s ure</w>
cre te</w>
ce .</w>
mak e</w>
inte rest</w>
tour ism</w>
h en
t en</w>
m ol
ed s</w>
de fin
st an</w>
s es</w>
regar d,</w>
nuc lear</w>
si c</w>
shi p
qu es
gi c</w>
an ni
bo dies</w>
l an
A b
work ,</w>
s af
ord in
anni vers
countr y,</w>
ci r
il y</w>
A f
t t
peo ple
K az
go al</w>
con centr
commun ication</w>
s ul
determin e</w>
po int</w>
ffair s</w>
r is
capac ity</w>
- -
th in
oun d
ex pl
es s,</w>
fun ds</w>
ex change</w>
4 .
do es</w>
an t
tu res</w>
succ ess
op tim
la un
op en</w>
in form
prin ci
a th
high er</w>
hal f</w>
f ree</w>
facil ities</w>
tiven ess</w>
R es
c ro
republic an</w>
program s</w>
ne l</w>
introduc tion</w>
Kazakhstan 's</w>
1 5</w>
w ast
i ed</w>
1 7
langu age</w>
mi x
imple ment</w>
a ve</w>
Kazak h
annivers ary</w>
b ene
u al</w>
0 0
1 6
l es</w>
di ffic
he at</w>
cu stom
b od
des ig
year s,</w>
objec ts</w>
re port
in es</w>
priv ate</w>
f y</w>
cer tain</w>
u b
phys ical</w>
sever al</w>
addition al</w>
ch airman</w>
N o
n ext</w>
v ill
manu fac
re ach
L L
ti l</w>
stat es</w>
institu tions</w>
suppl y</w>
tim es</w>
Ch airman</w>
increas ing</w>
de puty</w>
r e</w>
F ore
I f</w>
Econom ic</w>
indicat ors</w>
tas k</w>
A m
eng ine
z one</w>
or i
purpos e</w>
car b
sol ve</w>
2 5</w>
propos ed</w>
b est</w>
th ir
so il</w>
cal led</w>
S h
or ing</w>
s il
go od</w>
a ffec
ed ag
buil ding</w>
Astan a</w>
comp ared</w>
reduc e</w>
Fore ign</w>
tion s,</w>
rele v
p eci
parame ters</w>
protec tion</w>
al lows</w>
ro ad
k in
con tain
ow n</w>
edag og
ex ecu
fo od</w>
I s
G ener
per form
n ess</w>
a verage</w>
depart ment</w>
wor d
ther mal</w>
territ ory</w>
sing le</w>
dition al</w>
partic ular
mem bers</w>
c y
T od
c ulation</w>
comm it
co st</w>
mathematic al</w>
m ,</w>
cor respon
read y</w>
effici ency</w>
technolog ical</w>
respon si
mis sion</w>
m ag
tak en</w>
e very</w>
inst all
in vol
comm on</w>
individu al</w>
for e</w>
distric t</w>
s qu
r ul
i ev
al ong</w>
Uni versity</w>
pr im
ac k</w>
a ren
siz ed</w>
re si
as es</w>
1 3
proc ed
bas s
ev ent
ele ments</w>
diffic ul
pre hen
con crete</w>
Th us,</w>
Wh en</w>
dig ital</w>
wel l
st ory</w>
ec t
stat e,</w>
industr i
res ult
k et
y st
mo bil
op ening</w>
ever ,</w>
r up
ow ever,</w>
m ass</w>
modern ization</w>
un til</w>
s )</w>
ac tions</w>
establ ished</w>
countr y's</w>
sci ence</w>
O r
compl ex
pai d</w>
com ing</w>
er g
commis sion
tre at
n ers</w>
m e</w>
fl ec
agre e
pl at
connec tion</w>
at ures</w>
O ffic
Rec all</w>
d ol
me ans</w>
lab or</w>
v o
tr ic</w>
effici ent</w>
On e</w>
opport uni
v al</w>
sk ill
l it
de ,</w>
con fi
od e</w>
201 5</w>
us e
tran si
strate gic</w>
al -
lar g
ag e,</w>
f tw
gener al,</w>
competi tion</w>
at t
s ch
a u</w>
di ag
ment s,</w>
f low</w>
a use</w>
prac tical</w>
im in
func tion</w>
centr al</w>
for um</w>
com prehen
c e,</w>
stu di
Govern ment</w>
good s</w>
ter m</w>
b ri
1 )</w>
so ,</w>
re flec
inclu des</w>
equ ation</w>
consi der</w>
er ation</w>
cl ass
A ffairs</w>
u r</w>
ap pe
ra w</w>
st ability</w>
fu el</w>
edagog ical</w>
character istics</w>
U n
ke y</w>
ol d</w>
sh are</w>
ma p</w>
k ,</w>
pl om
ma x
ye v</w>
concep t</w>
ac y</w>
cor rec
or e</w>
Europe an</w>
C entr
t est</w>
docu ments</w>
spor ts</w>
particular ,</w>
in ess</w>
in flu
br an
y n
soci ety</w>
y outh</w>
lab or
pro mo
k az
- 20
vi l</w>
our ce</w>
inter nal</w>
ho w</w>
di plom
scal e</w>
gr aph
soci o-
o ver
countri es,</w>
z on
docu ment</w>
s "</w>
Coun cil</w>
mess age</w>
buil t</w>
li g
e ar</w>
4 0</w>
1 2</w>
o ff
He ad</w>
ra is
ne w
hol ding</w>
as h
K e
c ulture</w>
p ay
e f
ak im
Tur k
ter ms</w>
secon d
mini ster</w>
de pu
teach ing</w>
strength en</w>
G er
bod y</w>
ture .</w>
contribu te</w>
abil ities</w>
w ing</w>
gr at
ev alu
at s</w>
wast e</w>
f ri
res ,</w>
ti fic
den ce</w>
Centr al</w>
3 ,</w>
th re
t able</w>
tur n,</w>
prior ity</w>
fin anc
fun d</w>
M an
5 .
wh ol
ev ents</w>
equ ations</w>
hol d</w>
tion s.</w>
vie w</w>
know n</w>
contro l
ex pen
buil d
ci ties</w>
grad u
g ress</w>
d ele
sec tor</w>
ftw are</w>
lead ing</w>
con stan
ak i
ter nal</w>
electr ic</w>
0 %</w>
qual i
h an
custom s</w>
re mo
ch am
word s:</w>
n er</w>
he re
ar y-
s ity</w>
2015 ,</w>
fre qu
m un
m ing</w>
cour se</w>
im pac
grat ul
n s</w>
ab o
C I
in tel
hi story</w>
y our</w>
a dem
[ 1
thir d</w>
S ci
opportuni ties</w>
o f
Al so,</w>
um -
curren tly</w>
at ors</w>
plan s</w>
t ar
system ,</w>
people .</w>
partner ship</w>
adv ant
dele g
produc t</w>
201 7</w>
pro spec
pres s</w>
capit al.</w>
0 .
n ature</w>
ba sic</w>
ach iev
proble m</w>
organiz ed</w>
squ are</w>
N e
m ach
f ill
to ol
recei ve</w>
fac t</w>
entrepreneur s</w>
appro ved</w>
t -
es :</w>
qu ar
begin ning</w>
p ing</w>
1 1</w>
A d
program ,</w>
ov ,</w>
ligh t</w>
ent er</w>
employ ment</w>
Tod ay,</w>
ener g
uni versi
men d
sub stan
independen t</w>
hel p</w>
es sion</w>
l ess</w>
ens uring</w>
dat e,</w>
iz ing</w>
el i
er .</w>
de gre
con gratul
r igh
Janu ary</w>
D ec
S ince</w>
studen t</w>
ov a</w>
ic ally</w>
al ity</w>
invest ments</w>
inclu ded</w>
busin ess
bass ad
6 .
g en
p ec
pop ul
it ,</w>
or 's</w>
initi ative</w>
commis sion</w>
achie ve
ac e
sol ving</w>
show s</w>
res ol
r ange</w>
de e
al s,</w>
f er</w>
o men
eng th</w>
dol lar
P ol
compe ten
Gener al</w>
mu tual</w>
ic k
mar ket
anal yz
T I
ar ri
201 4</w>
assess ment</w>
st s,</w>
sph ere</w>
posi tive</w>
mobil e</w>
er s.</w>
consi der
comprehen sive</w>
re al</w>
inter action</w>
7 .
B u
standar ds</w>
s w
uc h</w>
poin ts</w>
be k</w>
k e</w>
in ary</w>
histor ical</w>
rec og
Rus si
integr ation</w>
di t</w>
c ed</w>
19 9
distribu tion</w>
ag ed</w>
T echn
b re
Pe o
H e</w>
impro vement</w>
f ound</w>
possi bility</w>
no ted,</w>
me n</w>
employe es</w>
G re
F in
B el
ne t</w>
cal culation</w>
so ftware</w>
ri o
r ati
plan ts</w>
lin ear</w>
t on
g o</w>
beg an</w>
a k</w>
con trac
ch ed</w>
an ,</w>
ob serv
l and
M o
person nel</w>
show n</w>
E duc
ra il
ce ment</w>
th es
ag ain
subjec t</w>
sh or
sec tor
P l
school s</w>
grou ps</w>
se qu
peo ple,</w>
fi el
in ed</w>
bo th</w>
sy n
reach ed</w>
impac t</w>
g en</w>
ai l</w>
part ment</w>
max imum</w>
t ed.</w>
nam ed</w>
y "</w>
prepar ation</w>
Wor ld</w>
acc ess</w>
t an
r y</w>
sy m
sel f
saf ety</w>
l ong
em p
em erg
consi sts</w>
j il
effec t</w>
an other</w>
fri end
depen ding</w>
resp ec
prospec ts</w>
plac es</w>
en se</w>
z ation</w>
job s</w>
heal th
ass em
o m</w>
k m</w>
fac tors</w>
pol lu
be fore</w>
ci vil</w>
ve ter
teach ers</w>
ag and
ac qu
ever y
cent ur
z er
wh e
ti vity</w>
ta x</w>
st ain
ment ary</w>
baye v</w>
ban k</w>
8 .
reli gi
il e</w>
s ources</w>
opport unity</w>
c am
6 0</w>
esti g
introduc ed</w>
provi ding</w>
de d.</w>
spe ed</w>
bo di
se par
algorith m</w>
ac t</w>
tra ditional</w>
offic ial</w>
K .</w>
s ite</w>
pre vi
li qui
all ,</w>
s s</w>
p tem
is tic</w>
ari an</w>
direc tor</w>
form ul
contin ue</w>
5 %</w>
c are</w>
transi tion</w>
stat e.</w>
am b
acti vely</w>
relev ant</w>
et c
e v</w>
con ference</w>
2016 ,</w>
ay .</w>
sum m
stu dies</w>
legisl ation</w>
direc t</w>
se tt
monit oring</w>
fun d
Offic e</w>
20 20
" On</w>
mechan ical</w>
concentr ation</w>
acqu ain
dra ft</w>
child ren
201 6</w>
av ail
ful l</w>
enterpris e</w>
ad d
educ ation,</w>
lay er</w>
gre en</w>
f oc
appl ications</w>
20 0</w>
por ting</w>
model s</w>
Kazakh -
st ,</w>
depu ties</w>
ph ase</w>
it ation</w>
cl im
dynam ic</w>
sp ok
again st</w>
po -201
co ordin
produc ed</w>
person al</w>
l ing</w>
gi ve</w>
ge -
b al
d re
2014 ,</w>
fi g
treat ment</w>
sec tion</w>
C o
pi p
ur g
ex port</w>
ci es</w>
stan ding</w>
func tions</w>
adop ted</w>
2 ,
yr g
inv estig
discus s
t ex
is ms</w>
ste p
lit er
deci sion</w>
B an
p edagogical</w>
m .</w>
h er
assi stance</w>
( Figure</w>
v ic
u k
are as
our c
i a</w>
c are
th is,</w>
open ed</w>
exam ple</w>
p ati
ne eds</w>
compon ents</w>
bassad or</w>
qu anti
sol ar</w>
r ight</w>
fe atures</w>
establ ish
sion ,</w>
residen ts</w>
ad dition</w>
pr ices</w>
el s</w>
ver s</w>
se e</w>
s ent</w>
medi um-
difficul t</w>
acquain ted</w>
center s</w>
) ;</w>
skill s</w>
exp ec
ed ul
P O
d ri
b ill</w>
um ,</w>
ak ing</w>
S outh</w>
peci ally</w>
larg est</w>
al og
ci pl
w ide</w>
trans fer</w>
t ory</w>
har mon
wh at</w>
for ces</w>
es pecially</w>
elec tions</w>
cre ative</w>
5 00</w>
stand ard</w>
r ing</w>
prac tic
siz e</w>
un its</w>
it es</w>
vis ited</w>
dis cipl
b or
As sem
av lo
contribu tion</w>
y s</w>
ure ment</w>
p ast</w>
exper t</w>
tr y</w>
ptem ber</w>
2 )</w>
F or
0 00</w>
an im
y l</w>
achieve ments</w>
0, 5
0, 4
w id
qu e</w>
oper ating</w>
l am
su stain
c ase</w>
F ir
than ks</w>
con dition
work .</w>
Th ese</w>
sub si
objec t</w>
le ,</w>
E X
re p
decre ase</w>
spok e</w>
sch edul
pres sure</w>
An d</w>
un e</w>
produc ts,</w>
f av
[ 2
W ith
l ength</w>
vi ol
ret ary</w>
H owever,</w>
Ak to
instruc tions</w>
is ting</w>
fi ve</w>
dev ices</w>
B o
descri b
con ven
the ore
s av
engine ering</w>
Par lia
N .</w>
N ұ
solu tions</w>
worl d.</w>
p ed</w>
gh t</w>
at or
Dec ember</w>
low er</w>
anc ed</w>
R o
F ed
ment s.</w>
K yrg
appl ied</w>
In formation</w>
ul y</w>
sett le
month s</w>
frequ ency</w>
teach er</w>
hum an
abo ve</w>
socio- economic</w>
go t</w>
soci et
r ural</w>
ous ly</w>
degre e</w>
cr it
ma y</w>
Kazakhstan i</w>
er y</w>
Nazarbaye v.</w>
ti vely</w>
plat form</w>
Uni on</w>
studi ed</w>
inclu de</w>
res erv
es s.</w>
crit eri
part y</w>
a war
B y</w>
re as
pur ch
particip ate</w>
econom y,</w>
pre ven
Com mit
re main
direc tions</w>
c il
al th</w>
9 .
me tal</w>
capit al,</w>
transpor tation</w>
medium- sized</w>
ou th
cl in
o t</w>
i k
1 4</w>
prim ary</w>
l ist</w>
intere sted</w>
sam ples</w>
achie ve</w>
well -
fam ili
di sp
com par
With in</w>
carb on</w>
T able</w>
Govern or</w>
Di rec
op ini
cl assi
at er</w>
re public</w>
instruc ted</w>
h or
associ ated</w>
go ti
Ke y
res .</w>
m y</w>
ic ity</w>
propos als</w>
jil is</w>
hous e</w>
for ce</w>
bo ard</w>
ex ce
effec tiveness</w>
le ad</w>
h on
bec ause</w>
us es</w>
enc e,</w>
is e</w>
di se
ac cur
ex isting</w>
are s</w>
me at</w>
differen tial</w>
Assem bly</w>
2017 ,</w>
ar an
de n</w>
self -
pres ent</w>
influ ence</w>
elec tro
elec tion</w>
di stance</w>
pers on</w>
anal y
Se ptember</w>
substan ces</w>
Kar agand
Inter national</w>
sh ow</w>
sem in
depen ds</w>
ce re
F rom</w>
st res
r ap
pl i
ne goti
bec ame</w>
2 ,</w>
con stitu
Th ere</w>
st atis
g a
desig ned</w>
Govern or's</w>
b l
at ,</w>
Chin a</w>
lead er
requi res</w>
go als</w>
O c
N ov
y :</w>
exper ts</w>
M arch</w>
comple te</w>
o ther
lar ge-
lo t</w>
aki m</w>
1 6</w>
perform ance</w>
acti v
net works</w>
sec ur
result ,</w>
ste red</w>
ra m</w>
U N</w>
S en
Inter net</w>
t es
commit tee</w>
ch ec
peri od
increas es</w>
J une</w>
cre at
cop per</w>
tr af
ve ,</w>
s ens
c y</w>
ag ro
p e</w>
ex c
cor rup
con ver
me ters</w>
me t</w>
indicat or</w>
gro und</w>
radi ation</w>
Sec urity</w>
b ur
8 ,</w>
spec tr
ac id</w>
Bel ar
8 0</w>
fin d</w>
can not</w>
1 8</w>
c le
c at
n ative</w>
coun cil</w>
mo vement</w>
Rus sia</w>
pr acti
he ating</w>
al ized</w>
E ast</w>
man ent</w>
signific an
bud ge
ve red</w>
c ate
tool s</w>
t y
De partment</w>
ma j
implemen ting</w>
grou p
vi de
B .</w>
agree ments</w>
the ory</w>
s k</w>
yz yl
pass eng
traf fic</w>
fav or
consum ption</w>
determin ing</w>
show ed</w>
to ber</w>
struc tures</w>
righ ts</w>
mee t</w>
F e
oc k</w>
t ren
pol y
di alog
Educ ation</w>
th ing</w>
sustain able</w>
r or
legisl ative</w>
es ;</w>
e k
un d
p ared</w>
sp ac
ex trac
etc .</w>
Chin ese</w>
ac cep
whol e</w>
par ts</w>
meeting s</w>
ex ternal</w>
se arch</w>
du m</w>
princi ples</w>
vill age</w>
attrac t</w>
arch it
n ur
mag ne
ge ograph
de tec
No .</w>
la w
defin ed</w>
sim ple</w>
success ful</w>
practi ce</w>
1 3</w>
in ing</w>
h om
econom y.</w>
der gar
t ural</w>
ph en
p an
de pos
calcul ations</w>
zh an</w>
pho sph
me dic
invest ors</w>
avlo d
stan ,</w>
ic ,</w>
kin dergar
n an
cl ass</w>
appro ach</w>
L e
hol id
ak h
Commit tee</w>
long -
execu tive</w>
large- scale</w>
kno w</w>
co sts</w>
min ing</w>
1 7</w>
sk y</w>
o ,</w>
d ers</w>
M ay</w>
7 0</w>
in de
comm er
s -
rul es</w>
w a
n it
in spec
20 20</w>
c up
al le
-- --
st abil
ob tain</w>
appro ach
w ant</w>
ele br
cooper ation.</w>
vi r
re ports</w>
h ere</w>
in come</w>
comple ted</w>
ad ap
mechan ism</w>
ann ual</w>
S tu
enc es</w>
expl ain
conduc t</w>
U z
year s.</w>
re d.</w>
provi sion</w>
thin k</w>
streng th</w>
independen ce</w>
an dum</w>
Or gan
industr y,</w>
gu aran
I N
c elebr
re forms</w>
ef for
3 ,
strate gy</w>
financ ing</w>
ar t</w>
f ying</w>
correspon ding</w>
st able</w>
in formed</w>
K o
EX PO
u es</w>
th ose</w>
Sec retary</w>
stat ement</w>
rail way</w>
rel ation
ne ar</w>
meas u
develop ment,</w>
[ 3
high ly</w>
special ized</w>
O F</w>
E m
pre ci
leader ship</w>
Af ter</w>
model ing</w>
d ate</w>
a vi
sec tors</w>
ore d</w>
fam il
emp ha
clo se</w>
Oc tober</w>
J uly</w>
s a
pres erv
M e
K yzyl
work ers</w>
tour ist</w>
he ad
compan i
can di
k s,</w>
w ould</w>
In stitu
pac k
201 3</w>
ini tial</w>
at e,</w>
anti -
ti v
di men
dat ab
LL P</w>
re ported</w>
labor atory</w>
f ar
assem bly</w>
CI S</w>
ne g
dem and</w>
cor por
enti re</w>
ear ly</w>
t uring</w>
lead ers</w>
bas e</w>
V ice</w>
Parlia ment</w>
9 ,</w>
ex tre
achiev ed</w>
Peo ple</w>
n om
gener ation</w>
ev en</w>
per manent</w>
discuss ed.</w>
class es</w>
universi ties</w>
g as
sec u
proper ty</w>
program .</w>
per formed</w>
ec h</w>
am in
buil d</w>
at mo
In dustr
E ner
method ological</w>
min eral</w>
s an
memor andum</w>
favor able</w>
confi dence</w>
s cop
b ol
laun ched</w>
e sts</w>
cooper ation,</w>
liqui d</w>
ag end
Key words:</w>
str i
discus s</w>
d eli
competi tive</w>
ste p</w>
offic e</w>
J S
s e,</w>
2 4
build ings</w>
w n</w>
significan tly</w>
fu ture,</w>
Ban k</w>
ro c
requi red</w>
phen omen
grow ing</w>
func tion
as h</w>
worl d,</w>
uni versity</w>
proced ure</w>
P avlod
under standing</w>
s ource</w>
oc cup
cr is
M .</w>
vie ws</w>
am s</w>
abl es</w>
system .</w>
struc tural</w>
el l</w>
M eth
deleg ation</w>
beg in</w>
A sian</w>
high- quality</w>
W ith</w>
Fir st</w>
F ol
li on.</w>
l ess
fac tor</w>
equ al</w>
S tr
un it</w>
ter ror
d ays</w>
N or
3 00</w>
pl as
p il
ide a</w>
f ound
Ma jilis</w>
t s
li ke</w>
expec ted</w>
si mil
pre v
pe ace</w>
n ic</w>
Janu ary-
EXPO -201
ur b
residen tial</w>
I r
second ary</w>
ques tions</w>
pip el
pol ym
bi o
ani um</w>
Nov ember</w>
5 -
presiden tial</w>
fr u
Mini st
in al</w>
ta x
b ul
ar ies</w>
ann oun
l ong</w>
f lo
C O
con fir
Direc tor</w>
st ation</w>
sig n
develop ment.</w>
top ical</w>
at om
Fol lowing</w>
mix ture</w>
De f
er ve</w>
than ked</w>
str ation</w>
regi stered</w>
re com
program ming</w>
oc cur
uni que</w>
technologi es,</w>
rec ent</w>
ox ide</w>
le t
con cer
adv anced</w>
2 3
tr il
industr ies</w>
Kazakhstan is</w>
7 0
b order</w>
medi um</w>
me ter
log istics</w>
anc e,</w>
pres ence</w>
u ally</w>
str u
main ly</w>
institu tion</w>
te am</w>
ro ads</w>
p ul
h ect
selec ted</w>
reduc tion</w>
long- term</w>
M od
bene f
e red</w>
[1 ]</w>
Kyzyl ord
ti li
al ter
Akto be</w>
up coming</w>
ex ten
al y
im age</w>
dra wing</w>
h ic
connec ted</w>
win d</w>
reduc ed</w>
om en</w>
A si
st and</w>
mechan isms</w>
g ust</w>
wh ite</w>
cas es</w>
c ode</w>
Am bassador</w>
str ic
decre ased</w>
conduc ted</w>
t ative</w>
mini stry</w>
compon ent</w>
z e</w>
t age</w>
201 3,</w>
infra struc
govern mental</w>
a stan
tur n</w>
mend ments</w>
maj or</w>
loc ation</w>
integr ated</w>
employ ed</w>
[ 4
scienti sts</w>
mini st
ex i
ro bo
f our</w>
O f</w>
projec t,</w>
cris is</w>
ar ti
al ways</w>
acc um
v ec
sol id</w>
p ap
event ,</w>
ev .</w>
co efficient</w>
ch e
D es
Al l</w>
0, 6
pri l</w>
parlia mentary</w>
h ad</w>
be half</w>
A pril</w>
wid ely</w>
ve hic
low -
c ent</w>
al lo
1 -
pollu tion</w>
agric ulture</w>
we ap
re new
st re
de dic
chang ed</w>
m ed</w>
ho sp
cre dit</w>
Tur ke
the refore,</w>
re qu
fac ili
commun ity</w>
7 ,</w>
recog n
uni on</w>
partic ular</w>
as pec
tak es</w>
u n</w>
succ ess</w>
resear ch
p ay</w>
divi ded</w>
ve -
sp ir
acc el
I m
vi sion</w>
fo rec
worl d
s at
top ic</w>
ti fication</w>
t ou
t )</w>
gra in</w>
c le</w>
br ing</w>
G e
we ight</w>
v oc
Karagand a</w>
organ ic</w>
to ol</w>
i stan</w>
bec om
ar ound</w>
administr ative</w>
k .</w>
2 6
sil ic
magne tic</w>
log ical</w>
hous es</w>
stud ying</w>
it e
trans fer
rep air</w>
fam ily</w>
Ne w</w>
L a
J ap
Institu te</w>
nov er</w>
li ving</w>
T ran
level s</w>
st ages</w>
re cor
optim al</w>
dialog ue</w>
2 -
direc tly</w>
sor ption</w>
theore tical</w>
se ts</w>
ju dic
func tional</w>
constan t</w>
S yst
tur nover</w>
initi atives</w>
appl ic
form ing</w>
conclu ded</w>
bi r
vide o</w>
fin al</w>
tu ally</w>
a x
a i</w>
manufac turing</w>
identi fied</w>
re ,</w>
r .</w>
p al
l an</w>
dedic ated</w>
ar y
E A
produc ts.</w>
me to
m uch</w>
fig ure</w>
cer tific
ac ts</w>
U k
electr icity</w>
an d,</w>
ag e.</w>
S erv
ve ge
resi stance</w>
of ten</w>
mol a</w>
it .</w>
at ely</w>
al low
a )</w>
2 4</w>
re ven
ome tric</w>
mod ul
g h</w>
Ener gy</w>
w i
dev ice</w>
de mon
ym p
u t
lead er</w>
TI O
Au gust</w>
t ext</w>
pr ice</w>
fiel ds</w>
Russi a,</w>
B a
pres ents</w>
pre pared</w>
exp and</w>
agric ul
su g
st s.</w>
responsi bility</w>
h ap
princi ple</w>
min imum</w>
g ave</w>
ent ly</w>
cas e,</w>
struc tion</w>
en e</w>
diag no
affec t</w>
2 1</w>
su ffici
l y
industri alization</w>
fol low
al ready</w>
un g
d ge</w>
corrup tion</w>
uni vers
p ite</w>
m as
ship ,</w>
s ession</w>
lim ited</w>
cere mon
E lec
A n</w>
Gre at</w>
di a</w>
ver se</w>
h our
f arm
col le
proble m
Uk ra
P h
produc e</w>
indic ated</w>
C enter</w>
A p
m k
introduc e</w>
el imin
I S
us er</w>
inten si
competi tiveness</w>
1 9</w>
ou gh</w>
sam ple</w>
agre ed</w>
ed ed</w>
w omen</w>
tra de,</w>
chang ing</w>
ac adem
S hy
He alth</w>
j us
invol ved</w>
p av
met all
bodi es,</w>
pro mis
discus sion</w>
dependen ce</w>
cir cu
ad ing</w>
Zh amb
wor ds</w>
reg ulation</w>
qual it
gi st
bo ok</w>
b loc
0 -
l l</w>
g es</w>
b ai
ti ves</w>
u tion</w>
congratul ated</w>
Econom y</w>
inter -
for cement</w>
Kyrg yz
hect ares</w>
d ay
S um
sim pli
mit ted</w>
B us
tran sit</w>
territ or
ste ps</w>
reduc ing</w>
projec ts.</w>
attrac ting</w>
pers ons</w>
quanti tative</w>
h op
fi t</w>
ati zation</w>
a w
v al
st ations</w>
spe ak
s tim
gr an
r ly</w>
institu tional</w>
astan a</w>
pat rio
intel lig
lec tual</w>
f ron
dy k
de p
T E
m ap
% )</w>
selec tion</w>
fl our</w>
di d</w>
S u
Re gi
str ong</w>
er ic
cho ol</w>
b ound
a -
poten ti
m er
arm ed</w>
Ch am
Al so</w>
pl ay</w>
a mendments</w>
I I</w>
su per
s cap
ma st
br u
avail able</w>
K ore
tu de</w>
stres sed</w>
plan ning</w>
Shy mk
clo s
chem i
pav ili
alter native</w>
advant ages</w>
pro to
al iz
re ve
judic ial</w>
2 %</w>
awar ded</w>
author ities</w>
2 2</w>
. ,</w>
servic es,</w>
meas uring</w>
me tro
l s</w>
cour se,</w>
The y</w>
lo ad</w>
lim it</w>
p sy
meas urement</w>
intere sts</w>
in stru
calcul ated</w>
2 3</w>
tex t
Is lam
3 %</w>
t ting</w>
multi -
character ized</w>
car ry</w>
tra in</w>
sp he
re ac
mak ing</w>
con dition</w>
speci fied</w>
parlia ment</w>
mil k</w>
lin es</w>
human it
co vered</w>
Sci ence</w>
3 )</w>
urb an</w>
emerg ency</w>
depos its</w>
con feren
organiz ations,</w>
co al</w>
d ated</w>
LL P
proc ess,</w>
ox id
lead s</w>
go ing</w>
s chem
com bus
stat e
install ed</w>
cro s
conven i
c lear</w>
R i
s ting</w>
pl ay
famili ar
conduc ting</w>
vie w
2 8</w>
t ari
responsi ble</w>
pat h</w>
obtain ing</w>
M ay
tril lion</w>
mat ri
ig r
de .</w>
Q u
religi ous</w>
is m,</w>
M E
trans l
sup ported</w>
represent ative</w>
pen sion</w>
or ation</w>
commun ic
Bus iness</w>
An al
1 50</w>
projec ts,</w>
In vest
B ased</w>
v a</w>
regi stration</w>
produc tion,</w>
I C
st -
pro p
o il
dre w</w>
d one</w>
so il
publ ished</w>
la g</w>
ang le</w>
Man gist
prev ent</w>
c ell
associ ation</w>
[2 ]</w>
T r
c lear
M A
Ac adem
m oun
competen ce</w>
ac k
g /
d ou
bel ie
rais ed</w>
effor ts</w>
A sia</w>
ma ster</w>
imin al</w>
el ement</w>
ear ch</w>
cham ber</w>
Ex po-201
2017 .</w>
ol i
mod e</w>
ag en
Bu t</w>
bru ary</w>
3 5</w>
syn thes
determin ation</w>
t ely</w>
g s</w>
diagno s
a part
d s,</w>
clim ate</w>
b ro
approach es</w>
eng aged</w>
al s.</w>
administr ation</w>
a si
gu ests</w>
demon str
th ,</w>
tes ting</w>
a di
Pavlod ar</w>
M P
Kyzylord a</w>
tu s</w>
sup porting</w>
Ak mola</w>
t ele
m use
li ve</w>
comb at</w>
ques tion</w>
es tim
c ra
agro -
o ks</w>
met als</w>
im pe
expen se</w>
add ress</w>
correc t</w>
P ub
pro gress</w>
previ ous</w>
le ast</w>
dynam ics</w>
collec tion</w>
S .</w>
whe at</w>
particip ating</w>
ex er
es si
den sity</w>
A gr
tic s,</w>
part ner</w>
S er
thre e-
sh ap
sel f</w>
s l
s atis
pho to
passeng er</w>
ment ation</w>
appro pri
rati o</w>
zon es</w>
zh an
land scap
stor age</w>
region s,</w>
n .</w>
k ar
thin king</w>
subsi di
sor b
r ig
kindergar ten
ath le
So cial</w>
201 8</w>
us ers</w>
sig n</w>
humanit arian</w>
expan sion</w>
compl i
ship .</w>
res ourc
establ ish</w>
ch an
re stor
h u
h arm
evalu ation</w>
concep ts</w>
stat us</w>
regul atory</w>
co ver</w>
accel er
Sen ate</w>
Am eric
2 7
1 %</w>
renew able</w>
laun ch</w>
Cham ber</w>
1 st</w>
w rit
stim ul
psy ch
n ame</w>
Ko stan
ur ation</w>
read iness</w>
n ation
industr y.</w>
f a
ris k</w>
it y
equip ped</w>
energ y,</w>
ch es</w>
Zhamb yl</w>
0, 7
l or
inv ited</w>
e uro
def ini
ar y,</w>
Almat y,</w>
pre dic
innov ation</w>
Islam ic</w>
veter ans</w>
simil ar</w>
mol ec
b ar
En gl
E S
cap abilities</w>
C as
10 -
produc tivity</w>
neg ative</w>
la ws</w>
ac ro
oper ations</w>
on al</w>
ir e</w>
fi x
f ill</w>
at e.</w>
ou se
announ ced</w>
T ra
9 0</w>
tran sp
part ners</w>
T a
n ation</w>
deci sions</w>
bene fic
Uz bek
pe tro
negoti ations</w>
at a</w>
sig nal</w>
pro b
p a
matri x</w>
ay 's</w>
vir tual</w>
spir itu
si s,</w>
impe tus</w>
friend ly</w>
famil ies</w>
experi mental</w>
tim ely</w>
on s,</w>
intel lectual</w>
diplom atic</w>
ati vely</w>
2 8
wat er
exer c
compli ance</w>
ak e</w>
organiz e</w>
mach ine</w>
he av
en ding</w>
archit ec
A g
um in
transp aren
pi an</w>
ap preci
ag in
E U</w>
organiz ing</w>
es )</w>
differen ce</w>
d ow
belie ve</w>
[ 5
to t
sp here
com pos
ation ;</w>
Mangist au</w>
Fe bruary</w>
ou d</w>
ar ,</w>
appropri ate</w>
under stand</w>
t 's</w>
observ ed</w>
guaran te
U S</w>
l ack</w>
investig ated</w>
eth no
en su
star t</w>
li kh
i um</w>
ho l</w>
requi re</w>
out put</w>
or s,</w>
O ver</w>
promis ing</w>
install ation</w>
exp o</w>
eth nic</w>
enti ties</w>
distribu ted</w>
Organ ization</w>
ur anium</w>
on line</w>
ne igh
n azarbaye
level .</w>
aspec ts</w>
m el
inde x</w>
datab ase</w>
bi ological</w>
wh ile</w>
popul ation.</w>
creat ed.</w>
R A
ul ts</w>
shi ps</w>
present ation</w>
fin ished</w>
consum er</w>
constan tly</w>
benef its</w>
agro- industrial</w>
Man ag
n u
h ouse
fu ture.</w>
bo il
b at
pay ment</w>
l at
h t</w>
duc tion</w>
cate gor
B i
1 .</w>
z hol
respec t</w>
distric ts</w>
C or
ti s
or ,</w>
m igr
follow s:</w>
d am
comple tely</w>
car s</w>
Nұ rly</w>
Ak h
Af gh
2 6</w>
s mar
oun ds</w>
min er
remo te</w>
is .</w>
in f
cr yst
baye v.</w>
manag e
gradu ates</w>
fac tor
educ ation.</w>
char ge</w>
T ok
B e
under way</w>
purch ase</w>
pl en
op tical</w>
ic h
harm ful</w>
sup port
ag ency</w>
S peci
success fully</w>
m m</w>
f our
cr iminal</w>
con sci
[3 ]</w>
ou l
oper ator</w>
ni tion</w>
c ity.</w>
C ol
sti ll</w>
relation ship</w>
o t
mak es</w>
ed :</w>
ult an
indic ates</w>
benefic ial</w>
all y,</w>
air y</w>
ob ser
k o</w>
L i
tar ge
promo te</w>
medi a</w>
ex ports</w>
el ,</w>
algorith ms</w>
Res earch</w>
or ig
business es</w>
ar ily</w>
W e
P er
2 9</w>
us h
them sel
dat es</w>
bai j
ac i
Ro ad
2016 .</w>
v ed.</w>
le -
en forcement</w>
cour ses</w>
2 7</w>
diag ram</w>
4 ,
war ds</w>
ill ing</w>
expan ding</w>
bi g</w>
ap poin
Pub lic</w>
O l
tod ay,</w>
rel ation</w>
fu ture
bo oks</w>
25 th</w>
s it
re ad</w>
oper ational</w>
on es</w>
accur acy</w>
ob lig
def ense</w>
commer cial</w>
Meth od
region s.</w>
posi tions</w>
pai g
an ing</w>
7 %</w>
ure ,</w>
mon e
e f</w>
e as
Th at</w>
pe ace
method ology</w>
ic i
cam paig
E C
plac ement</w>
inter active</w>
in sur
ad ded</w>
TIO N</w>
Kazakhstan "</w>
ro und</w>
consi sting</w>
Fed eration</w>
pu m
g am
ac qui
Str ate
pre lim
mo di
le ft</w>
high est</w>
dr u
ceremon y</w>
c ity,</w>
ast ern</w>
separ ate</w>
cor e</w>
an s,</w>
6 %</w>
2015 .</w>
spe ech
expan ded</w>
entrepreneur ship</w>
contain s</w>
Pro c
Cas pian</w>
Agr ic
ti l
prelim inary</w>
au di
Inter nal</w>
s ay</w>
ap par
tot al,</w>
speci es</w>
in ,</w>
fam ous</w>
conside red.</w>
to p</w>
port al</w>
depart ments</w>
report ed.</w>
id ity</w>
au d
Invest ment</w>
. k
to tal
technolog y,</w>
roug ht</w>
dise ases</w>
d ay,</w>
ge o
ati v
Def ense</w>
sh ar
produc ers</w>
B ai
popul ation,</w>
hop e</w>
combus tion</w>
clu ster</w>
ch all
St ates</w>
Ger man</w>
A N
in a</w>
con vers
[4 ]</w>
D ue</w>
ste am</w>
re construction</w>
it able</w>
hor iz
allow ed</w>
U N
s outh
prior ities</w>
os co
mathematic s</w>
mas likh
g old</w>
formul a</w>
an sw
A zer
8 %</w>
te sts</w>
independen ce,</w>
in e,</w>
id d
effec tively</w>
S pe
Nazarbaye v,</w>
re form
jo in
ec ological</w>
consider ation</w>
reserv es</w>
quar ter</w>
pen ing</w>
mon u
ag es,</w>
tod ay's</w>
societ y,</w>
quali fied</w>
heav y</w>
ev a</w>
econom ic,</w>
ting ,</w>
sav ing</w>
protec t</w>
lo ans</w>
empha sized</w>
we b
reve al
level ,</w>
integr al</w>
ch ro
at rio
] .</w>
Azer baij
3 .</w>
suffici ent</w>
statis tical</w>
res ource</w>
ori ented</w>
tog raph
o s</w>
ir on</w>
coun cil
character istic</w>
5 ,</w>
t ol
prepar e</w>
pap er</w>
dee p</w>
agin ta
U r
analy tical</w>
T H
En tre
ting u
ta il
spiritu al</w>
ov a.</w>
li br
hi m</w>
es "</w>
equip ment,</w>
electr ical</w>
Ger man
6 ]</w>
rele ase</w>
previ ously</w>
den ts</w>
co l</w>
ad vis
Entre preneur
reli able</w>
re pe
op h
kazak h</w>
geograph ical</w>
ent ,</w>
Anal ysis</w>
3 D</w>
transfer red</w>
rel ative</w>
qu ick
M ar
re form</w>
re ach</w>
fir e</w>
criteri a</w>
be to
4 %</w>
m a</w>
establish ment</w>
d airy</w>
adop tion</w>
6 00</w>
3 -
phosph or
ph arm
ir rig
import an
e k</w>
atic s</w>
S uch</w>
M osco
Co operation</w>
4 5</w>
sh all</w>
d on
a men
sp er
determin es</w>
us .</w>
or s.</w>
fi ve-
dollar s</w>
accum ul
abil i
W est
C re
w o
train ing,</w>
ne ural</w>
em is
JS C</w>
to wards</w>
tific ial</w>
deci ded</w>
continu ous</w>
Academ y</w>
metall urg
i -
circu it</w>
C l
2 .</w>
ic s,</w>
b on
ac u
La w</w>
sig ning</w>
comp ounds</w>
center ,</w>
areas .</w>
Ta j
well- being</w>
no w
effec ts</w>
den t</w>
h ec
Industr y</w>
E ar
si des</w>
pl ays</w>
is m
dimen sion
ani an</w>
a e
vol tage</w>
ro w
qu e
identi fy</w>
holid ay</w>
hec ta
autom ated</w>
As soci
work ed</w>
ri d
fund a
f esti
com pres
the re
th ick
per form</w>
mu tually</w>
dec ree</w>
a yev</w>
Chin a,</w>
advant age</w>
B ec
them ,</w>
h owever,</w>
agend a</w>
Res ults</w>
Kazakhstan -20
2 9
um .</w>
ste el</w>
ex po-201
clear ly</w>
b rought</w>
agricul ture,</w>
add res
spe ech</w>
pres chool</w>
p aren
organiz ations.</w>
tili z
ric h
pro sper
dep th</w>
tw o-
ra y</w>
dec lar
M on
up per</w>
main tain
ke e
g res
" S
report s.</w>
op s</w>
m us
sec tions</w>
s c
rel ations.</w>
nazarbaye v</w>
b arri
ag r
Road map</w>
F r
C ulture</w>
Bo ard</w>
8 .</w>
4 0
st ock</w>
ish ing</w>
de formation</w>
associ ations</w>
F ar
Com mun
ve .</w>
settle ments</w>
nor mal</w>
ch lor
ch air
c og
ag e
Nұ r</w>
Euro pe</w>
Com mission</w>
% ),</w>
ing s,</w>
cre d
all s</w>
West ern</w>
In troduc
ordin ary</w>
condition s,</w>
Y ou</w>
4 00</w>
ye v.</w>
y t
ul i
sur ve
gi ves</w>
sen si
s mo
foc used</w>
en ce.</w>
di c</w>
constitu tional</w>
con gress</w>
c ame</w>
Turk ish</w>
throug h
en s</w>
classi fication</w>
Uni vers
speci fic
sol id
p ain
in ci
chemi stry</w>
her it
fur n
y nam
servic es.</w>
pre me</w>
hosp it
F und</w>
consider ing</w>
sol ved</w>
struc tu
institu tions,</w>
gre en
contain ing</w>
work sh
recog nition</w>
polym er</w>
pack age</w>
p ath
nu tri
ide as</w>
er ic</w>
re fin
idd le</w>
e ts</w>
7 .</w>
voc ational</w>
organiz ational</w>
fron t</w>
construc tion,</w>
So ,</w>
u tr
nan o
me tric</w>
leg alization</w>
co ol
air cra
Un ited</w>
recogn ized</w>
projec t.</w>
comb ined</w>
c ould</w>
EXPO-201 7</w>
A t
A S
sur fac
s cre
os c
or ph
manufac ture
issu ed</w>
describ ed</w>
con sult
centur y</w>
s ourc
rel ations,</w>
r ich</w>
le t</w>
every one</w>
com es</w>
E r
Bec ause</w>
technologi es.</w>
plac ed</w>
kh an
fi ght</w>
distric t,</w>
bran ch</w>
Nor th</w>
st ro
sh o
mis sion
ha ving</w>
exerc is
ar is
En viron
use ful</w>
st af
st .</w>
monit or</w>
mil it
meter s.</w>
ban k
t y,</w>
neigh b
er 's</w>
environ ment
describ es</w>
d s.</w>
ch ron
car go</w>
S y
Kostan ay</w>
tur ned</w>
ograph ic</w>
i ons</w>
conveni ent</w>
ch ann
alle l</w>
accoun ting</w>
Re public
R .</w>
201 2</w>
w ished</w>
sw it
s in
prim arily</w>
o .</w>
market .</w>
em i
Americ an</w>
1. 5</w>
schedul ed</w>
s ites</w>
pro secu
osc ill
ent ered</w>
con tr
W est</w>
quick ly</w>
k il
ge ological</w>
bil ities</w>
ar s</w>
Pro gram</w>
D .</w>
p t</w>
exam ination</w>
dr illing</w>
V i
E .</w>
0, 8
y z</w>
vec tor</w>
sub mitted</w>
r ad
marke ts</w>
hydro gen</w>
cl oud</w>
auth ors</w>
ati cal
Introduc tion</w>
valu able</w>
inte res
in s</w>
defini tion</w>
chil d</w>
appar at
to w
tim es,</w>
studen ts,</w>
identi fication</w>
e p
de tail
comp il
Syst em</w>
M r.</w>
7 5</w>
th ers</w>
o ffici
d ail
D is
vari able</w>
pop ular</w>
know ,</w>
ch ain</w>
Th en</w>
r u
lay ers</w>
exhibi tion.</w>
control led</w>
b ak
E S</w>
remain s</w>
re d,</w>
qualit ative</w>
it s,</w>
bo ar
U S
2014 .</w>
enterpris es,</w>
cre ates</w>
ar tificial</w>
ti ce</w>
se en</w>
re action</w>
form at</w>
contribu tes</w>
colle ag
time .</w>
ti t
speech ,</w>
societ y.</w>
main tain</w>
ful fill
explain ed</w>
execu tion</w>
d ang
cer tification</w>
S ol
9 %</w>
ne utr
men i
ke t</w>
inform ation,</w>
fix ed</w>
fe ature</w>
cul ture,</w>
busin ess,</w>
tou ri
t on</w>
materi als,</w>
chall eng
4 )</w>
spor t</w>
pil ot</w>
exhibi tion,</w>
O t
201 8,</w>
( 1)</w>
system s,</w>
signific ance</w>
pati ent</w>
inten sity</w>
consci ous
G O
stan .</w>
st ored</w>
p o</w>
fer tiliz
ban ks</w>
an e</w>
3 2</w>
---- ----
ye v,</w>
preven tion</w>
ori ent
man i
co ver
b ack</w>
appl y</w>
an y
S i
Far ab
" 100</w>
s lag</w>
pro te
po st</w>
job s.</w>
i fication</w>
harmon y</w>
citiz en</w>
Coun cil
pr ic
impro ved</w>
cog ni
ali k
Taj ik
ver sion</w>
sim ulation</w>
pre -
fl ic
ati n</w>
athle tes</w>
al k
L ab
sh e
lo an</w>
soci ally</w>
serv er</w>
fil m</w>
D ata</w>
C ap
ro om
ore s</w>
cham pi
ation "</w>
al ph
L ast</w>
C an
C A
A mon
5 %,</w>
total ing</w>
pro ved</w>
opini on</w>
mone y</w>
mo ment</w>
infrastruc ture,</w>
f f</w>
dat a,</w>
con flic
up dated</w>
thick ness</w>
schem e</w>
rou te</w>
for um,</w>
ex plo
deci sion
5 ,
z in
w ard</w>
ten ge
servic e,</w>
s ,"</w>
langu ages</w>
he ight</w>
hap p
affec ts</w>
N ow</w>
Afgh ani
pat ter
ex clu
competi tions</w>
ad ded.</w>
[5 ]</w>
S ing
Amon g</w>
de vi
Pl an</w>
C H
win ners</w>
weap ons</w>
vie t</w>
si x</w>
s ay
produc ing</w>
me ,</w>
bal ance</w>
ann ually</w>
Con clu
ro r</w>
proced ures</w>
og ene
hour s</w>
gro ss</w>
commission ed</w>
apart ments</w>
ai d</w>
prepar ing</w>
k ul
is on</w>
es i
dis tingu
dimension al</w>
candi dates</w>
w ave</w>
ple men
memor and
h abil
for ced</w>
dollar s.</w>
cont act</w>
commit te
clos ely</w>
autom atic</w>
7 ]</w>
vi si
v it
trans form
th ro
synthes is</w>
subjec ts</w>
silic on</w>
issu es,</w>
fl exi
five- year</w>
col or</w>
co effici
ba ev</w>
S am
O p
3 6</w>
parame ter</w>
insur ance</w>
ic k</w>
des pite</w>
clu st
No te</w>
Con si
wor d</w>
ul es</w>
sym bol
staf f</w>
pow er
phys ics</w>
en ,</w>
C ,</w>
r ational</w>
preserv ation</w>
or der
environ ment,</w>
compani es,</w>
cat aly
4 ,</w>
spectr um</w>
mo tion</w>
fr ac
4 -
0 ,</w>
trans mission</w>
themsel ves</w>
par allel</w>
cro ps</w>
al loc
Ph ys
M S</w>
I T</w>
reveal ed</w>
areas ,</w>
S a
tim es.</w>
secur ity,</w>
se as
er o
en z
children 's</w>
author ized</w>
Tr ade</w>
vol un
mil lion.</w>
activi ties.</w>
F un
stan t</w>
semin ar</w>
scop e</w>
market ,</w>
lear n</w>
dr y</w>
alph ab
activi ties,</w>
ac ci
O b
writ ten</w>
stud y,</w>
quali fic
four th</w>
e ding</w>
contrac t</w>
atical ly</w>
an .</w>
ab sorption</w>
vehic les</w>
univers al</w>
m al
li vest
issu es.</w>
en rich
bound ary</w>
atmo sphere</w>
ac tual</w>
S T</w>
vis it,</w>
reli ability</w>
polic y,</w>
facili ties,</w>
Minist er,</w>
C al
1 1
u sion</w>
comple tion</w>
Con stitu
ox i
al 's</w>
Shymk ent</w>
S up
S te
summ it</w>
p ace</w>
di ame
comb ination</w>
center .</w>
them .</w>
ser ve</w>
roc ks</w>
pipel ine</w>
g an</w>
found ation</w>
engine er
at .</w>
a ff
recom mend
possi bilities</w>
oul try</w>
mo ving</w>
me ter</w>
it ors</w>
interes ting</w>
c m
train ed</w>
t ab
ser ies</w>
plo y
ma inten
innov ations</w>
g ri
foc us</w>
fin ance</w>
discipl inary</w>
as sets</w>
Th an
6 ,</w>
re ference</w>
period ,</w>
no te</w>
di z
com man
at ed,</w>
T al
Engl ish</w>
stat es.</w>
p ays</w>
net work
har d
dr in
de d,</w>
cogni tive</w>
ca used</w>
an ci
ab road
Pro tec
M u
3 4</w>
ter s,</w>
plac e.</w>
f lows</w>
elimin ate</w>
analyz ed</w>
tar get</w>
re al
oxid ation</w>
m acro
di versi
be t
Ot an</w>
star ted</w>
plan ,</w>
j our
em s</w>
dail y</w>
co very</w>
avail ability</w>
no ted.</w>
K ok
Com pu
w ay,</w>
sp ring</w>
sal t</w>
ro om</w>
per cent
lo ok</w>
lan ds</w>
l ic
cont ext</w>
commun al</w>
Ag ency</w>
recom men
friend ship</w>
d y</w>
cour t</w>
compu ting</w>
clo sed</w>
ace u
trans formation</w>
targe ted</w>
sp on
smar t</w>
par k</w>
nit ro
meeting .</w>
cri tical</w>
abl ed</w>
tren ds</w>
system atic</w>
im port</w>
consum ers</w>
ou t.</w>
mo ve</w>
g er</w>
f ers</w>
analyz e</w>
P o
w ar</w>
transpor t,</w>
s ound</w>
s cri
re habil
n ess
i or</w>
fru it
e vi
bil lion.</w>
R O
2. 5</w>
tr ation</w>
spe aking</w>
ri ver</w>
republic .</w>
nor th
ne eded</w>
g ory</w>
E ach</w>
w it
t elec
relev ance</w>
produc tion.</w>
process ed</w>
milit ary-
mem ber
f ish</w>
Manag ement</w>
3 6
vol u
thous an
promo tion</w>
fr action</w>
descri ption</w>
de t
occur s</w>
extrac tion</w>
d el
coun ter
20 th</w>
- 1</w>
we b</w>
s ."</w>
p oultry</w>
manag ing</w>
ma y
lo ss</w>
govern ment,</w>
fol i
entr y</w>
e )</w>
dis abilities</w>
di um</w>
coordin ate</w>
congratul ate</w>
author ity</w>
M ore</w>
M al
L atin</w>
Ap pl
them e</w>
schedul e</w>
produc tive</w>
du al</w>
dev o
x im
ord ers</w>
me tal
liter ature</w>
inten ded</w>
graph ic</w>
collec ted</w>
W in
st ress</w>
res erve</w>
ite re
fe ed
complex es</w>
au dit</w>
K h
( in</w>
shor t</w>
opini on,</w>
le .</w>
function ing</w>
ex changed</w>
ess or</w>
c es,</w>
al most</w>
ab s
Ex po</w>
sup ports</w>
sal e</w>
pi ec
ord ination</w>
m it</w>
ju d
inform atics</w>
in .</w>
b lo
th us,</w>
star ting</w>
non- governmental</w>
muse um</w>
ev ,</w>
direc tion,</w>
arri ved</w>
So viet</w>
Ma in</w>
2 50</w>
dat ory</w>
cate gory</w>
becom ing</w>
a .
th .</w>
tem por
re stric
mon th</w>
measu red</w>
introduc ing</w>
ic al,</w>
fi es</w>
er a</w>
dec om
Sum mar
S ar
2020 ,</w>
su m</w>
ph one</w>
manufacture r
g ol
at ed.</w>
a uc
N .
B al
tor al</w>
shap e</w>
s ession
inv est</w>
g ain
ch ie
b it
top ics</w>
sph eric</w>
sign als</w>
remain ing</w>
r un
pati ents</w>
ov a,</w>
lan d,</w>
in -
ethno cultural</w>
en vis
akim s</w>
ag es.</w>
8 0
ymp ic</w>
oper ate</w>
cu b
criteri on</w>
correspon ds</w>
agen cies</w>
Re present
H ous
Conclu sion</w>
C u
10 00</w>
tr ust</w>
soil s</w>
reserv o
ph y
olog y,</w>
metallurg ical</w>
kindergarten s</w>
is m.</w>
hol d
ca uses</w>
" The</w>
tren d</w>
tal k</w>
sens or</w>
re porting</w>
r us
proto col</w>
optim ization</w>
confir med</w>
concer t</w>
c att
bo ok
academ ic</w>
Serv ice</w>
y ;</w>
strate g
stat es,</w>
sat ell
resourc es,</w>
recei ving</w>
far ms</w>
extre mis
er ous</w>
dra ul
dev ic
d own</w>
C ar
vic tory</w>
ta u</w>
reas on</w>
program m
facil it
bek ov</w>
al umin
Peo ple
O ur</w>
we st
t old</w>
ro w</w>
pul se</w>
j ust</w>
inten sive</w>
bene fit</w>
ation :</w>
Fin ance</w>
Ad ministr
prop ag
migr ation</w>
bran ches</w>
F u
t ables</w>
fu r</w>
cy cle</w>
compani es.</w>
c all</w>
b )</w>
autom ation</w>
Than ks</w>
t "</w>
s eri
report ,</w>
pres sing</w>
f oun
Ri ver</w>
LLP ,</w>
3 1</w>
sub sequ
gr ati
gr ade</w>
exce ed</w>
car di
becom es</w>
appe ar
through out</w>
re main</w>
r uk
n a
as signed</w>
architec ture</w>
U sing</w>
Techn ologi
B ak
sci ence,</w>
posi t</w>
phenomen on</w>
nur sultan</w>
mainten ance</w>
k en</w>
health y</w>
enc ed</w>
complex ,</w>
cho ice</w>
Sing ap
5 )</w>
20 50
w are
resol ution</w>
pharm aceu
g ,</w>
funda mental</w>
draul ic</w>
creat ed,</w>
budge t.</w>
a ul
a "</w>
Pro f
M am
Kyrg yz</w>
3 3</w>
public -
la di
inter val</w>
enc y,</w>
e astern</w>
depen d</w>
comm od
baye v,</w>
People 's</w>
I I
spec tro
sp ent</w>
prepar ations</w>
moun tain</w>
in side</w>
f ed
disp er
des ire</w>
cl es</w>
aircra ft</w>
S T
v ed,</w>
u l</w>
say s.</w>
re view</w>
on e-
gro und
every thing</w>
con c
compe tent</w>
cep t</w>
ation )</w>
Regi onal</w>
" Kazakhstan</w>
ris ks</w>
livest ock</w>
gl ass</w>
e ption</w>
bel ow</w>
b ack
ar ity</w>
Method s</w>
6 %,</w>
sing le-
per cent</w>
le um</w>
D ay</w>
6 0
w omen
tr ading</w>
sil k</w>
s aginta
reven ues</w>
metro pol
it self</w>
hon or</w>
de posit</w>
care ,</w>
sector ,</w>
reflec ts</w>
l y.</w>
g yp
g al
ful fill</w>
difficul ties</w>
cor rid
al e</w>
Z he
Summar y:</w>
Ma thematic
8 00</w>
3 4
2015 -201
win ter</w>
tur b
reg ular</w>
ra in</w>
r ub
public- private</w>
mo tor</w>
ect ural</w>
anim al</w>
Pol ic
" Nұrly</w>
u tes</w>
s ),</w>
r ating</w>
o dic</w>
kil ome
implement ed.</w>
fig ures</w>
conclu sion,</w>
children ,</w>
chan nel</w>
5 %.</w>
ynam ic</w>
uni form</w>
mo v</w>
iz es</w>
im possible</w>
certific ate</w>
busin ess.</w>
artic les</w>
T ar
Con tro
no ise</w>
m ir</w>
he v</w>
event .</w>
ch ing</w>
bel ong
ag ain</w>
Uni on.</w>
7 00</w>
transparen cy</w>
sol em
ph al
patrio tic</w>
man datory</w>
inter governmental</w>
horiz on
e ve</w>
conclu sion</w>
commun ications</w>
col leg
c ar</w>
boil er</w>
bi og
terror ism</w>
sh ared</w>
ruk -
ro l
re turn</w>
port foli
pol ice</w>
pass ed</w>
avi ation</w>
anci ent</w>
P edagogical</w>
H ung
A no
3 9</w>
zin c</w>
tra vel</w>
rele ased</w>
reflec ted</w>
en ough</w>
der i
Protec tion</w>
G i
Asi a,</w>
ve re
th ou
t ary</w>
se g
s ave</w>
respon se</w>
program s,</w>
prob ability</w>
p ast
fir st
dis abled</w>
diame ter</w>
con solid
IN G</w>
F ren
B ri
Associ ation</w>
A sk
( t)</w>
territor ial</w>
st age,</w>
r ates</w>
exam ined</w>
er -
diff usion</w>
al li
abs ence</w>
rec ently</w>
pres erve</w>
out side</w>
memor y</w>
l ateral</w>
en ic</w>
electr on</w>
X -
Uni on,</w>
Mosco w</w>
A C
sector .</w>
regar ding</w>
pavili on</w>
iz ation,</w>
herit age</w>
depart ment,</w>
compos ite</w>
c )</w>
as phal
achie vement</w>
acc essi
S at
y e</w>
under ground</w>
um s</w>
strength en
s ays</w>
phenomen a</w>
on s.</w>
ec o
devo ted</w>
[ 6]</w>
P atrio
K as
C i
7 ,
2 %,</w>
special ist</w>
san itary</w>
nitro gen</w>
mi um</w>
i st
contrac ts</w>
ass ess</w>
are a,</w>
accep ted</w>
Wh at</w>
O R
pec uli
p ass</w>
objec tives</w>
f air
es ting</w>
S ports</w>
L ear
3 7</w>
3 %,</w>
reg ime</w>
nor m
is ol
inter- parliamentary</w>
house hold</w>
health ,</w>
grati tude</w>
ex port
cros s-
competi tion,</w>
ari ties</w>
are a.</w>
a ffairs</w>
Techn ology</w>
I T
Fed er
y ,"</w>
rec eption</w>
meas ure
dra w
dee pening</w>
begin s</w>
b itu
N at
z o
west ern</w>
ty ra
time dia</w>
ter ,</w>
t un
practic es</w>
meto v</w>
establish ing</w>
con sequ
c od
c li
achiev ing</w>
V ladi
Pro secu
G u
Farab i</w>
Ano ther</w>
phys ic
other s.</w>
k g</w>
he ar
gr ap
far m</w>
enti al</w>
detec tion</w>
comp ens
cho ose</w>
am bassador</w>
S im
S econ
P P
De termin
Belar us</w>
( 1
wat er,</w>
v il
south ern</w>
poli tic
n on
di oxide</w>
b er,</w>
30 %</w>
y ."</w>
rais ing</w>
in fl
hy draulic</w>
er ror</w>
de b
bri ef
att ach
( C
volum es</w>
ploy ment</w>
person n
om mun
ogene ous</w>
im ages</w>
gar den
forec ast</w>
e ;</w>
consi st
br ation</w>
a h
R om
A ta
se a</w>
power ful</w>
men tion
fi f
extre me</w>
d ay.</w>
Patrio tic</w>
1 %,</w>
uni fied</w>
meas ure</w>
categor ies</w>
tra dition
mach ines</w>
g ed</w>
de mo
bodi es.</w>
3 8</w>
" -</w>
sphe res</w>
speak er</w>
school children</w>
saf e</w>
pow der</w>
ligh ts</w>
im pur
conver sion</w>
co verage</w>
calcul ating</w>
archit ectural</w>
O L
M ed
M at
3 8
web site</w>
ton s,</w>
pow ers</w>
pos ed</w>
oper ators</w>
knowled ge,</w>
ge ometric</w>
demo cr
assess ing</w>
an thro
al mat
Techn ical</w>
T em
E D
5 5</w>
proc urement</w>
in put</w>
e ternal</w>
def ec
cy lin
coeffici ents</w>
Sci enti
50 %</w>
) :</w>
( 2)</w>
u d
ti ci
rul e</w>
rou s</w>
peo ples</w>
institu tions.</w>
i .
festi val</w>
experi ence,</w>
e ast</w>
br ight</w>
al co
t au
si s.</w>
re -
radi o</w>
r ying</w>
psych ological</w>
possi ble
organ isms</w>
ne d.</w>
do ing</w>
corpor ate</w>
consi ders</w>
carb on
an ce
Environ mental</w>
D E
8 ]</w>
w on</w>
text books</w>
petro leum</w>
p ,</w>
gen ic</w>
dyk alik
beg un</w>
7 %,</w>
w ent</w>
sp ati
promo ting</w>
polic y.</w>
orient ation</w>
on e,</w>
m iddle</w>
k on
k a</w>
ing ing</w>
fre ed
facil ity</w>
f low
cy ber
a :</w>
M in
Ch em
we alth</w>
tol er
reduc es</w>
rati fication</w>
pay ments</w>
form er</w>
co ordination</w>
b .</w>
H y
transl ation</w>
s ome
rap id</w>
pro por
mil li
f ail
enter ing</w>
cl ari
chec k</w>
In nov
I tal
( 6
y )</w>
restor ation</w>
recommen ded</w>
p .</w>
objec tive</w>
mor ph
maintain ing</w>
h am
good s,</w>
en d,</w>
d -
children .</w>
campaig n</w>
calcul ate</w>
atmo spheric</w>
acti c</w>
M icro
H ol
Almat y.</w>
situ ation,</w>
rehabil itation</w>
plas tic</w>
pho to</w>
op oli
liter acy</w>
hum idity</w>
evalu ate</w>
ent ly,</w>
ent .</w>
dig it
allo y</w>
P lan
Asi a.</w>
2 n
10 .
w ish</w>
w age</w>
sul fur</w>
ox y
modul e</w>
method ,</w>
defin es</w>
appreci ated</w>
ang ular</w>
an -
ac ks</w>
Le g
viol ations</w>
te ,</w>
tari ff
reac tor</w>
fi gu
el .</w>
d ust</w>
ag ing</w>
9 .</w>
min im
jour n
emis sions</w>
el y,</w>
citizen s.</w>
ca use</w>
IS O</w>
70 th</w>
zhol "</w>
wh ose</w>
subsequ ent</w>
s ou
ou t,</w>
ing u
et ary</w>
ear li
chair man
Ke y</w>
8 %,</w>
ti vel
so ft</w>
phosphor us</w>
j ur
f est
entrepreneur ial</w>
c m</w>
bu s</w>
an i</w>
May or</w>
GO ST</w>
Fren ch</w>
A tyra
( S
y outh
tra ordinary</w>
po st
obser vers</w>
o chemical</w>
mo ve
hel d.</w>
han d,</w>
g ame</w>
expres sion</w>
4 2</w>
us ually</w>
mem bran
medi ate</w>
lo s
ig n
ffair s,</w>
ab ol
a z</w>
Vladi mir</w>
St at
S -
Astan a,</w>
ts '</w>
st ac
reach es</w>
prosper ity</w>
portfoli o</w>
nam es</w>
i on</w>
er r
det ail</w>
d ar
challeng es</w>
cas es,</w>
atom ic</w>
an ts,</w>
Zh an
re st
num bers</w>
non- pro
doc tors</w>
celebr ation</w>
as sum
In di
tari ff</w>
so vere
secur ity.</w>
s on</w>
mor tal
l ending</w>
l -
fac tory</w>
con ten
cle aning</w>
chie f</w>
an s.</w>
almat y</w>
acc ession</w>
S ul
In te
Agric ulture</w>
2n d</w>
20 ,</w>
sub soil</w>
mee ts</w>
ing ;</w>
fi ber</w>
expl oration</w>
elec ted</w>
e quality</w>
ch i
attrac ted</w>
V ic
V .</w>
Su preme</w>
201 2,</w>
w ay
spati al</w>
pop ular
pal atin
or .</w>
on ce</w>
k s.</w>
equip ment.</w>
e g
compar ison</w>
c ell</w>
budge t,</w>
akim at</w>
C r
C our
C ode</w>
we igh
v ice</w>
touri sts</w>
rap h</w>
protec ting</w>
practic e,</w>
mention ed</w>
l as
distric t.</w>
bloc k</w>
barri ers</w>
[ 7]</w>
Uzbek istan</w>
Ger many</w>
st o
sav ings</w>
provi sions</w>
independen tly</w>
h azar
compan y,</w>
cer tain
bitu men</w>
O il</w>
Chem ical</w>
( for</w>
s un
perform ing</w>
offic es</w>
estim ated</w>
environment ally</w>
entrepreneur s,</w>
declar ation</w>
cl ay</w>
apparat us</w>
Turke stan</w>
O per
0, 000</w>
z hol</w>
vo ic
te sted</w>
special ties</w>
less on</w>
law ,</w>
langu age,</w>
itere k</w>
instru ments</w>
fruit ful</w>
direc tion.</w>
ali an</w>
En g
Contro l</w>
- based</w>
ti n</w>
techn i
sh et
sens ors</w>
propos al</w>
on going</w>
ograph y</w>
n ing,</w>
inspec tion</w>
gradu ally</w>
for me
enterpris es.</w>
at au</w>
anti- corruption</w>
ab road</w>
W ar</w>
1 20</w>
tro p
temper atures</w>
ro tation</w>
op ol
invest ed</w>
in c
familiar ized</w>
facili ties.</w>
ensu res</w>
diagnos tic</w>
competen cies</w>
bet ter</w>
vis co
sol di
recommend ations</w>
re presented</w>
propag ation</w>
kindergar ten</w>
i stan,</w>
h ab
gam es</w>
f air</w>
continu es</w>
at s,</w>
an ces</w>
V ol
4 4</w>
4 %,</w>
thre at</w>
t z</w>
su itable</w>
speci ally</w>
solem n</w>
qualific ations</w>
non- permanent</w>
miner als</w>
inten d</w>
exercis es</w>
des pre
be au
appear ance</w>
Z hum
Tur key</w>
6 ,
4 5
10 %</w>
ti tude</w>
plac e,</w>
lin k</w>
itu de</w>
for d
b acter
ati z
assi stan
activ ity,</w>
vari ables</w>
resul ting</w>
p s,</w>
nor ms</w>
mul timedia</w>
individu als</w>
h in
exp ect
engineer ing,</w>
develop ed.</w>
( P
z ech</w>
produc es</w>
proc ess.</w>
ic -
exper ts,</w>
cu tting</w>
catt le</w>
Y er
T o
Spe aking</w>
Jap an
B ul
B r
zer o</w>
wi despre
to x
tic ally</w>
peri odic</w>
n a</w>
intellig ent</w>
furn ace</w>
el im
bel t</w>
Tra ining</w>
Prosecu tor</w>
Elec tr
EA EU</w>
y i
rou tes</w>
is o
es el</w>
discipl ines</w>
citizen s,</w>
a ur
T e
Des pite</w>
10 0
vis ual</w>
tour ism,</w>
program me</w>
process es,</w>
i es,</w>
hom el
head ed</w>
experi ment</w>
deli very</w>
bo t
an ts.</w>
Speci al</w>
Kyrgyz stan</w>
9 ]</w>
youn ger</w>
studen ts'</w>
reas ons</w>
r are</w>
mani fest
manage ment,</w>
irrig ation</w>
institu te</w>
horizon tal</w>
dis abili
auth or</w>
alumin um</w>
T our
M us
Ge or
( 7
w ai
te ams</w>
subsi dies</w>
recor ded</w>
plan t,</w>
infrastruc ture.</w>
ich ,</w>
f ec
defin e</w>
complex ity</w>
colleag ues</w>
br inging</w>
anim als</w>
a de
Ir anian</w>
B er
201 0</w>
( the</w>
vill ages</w>
str y,</w>
second ly,</w>
s en</w>
r am
off er</w>
lif e,</w>
ho t</w>
gre w</w>
bri dge</w>
akim ats</w>
Sy ri
Entrepreneur s</w>
4 8</w>
w ash
r ite</w>
od ,</w>
found ations</w>
cle an</w>
artic le,</w>
ag ent</w>
Kazakhstan-20 50</w>
6 5</w>
tra ditions</w>
sp read</w>
servic e.</w>
mix ed</w>
deli vered</w>
curren cy</w>
cell s</w>
b road
b it</w>
as ing</w>
agr o</w>
Mal ay
Expo-201 7</w>
9 0
well s</w>
tiv ation</w>
serv ants</w>
school s,</w>
requ est</w>
proc e
oblig ations</w>
ob stac
for ward</w>
expres s</w>
c ou
bass y</w>
S emi
Nazarbaye v
De pen
ven tion</w>
un ited</w>
th at,</w>
summ er</w>
sphere ,</w>
o ts</w>
o thers</w>
k en
en ds</w>
drin king</w>
cur ve</w>
con serv
bo x
appoin ted</w>
M any</w>
Is ra
Com pe
settle ment</w>
re covery</w>
orig inal</w>
grap h</w>
es tive</w>
energ y-
convers ation,</w>
Is su
7 -
201 9</w>
201 1</w>
ver ,</w>
ric ul
peace ful</w>
g ases</w>
differen ti
control l
am ination</w>
Sa par
8 -
1, 0
ultan e
tt on</w>
sector al</w>
multi lateral</w>
di esel</w>
decom position</w>
complex .</w>
chann els</w>
X- ray</w>
Nat ural</w>
Belar us,</w>
Ask ar</w>
tion ary</w>
temper at
telec ommun
situ ations</w>
play ed</w>
pass ing</w>
neighb oring</w>
lat est</w>
first ly,</w>
em o
comple ted.</w>
centur y,</w>
Pro gram
Offic e,</w>
Me as
H um
y le</w>
servic e
resol ved</w>
ph il
pe ac
p age</w>
in es,</w>
g .</w>
direc ted</w>
collec tive</w>
W T
Th er
Ser bi
Semi palatin
Com mission
4 3</w>
% ).</w>
tri p</w>
t ational</w>
sil ver</w>
prin ting</w>
pol ling</w>
on d</w>
medic ine</w>
l ,</w>
ing "</w>
h ome</w>
experi ments</w>
d uration</w>
ad ditions</w>
ac ting</w>
S ultan
P ri
M use
Em ployment</w>
Af ric
yl ene</w>
widespre ad</w>
thes e,</w>
te ach</w>
t ants</w>
sug ar</w>
sol d</w>
smo o
si mul
re in
f ar</w>
f all</w>
construc tive</w>
clin ical</w>
Tod ay</w>
K han
C er
0, 9
te am
sub stance</w>
s '</w>
manufacturer s</w>
hydro carb
fe w</w>
cont amin
compan y's</w>
com for
an ce.</w>
affec ting</w>
R el
3 9
wa ste
vi a</w>
sig ns</w>
priv atization</w>
intensi fy</w>
h er</w>
gro un
ford able</w>
fertiliz ers</w>
c it
T .</w>
Ol ympic</w>
w are</w>
u tili
spac e,</w>
sm all
s outh</w>
ret ail</w>
quali fication</w>
plen ary</w>
l aid</w>
k i
group ,</w>
cur ricul
cr yp
connec ting</w>
conclu ded.</w>
b and</w>
ai c</w>
ad ju
P u
German y,</w>
D u
A gre
6 -
2017 -201
201 3.</w>
tr u
sensi tive</w>
sal es</w>
s ory</w>
plas ma</w>
mix tures</w>
lo ading</w>
in ste
ec ra
Kyrgyz stan,</w>
In creas
For ces</w>
wid th</w>
we ar</w>
t s;</w>
t ment</w>
suppl ied</w>
stimul ate</w>
republic ,</w>
libr ary</w>
l a</w>
kin d</w>
docu mentation</w>
commission ing</w>
V I
Ro ad</w>
C zech</w>
" B
" ,</w>
tor s,</w>
statis tics</w>
sphere .</w>
saginta yev</w>
re verse</w>
ke l</w>
ili bri
here .</w>
exce eded</w>
ex plan
e u
cub ic</w>
coordin ates</w>
cool ing</w>
constitu tion</w>
as ting</w>
arch i
alphab et</w>
D ig
4 1</w>
" "</w>
system ic</w>
sim ultane
rais e</w>
mel ting</w>
job s,</w>
co ating</w>
at ori
Un der</w>
Al ex
2 %.</w>
w ay.</w>
v ent
tor 's</w>
plemen ting</w>
minist er,</w>
ment "</w>
expl ain</w>
er t</w>
dou ble</w>
blo od</w>
adap tation</w>
3 5
th y</w>
tempor ary</w>
str ong
resol ve</w>
rep air
regi ster</w>
reg ard</w>
ran ks</w>
method s,</w>
k es
hosp ital</w>
day s,</w>
be ,</w>
ai m</w>
L A
B rit
Ar meni
20 -
speciali sts,</w>
s us
ministr ies</w>
in ding</w>
i m</w>
e z
cr ush
cr im
con tain</w>
ad di
Mod ern
Ar tic
w w
shor t
s end</w>
robo tics</w>
program s.</w>
jo b</w>
fer ro
dru g</w>
dra wn</w>
cro p</w>
con ditional</w>
character izing</w>
ation ary</w>
appe ared</w>
allo ys</w>
accur ate</w>
K ur
I ts</w>
A L</w>
yr z
um n</w>
t y.</w>
spectr al</w>
spac ecra
sh ell</w>
sec ret
qual ities</w>
open s</w>
exam ples</w>
emerg ence</w>
corpor ation</w>
clin ic</w>
Pl ant</w>
I S</w>
I R</w>
Con struction</w>
8 5</w>
well- known</w>
voic ed</w>
ver tical</w>
ton s.</w>
ton om
physic ochemical</w>
nom in
no des</w>
molec ular</w>
lo ad
invol vement</w>
im ports</w>
envis aged</w>
entrepreneur s.</w>
discuss ed,</w>
d less</w>
conferen ce,</w>
compu ters</w>
bo l</w>
b all</w>
as ,</w>
appl ying</w>
accum ulation</w>
a ther</w>
Vi et
Rec all,</w>
10 0%</w>
prof ile</w>
partic les</w>
mortal ity</w>
k o
inter regional</w>
grow n</w>
gi f
g ene
fre ight</w>
di am
d it
construc tion.</w>
com posi
an tic</w>
alk al
air port</w>
ac cred
Tran sport</w>
E C</w>
visco sity</w>
sul ph
selec t</w>
re alization</w>
r yp
purch ased</w>
po genic</w>
pho tograph
north ern</w>
non linear</w>
in sky</w>
head quar
grow th,</w>
gro w</w>
de struction</w>
cho os
av ing</w>
am pl
Qu ality</w>
P al
P A
E U
E N
Au str
zh ak
so dium</w>
satell ite</w>
ruk- kaz
o es</w>
meth ane</w>
laun ch
landscap e</w>
hom ogeneous</w>
h un
green house</w>
equ ilibri
conduc tivity</w>
all y.</w>
all ed</w>
2020 .</w>
( 9
us ed,</w>
tu red</w>
th us</w>
tec h</w>
po st-
join tly</w>
ho od</w>
err ors</w>
dise as
dam age</w>
ce i
Tok ayev</w>
Ab dykalik
3 7
viol ation</w>
ul sory</w>
ther ,</w>
st er
oxy gen</w>
lin ed</w>
h and
fol lows</w>
f estive</w>
comp ulsory</w>
as tic</w>
al ge
Technologi es</w>
Mo st</w>
Compu ter</w>
yt zhan</w>
tra ffic
research ,</w>
prote in</w>
p H</w>
is on
gre at
energ y.</w>
dimen sions</w>
al "</w>
[ 12
S il
Lear ning</w>
organiz ers</w>
model ,</w>
in e.</w>
gas ol
e :</w>
consequ ences</w>
avi g
Inte gr
I ran
vo ice</w>
to -
tis h</w>
purpos es</w>
oxi diz
it er
diplom at</w>
commod ity</w>
analyz ing</w>
Kok shet
Gi ven</w>
20 %</w>
regar dless</w>
pipel ines</w>
percent age</w>
impur ities</w>
gr ants</w>
exce eds</w>
contain er</w>
ci vil
cho sen</w>
Pro duction</w>
Modern ization</w>
LLP .</w>
I N</w>
For um</w>
te .</w>
sch ol
ph on
measu res,</w>
me .</w>
manufac ture</w>
k ine
it s.</w>
independen ce.</w>
esti mat
ati ve,</w>
ar ma
an ov</w>
ad ic
accumul ated</w>
Se a</w>
Con gress</w>
Ata me
9 %,</w>
25 ,</w>
( T
se ven</w>
se .</w>
pri z
p air
ol d
ment ;</w>
maslikh ats</w>
let ter</w>
fund s.</w>
di d
comb ating</w>
W ater</w>
S ary
Mathematic al</w>
Belar u
Artic le</w>
15 .
s ulation</w>
pri ze</w>
m ir
d ly,</w>
co inci
car rying</w>
aris ing</w>
Wor k</w>
Polic y</w>
Japan ese</w>
ye t</w>
st one</w>
occup ies</w>
new ly</w>
mod es</w>
hu b</w>
fund s,</w>
champi on
c ad
ain s</w>
Sh u</w>
R eli
Dig ital</w>
6 %.</w>
thousan ds</w>
sug ge
sk ,</w>
sen ten
kee ping</w>
hecta res,</w>
fill ing</w>
ec ology</w>
author i
Represent atives</w>
Im pro
8 ,
( M
tre ated</w>
sl op
har v
gener ated</w>
empha siz
e "</w>
de man
ag o</w>
Turk ic</w>
K u
Ir an</w>
F o
F i
E D</w>
Can ad
B ay
4 9
reflec t</w>
read ing</w>
r ang
plat form
off ers</w>
may or</w>
invest ment,</w>
ing :</w>
graph ics</w>
gener ator</w>
ent s,</w>
en i
dis play</w>
dang erous</w>
bre ad</w>
at tribu
as ant</w>
We b</w>
P C
Constitu tion</w>
Ab out</w>
3. 5</w>
worksh op</w>
vel oc
studen t's</w>
st ence</w>
second -
s lu
ruk-kaz yn
ri vers</w>
invest ors.</w>
ing )</w>
i. e.</w>
i an</w>
fun d,</w>
e qual
dollar s,</w>
competi tion.</w>
ci um</w>
biog as</w>
ba i</w>
Y essi
Y es
St and
P re
Jap an</w>
Consi der</w>
Ba iterek</w>
14 .
- 2</w>
tion ;</w>
ren tal</w>
re plen
pre feren
n ic
n ar
n .
month ly</w>
modern ize</w>
mo ist
m ation</w>
inf ec
gri d</w>
cu r</w>
comm and</w>
asphal t</w>
anthro pogenic</w>
Strate gy</w>
Bai kon
4 7</w>
2 1st</w>
un employed</w>
suppl i
recor d</w>
pr ime</w>
pl y</w>
ow ner
over ha
or ary</w>
of f</w>
no de</w>
m assi
m 3</w>
han ded</w>
fun ding</w>
f lights</w>
continu ed</w>
colleg es</w>
ar .</w>
am es</w>
N et
M ong
4 6</w>
3 %.</w>
ting .</w>
t ness</w>
si vely</w>
se eds</w>
s ).</w>
particip ated</w>
ne x</w>
n avig
memorand a</w>
m g/
inten ds</w>
inspec tions</w>
im medi
hydrocarb ons</w>
contribu ted</w>
con ve
b and
So ci
S )</w>
Kore an</w>
5 6</w>
u po
surve y</w>
standar ds.</w>
st op</w>
sequ ence</w>
re pai
re construc
organiz ation,</w>
initi ated</w>
fin e</w>
decre as
at er
aliz ation,</w>
St ate,</w>
Russi a.</w>
Ar med</w>
4 %.</w>
we ak</w>
up on</w>
tor ,</w>
the or
termin al</w>
surfac es</w>
sul fi
studen ts.</w>
s and</w>
regul ating</w>
preven tive</w>
passeng ers</w>
optim ize</w>
inter mediate</w>
il d
i on
financ ed</w>
fil ter</w>
equilibri um</w>
detail ed</w>
dependen t</w>
den s
dec l
de ter
center s,</w>
c um
answ er</w>
aci ds</w>
a partment</w>
M O
J av
C .</w>
w all</w>
urg ent</w>
th ough</w>
s li
respec tivel
res cu
paren ts</w>
modi fied</w>
jus ti
ing ly,</w>
go es</w>
do w</w>
correspon d</w>
assem b
appro val</w>
T im
I t
Astan a.</w>
30 ,</w>
v ul
ti -
ther mo
sion .</w>
shor tage</w>
result s,</w>
re cre
people 's</w>
lin ks</w>
lif est
jud ges</w>
exc av
ex ha
elec toral</w>
demonstr ate</w>
bl ack</w>
5 .</w>
vis itors</w>
ti ve,</w>
there fore</w>
them atic</w>
the tic</w>
tas ks,</w>
politic al,</w>
peculi arities</w>
non-pro lif
me an</w>
inter face</w>
inste ad</w>
guaran tee</w>
gu id
e urasian</w>
co vers</w>
clim atic</w>
chairman ship</w>
br ic
av o
anal og
ad es</w>
accoun ts</w>
Pro duc
A .
5 2</w>
v in
ult y</w>
sal ts</w>
pen e
min utes</w>
in duction</w>
fer rous</w>
f ate</w>
estim ate</w>
eas y</w>
descri be</w>
d ating</w>
choos ing</w>
bil e</w>
] :</w>
] ,</w>
T as
Kaz agro</w>
A T
.k z
z kaz
vege table</w>
seri ous</w>
industri es,</w>
hydro carbon</w>
govern ment.</w>
dynam ically</w>
dra w</w>
disp os
decision -
con sul
compu tational</w>
am ic</w>
alloc ate</w>
alge br
affec ted</w>
a ev</w>
Turke y,</w>
T aking</w>
Meth od</w>
Industr ial</w>
Ear th</w>
Cor por
Bu d
Atyra u</w>
201 8.</w>
1 1.
train ing.</w>
til ity</w>
t at
stri an</w>
speciali sts.</w>
re .</w>
posi tively</w>
po ison
ens es</w>
develop ed,</w>
ak es</w>
ac compan
ab le,</w>
Tran s
Semipalatin sk</w>
Mod ern</w>
Eng ine
C O</w>
Bri tish</w>
6 4</w>
10 ]</w>
1 2.
th in</w>
sum mar
st op
re fers</w>
l es,</w>
indic ate</w>
ev ol
enc ryp
di zation</w>
de stro
char ac
appro xim
am beto
L o
Kazakhstan ."</w>
E R
( x
( 8
( 2
u ,</w>
turb ine</w>
tr acti
the at
recei ves</w>
preserv ing</w>
p as
oc cur</w>
kh an</w>
fe ed</w>
decre ases</w>
cooper ate</w>
conscious ness</w>
aud i</w>
Ab ay</w>
A ffairs,</w>
world 's</w>
wai ting</w>
v ac
th nic</w>
serv ed</w>
partner ship.</w>
month s,</w>
mat ul
lif e.</w>
l ysis</w>
ke ts</w>
health care</w>
he ated</w>
go al,</w>
g er
fif th</w>
exten sive</w>
contr adic
au tonom
agree ment,</w>
Kazakhstan :</w>
In form
In clu
Com p
C )</w>
7 8</w>
7 2</w>
' t</w>
sp i
period .</w>
o sk
m )</w>
li ves</w>
implement ed,</w>
immedi ately</w>
hecta res.</w>
continu ation</w>
arm y</w>
ai red</w>
Uz bek</w>
J us
D os
Commun ications</w>
Agre ement</w>
.k z</w>
t ac
step pe</w>
school ,</w>
protec ted</w>
problem s,</w>
nuc le
mor al</w>
metro logical</w>
marke ting</w>
k ing,</w>
inter rup
f light</w>
expo-201 7</w>
evi dence</w>
en cies</w>
cover ing</w>
bor n</w>
at h</w>
ar y.</w>
analy sis,</w>
Tour ism</w>
Geor gi
A y
25 %</w>
1 3.
wh y</w>
under stand
ult ur
sym bol</w>
support ,</w>
scienti sts,</w>
reflec ting</w>
ok ing</w>
identi ty</w>
hu ge</w>
hel ps</w>
ha i</w>
guarante es</w>
guarante ed</w>
ad ver
7 0%</w>
( 5
w est</w>
tur ns</w>
teach ers,</w>
tax es</w>
si tion</w>
se kes
r d</w>
ome try</w>
mis sions</w>
me aning</w>
inv itation</w>
hy per
geograph y</w>
f ish
ear th
celebr ate</w>
aw ard</w>
an der</w>
ac tion,</w>
E c
9 ,
veloc ity</w>
tariff s</w>
tal ks</w>
sul fur
sh ell
over all</w>
occup ational</w>
mat ter</w>
inter pre
high- tech</w>
gi r
form ity</w>
fil e</w>
farm ers</w>
cir cle</w>
bu re
bir th</w>
y k
win dow
t s:</w>
spectr a</w>
single- industry</w>
remo ved</w>
regul ations</w>
radi us</w>
present ed.</w>
p ic
out lined</w>
mar k</w>
log is
lo ve</w>
l ingu
i ,</w>
gas ,</w>
fr ag
explain ed.</w>
commun ity.</w>
ban king</w>
b its</w>
au ,</w>
ali sts</w>
agen ci
Ser ge
Nazarbayev 's</w>
Mo del</w>
Gre en</w>
Administr ation</w>
7 "</w>
20 50</w>
18 .
work s,</w>
w is
vari ety</w>
t ance</w>
st ore
s we
pro gres
pharmaceu tical</w>
parlia ment
p raised</w>
or t</w>
low- income</w>
infl ation</w>
govern or</w>
g -
employ ers</w>
em ul
autom o
Ukra ine</w>
Leg isl
7 4</w>
2014 -201
18 0</w>
" N
ta i</w>
spor ts,</w>
so v</w>
si ble</w>
per cei
measure ments</w>
h ard</w>
future "</w>
et 's</w>
en h
earli er</w>
ax is</w>
at tracti
ap er</w>
Stu dy</w>
K Z
Akh met
16 .
1 %.</w>
" k
win dow</w>
ter s.</w>
s ac
ric e</w>
partner ship,</w>
ov ich</w>
organiz ation.</w>
nom ination</w>
ma il
fac tion</w>
en ting</w>
dom in
depart ment.</w>
connec t</w>
ch aired</w>
al ism</w>
abroad .</w>
[ 8]</w>
5 1</w>
4 9</w>
4 .</w>
19 8
zon e,</w>
z z
we ek</w>
vul ner
tion :</w>
t our</w>
specific s</w>
se di
os is</w>
im ported</w>
ig matul
f el
eas ily</w>
e .
deri v
der ,</w>
cal cium</w>
bat ter
ator s,</w>
Uni versi
T yp
Issu es</w>
200 9</w>
wh ite
ure .</w>
schol ar
law .</w>
inform atization</w>
ground water</w>
gasol ine</w>
gar den</w>
g ul
environ ment.</w>
correc tly</w>
compres sion</w>
commission ,</w>
cap able</w>
amoun ts</w>
Str uc
Pol ish</w>
M W</w>
H i
17 .
- S
( Table</w>
transpor t
ther ap
plan e</w>
ev ap
b ed</w>
anal ys
al )</w>
agend a.</w>
M il
Di ag
50 th</w>
10 ,</w>
( )</w>
tod ay.</w>
the ater</w>
technolog y.</w>
summ ed</w>
sourc es,</w>
secret ari
reven ue</w>
reas on
re creation</w>
mast ering</w>
lim its</w>
familiar ize</w>
ex ported</w>
electr on
ch ina</w>
ba eva</w>
Ukra ini
Sh ang
L ith
Com pared</w>
20 .
un employment</w>
stre ets</w>
sem antic</w>
saf et
potenti ary</w>
offic ers</w>
li st
inter state</w>
in sulation</w>
gre ater</w>
fi er</w>
experi enced</w>
en k
dis arma
digit alization</w>
cul ar</w>
ampl itude</w>
E ura
" Business</w>
we ek
ven ess</w>
te red</w>
stric t</w>
histor y,</w>
hard ware</w>
gain ed</w>
g ing</w>
f ro
e p</w>
chec k
a er
Kazakhstan ,"</w>
It alian</w>
E gyp
thou gh
sub mit</w>
spac e.</w>
publ ication</w>
man -
intere thnic</w>
in er
hy gi
he v
et ,</w>
el et
d ul
conc ern</w>
beau ti
ai ,</w>
X X
May or's</w>
M uk
Afghani stan</w>
-------- --------
tele vision</w>
st atic</w>
shi ft</w>
piec es</w>
p en</w>
nom inal</w>
multi ple</w>
ligh ting</w>
lan d.</w>
ha vi
bil li
ash k
Sat pa
P P</w>
M amin
D oc
7 3</w>
7 %.</w>
" Nұr</w>
wa vel
spor ts.</w>
sorb ent</w>
se arch
s ar
ro t
resi stant</w>
r ic</w>
pur ification</w>
provi ded.</w>
problem atic</w>
ph as
micro organisms</w>
m /
ity ;</w>
ing s.</w>
igh ts</w>
ful l-
fil tration</w>
expen sive</w>
dise ase</w>
cep tion</w>
business es.</w>
arti sts</w>
appoin tment</w>
ag ents</w>
Europe ,</w>
15 %</w>
( R
wat ers</w>
up dating</w>
sen ior</w>
remo val</w>
plac ing</w>
medic ines</w>
event s.</w>
di versity</w>
cr u
condition s.</w>
c in
bre ak
ba ev.</w>
b ay</w>
anti- crisis</w>
P or
H on
Ci vil</w>
Belaru sian</w>
1 1,</w>
- 3
" on</w>
wh ich,</w>
w rite</w>
vic tor
vi bration</w>
v es,</w>
se ats</w>
qu asi
plan .</w>
organiz ation
monu ment</w>
min e</w>
mess age,</w>
langu age.</w>
it or</w>
it an</w>
he art</w>
gener alized</w>
equi val
diff er</w>
de fic
comb ining</w>
cir cles</w>
at es,</w>
TH E</w>
T at
Par ti
Ne ther
Muse um</w>
M ul
Hung arian</w>
Cap ital</w>
A R
tro ops</w>
ter ing</w>
stabil ity,</w>
sphe res.</w>
separ ation</w>
reflec tion</w>
rec alled</w>
moist ure</w>
minist ers</w>
manag ers</w>
less ons</w>
le ts</w>
he v.</w>
event s,</w>
dri ve</w>
commis sions</w>
bil ls</w>
bas ics</w>
anc y</w>
ali yev</w>
ac r
T w
Sul ei
5 8</w>
201 9,</w>
( from</w>
( 10
vis a</w>
standar ds,</w>
special ty</w>
re vis
pre cip
me an
manufac tured</w>
industri es.</w>
exten ded</w>
enrich ed</w>
employe e</w>
elim ination</w>
com o
certific ates</w>
Scienti fic</w>
S audi</w>
Parti cip
G A
Ar ab
8 0%</w>
6 .</w>
5 3</w>
( 4
vol t
v acu
thre ats</w>
so wn</w>
presiden t,</w>
pollu tants</w>
pl es,</w>
pl ate</w>
mon etary</w>
member ship</w>
labor ator
invol ves</w>
investig ation</w>
in cl
here ,</w>
fl at</w>
confi den
compan y.</w>
co s
care er</w>
c o</w>
am m
ag o,</w>
advis ory</w>
S O
Prof essor</w>
M yrz
M assi
Fr ance</w>
Develop ment,</w>
wa ves</w>
volun te
vege tables</w>
ran king</w>
r ac
quasi -
prosecu tor's</w>
po tat
out patient</w>
man age</w>
hy po
expen ses</w>
electro magnetic</w>
ear th</w>
confi dent</w>
compar ative</w>
clu b</w>
c ast</w>
S wit
Em bassy</w>
Council .</w>
A D
9 00</w>
2 O
/ /
y ro
u res,</w>
st ationary</w>
sem i-
recre ational</w>
r and
preven ting</w>
present ,</w>
person ality</w>
other ,</w>
m its</w>
lim it
issu e.</w>
integr ity</w>
f le
elec tions.</w>
distingu ished</w>
differen ces</w>
be havi
atin gs</w>
a p</w>
T re
T er
St atis
Reli gi
Proc ess</w>
H ow</w>
Atame ken</w>
A ra
3 rd</w>
1 ]</w>
( c)</w>
work ers,</w>
universi ties,</w>
t :</w>
struc ture,</w>
strate gi
poli tici
parlia ment,</w>
or gan</w>
let ters</w>
grow th.</w>
expec t</w>
cour ts</w>
connec tions</w>
capit al's</w>
a str
Tajik istan</w>
Re duc
Pro jec
H ere</w>
Ex peri
6 3</w>
6 2</w>
5 7</w>
y ou
x ili
vis its</w>
subsidi z
sec re
reservo ir
rap id
pl ic
patter ns</w>
ol e
oil ,</w>
i es.</w>
gr ant</w>
fi gh
fac ing</w>
eng ine</w>
electr ic
d :</w>
consi st</w>
conserv ation</w>
cle an
cas h</w>
care .</w>
bound aries</w>
ativ es,</w>
at titude</w>
at s.</w>
ac ous
Lith u
Chin a.</w>
than k</w>
suppl y,</w>
super vision</w>
spacecra ft</w>
scienti fic
research ers</w>
re turned</w>
re cording</w>
prene ur</w>
p on
mag n
intellig ence</w>
fl our
en ko</w>
dou b
demonstr ated</w>
bor row
at ed
[ 9]</w>
Proc ess
Appl ication</w>
strengthen ed</w>
relation ships</w>
propos e</w>
plan t.</w>
or ity</w>
mit ting</w>
loc k</w>
j ac
hy dr
fin ding</w>
exc ell
do m</w>
cor ro
concep tual</w>
compil ed</w>
ar k
appe ar</w>
an d.</w>
al ities</w>
Zh ak
Kore a</w>
E ffec
Ba sic</w>
Al -
4 0%</w>
xili ary</w>
train s</w>
ther m
syn chron
support .</w>
sulfur ic</w>
stabil ization</w>
st ors</w>
sh e</w>
prof ession</w>
nic kel</w>
loc u
lo como
gol den</w>
fiel d,</w>
entre preneur</w>
el ing</w>
comp ati
ag s</w>
S I
P ow
2016 -201
14 0</w>
y ed</w>
ver ification</w>
ti ous</w>
ti er</w>
terror ist</w>
sub scri
semin ars</w>
restor e</w>
require ment</w>
ol ym
monu ments</w>
flu x</w>
fill ed</w>
experi ence.</w>
dispos al</w>
discus sing</w>
discipl ine</w>
competi tiven
center s.</w>
am mon
U R
L et's</w>
In tel
Cal culation</w>
1 30</w>
win ner</w>
water -
scop y</w>
s cat
roc k</w>
measu res.</w>
m es
in sul
headquar ters</w>
h and</w>
form ations</w>
er ical</w>
dru gs</w>
corrid or</w>
contamin ated</w>
concentr ations</w>
comb ine</w>
c anc
bek ov.</w>
b s</w>
ain ,</w>
agricul ture.</w>
Fun c
Council ,</w>
Commission er</w>
C auc
B or
Alex ander</w>
Ad d
8 %.</w>
" kaz
wast es</w>
t le</w>
slu dge</w>
si de,</w>
ou ri
ologi sts</w>
ma jilis</w>
invest or</w>
fru its</w>
fi ed.</w>
er ies</w>
en ce
convers ation</w>
centur y.</w>
bi om
adap t</w>
Phys ical</w>
G lob
word s,</w>
u e,</w>
so on</w>
sm el
scienti st</w>
re actions</w>
pres enting</w>
pos e</w>
part y,</w>
part ,</w>
off ered</w>
nat ure,</w>
kilome ters</w>
es ."</w>
ban k,</w>
ar ise</w>
adop t</w>
U se</w>
O G
Innov ative</w>
3 50</w>
00 0
" M
yn om
y cl
transpor ted</w>
some times</w>
seas on</w>
robo t</w>
mu sic</w>
k er</w>
ine quality</w>
il legal</w>
gene tic</w>
fun d.</w>
feed back</w>
extremis m</w>
ess ence</w>
el i</w>
defec ts</w>
consult ations</w>
audi ence</w>
au l</w>
attrac tion</w>
answ ers</w>
Univers ity,</w>
N od
K al
Feder ation,</w>
Ex ecu
E L
AN D</w>
6 0%</w>
" .</w>
y sh
waste water</w>
und red</w>
ul e</w>
uc tu
typ ical</w>
star tu
potenti al,</w>
phy si
particip ant</w>
mul tin
macro economic</w>
im ag
for tun
e ous</w>
du ty</w>
du ties</w>
Inter ne
Com par
A L
6 8</w>
30 -
201 0
( 0
symbol s</w>
short com
non-prolif eration</w>
ministr y,</w>
lo gic</w>
le ave</w>
invest ors,</w>
install ations</w>
f ast</w>
es ,"</w>
classi fied</w>
bl ue</w>
be am</w>
adver ti
The ir</w>
Strate g
Kazakh s</w>
J o
C enter
B at
6 7</w>
y k</w>
wh ether</w>
t ;</w>
re placement</w>
oper ation,</w>
ob vi
li es</w>
k er
h undred</w>
h our</w>
gradu ate</w>
class ical</w>
bas in</w>
b ra
au xiliary</w>
acceler ated</w>
UN ES
T u
F ur
Baikon ur</w>
B ek
2020 "</w>
20 2
1. 6</w>
un ity,</w>
sulfi de</w>
sec retary</w>
proto col
profession als</w>
pre p
past a</w>
pan el</w>
op pos
mix ing</w>
ma -
jus tice</w>
iz ation.</w>
ex pe
divi sion</w>
deter i
cod es</w>
bod y,</w>
attrac tive</w>
arch ae
Shang hai</w>
N a
G ul
9 5</w>
50 -
wor thy</w>
un ite</w>
system s.</w>
simpli fy</w>
particular ly</w>
molec ules</w>
materi als.</w>
man- made</w>
larg ely</w>
ic s.</w>
flo od
cre ati
cont amination</w>
centr alized</w>
al lowing</w>
ade qu
S ub
Is sekes
Di ff
Bul g
Au tom
y r</w>
whol es
str ain</w>
st on
rub ber</w>
ris e</w>
require ments,</w>
re ally</w>
pass es</w>
op tions</w>
meter s,</w>
li p
invol ve</w>
gl om
f lower</w>
e y
atom pro
al ize</w>
Turk men
Tre at
Lab or</w>
( I
vis u
v acc
us ed.</w>
shor t-
restric tions</w>
reform s,</w>
pro ve</w>
pos ure</w>
po or</w>
ow ners</w>
las er</w>
ish es</w>
econom ically</w>
diversi fication</w>
cont acts</w>
A B
6 6</w>
4 8
tit anium</w>
theore m</w>
shar p</w>
rel atively</w>
qu ite</w>
moun tain
mis sion,</w>
meto v.</w>
metall ur
inter locu
fl uctu
ex cept</w>
commun ity,</w>
ber .</w>
beauti ful</w>
ak er</w>
[12 ]</w>
V ari
O R</w>
L oc
L at
Kazakhstan is,</w>
Elec tion</w>
An ti-
5 50th</w>
x ,</w>
w alls</w>
v ess
telecommun ications</w>
reg ular
r ams</w>
offici als</w>
n ish</w>
multin ational</w>
manag ed</w>
it ems</w>
high- speed</w>
hel d,</w>
electro ly
continu ity</w>
cir culation</w>
aw aren
appe al</w>
amen ding</w>
Univers ity.</w>
Singap ore
S ome</w>
Kazakhstan is.</w>
Karagand a,</w>
Gener al's</w>
G rou
Ex traordinary</w>
Determin ation</w>
Compe ti
Ara b</w>
" n
un certain
tit le</w>
stor e</w>
sim pl
si a,</w>
regul ate</w>
re view
ques tion
proce ed
p ure</w>
invest ment.</w>
ho st</w>
exper ti
entrepreneur ship,</w>
disper sion</w>
bre eding</w>
acci dents</w>
acceler ate</w>
S ch
K ul
Depen ding</w>
A )</w>
5 9</w>
1. 7</w>
1 10</w>
tra vel
structu red</w>
quanti ty</w>
polic ies</w>
pol ynom
p ages</w>
men ding</w>
max im
jo ining</w>
formul a:</w>
every day</w>
develop s</w>
conside red,</w>
conflic t</w>
co -
chec ked</w>
ator ,</w>
adju st
ab ly</w>
Ukraini an</w>
Swit zer
On ly</w>
M i
Hy dro
7 6</w>
4. 5</w>
4 ]</w>
w ages</w>
vacu um</w>
simultane ously</w>
rus sia</w>
problem s.</w>
manag er</w>
hy bri
fi ed,</w>
enc our
e state</w>
dow n
did actic</w>
decl ared</w>
cyber security</w>
coun ter</w>
confi g
comp atrio
clust ers</w>
ar a</w>
addres sed</w>
adap ted</w>
ab solu
Kas sym
Hous ing</w>
H igh
Diag ram</w>
D en
201 1,</w>
-20 20</w>
w ri
tw ent
toler ance</w>
tograph ic</w>
studi es,</w>
so wing</w>
sat ur
room s</w>
real ize</w>
r ail</w>
protec tive</w>
propos es</w>
peace keeping</w>
pe asant</w>
modul es</w>
instruc t</w>
happ y</w>
ge l</w>
es c
docu ments,</w>
doc tor</w>
colle ge</w>
cataly st</w>
c able</w>
appro ved.</w>
alco hol</w>
abil ity,</w>
[ 10]</w>
Stu dies</w>
S p
H igh</w>
9 0%</w>
ye th
y el
veter an</w>
valu es,</w>
up date</w>
solu ble</w>
re place</w>
patter n</w>
overha ul</w>
m s,</w>
lab our</w>
l ation</w>
inter n
ho tel
fa ith</w>
expen dit
exc ess</w>
exam in
evalu ated</w>
ev en
enterpris e,</w>
ensu red</w>
e e
council ,</w>
col d</w>
Turk ic-
S ha
R K</w>
Minist er.</w>
EXPO-201 7.</w>
Com mer
A TION</w>
( N
( 3)</w>
w ise</w>
tow ns</w>
ting s</w>
super vis
ste ad
sa w</w>
rel ess</w>
predic t</w>
ph ases</w>
over come</w>
multi disciplinary</w>
mo v.</w>
irrig ated</w>
increas ed.</w>
him self</w>
grad es</w>
entrepreneur ship.</w>
detec ted</w>
cor ps</w>
ain ts</w>
S R</w>
M em
M L</w>
H ar
A mending</w>
9 %.</w>
7 7</w>
2 9,</w>
16 0</w>
uc lear</w>
swit ch</w>
stre et</w>
responsi bil
qual ity,</w>
parliament ari
osk elet
k m.</w>
inst ability</w>
ev er</w>
effor t</w>
discus ses</w>
deleg ates</w>
control ,</w>
ativ es.</w>
atin g,</w>
academ y</w>
Zhe zkaz
Tal dyk
Singap ore</w>
Secon d</w>
Republic an</w>
H er
F ac
E M
Br az
5 4</w>
19 .
0 5</w>
yi eld</w>
we ather</w>
to k
th is.</w>
smoo th</w>
result s.</w>
require ments.</w>
ren t</w>
proble m,</w>
par ag
ne ed
navig ation</w>
me tr
is sen
hon orary</w>
he ard</w>
eg gs</w>
de ar</w>
character is
cell ular</w>
autonom ous</w>
at ely,</w>
at -
as ked</w>
al ing</w>
ac tually</w>
T og
P H
M et
Engl ish
C hi
Bu il
Azerbaij an</w>
6 9</w>
zon e.</w>
wholes ale</w>
ur ban
tal ked</w>
spe ak</w>
sig ned.</w>
s tic</w>
requ is
personn el,</w>
offici ally</w>
n -
micro credit</w>
l i</w>
jo in</w>
der ing</w>
cont est</w>
buil t.</w>
addi tives</w>
a us
T RA
Stu dents</w>
Pl eni
L angu
In fra
Des ign</w>
9 2</w>
v als</w>
sovere ign
sit e,</w>
s and
rapid ly</w>
pres sion</w>
par a
on om
lit tle</w>
kh a</w>
ke ys</w>
h us
flu or
flexi ble</w>
ex posure</w>
democr atic</w>
day s.</w>
cryst al</w>
crim es</w>
compl y</w>
clin ics</w>
bi ology</w>
autom atically</w>
ak to
TIO N
Sulei men
P op
Or der</w>
Legisl ative</w>
15 -
" Expo-201
vill ag
ti es;</w>
tal ented</w>
t ys
st ated</w>
sensi tivity</w>
sem ic
order ,</w>
ish ment</w>
indicat ors,</w>
econom ies</w>
devi ation</w>
conclu sions</w>
candi d
ca de
c av
attracti veness</w>
ari m</w>
Turkic- speaking</w>
Th ir
Pleni potentiary</w>
P ho
M ap
Im ple
He al
F OR
8 2</w>
vo ting</w>
tra dition</w>
to m</w>
store y</w>
se ed
ro se</w>
respec tively</w>
regul ated</w>
ple ased</w>
per mits</w>
pay ing</w>
optim izing</w>
m 2</w>
jec tion</w>
facilit ate</w>
fac ts</w>
decision- making</w>
deb t</w>
de :</w>
corro sion</w>
collec t</w>
che str
bur ning</w>
bacter ia</w>
ar -
an cial</w>
ag es:</w>
S al
Op tim
I .</w>
He re,</w>
Fin ancial</w>
F ouri
Cu stom
Azerbaij an,</w>
Ab dr
A z
A P
1. 2</w>
0 1</w>
y an
war m</w>
vege tation</w>
ty pe
transparen t</w>
tou ched</w>
sp r
situ ation.</w>
sh op
pum p</w>
on t
m ic
m 3
los ses</w>
lo op</w>
lo oking</w>
liter at
it e,</w>
issu e,</w>
dis advantages</w>
defin ing</w>
de tic</w>
comfor table</w>
cir cum
ation -
associ ations,</w>
T en
Bal kh
20 00</w>
veter inary</w>
trans mitted</w>
su preme</w>
stan ces</w>
sc en
ruk-kazyn a</w>
reservo ir</w>
pre requis
p yr
non- ferrous</w>
nan op
ic .</w>
ge opoli
freed om</w>
fac t,</w>
f ric
es ),</w>
er "</w>
disabili ties.</w>
dis crete</w>
contribu tions</w>
con dens
char ity</w>
att acks</w>
acous tic</w>
Zhum ag
St re
S Q
Inclu ding</w>
I V</w>
D I
Al tai</w>
9 7</w>
5 th</w>
. .</w>
" one</w>
zhan ov</w>
tra jec
th ings</w>
tal ks,</w>
sk in</w>
secur ities</w>
school s.</w>
re alized</w>
rand om</w>
plan ts,</w>
network s,</w>
net work,</w>
market s.</w>
here in
forec asting</w>
for um.</w>
flo or</w>
enter tain
docu ment
concentr ated</w>
comple ted,</w>
chlor ide</w>
carri ers</w>
business es,</w>
belong s</w>
avlo v
ar t,</w>
af fordable</w>
activ ity.</w>
a sia</w>
P aki
Execu tive</w>
Dos sa
C -
A li
201 1
200 8</w>
1. 3</w>
( 3
te l</w>
su ff
sci ences</w>
partner ships</w>
p un
on el</w>
neutr on</w>
med als</w>
lo ads</w>
k ov</w>
j anu
isol ated</w>
inv ent
ing dom</w>
herein after</w>
excell ent</w>
enc es,</w>
el astic</w>
d in
contain ed</w>
comprehen sively</w>
ci ties,</w>
bus es</w>
br and</w>
areas :</w>
applic ants</w>
ann u
am bi
activ ation</w>
Y outh</w>
E l
D -
A sh
201 0,</w>
1. 8</w>
" says</w>
u d</w>
tin e</w>
territor ies</w>
structu res,</w>
se tting</w>
scre en</w>
road s,</w>
pro per</w>
part .</w>
oper a</w>
no tic
mod ular</w>
mo ther
mar ks</w>
map s</w>
administr ation,</w>
ach ing</w>
ac y,</w>
a que
T i
S ,</w>
Mosco w
Ma x
In dia</w>
I dr
G as</w>
Fr ance,</w>
- building</w>
" K
y u
tre as
tour ism.</w>
tal king</w>
religi ons</w>
refin ing</w>
re cip
pum ping</w>
po ver
plan ted</w>
p edagog
ne ws</w>
n ess,</w>
lec tures</w>
inter- ethnic</w>
imple ments</w>
h all</w>
gl ad</w>
el s,</w>
dr ying</w>
dis placement</w>
devi ations</w>
d a</w>
coordin ating</w>
ar ith
Wh ite</w>
Viet nam
Ther mal</w>
Sil k</w>
S TE
F l
Engine ering</w>
Akhmet zhan</w>
wavel ength</w>
tw ice</w>
tur ning</w>
tr ue</w>
tion )</w>
tab le,</w>
rescu e</w>
oper ates</w>
nor m</w>
m ic</w>
lif ting</w>
instru ment</w>
identi fying</w>
group s,</w>
g ate</w>
ed ge</w>
dee pen</w>
cul ture.</w>
comm uni
col umn</w>
b att
as k</w>
al y</w>
accompan ied</w>
abroad ,</w>
Serge y</w>
Sapar bayev</w>
Med ical</w>
Fouri er</w>
Bi g</w>
( G
visi ting</w>
un known</w>
sug g
s ligh
rup tion</w>
oppos ite</w>
level s.</w>
l .</w>
jac ent</w>
introduc ed.</w>
hous ing.</w>
h esi
dri ving</w>
dem ographic</w>
cor relation</w>
conferen ce.</w>
con fec
ay a</w>
avo id</w>
addition ally</w>
Tar az</w>
N ation</w>
F ound
Electr onic</w>
-20 20
world -
w arm
vehic le</w>
ultur al,</w>
sur g
sorb ents</w>
sh y
s es,</w>
resi du
prof essor</w>
p air</w>
mo ved</w>
milli on,</w>
lo se</w>
le a
high way</w>
h a</w>
gu i
formul as</w>
euro zone</w>
en ded</w>
council s</w>
conclu de</w>
belong ing</w>
agand a</w>
accord ingly,</w>
a ver
Ste p
Sh u
S chool</w>
S aginta
R econ
R I
Ob jec
Mamin .</w>
ME N
I II</w>
F ri
Cal cul
Bud get</w>
9 8</w>
7 1</w>
y ar
vit amin
tur bul
trans national</w>
tic kets</w>
sourc es.</w>
session ,</w>
seg ments</w>
pre ce
phosph ate</w>
metropol itan</w>
inten tion</w>
gr inding</w>
ent al</w>
docu ment,</w>
compar e</w>
cin em
business men</w>
b es</w>
b ,</w>
as ymp
aim s</w>
ad jacent</w>
accep t</w>
ab et
ab a
Ur al</w>
Ukra ine,</w>
Sum m
Pro vi
Mong oli
Micro soft</w>
Hum an</w>
Glob al</w>
F am
D em
Ch ar
vic tim
t a</w>
strategi es</w>
stimul ating</w>
separ ately</w>
selec ting</w>
reform s.</w>
preferen tial</w>
potenti al.</w>
plat forms</w>
peac e,</w>
oscill ations</w>
occur red</w>
observ er</w>
legisl ation,</w>
indic ating</w>
impro ves</w>
hous ing,</w>
function ality</w>
fric tion</w>
estimat es</w>
d )</w>
b ron
a ,"</w>
WT O</w>
St .</w>
Particip ants</w>
L ake</w>
IC T</w>
Al atau</w>
8 3</w>
6. 5</w>
201 3
( hereinafter</w>
text book</w>
t- stock</w>
system ;</w>
soldi ers</w>
sion s,</w>
sig nature</w>
sho o
service men</w>
pi dem
negoti ations,</w>
lu bric
legisl ation.</w>
kee p</w>
hin d</w>
fru it</w>
e e</w>
desig n
consist ent</w>
cer amic</w>
at es.</w>
arri val</w>
are d.</w>
an swe
acqui red</w>
Wh ere</w>
Turk meni
T S</w>
JS C,</w>
Infra structure</w>
Imple mentation</w>
Con vention</w>
Con cept</w>
C E</w>
Ac c
9 -
ther mod
th i
techni qu
t ar</w>
simpli fied</w>
road map</w>
ro un
resourc es.</w>
requi ring</w>
re mun
oc curren
ob ic</w>
mo bility</w>
men ia</w>
join t-stock</w>
graph s</w>
g az
fo rest</w>
f e</w>
do z
curren tly,</w>
class es,</w>
bur g</w>
bot tom</w>
bel ong</w>
audi o</w>
ag glom
accessi bility</w>
a ;</w>
Sup port</w>
L .</w>
Hol ding</w>
Akh metov</w>
15 ,</w>
tion s:</w>
ti ble</w>
shi f
shell s</w>
sen ding</w>
reli ef</w>
par king</w>
os oph
nor th</w>
mini -
ma stered</w>
kazakhst ani</w>
in sufficient</w>
hus band
high- level</w>
group s.</w>
gi ven
geo detic</w>
fac ed</w>
f is
et .</w>
ed ;</w>
di st
desig ning</w>
deleg ations</w>
creati vity</w>
candid acy</w>
brief ing</w>
are :</w>
are ,</w>
am bassad
Syst em
K ,</w>
Akto be,</w>
4 th</w>
z um
tion "</w>
ti le</w>
th el
tan e</w>
sum ming</w>
standar dization</w>
shortcom ings</w>
sal ary</w>
s co
pu pil
propor tion</w>
pass age</w>
on d
li sts</w>
lec ture</w>
k ol</w>
k m,</w>
issu ing</w>
inform ation.</w>
implement ation.</w>
hab it
enrich ment</w>
depart mental</w>
dec line</w>
cro ss</w>
co tton</w>
c ab
bek ova</w>
b i</w>
asymp to
anc ing</w>
alkal ine</w>
Recon struction</w>
R ob
P RO
Ma p</w>
Jus tice</w>
En ter
Ac ts</w>
Abdykalik ova</w>
17 0</w>
( D
( B
vulner able</w>
ter .</w>
sugge sts</w>
satur ated</w>
s u</w>
s or</w>
recogn ize</w>
re present</w>
pre c
po sts</w>
plemen ted</w>
membran e</w>
i stan.</w>
i .</w>
human ity</w>
fe el</w>
ero space</w>
el ev
develop ers</w>
d den</w>
cr ime</w>
c es.</w>
b enz
appl ies</w>
appe als</w>
Turkmen istan</w>
Sup plementing</w>
Minist ers</w>
D ar
8 7</w>
00 -
u sted</w>
tan k</w>
sh ares</w>
secretari at</w>
s ess
s can
reg res
qualit atively</w>
on duc
necess ary,</w>
n m</w>
inter fac
id al</w>
ic ally,</w>
fr ame</w>
employe d.</w>
dr ical</w>
curricul um</w>
cop olym
confec tion
commer ci
cas ting</w>
care fully</w>
build ings,</w>
atori um</w>
aque ous</w>
V e
Uzbek istan,</w>
Un til</w>
OL OG
Con ference</w>
C lu
8 4</w>
0,5 5</w>
( H
" ;</w>
uni on,</w>
under go</w>
treat y</w>
text book
short- term</w>
satis faction</w>
re placed</w>
presiden t's</w>
possible .</w>
ph ones</w>
objec ts,</w>
multi pl
mu kh
min ut
materi al,</w>
li k
know s</w>
it ative</w>
flexi bility</w>
fail ure</w>
en tic
dis charge</w>
des i
de ad
cy cl
cros sing</w>
con sent</w>
chang e,</w>
bit r
b in
acqui sition</w>
a ster</w>
a c</w>
O N</w>
N ur</w>
Go og
Fin nish</w>
Ex am
Cour t</w>
Com mon
B ol
A ir</w>
13 ]</w>
( 4)</w>
 r
we ak
trans form</w>
the ast</w>
step s"</w>
resi due</w>
repe ated</w>
rein forced</w>
parame ter
ne d,</w>
min d</w>
micro scope</w>
men ted</w>
mach in
k ha
hydro lysis</w>
harv esting</w>
good s.</w>
ge ometry</w>
g )</w>
future ."</w>
figu res,</w>
evalu ating</w>
enc ing</w>
di sh
countr y
commission ed.</w>
cal i
bo x</w>
bi ometric</w>
adverti sing</w>
acro ss</w>
a 's</w>
P U</w>
26 ,</w>
200 5</w>
1. 4</w>
( a)</w>
" )</w>
wo ol</w>
tu m</w>
semic onduc
se ism
resi dual</w>
period s</w>
parame tric</w>
lic ens
k y</w>
inter disciplinary</w>
hygi enic</w>
forme d,</w>
e ight</w>
dic tionary</w>
datab as
cu t</w>
control ling</w>
celebr ated</w>
bu y
b age</w>
accessi ble</w>
accep tance</w>
XX I</w>
V I</w>
Phys ics</w>
K ap
Idr is
I denti
G raph
Fir st,</w>
Diff eren
Comp any</w>
ye ast</w>
w ire</w>
ver i
transfer ring</w>
tas ks.</w>
t yn
sligh tly</w>
sit e.</w>
quar tz</w>
pro fit</w>
pene tration</w>
parag raph</w>
p y</w>
od ynamic</w>
occur ring</w>
mo ther</w>
laborator ies</w>
it y"</w>
graph ical</w>
go als,</w>
freed om
e pidem
d inal</w>
cli ent</w>
bon ds</w>
bon d</w>
bir th
ation ,"</w>
answe red</w>
an g</w>
amb ul
_ l
Tok a
Muk ha
Corpor ation</w>
B ur
B ar
An dro
vis c
view ,</w>
uncertain ty</w>
tis m</w>
thes is</w>
sum mit
socio- political</w>
smel ting</w>
siz es</w>
possible ,</w>
polym ers</w>
metallur gy</w>
med al</w>
me try</w>
lo st</w>
l ater</w>
inter section</w>
g one</w>
fir ing</w>
cur ves</w>
cit y's</w>
charac ter</w>
ba sis,</w>
akim at,</w>
Wor ds</w>
V is
Spe aker</w>
Ma j
MP C</w>
J .</w>
Enter pris
7 9</w>
weap ons,</w>
vi ties</w>
v enti
v an
tri angle</w>
three- dimensional</w>
represent ation</w>
programm es</w>
process ing,</w>
m l</w>
kine tic</w>
inclu sion</w>
in coming</w>
harmon y,</w>
ga the
fortun ately,</w>
forme d.</w>
fill er</w>
er arch
enter s</w>
emphasiz ed.</w>
dis ast
cri sis,</w>
counter ing</w>
coordin ated</w>
con vic
chro mat
chang es,</w>
acci den
abl es,</w>
N um
Ma jil
M iddle</w>
M er
Jav a</w>
Jap an,</w>
H un
Ch ang
8 8</w>
6 1</w>
.kz .</w>
(x )</w>
y a</w>
women 's</w>
vo ters</w>
terror ism,</w>
system atically</w>
sol v
skill s,</w>
she et</w>
s core</w>
remo ve</w>
par aff
on ym
occup y</w>
obstac les</w>
ment ally</w>
mast ers</w>
map ,</w>
l ate</w>
j e
fl or
dou ble
cylin drical</w>
ari a</w>
ang les</w>
algebr aic</w>
ac id
O m
Iran ,</w>
Grou p</w>
Fu ture
Europe .</w>
Cer tain</w>
Au strian</w>
12 ,</w>
0,4 8</w>
work ers.</w>
we e
transform ations</w>
thel ess,</w>
th res
ten sion</w>
tas si
si x
reason able</w>
read s</w>
r un</w>
qu an
pur su
pen sions</w>
obvi ous</w>
nation alities</w>
equival ent</w>
entertain ment</w>
employ ment,</w>
eco system</w>
di abet
comman der</w>
capit a</w>
calcul ations,</w>
bel iev
bal anced</w>
arti stic</w>
ani a</w>
akh man
absolu te</w>
P .</w>
O tan
Ma th
In dic
Impro ving</w>
F OR</w>
z hi
uni on.</w>
tog e
tex ts</w>
ter s
t ant</w>
ro ot</w>
rec tor</w>
pro ud</w>
priv atiz
per forms</w>
particip ants.</w>
par ade</w>
p el
now ,</w>
mess ages</w>
maj ority</w>
m ;</w>
lear n
k as
jo ined</w>
indic es</w>
in jur
hospit als</w>
gu est
grad ual</w>
f alls</w>
equ ations,</w>
ens em
energy- saving</w>
devic es,</w>
de grad
d ous</w>
committe e,</w>
b orders</w>
ation s:</w>
accel eration</w>
Tim ur</w>
Si O
Republic ,</w>
M S
B ir
Armeni a,</w>
Afric an</w>
: 00</w>
9 9
8 9</w>
2. 2</w>
14 ,</w>
youth ,</w>
ur ric
u z
t g
suppl ies</w>
success es</w>
simpli fication</w>
righ ts,</w>
res ort</w>
region 's</w>
plo t</w>
per mis
occurren ce</w>
nutri tion</w>
neg atively</w>
man gan
m ass
l l
k "</w>
importan t.</w>
implement ation,</w>
ho shy
h ,</w>
gathe red</w>
g in</w>
correc tness</w>
con gres
collec ting</w>
champion ship</w>
carri es</w>
bloc ks</w>
be hind</w>
applic ations,</w>
al location</w>
akh metov</w>
_l _
TH O
S we
Par ty</w>
M ag
Kore a,</w>
Des cri
Al ma-
201 2
2- 3</w>
ym pi
wi reless</w>
well- be
un its,</w>
tim ate</w>
tele phone</w>
school .</w>
ran ge
radi o
prof il
or b
ome tr
materi al
le asing</w>
in verse</w>
h ex
geopoli tical</w>
fil es</w>
f it
encryp tion</w>
elec tions,</w>
develop ments</w>
dang er</w>
car d</w>
candi date</w>
cad mium</w>
bur den</w>
ar bitr
ab sorb
Tajik istan,</w>
T est</w>
S ME
P res
P O</w>
KZ T
In dependence</w>
EA EU
E O
D zhak
Add ress</w>
15 ]</w>
0,4 9</w>
r la</w>
w al
visi ble</w>
visc ous</w>
vent ure</w>
tain ed</w>
si de.</w>
sem ination</w>
remain ed</w>
ra ys</w>
r as
provi ded,</w>
presiden ts</w>
now led
n ation,</w>
month s.</w>
mo tiv
military- technical</w>
li fe
launch ed.</w>
i ds</w>
hous e,</w>
fulfill ing</w>
fic ation,</w>
fi bers</w>
eri k</w>
en ous</w>
des ert</w>
continu ing</w>
br ick</w>
be d
ary a</w>
S D
P R
Ma ster</w>
ME THO
Kazakhstan )</w>
E le
D al
0,4 7</w>
wo od</w>
ur y</w>
um p</w>
trans fers</w>
tool s,</w>
sup plemented</w>
statis tics,</w>
sai d,</w>
ri t</w>
religi on</w>
pres su
plac es,</w>
pl es.</w>
og ram</w>
obser ve</w>
meeting s,</w>
man ner
la h</w>
hol e</w>
hi bi
gener ally</w>
fulfill ed</w>
f al
entr usted</w>
enterpris e.</w>
dis semination</w>
diagnos tics</w>
diagnos is</w>
cooper atives</w>
control .</w>
chem ic
bre ak</w>
bek .</w>
appl i
am in</w>
ad sorption</w>
S ur
Pol and</w>
Mu kh
Le ad
Kaz agro
EXPO-201 7,</w>
D an
2. 4</w>
v es.</w>
v alle
up ,</w>
trop avlov
tic ket</w>
thousan d.</w>
teach er,</w>
te st
smar t
sci ence.</w>
s now</w>
regres sion</w>
regi st
reach ing</w>
phil osoph
personn el.</w>
mon opol
m ail</w>
lingu istic</w>
l ap
inter faith</w>
he ter
evi den
dri ver</w>
disarma ment</w>
conver ter</w>
chro mium</w>
att ack</w>
ast ,</w>
archae ological</w>
ar ray</w>
agenci es,</w>
abol ic</w>
Se me
Pro to
Pe tropavlov
Maj or</w>
Be fore</w>
201 8
y b
v a.</w>
transpor t.</w>
sto od</w>
stat e-
spi rit</w>
scal es</w>
s );</w>
regular ly</w>
pur i
pupil s</w>
out standing</w>
ol ,</w>
mat te</w>
kazak h
k in</w>
id u</w>
hol ders</w>
gr and
fe at
elimin ating</w>
effici ency,</w>
dat a.</w>
d or
correc tion</w>
co atings</w>
clos er</w>
cl am
character izes</w>
buil t,</w>
au t
alco hol
al ity,</w>
agr arian</w>
Summ ary</w>
N ode</w>
Du issen
Com ple
Chi ef</w>
C ity</w>
201 2.</w>
valu e,</w>
valu ation</w>
solu tion,</w>
sk .</w>
sen se</w>
s er</w>
recei pt</w>
prece den
polynom ial</w>
poin ts,</w>
plo ts</w>
parliamentari ans</w>
or chestr
op tion</w>
n erv
magn es
lear ned</w>
ex t,</w>
enc y.</w>
conven tion</w>
contain ers</w>
com positions</w>
clo th
ab and
Treat y</w>
Res ources</w>
P S
Net work</w>
M )</w>
Kokshet au</w>
In don
FOR MA
E very</w>
E F
Custom s</w>
8 6</w>
( by</w>
youth .</w>
y n</w>
tre es</w>
trajec tory</w>
tour na
tic s.</w>
t z
sup ple
sub stitu
serv es</w>
second- tier</w>
scen ari
resp ir
remun eration</w>
re volu
plac es.</w>
on c
olog ically</w>
inst all</w>
hap pen
groun ds</w>
fir st,</w>
f at</w>
employe d,</w>
dis covered</w>
commer ce</w>
ban k.</w>
atompro m</w>
am pli
[ 14
Rec ently,</w>
Pow er</w>
Nur lan</w>
N. A.</w>
K nowled
I D
He at</w>
He ads</w>
E -
C S</w>
Andro id</w>
0,5 3</w>
vitamin s</w>
tox ic</w>
tom or
ti es:</w>
ta st
syn thetic</w>
star s</w>
scop ic</w>
sac red</w>
repe ated
pl ing</w>
pip es</w>
other .</w>
new sp
n e</w>
multi- storey</w>
janu ary</w>
influ enced</w>
gr ate
f t,</w>
exi stence</w>
etc .
ens e,</w>
desig n,</w>
de red</w>
cri sis.</w>
cop per
conten t,</w>
con formity</w>
compens ation</w>
compar ing</w>
chemi stry,</w>
au to
ar sen
ad d</w>
The ore
N igmatul
M old
I C</w>
Goog le</w>
Ch ild
Ch emi
Bak ytzhan</w>
25 .
2. 7</w>
" green</w>
ye ster
wel ding</w>
volun tary</w>
v aries</w>
subsidi ary</w>
safet y,</w>
s ak
rec ycl
re d
r ation
pro m
preserv ed</w>
pen sion
p ts</w>
our sel
on e.</w>
ne y</w>
n ation.</w>
lin ked</w>
l ad
k u
in ity</w>
im pres
govern ments</w>
g a</w>
fulfill ment</w>
form al</w>
f lag</w>
f ,</w>
ent -
electric ity,</w>
dis k</w>
deteri oration</w>
der s,</w>
deci sive</w>
dec or
coun ting</w>
contin ental</w>
cam er
billi on,</w>
ath let
as su
ag gre
adop ted.</w>
ad ow</w>
Tw o</w>
St ate.</w>
L y
K arim</w>
Commer ce</w>
Ab di
A C</w>
5. 5</w>
25 -
" energy</w>
v a,</w>
tow n
sp end</w>
pur po
pharmaceu tic
orig in</w>
occup ied</w>
ment )</w>
k ni
k )</w>
invol ving</w>
hybri d</w>
hi erarch
h ed
gener ation.</w>
fol k</w>
flu id</w>
ex po
eth ics</w>
es -
en .</w>
divi sions</w>
degre es</w>
de al</w>
cu t
controll er</w>
compl ic
ab str
V ir
UNES CO</w>
Shymk ent,</w>
S lo
Plan ning</w>
Pe ters
Ol ympi
I P</w>
G ames</w>
Ar al</w>
3 1,</w>
whol e.</w>
tau ght</w>
st ation,</w>
spon ge</w>
sen ators</w>
requ ests</w>
r in
r a</w>
practic e.</w>
offic e,</w>
ne ver</w>
ne uro
month ,</w>
mo tivation</w>
lin e,</w>
kaz nex</w>
invest ments,</w>
increas es,</w>
group .</w>
gain ing</w>
f ab
ex tent</w>
ex em
ev a.</w>
dis til
determin ed.</w>
describ ing</w>
cop y</w>
com ments</w>
bri d
bol at</w>
al one,</w>
abo ve,</w>
Win dow
T )</w>
Stand ar
SQ L</w>
S pace</w>
R adi
I ni
Hous e</w>
Fig ures</w>
C ro
Ar menia</w>
Al ong</w>
1, 500</w>
1 /
0,4 6</w>
% ;</w>
ti ve.</w>
thou ght</w>
ten der</w>
st aff
sh af
resol ving</w>
ph ased</w>
ow ned</w>
oper ation.</w>
open ed.</w>
o zo
mus ical</w>
exhibi tions</w>
ev acu
electr ons</w>
des tin
conveni ence</w>
conven tional</w>
construc ting</w>
conduc ts</w>
conduc tor</w>
cal ls</w>
b rain</w>
author itative</w>
auth entic
as yn
Re qui
Nor th
N O
Massi mov</w>
L ond
Key words</w>
Ex per
E qu
Ch ange</w>
Cap it
As sess
9 3</w>
0,5 1</w>
vi c</w>
ven tures</w>
un stable</w>
um e</w>
ten n
tem ir
synthes ized</w>
spac es</w>
ser ge
ri st
respectivel y,</w>
res our
repeated ly</w>
physi ological</w>
patrio tism</w>
oxi des</w>
owner ship</w>
organiz ed.</w>
oph ys
one- time</w>
nanop articles</w>
me tic</w>
lay ing</w>
ir radi
intellig ent
indicat ors.</w>
impro ve
im ide</w>
i a,</w>
g n
fo od,</w>
exper t,</w>
esi des</w>
en ed</w>
e th</w>
commission .</w>
authori ties,</w>
as por
an om
ag ency,</w>
accred ited</w>
ac et
Tog ether</w>
To tal</w>
Soci ety</w>
Pavlod ar,</w>
L et</w>
Knowled ge</w>
Indi a,</w>
G .</w>
Austr ali
Al gorith
12 5</w>
ven ue</w>
urric ular</w>
un preceden
trac k</w>
tin c
thir dly,</w>
tassi um</w>
sur vi
secre t</w>
recor ds</w>
rad ical</w>
protec tion,</w>
prepar atory</w>
preci sion</w>
percei ved</w>
pack ages</w>
ou ter</w>
or th
o g</w>
l ake</w>
inter view</w>
in form</w>
hazar dous</w>
gen der</w>
for ces,</w>
es ).</w>
em bank
e 's</w>
diabet es</w>
de struc
crush ed</w>
con voc
che ap</w>
ba sis.</w>
b one</w>
atom s</w>
appro ve</w>
all .</w>
agree ment.</w>
ab le
Process ing</w>
MP a</w>
Kazakh ,</w>
H el
G D
Ab is
2. 9</w>
2. 3</w>
0,5 2</w>
- 2
ww w
wri ting</w>
trans actions</w>
tr ial</w>
to o</w>
techni que</w>
stri ve</w>
strateg y,</w>
st age.</w>
sovere ign</w>
se e
s ong
ro v</w>
re ly</w>
pro of</w>
pol yeth
parti es,</w>
part y.</w>
parlia ment.</w>
opini ons</w>
od .</w>
market s,</w>
magnes ium</w>
leg aliz
law y
landscap es</w>
hun dre
fluctu ations</w>
famil y,</w>
e ye</w>
docu ments.</w>
discus sion,</w>
depart ments,</w>
datab ases</w>
car s,</w>
cal end
bro wn</w>
b ad
awar ds</w>
anim ation</w>
Y or
So ftware</w>
S pan
S o</w>
S k
Mo bile</w>
Col onel</w>
Brit ain,</w>
Ban k,</w>
B as
7. 5</w>
3 3
2050 ,</w>
20 30</w>
2. 6</w>
1 :
0,4 3</w>
w inter
ver .</w>
though ts</w>
t- oriented</w>
str ibu
simil arity</w>
session s</w>
scan ning</w>
s low
residen t</w>
petro chemical</w>
person ,</w>
over ,</w>
nutri tional</w>
mun ici
mast ery</w>
inv ite</w>
ini um</w>
in com
homel and</w>
ho tel</w>
gener ations</w>
ga si
fu el,</w>
fed eration</w>
f ing
extre m
execu ted</w>
ele mentary</w>
econom ics</w>
distingu ish</w>
di gi
cere ly</w>
boar ding</w>
ber cul
be t</w>
baye va</w>
air port
Win ter</w>
V as
N ik
Mini str
M or
M .
January- September</w>
J ord
Fed eral</w>
E H
D o
8 1</w>
6 )</w>
1. 1</w>
( 1</w>
" expo-201
" Kazakhstan-20
victim s</w>
vi vi
um il
tri p,</w>
sur pris
sin cerely</w>
seism ic</w>
s tic
road ,</w>
presiden t.</w>
ord a</w>
modi fication</w>
mod er
mo thers</w>
medic ine,</w>
manage ment.</w>
li ber
it y:</w>
importan ce.</w>
gi ving</w>
exerc ise</w>
ex traordinary</w>
dy bek</w>
draw ings</w>
d es,</w>
custom ers</w>
chan ge.</w>
bu t
bek ov,</w>
ba stu
ation s;</w>
at al</w>
as sign
ar g
adv ice</w>
acr yl
Par t
P i
Nod al</w>
Mon it
M ak
Ital y,</w>
Hung ary</w>
H T
Di stribu
Agric ul
A man
7 ."</w>
7 )</w>
2 8.
u e.</w>
tu bercul
sp ending</w>
small er</w>
residu es</w>
recip i
re vi
prof itable</w>
pl ates</w>
permis sible</w>
pavili ons</w>
ov sky</w>
on ite</w>
ne ur
nat ur
manu al</w>
j un
ity )</w>
hol y</w>
hol ds</w>
gu est</w>
gener ation,</w>
fil ms</w>
fer tility</w>
f ell</w>
enz ym
enti ties,</w>
el lip
divi de</w>
diam ond</w>
di aspor
d "</w>
compu ter
competi tions,</w>
cm -1</w>
Thir d</w>
Sci ences</w>
R ed</w>
Mini stry,</w>
Ital y</w>
EX PO</w>
Commit te
12 -
" eternal</w>
vo te</w>
unpreceden ted</w>
ti sm
ti gh
st yle</w>
sig h
serv ing</w>
re training</w>
pan els</w>
men ,</w>
logis tics,</w>
k -
il ,</w>
holid ay,</w>
he at-
f led
explo sive</w>
ex oskelet
evap oration</w>
ession al</w>
e- government</w>
dra in
distric ts,</w>
dis played</w>
dic tion
des er
der .</w>
ch ,</w>
cer ti
c el
build ing,</w>
bu y</w>
br ings</w>
b uc
b esides</w>
automo tive</w>
addres sing</w>
ad ol
Yer lan</w>
Vic tory</w>
Re g
R ights</w>
N ations</w>
Max imum</w>
K ingdom</w>
Isra eli</w>
In de
Cre ation</w>
Col lec
Cl assi
5 ]</w>
4 50</w>
( including</w>
yel low</w>
worksh op
vivi d</w>
us e,</w>
tu be</w>
ti an</w>
temperat ure,</w>
sub ordin
st ores</w>
self- employed</w>
se w
residen ce</w>
reservoir s</w>
re stored</w>
public ations</w>
p p
n ight</w>
modern ization,</w>
l au
interlocu tors</w>
in jection</w>
her o
grate ful</w>
graph ite</w>
gran ul
gener ous</w>
fun ded</w>
fr actions</w>
foc uses</w>
famili es.</w>
f res
ex it</w>
dis mis
cr uc
comb in
bul k</w>
b road</w>
ax ial</w>
ation ."</w>
as se
T ul
Pal ace</w>
K .
Afgh an</w>
25 .</w>
18 ,</w>
( F
" concluded</w>
z e
wash ing</w>
u te</w>
tra de.</w>
there by</w>
t ech
stric tly</w>
poin ts.</w>
per ception</w>
parti al</w>
or al</w>
metropol is</w>
m in</w>
li sted</w>
li ability</w>
in fin
harmon ic</w>
gra di
fr ater
frater nal</w>
eng age</w>
e ties</w>
diplom as</w>
cryst alli
confir mation</w>
config uration</w>
canc er</w>
attach ed</w>
appreci ate</w>
adv ance</w>
Tra ditional</w>
The ater</w>
Stat es.</w>
Proc ed
M echan
Kazakhstan ;</w>
K us
K um
G en
E astern</w>
Cre ating</w>
Balkh ash</w>
Al- Farabi</w>
4. 4</w>
( A
( 5)</w>
ware house</w>
ul t</w>
u es,</w>
tim on
thin king,</w>
suppli ers</w>
succ ess.</w>
stan ds</w>
scientific ,</w>
run ning</w>
ri d</w>
respir atory</w>
res in</w>
quan tum</w>
qu ot
proper ty,</w>
proc ure
ow ner</w>
over view</w>
observ ation</w>
n y</w>
n am</w>
mangan ese</w>
lam ps</w>
ir radiation</w>
intere sts,</w>
ic op
hydro x
hydro electric</w>
furn ac
fled ged</w>
f ast
e- learning</w>
consul ting</w>
concentr ate</w>
con s
chron ous</w>
che aper</w>
beg un
bas es</w>
back ground</w>
b ic
as .</w>
ak ,</w>
a sts</w>
[1 1]</w>
Vari ous</w>
Syst ems</w>
P S</w>
P )</w>
Me tro
Loc al</w>
I li</w>
G ol
Feder ation.</w>
E ffici
Can adi
Anti- Cor
Ad v
200 9,</w>
2 1,</w>
w rest
univers ity,</w>
tr ying</w>
tor s.</w>
tiz ation</w>
t onic</w>
s .
road s.</w>
report s,</w>
repai red</w>
ous ly,</w>
oc r
machin ery</w>
m atic</w>
hous es,</w>
go s</w>
fiel d.</w>
experti se</w>
en tran
employ ment.</w>
dr am
conver ted</w>
consolid ation</w>
collec tor</w>
col labor
clo sure</w>
chec king</w>
bak ytzhan</w>
b is
am az
al- Farabi</w>
al though</w>
_ n
Stu di
STE M</w>
R E
Pre par
M ember</w>
Kar atau</w>
Hun gar
Educ ational</w>
9 6</w>
2 /
" and</w>
visu alization</w>
transpor ting</w>
thermod ynamic</w>
theor ies</w>
tele gram</w>
stri p</w>
stre am</w>
sk ill</w>
re feren
re ar</w>
precip itation</w>
por ters</w>
num erical</w>
liqui ds</w>
lear ning,</w>
land fill
justi fied</w>
it self
great est</w>
e ae
discus sions</w>
diplom a</w>
descri p
d ance</w>
cross- border</w>
compl aints</w>
cataly tic</w>
carbon ate</w>
ba ev,</w>
assess ed</w>
ap s</w>
ak ov</w>
abili ties,</w>
Zhezkaz gan</w>
W ay</w>
W ar,</w>
Universi ade</w>
Re port</w>
Par k</w>
O O
N uclear</w>
M -
3 ]</w>
( E
" N.</w>
whol e,</w>
w an
v ital</w>
v an</w>
us ual</w>
ur t</w>
u ous</w>
turbul ent</w>
subsidiz ing</w>
studen t,</w>
settle ments,</w>
se ed</w>
re ality</w>
plac e
pip e</w>
orph an
oc tane</w>
no tes</w>
minist er.</w>
level s,</w>
lear -
inter vals</w>
instruc tions.</w>
inf ant</w>
importan t,</w>
i o
ge tting</w>
g es,</w>
g ain</w>
form ,</w>
fin es</w>
er )</w>
eng ines</w>
distric ts.</w>
disc lo
direc tors</w>
co st-
cir cul
carri er</w>
cam era</w>
b y
b ound</w>
b an</w>
assum ed</w>
assistan ce,</w>
an ch
al izing</w>
Reduc e</w>
Pop ulation</w>
K H
G r
Common wealth</w>
C EC</w>
As si
9 9</w>
(6 )</w>
( "
vec tors</w>
un it
tr as
tour s</w>
t s)</w>
st ations,</w>
sel l</w>
s om
p ou
oscill ation</w>
num ber
neigh bor
mu d</w>
monit or
mobil ization</w>
ment :</w>
m3 /
m ill</w>
m id
intensi fying</w>
institu tion,</w>
increas ed,</w>
hydro gen
hon ored</w>
gl y
gar bage</w>
full- fledged</w>
ful ,</w>
fo ot
famili es,</w>
exha us
ex posed</w>
es sive</w>
emo tional</w>
dro p</w>
den o
d og
confection ery</w>
compres sed</w>
committe es</w>
commit ted</w>
ce il
c ultural,</w>
are .</w>
ame ,</w>
agend a,</w>
ag ai</w>
a ther
X i</w>
Window s</w>
Syri an</w>
S wis
R ail
Proto col</w>
N. Nazarbayev</w>
M W
Lab or
L ar
Interne t,</w>
G umil
Fo od</w>
Col le
Cl oud</w>
C ultural</w>
Almat y:</w>
Afghani stan,</w>
AD S-
A verage</w>
20 25</w>
19 4
( 15
"N rla</w>
www .
world- class</w>
v al,</w>
uni ting</w>
teach er's</w>
st ar</w>
sk y,</w>
ric es</w>
renew al</w>
rec t
re forming</w>
question n
produc t,</w>
particip ants,</w>
pair s</w>
p al</w>
ol ep
long itu
lifest yle</w>
li th
l in</w>
ke y
investig ate</w>
ing ual</w>
harmon y.</w>
g ym
for war
fe asi
f -
extrac urricular</w>
expect ancy</w>
diff ers</w>
diag rams</w>
cul tures</w>
compar able</w>
communic ate</w>
ce "</w>
cataly sts</w>
bure au</w>
b .
S ig
Represent ative</w>
Nether lands</w>
Malay sian</w>
MEN T</w>
M ur
M ach
L in
K A
Integr ation</w>
D ut
D B
Consi dering</w>
CO 2</w>
B ish
An y</w>
0,5 6</w>
, 000</w>
( or</w>
( i
" in</w>
z i
volt aic</w>
villag ers</w>
ver te
str ai
sphe res,</w>
slop e</w>
shar a</w>
re fr
purpos e,</w>
produc tiv
produc ers.</w>
pr int</w>
po tassium</w>
par ks</w>
morph ological</w>
load ed</w>
k ers</w>
in comes</w>
histor y.</w>
histor ic</w>
hel icop
gradu ated</w>
g g
frac tal</w>
f are</w>
expendit ures</w>
ex tr
em atic</w>
dri ed</w>
den se</w>
comp act</w>
be gan
assistan ce.</w>
as set</w>
as s,</w>
ar range
Z hoshy
Serv er</w>
Monit oring</w>
Kostan ay,</w>
JS C.</w>
Fe atures</w>
Assess ment</w>
Ak im</w>
201 9.</w>
200 7</w>
z ha
v ast</w>
un even</w>
um inium</w>
tor .</w>
t ree</w>
st oc
ri business</w>
re clam
proper ties,</w>
pres s.</w>
practic ally</w>
patrio tism
p s.</w>
open ness</w>
metal lic</w>
membran es</w>
mechan ism
li que
introduc ed,</w>
i ting</w>
grow ing.</w>
fle et</w>
ex act</w>
electron ics</w>
earth qu
detec t</w>
desi red</w>
d a
custom er</w>
cryst als</w>
cryst al
cor n</w>
conflic ts</w>
char ged</w>
budge ts</w>
bar rel
b b
asyn chronous</w>
aris es</w>
al ist</w>
accep table</w>
ac tions,</w>
a a.</w>
Sen ate,</w>
O P
L ED</w>
Indi an</w>
I )</w>
Anal yz
9 00
1. 9</w>
1 15</w>
un ity.</w>
tis su
tic e,</w>
tec tonic</w>
tas k,</w>
state 's</w>
so ftw
sl ags</w>
res on
rad ically</w>
prof ess
pro ves</w>
polyeth ylene</w>
poly imide</w>
olep tic</w>
nar row</w>
modern izing</w>
medi ation</w>
mar at</w>
m y
knowled ge.</w>
kazakhst an
journ alists</w>
institu tion.</w>
in efficient</w>
i ological</w>
har m</w>
equ ation,</w>
ent ro
en ov</w>
emis sion</w>
diam on
de ath</w>
cru de</w>
council .</w>
ca using</w>
bl ade</w>
aspec t</w>
arith metic</w>
analog ues</w>
ammon ium</w>
akto be</w>
ag ue</w>
abo ve-
ab sor
N ext</w>
N ever
METHO D
Kazakh- Chinese</w>
IN ING</w>
D at
D M</w>
30 .
ұ rly</w>
v ap
universi ties.</w>
under stood</w>
top ic
th s</w>
t le
supervis ory</w>
sh ym
sen ator</w>
re f
propor tional</w>
progres sive</w>
process or</w>
ozo ic</w>
organization 's</w>
nur lan</w>
model .</w>
integr ation,</w>
innov ation,</w>
inde x
hol es</w>
high ligh
g ali
fed eral</w>
factor s,</w>
er ;</w>
ele ments,</w>
dra f
disabili ties,</w>
defic it</w>
dar k</w>
composi tion,</w>
beto v</w>
at tem
adop ted,</w>
ad mission</w>
ad ding</w>
accred itation</w>
ab le.</w>
WT O
Ur al
Swis s</w>
Span ish</w>
Serv ic
N o</w>
N A</w>
L E</w>
J u
Idris sov</w>
C ri
Abdr akhman
A gro
9 1</w>
7 th</w>
2 7.
2 4.
2 3,</w>
μ m</w>
wh om</w>
uni qu
tur k
so -
she ep</w>
reac tors</w>
profession s</w>
potat oes</w>
po ol</w>
plan ned.</w>
partner s.</w>
partner s,</w>
mar ked</w>
m l
liter ary</w>
jo y</w>
invent ory</w>
intensi fication</w>
ing -
in o</w>
holid ay.</w>
he v,</w>
guid ance</w>
go v
familiar ization</w>
expe dition</w>
evol ution</w>
ent s.</w>
educ ate</w>
e y</w>
e ase</w>
dre am</w>
disp utes</w>
diseas es,</w>
deriv atives</w>
d ing,</w>
corrup tion.</w>
co st
ci ties.</w>
cham bers</w>
ce -
ca th
c is</w>
c al</w>
bron ze</w>
bre ath
au .</w>
ati ve.</w>
ar m</w>
a head</w>
S af
S P
Regi on</w>
Pu tin</w>
O ri
Never theless,</w>
Mam in</w>
H 2
Dut ch</w>
C am
Astan a-
2. 1</w>
0,4 5</w>
work s.</w>
ver sions</w>
ver s,</w>
vehic les,</w>
thres hold</w>
t es,</w>
stor ing</w>
semin ar,</w>
rus sian</w>
road .</w>
protocol s</w>
pro xim
parame ters,</w>
move ments</w>
mo ves</w>
micro cred
l akes</w>
k o,</w>
k ing.</w>
k W</w>
ici an</w>
histor i
foun ded</w>
fo ot</w>
employ er</w>
electro de</w>
consum p
confir m</w>
commission ed,</w>
cap sul
bl ades</w>
awaren ess</w>
awar ding</w>
aw are</w>
authori ties.</w>
ast ro
analys es</w>
a de,</w>
[ 13]</w>
Yessi mov.</w>
Y ear</w>
Taldyk organ</w>
Lat vi
K or
K ab
H z</w>
F il
ED U
Con crete</w>
Canadi an</w>
Canad a,</w>
An aly
A v
2020 ,"</w>
19 ,</w>
z he
whe re
venti lation</w>
v ali
us o
up .</w>
un its.</w>
techniqu es</w>
t s"</w>
swit ching</w>
suffici ently</w>
st ay</w>
st ages.</w>
rot ating</w>
res er
r on</w>
quanti ties</w>
pyr am
purpos es.</w>
produc er</w>
path s</w>
olog y.</w>
muse ums</w>
mo tor
manifest ation</w>
lin e.</w>
langu ages,</w>
k m
k .
im mun
h ow
gu ar
educ ated</w>
drain age</w>
detail s</w>
dep ic
cryp tographic</w>
cri tic
con cre
communi ties</w>
citiz ens
Y oun
Th roug
Struc ture</w>
S outh
Per s
N -
L E
Increas ing</w>
Environ ment</w>
Enterpris e</w>
Con sum
B ei
4 6
24 ,</w>
200 6</w>
2 40</w>
- oriented</w>
( 12
" Employment</w>
veter ans,</w>
tom e
tg age</w>
tel econ
startu p</w>
st or</w>
rul es,</w>
rul e,</w>
re placing</w>
re fer
rati fied</w>
purpo se
preci ous</w>
pow er,</w>
poison ous</w>
parti es.</w>
paraff in</w>
p ed
order .</w>
mo re
industri al-
inci dence</w>
hundre ds</w>
gra vity</w>
gl uc
for get</w>
exhi bits</w>
ex ic
ensem ble</w>
emp ty</w>
dist urb
corrup tion,</w>
conferen ces</w>
competi tions.</w>
char ges</w>
car bi
bas e,</w>
bak ery</w>
az h
ath l
ari es,</w>
annu ally.</w>
aliz ation.</w>
ak ol</w>
ac y.</w>
ac tion.</w>
Sultan ov</w>
Stand ard</w>
Serbi a</w>
S hi
Pri ze</w>
Per manent</w>
Part ner
P C</w>
N AS
L iter
Gre ek</w>
Elec tro
D r.</w>
B A
Agric ultural</w>
3. 2</w>
( 14
z en</w>
v ar
uni fication</w>
uc li
so- called</w>
ship s.</w>
s h</w>
s anc
publ ish
po v</w>
pack aging</w>
op tic</w>
num erous</w>
meto v,</w>
ment ."</w>
mechan ics</w>
mathematic s,</w>
map ping</w>
li ved</w>
incl ined</w>
ili an</w>
ici ans</w>
h ub
gran ules</w>
ga p</w>
fri ends</w>
flor a</w>
ess ential</w>
en larg
deli ver
contr ary,</w>
continu ously</w>
compatrio ts</w>
c y,</w>
c lock</w>
biom ass</w>
ban ks,</w>
b a</w>
autom ate</w>
asympto tic</w>
ap point</w>
ame l</w>
al a</w>
accoun t.</w>
a e</w>
a ."</w>
V o
V alu
TRA INING</w>
Sol ar</w>
O ut
Num ber</w>
L og
K -
IN FORMA
EDU CA
Com pan
Canad a</w>
Buil ding</w>
B ure
An dre
A T</w>
2 9.
ynam ics</w>
w ash</w>
ver tic
upo v</w>
up dat
u k</w>
tiv es,</w>
th or
sur roun
sup plementing</w>
spectro scopy</w>
review ed</w>
re member</w>
pric es.</w>
pric es,</w>
pedagog y</w>
para dig
ome ter</w>
ne ar
ment s;</w>
m .
longitu dinal</w>
l er</w>
jun c
invest ments.</w>
inter nation
inclu de:</w>
har vest
forec asts</w>
fill ers</w>
euro pe
emerg ing</w>
dis covery</w>
di ed</w>
del ay</w>
coinci de</w>
assi st</w>
ar t.</w>
ance stors</w>
administr ation.</w>
adjust ment</w>
U p
Sim ulation</w>
Langu age</w>
Kyzylord a,</w>
F e</w>
Brit ain</w>
Bel gi
B .
9 4</w>
4 4
3. 3</w>
16 ,</w>
0 5
wit ness
we al
utili ties</w>
sun flower</w>
subordin ate</w>
st ones</w>
speak s</w>
sovereign ty</w>
sor ting</w>
semiconduc tor</w>
se wage</w>
s low</w>
rol ling</w>
residen ts.</w>
repair s</w>
prin ted</w>
pre gn
photo voltaic</w>
oxidiz ed</w>
oph il
n ine</w>
morph ology</w>
literat ure,</w>
lin king</w>
inst alle
in es.</w>
given .</w>
gener ating</w>
g ate
fu els</w>
foun der</w>
exper ts.</w>
er nal</w>
differenti ated</w>
di stor
den cy</w>
degrad ation</w>
cul tivation</w>
clo thing</w>
chang es.</w>
ch ick
ceremon y,</w>
cere als</w>
behavi or</w>
a it
V al
T am
T V</w>
Sy r</w>
Religi ous</w>
R S
Projec t</w>
Oper a</w>
O -
North ern</w>
L and</w>
Fig .</w>
Con tent</w>
Classi fication</w>
At a</w>
Af fordable</w>
2. 8</w>
10 5</w>
" F
w ants</w>
us e.</w>
tubercul osis</w>
tu res,</w>
tradition ally</w>
tr uc
ten ant</w>
te sts,</w>
reclam ation</w>
ophys ical</w>
munici pal</w>
month .</w>
memor ial</w>
man ner</w>
liqui d
k g/
it or
isl and</w>
irradi ated</w>
in zhi
in organic</w>
hel ped</w>
hazar d</w>
gu ide</w>
ga z</w>
feasi bility</w>
contradic tions</w>
co de,</w>
clo sing</w>
ch it
candi dat
calend ar</w>
ber t</w>
be y
batter y</w>
ban ds</w>
b ac
aren a</w>
an timon
ag an</w>
ad verse</w>
Th ail
Tem per
S pain
Russi an,</w>
R u
Pol y
Pe tro
P y
Fu ture</w>
Found ation</w>
Ear th
E ston
3. 6</w>
3. 1</w>
0,5 7</w>
women .</w>
vi br
utili zation</w>
under gone</w>
ult an</w>
tre at</w>
tion s;</w>
th en,</w>
t ables,</w>
stres ses</w>
seg ment</w>
schem es</w>
satis fy</w>
sat uration</w>
s cr
rest aur
projec ted</w>
pres ti
pres cri
posi tion,</w>
pol lin
pic ture</w>
phy to
monit ored</w>
mod ulation</w>
met abol
lifest y
ir re
interrup ted</w>
inter act</w>
instruc tion</w>
indicat or
ide ,</w>
highligh ted</w>
hesi on</w>
health .</w>
guid el
g els</w>
frag ments</w>
exce eding</w>
exc it
eth an
dis solved</w>
di ode</w>
committe e.</w>
chec ks</w>
ch in
cade ts</w>
bu tton</w>
bil l,</w>
attach es</w>
as p
as cular</w>
an t,</w>
amb ig
a ev.</w>
U l
T ashk
Statis tics</w>
Reg ulation</w>
OLOG Y</w>
O mar
N i
Meas ures</w>
K air
G am
D ay,</w>
Com m
Com b
C R
Akto be
ADS- B</w>
30 .</w>
0, 60</w>
0 )</w>
( K
" E
" A
" :</w>
weap ons.</w>
w on
vis a-
vari eties</w>
un anim
ul tras
t /
sugg es
succ ess,</w>
st ations.</w>
sig nat
settle ments.</w>
scholar ship</w>
ro d</w>
prosper ous</w>
p assi
oxidiz ing</w>
ou s,</w>
oper ations,</w>
olog ist</w>
nit rate</w>
map .</w>
let 's</w>
k ok
ju ice</w>
is hev</w>
hor se</w>
h y</w>
gri ds</w>
g ab
future ,"</w>
ful .</w>
fore ig
flour ,</w>
fi ber
explan atory</w>
expl or
enh ance</w>
emul sion</w>
e asi
dat as
crystal line</w>
co tt
bir ds</w>
be st
be l</w>
ator s.</w>
ar ous
and "</w>
an "</w>
ag ul
Wh ile</w>
Vir tual</w>
Ve ter
Sp ain</w>
Serv ices</w>
Sci ence,</w>
Op en</w>
O H</w>
9 9.
2 8,</w>
0,5 4</w>
---------------- ----------------
yr zhan</w>
y ar</w>
wel coming</w>
terror ism.</w>
stead y</w>
sin uso
sav ed</w>
s si
ris ing</w>
regul ates</w>
re al-
purpos es,</w>
post- Soviet</w>
per spec
pal ace</w>
out going</w>
oursel ves</w>
or bit</w>
on y
od es</w>
o sh
nit ure</w>
ne e
micro district</w>
me at,</w>
man ,</w>
mag ambeto
m ad
le aving</w>
l es.</w>
inter connected</w>
industri alization,</w>
hi dden</w>
govern ing</w>
fed er
f od
europe an</w>
ed )</w>
doc toral</w>
conve y
communic ations,</w>
centr e</w>
cav ity</w>
bro ther
atten d</w>
ar ose</w>
alter n
al .,</w>
U PU</w>
Strate gic</w>
Sec tion</w>
S m
S erik</w>
Pro ble
Pr ac
Kazakh- Russian</w>
Chemi stry</w>
CO MP
Bei j
A mendments</w>
A N</w>
9 5%</w>
3. 7</w>
17 ,</w>
whe el</w>
un ites</w>
transport ation,</w>
trans mitting</w>
tra -
ter rain</w>
strai ght</w>
state ments</w>
state ment.</w>
stabil ize</w>
st ak
shym k
scat tering</w>
s es.</w>
robo ts</w>
ro ots</w>
regi str
re cord
que ue</w>
process es.</w>
prerequis ites</w>
p ig
os mo
mat rices</w>
maintain ed</w>
lat ter</w>
ing ly</w>
incl ination</w>
in- depth</w>
in habit
han ds</w>
gyp sum</w>
gir ls</w>
g- global</w>
formul ated</w>
enlarg ed</w>
detec ting</w>
destro yed</w>
con vec
con str
col li
circu its</w>
ci vic</w>
champi on</w>
au gh
ate -
ar ms</w>
an ov.</w>
amin o</w>
air ,</w>
age ;</w>
adap tive</w>
ab ek
a way</w>
Yessi mov</w>
Yes il</w>
Un der
T P</w>
S E
Res i
R ES
Mukha medi
Intel lig
H aving</w>
Fun d,</w>
Fin land</w>
Em ir
Ci tiz
C D</w>
Ber dybek</w>
A ,</w>
8 )</w>
7 5%</w>
5 6
13 ,</w>
0,6 5</w>
0 2</w>
zhan ov.</w>
y s,</w>
y our
wee k,</w>
wan ted</w>
w e,</w>
ur ani
transl ated</w>
therap eu
tast e</w>
tas k
tac tical</w>
t ,"</w>
sus pen
stre am
stabil iz
stabil ity.</w>
sor ti
slop es</w>
simpli fying</w>
silic ate</w>
show ing</w>
shop ping</w>
shoo ting</w>
rec ep
pum ps</w>
pro ven</w>
play ing</w>
piec e</w>
particip ates</w>
out comes</w>
og raph</w>
network s.</w>
ment s:</w>
ment als</w>
ment ,"</w>
lique fied</w>
l en
k ur
inten se</w>
in hi
i ous</w>
g au
fur niture</w>
flo ating</w>
fe e</w>
f .</w>
exten sion</w>
clim ate,</w>
ce l</w>
cam p</w>
believ es</w>
be ar
bal let</w>
b ay
ar gu
announ c
amen d</w>
ambul ance</w>
a sian</w>
a qu
_l_ k</w>
V II</w>
Requi re
O S</w>
Meas urement</w>
L I
Entrepreneur ship</w>
Develop ment.</w>
Colle ge</w>
Al though</w>
A h
3. 4</w>
3, 000</w>
2 30</w>
1 ;</w>
(7 )</w>
" a</w>
you ,</w>
y og
w ishing</w>
under way.</w>
u .</w>
transform er</w>
struc tur
speak ers</w>
soil ,</w>
requ est
radio active</w>
prior i
per mission</w>
op hy
man kind</w>
libr aries</w>
leg ality</w>
know n,</w>
in ner</w>
hous es.</w>
high- precision</w>
hear ing</w>
frame work,</w>
et te</w>
dis plays</w>
determin ed,</w>
de -
cri me,</w>
cre ativ
compati bility</w>
commerci alization</w>
b ig
b al</w>
an k
all ing</w>
al uminium</w>
ag adi
activ ated</w>
accur ately</w>
ab ayev</w>
[ 6
Throug h</w>
Temper ature</w>
Tem ir
P ur
D ra
Constitu tional</w>
3. 8</w>
2 80</w>
2 2,</w>
( e.
( 17
zh ar</w>
y ),</w>
v able</w>
tenge ).</w>
sus pension</w>
surg ery</w>
sulph ur</w>
star t-
sk i</w>
simpl icity</w>
sh el
sens ing</w>
semin ar
re presenting</w>
proceed ings</w>
preven ts</w>
perform ances</w>
orchestr a</w>
objec t-oriented</w>
now ad
norm ative</w>
nomin ated</w>
no gor
molec ule</w>
min ent</w>
kine tics</w>
k ol
inclu sive</w>
ide al</w>
hev ich</w>
frequ encies</w>
equ ation:</w>
direc tions.</w>
deri ved</w>
defini tions</w>
countr y"</w>
communic ative</w>
co sts,</w>
clari fy</w>
che ese</w>
chair men</w>
bor ne</w>
benz ene</w>
an o
acu te</w>
above- mentioned</w>
Youn g</w>
Switzer land</w>
Stat es,</w>
Sol ution</w>
Serbi an</w>
SME s</w>
S ever
R -
Par ame
D mit
Con sci
As set</w>
5 5
2 20</w>
-2020 .</w>
( a</w>
( V
" Nursultan</w>
ye v
war ,</w>
visa- free</w>
tr ace</w>
tor ate</w>
tax pay
soci al,</w>
se t
satis fied</w>
s le
ro tor</w>
pai red</w>
ou ght</w>
om orph
no zz
mon opoli
me ga
maslikh at</w>
lin ess</w>
l ens</w>
jur y</w>
issu ance</w>
ir ical</w>
initi atives.</w>
form at.</w>
fal se</w>
f at
exten d</w>
experi ences</w>
exam ines</w>
enti ties.</w>
contrac ting</w>
construc ted</w>
congratul ations</w>
communic ation,</w>
capit al
as hi
are d,</w>
al p
ad o
[14 ]</w>
Vietnam ese</w>
Viet nam</w>
T ime</w>
S oil</w>
R is
Pol i
Me dia</w>
K an
Em erg
E E
C y
C E
A ir
6 0-
2017-201 8.</w>
0,4 1</w>
" Capit
worksh ops</w>
with .</w>
ve t
vari ation</w>
us ole
u tility</w>
twent y-
senten ces</w>
sec tion,</w>
scre ening</w>
s /
replen ished</w>
re ti
re agents</w>
pri de</w>
pre mis
nutri ent</w>
nerv ous</w>
mod ro
mat ch</w>
mast er's</w>
lea ves</w>
k ar</w>
k a
it -
interpre tation</w>
inter religious</w>
infec tious</w>
i sts</w>
horiz on</w>
gra vit
gasi fication</w>
fod der</w>
flo od</w>
ez ing</w>
exam ple
ero sion</w>
epidem iological</w>
ent ation</w>
enc es.</w>
do or</w>
copolym er</w>
conscious ness
compon ents,</w>
cho se</w>
chang ed.</w>
ch ap
br ig
boar d,</w>
az a
at om</w>
appro ved,</w>
ani a,</w>
al ed</w>
ag ree</w>
acc ess
T ri
T B
Satpa eva</w>
S he
S ak
Otan "</w>
Mod eling</w>
Ministr ies</w>
M ad
KA Z
Distribu tion</w>
Dec ree</w>
D arya</w>
Coun tr
Con tin
Cauc hy</w>
2012 -201
10 6</w>
0,6 6</w>
0,5 8</w>
( with</w>
( L
" is</w>
" Information</w>
tri ps</w>
tici z
therapeu tic</w>
ther .</w>
ten dency</w>
teach ers.</w>
t ability</w>
swit ched</w>
step pe
shap ed</w>
rec ru
pu ts</w>
priz es</w>
pover ty</w>
plic it</w>
ph er
per mit
op ho
observ ations</w>
nuc lear-
nowad ays</w>
neutr ons</w>
n ess.</w>
mol /
memor able</w>
mat ernal</w>
ma d</w>
m erg
larg er</w>
landscap ing</w>
j i
it ability</w>
is s
integr ation.</w>
in complete</w>
holid ays</w>
hibi tion</w>
h em
great ly</w>
gradi ent</w>
forec ast
extrem ely</w>
exha ust</w>
ex position</w>
ex cur
evap or
ev ening</w>
entran ce</w>
empha size</w>
dis advantage</w>
dialog ue,</w>
de pres
conver t</w>
clust ering</w>
chron ic</w>
ch ains</w>
certain ly</w>
capac ity,</w>
b urg
amen ded</w>
agglom eration</w>
adi um</w>
addres ses</w>
a ),</w>
Turke y.</w>
Techn ological</w>
Singapore ,</w>
S yn
R G
Par is</w>
O ver
O N
Nether land
Kaz N
D ay.</w>
Azerbaij ani</w>
Anti-Cor ruption</w>
Acc ess</w>
A S</w>
8. 5</w>
5, 000</w>
12 %</w>
0,6 7</w>
( 13
yl ,</w>
y o
wel come</w>
wat er.</w>
un like</w>
tradition s,</w>
to wn</w>
team ,</w>
tain s</w>
t um
t ap
surve ill
sc o</w>
r hen
promo tes</w>
plan et</w>
ou gh
orig in
organiz er</w>
op e
og or
og enic</w>
obtain ed,</w>
n av
method s.</w>
legaliz ed.</w>
leg ally</w>
gui ded</w>
gluc ose</w>
gener ate</w>
g ar</w>
form .</w>
fi re
fi ers</w>
famili ar</w>
fac e
ex emp
en tive</w>
en ess</w>
employe es,</w>
employ s</w>
diffic ult
cl ou
br igh
boar d.</w>
assi mil
apart ments.</w>
an a</w>
agree ments.</w>
ag ash</w>
W omen
T UR
Pro per
O pening</w>
M arch
K am
Gumil ev</w>
F ran
Consci ous
5. 2</w>
2 ]</w>
0,4 4</w>
- to-
z hy
way s,</w>
volunte ers</w>
vo ter</w>
vess els</w>
un authorized</w>
tys h</w>
tri ed</w>
tourna ment</w>
sym metric</w>
sy bekov</w>
subsi stence</w>
standar diz
st ages:</w>
sew er
sa us
ra d</w>
profession alism</w>
predic tion</w>
parti te</w>
no is
n ations</w>
monopol ies</w>
monit ors</w>
minut es.</w>
initi ative,</w>
il d</w>
g y
g lu
frac tional</w>
fiel ds,</w>
extrac t</w>
eae u</w>
do se</w>
dimen sion</w>
demon stration</w>
de ath
d p</w>
crystalli zation</w>
cri pt</w>
controll ers</w>
consum ed</w>
consci ous</w>
confir ming</w>
compu ter,</w>
comp ound</w>
ch a
bastu z</w>
ba ev
b lan
b ited</w>
arrange ment</w>
an t.</w>
ac ted</w>
ac idity</w>
[ 15]</w>
Zhoshy bayev</w>
W ar.</w>
US A</w>
Sum ming</w>
Sec ret
Republic .</w>
Proced ure</w>
No t</w>
Ma ple</w>
L and
Kaz k
K on
Identi fication</w>
Gol den</w>
Elec tric</w>
Commun ication</w>
0,6 2</w>
- in-
un interrupted</w>
ul a</w>
three- shift</w>
theor y,</w>
tenge ),</w>
tech no
structu res.</w>
sol ves</w>
sector s.</w>
recycl ing</w>
purch as
publ ishing</w>
pu s</w>
produc ers,</w>
proced ures,</w>
pro minent</w>
prehen sive</w>
plan ning,</w>
pal e
pa stu
ol der</w>
off enses</w>
me k
m ur
lau re
labor ,</w>
l t
k al
injur ies</w>
inc entive</w>
hold ings</w>
gran ted</w>
fres h</w>
fil tering</w>
f em
explo sion</w>
exercis es,</w>
employe es.</w>
dis tinc
dec ade</w>
consolid ate</w>
conclu ding</w>
comple ting</w>
comb ines</w>
c us
bro w
bel ar
b yp
b read
ar ts</w>
al titude</w>
V er
Te ach
Sar inzhi
S mar
S em
Qu anti
Pol and,</w>
Pe ace</w>
Ol ymp
N PP</w>
N I
Mongoli a,</w>
Khan ate</w>
Georgi a,</w>
Europe -
Ener g
B au
( b)</w>
( 19
" Astana</w>
wast e,</w>
vit amin</w>
vide o
valu es.</w>
under going</w>
trans mit
tic ity</w>
tenge ;</w>
targe ts</w>
stud y.</w>
search ing</w>
revis ed</w>
research .</w>
poli tics</w>
peculi arity</w>
peac e.</w>
part s,</w>
ont ological</w>
on ucli
ol s</w>
oil seeds</w>
net work.</w>
n as
mo ments</w>
metal s,</w>
memorand um,</w>
mag az
mach ine
lo gy</w>
lec ture
le y</w>
knowled ge
k um
isol ation</w>
inter net</w>
institu tes</w>
indicat or,</w>
im pulse</w>
ill ed</w>
ill ary</w>
gif ts</w>
ful fil
fre ely</w>
flow ers</w>
explain ing</w>
euro pe</w>
etc .,</w>
et s,</w>
er lan</w>
er ization</w>
compe te</w>
chall en
car ro
b inding</w>
authentic ation</w>
[ 1</w>
Y S
TION S</w>
T -
Stu dent</w>
Organ ization,</w>
Nik ol
M ining</w>
L u
Kaz UPU</w>
Intel lectual</w>
Innov ation</w>
GA Z</w>
Eura sia</w>
English .</w>
Compar ison</w>
Com prehensive</w>
C op
Al tyn
Ak mol
A it
2050 .</w>
2 ;</w>
19 0</w>
0,5 9</w>
0 C</w>
" best</w>
" B.</w>
zhol ,"</w>
yi el
vol ution</w>
unanim ously</w>
u es.</w>
type ,</w>
ten ing</w>
te or
tax ation</w>
sw im
sli ding</w>
sin c
sinc ere</w>
shar ing</w>
sal aries</w>
s cul
righ ts.</w>
ri f
r ace</w>
precip it
popular ize</w>
platform ,</w>
parti ally</w>
p tions</w>
p -
organ s</w>
opportuni ties.</w>
min or</w>
less on,</w>
land fill</w>
kin ematic</w>
integr ate</w>
industrial- innovative</w>
in ping</w>
in duc
i den
house .</w>
gravit ational</w>
g s,</w>
func tion,</w>
frequ ent</w>
fac es</w>
er y,</w>
dri vers</w>
dre am
dis aster</w>
consider ation.</w>
char ging</w>
centur ies</w>
cardi ac</w>
bl y.</w>
We b
V ie
Uzbek istan.</w>
Ukra ine.</w>
Slo v
Secon dly,</w>
Require ments</w>
Presiden tial</w>
Prac tical</w>
P I</w>
Mo ther
L im
G -
Experi mental</w>
Comple x</w>
Ar c
2 2
10 4</w>
00 1</w>
0,7 1</w>
-3 ]</w>
" National</w>
well-be ing.</w>
w ishes</w>
ur zhan</w>
ur ge</w>
u -
tur n
tu alization</w>
trop ic</w>
treat ment,</w>
tre ating</w>
ten tion</w>
ten ess</w>
sugge sted</w>
sk o
sion :</w>
sedi mentary</w>
sec ure</w>
scul p
room ,</w>
resol ved.</w>
res :</w>
rel ax
rect angular</w>
re pu
rang es</w>
radi onucli
quasi- public</w>
proper ly</w>
pol e</w>
passi ve</w>
par abolic</w>
opol y</w>
ologi sts,</w>
mun ai
mol yb
minim al</w>
maxim ize</w>
massi f</w>
licens ing</w>
launch ed,</w>
la b</w>
ju dge</w>
je wel
is :</w>
inc enti
impro ved.</w>
high ,</w>
h an</w>
for ums</w>
explan ation</w>
eth yl</w>
esc ence</w>
encour age</w>
en em
disper sed</w>
dis cre
di verse</w>
cylin der</w>
broad band</w>
bo zum
au g
approxim ation</w>
aer obic</w>
ace ous</w>
ac commod
Wor king</w>
W /
U K</w>
Th ree</w>
TE CH
O ther</w>
O pen
N on-
J e
Ir tysh</w>
In dependent</w>
H o
For mation</w>
Effec t</w>
Descri ption</w>
Bure au</w>
Bi o
Bau yrzhan</w>
Ac ti
7 50</w>
2010 -201
201 9
1 200</w>
1 ),</w>
0, 70</w>
(9 )</w>
"n ұrly</w>
" For</w>
w ro
volu metric</w>
um s,</w>
tex tile</w>
summar ize</w>
summ ary</w>
subjec t,</w>
st ation.</w>
sho es</w>
room s,</w>
prosecu tor</w>
predic ting</w>
pe di
om atic</w>
oil -
obstac le</w>
objec t,</w>
nit ric</w>
multi functional</w>
molyb den
mes h</w>
m am
m -
lic ense</w>
kul ov</w>
importan tly,</w>
high- frequency</w>
happ iness</w>
gas -
funda mentally</w>
func tions,</w>
f ai
exc essive</w>
en able</w>
el as
dom ain</w>
distribu te</w>
disast ers</w>
di al
des c
dam ping</w>
contribu ting</w>
contr ast</w>
continu e.</w>
combus tible</w>
breath ing</w>
bio chemical</w>
automo bile</w>
ator .</w>
associ ations.</w>
assemb ly,</w>
Theore tical</w>
S cho
Ri ver,</w>
R ules</w>
P an
O x
O H
Mil itary</w>
Manag ing</w>
M exic
Labor atory</w>
Kaz av
K ing</w>
Increas ed</w>
Fam ily</w>
Effec tive</w>
Earth 's</w>
Ear li
Con duc
Commun ic
Collec tive</w>
CO N
C os
Ab dul
5 7
3 20</w>
1 ).</w>
( 18
( 16
"B est</w>
yt tri
work er</w>
val idity</w>
ul l</w>
twent y</w>
trac tion</w>
trac t</w>
territor y,</w>
ten na</w>
tan ks</w>
su n</w>
ste els</w>
st ops</w>
st am
sou theast</w>
skill s.</w>
sh adow</w>
sequ ential</w>
sanc tions</w>
san atorium</w>
ro ws</w>
ri dge</w>
respon d</w>
reduc ed,</w>
rec ently,</w>
read y-
re presents</w>
r y,</w>
puri fied</w>
proper ty.</w>
over coming</w>
ov 's</w>
oun ded</w>
modern ized</w>
mean ing
mar ch</w>
le gi
lay er,</w>
junc tion</w>
journ ali
inter vention</w>
initi atives,</w>
indic ation</w>
il bek</w>
hydro ph
hotel s</w>
he igh
ge odynamic</w>
g at</w>
fol d</w>
extrac ted</w>
expl ore</w>
experi ment,</w>
establish es</w>
easi er</w>
don 't</w>
do ors</w>
diversi fy</w>
develop ing.</w>
def en
dec ember</w>
co sts.</w>
b ag
ation al,</w>
aren a.</w>
ambassad ors</w>
algebr a</w>
ak mola</w>
air e</w>
absorb ed</w>
] ;</w>
W ash
Sever al</w>
S pec
P ,</w>
J ak
Gre ec
G l
Curren t</w>
Com man
C u</w>
B R
Ar du
Ar chit
Algorith m</w>
Ak tau</w>
Abis hevich</w>
200 4</w>
z ,</w>
ware houses</w>
vill age,</w>
tel l</w>
sul fate</w>
start- up</w>
solv ent</w>
ser vers</w>
sector s,</w>
se ptember</w>
ro und
residen ts,</w>
ran k</w>
post al</w>
pos es</w>
po or
pen al
pain t</w>
p avlod
oun t</w>
organ oleptic</w>
n igmatul
model s,</w>
ma usole
lin ing</w>
l doz
l ar</w>
inv esting</w>
inter departmental</w>
initi ally</w>
in ver
in cub
iden tical</w>
hor ses</w>
her oes</w>
green "</w>
govern ance</w>
for ces.</w>
finan ci
fil ters</w>
ffair s.</w>
farm ing</w>
eri als</w>
engine ers</w>
electroly te</w>
def end
correspon dence</w>
contin ent</w>
con sorti
circum stances</w>
cat al
car box
capac ities</w>
benef its,</w>
ash ,</w>
ap un
analyz es</w>
alli ance</w>
ak han
adequ ate</w>
aband on
Typ es</w>
Se ptem
Scienti sts</w>
Sam ruk-kazyna</w>
Saf ety</w>
S qu
S chem
Prepar ation</w>
Peters burg</w>
P aci
O sp
Mo ham
Method ology</w>
M ir
Lar ge</w>
Kyrgyz stan.</w>
K ash
J un
I -
High er</w>
Hi stor
Def ense,</w>
CI S,</w>
Arab ia</w>
5. 3</w>
4. 3</w>
0 3</w>
( t
( c
"Expo-201 7"</w>
" D
" A.</w>
zhan ova</w>
x i</w>
vali d</w>
ur ance</w>
universi ade</w>
univers ity.</w>
tu b
tri partite</w>
t es.</w>
synchron ization</w>
surroun ding</w>
su s</w>
star ts</w>
st ret
st abl
speak er,</w>
separ ated</w>
semi- finished</w>
responsibil ity.</w>
respon dents</w>
repe ti
rein forcement</w>
prote ins</w>
pri or</w>
pr ag
pollin ation</w>
pol ar</w>
poin t,</w>
per fec
partic le</w>
no vel
ni k
neighb our
necess ity</w>
military- industrial</w>
men .</w>
mar ine</w>
m/ s</w>
m ell
lubric ants</w>
k um</w>
it em</w>
ill s</w>
ide ological</w>
gr and</w>
g in
form at,</w>
for ce.</w>
fa ther</w>
extremis m,</w>
ex ac
enk o.</w>
e ast
dis solution</w>
differenti ation</w>
cour t,</w>
charac ters</w>
build ers</w>
bri ef</w>
bol ic</w>
bey ond</w>
benef its.</w>
begin .</w>
batter ies</w>
b inary</w>
an ov,</w>
am orph
Zhamb yl,</w>
S ta
S Y
Pr im
N E
Ly apun
Kazakhstan -
Kazakh- Turkish</w>
I stan
Egyp tian</w>
D C</w>
Conscious ness
Belar us.</w>
B -
Akh metov.</w>
5 9
10 th</w>
0,6 1</w>
(8 )</w>
zon es,</w>
yester day</w>
ye va</w>
y on
we t</w>
ve )</w>
u si
ture ;</w>
tre ati
train e
through put</w>
te st,</w>
te eth</w>
t ."</w>
stres s
stan ce,</w>
spon sor
specific ity</w>
song s</w>
sh are
selec tive</w>
sci ences,</w>
sch e
responsibil ity,</w>
re views</w>
rail ways</w>
projec tion</w>
pro v
pou red</w>
person ally</w>
people ),</w>
part y's</w>
offic er</w>
oc ca
n )</w>
mountain s</w>
mon oxide</w>
micro scopy</w>
m g</w>
locomo tive</w>
jus tification</w>
intern ship</w>
in take</w>
import ance,</w>
im plicit</w>
hour s,</w>
holid ay
graph ene</w>
geograph ic</w>
fir ms</w>
f t.</w>
emp irical</w>
el der
e rec
e dition</w>
domin ant</w>
docu ment.</w>
devic es.</w>
deci sion,</w>
boil ers</w>
bi ke</w>
belar us</w>
began .</w>
bank s.</w>
ba y,</w>
b ar</w>
aut umn</w>
au ren</w>
at ame
assign ment</w>
ass es</w>
applic ation,</w>
ali ev.</w>
agenci es.</w>
a erospace</w>
Zh am
Y el
W omen</w>
Un like</w>
Turkmeni stan,</w>
Tem ir</w>
TI V
Sen ior</w>
S un
Pu tin
Ob tained</w>
Mach ine</w>
Kassym -
Inform atics</w>
Fur ther</w>
Func tional</w>
C a
Au stri
Ar chi
7 3
2020 ."</w>
200 1</w>
2 7,</w>
16 ]</w>
14 %</w>
0,7 3</w>
0,6 8</w>
y lic</w>
women ,</w>
vide os</w>
tur no
there .</w>
territ ori
supple ment</w>
subsidi aries</w>
speci fy</w>
smo ke</w>
ship s,</w>
sel ling</w>
satis factory</w>
s pl
remo ving</w>
r al</w>
r ab
proxim ity</w>
proble m.</w>
platform .</w>
per me
pene tr
organiz ers,</w>
ord a,</w>
on es.</w>
og en
off ens
od s</w>
oblig ed</w>
nav al</w>
multi dimensional</w>
mor ning</w>
mon o
min ing,</w>
method .</w>
mell it
manufacture r</w>
mani pul
m ys</w>
lin ear
khan ov</w>
kar aganda</w>
ju bil
infra red</w>
hydro chlor
ho od,</w>
grow ing,</w>
gra v
glob alization</w>
ge ology</w>
garden s</w>
flu ence</w>
fe eding</w>
famil y.</w>
f an
expres sions</w>
exclu de</w>
e o</w>
dri p</w>
docu mentary</w>
disturb ed</w>
dis cover
dialog ue.</w>
demonstr ates</w>
deli ver</w>
cooper ative</w>
condition s:</w>
compil ing</w>
comm on
col lap
car s.</w>
bul ak</w>
bank 's</w>
att ach</w>
ation al-
at y
algorith m,</w>
air lines</w>
acci dent</w>
ac tu
Y ur
V )</w>
U C
Tat ar
T A
Speci fic</w>
Rom anian</w>
Rel ations</w>
Pl at
Liter ature</w>
La place</w>
L en
K hor
Indon esi
H ong</w>
Gul shara</w>
F ather
D )</w>
Com position</w>
Com mission,</w>
Au ez
Afghani stan.</w>
8. 3</w>
70 -
5. 8</w>
4. 8</w>
3 7.
2013 -201
20 25.</w>
14 5</w>
14 ,
(10 )</w>
" green"</w>
vi ation</w>
tion -
tim ing</w>
thi op
ter ms,</w>
temperat ure
sustain ability</w>
struc turing</w>
stru gg
strateg y.</w>
str ati
stop ped</w>
sam ruk-kazyna</w>
s par
resol u
report ed,</w>
rele as
quot a</w>
pris on
poison ing</w>
photo :</w>
pay ments,</w>
p ush
oper ators,</w>
occa sion</w>
ner s,</w>
migr ants</w>
me teor
lim iting</w>
lam b</w>
l on
l ay</w>
kazakhstan is</w>
k yzyl
k o.</w>
k a,</w>
inter acting</w>
i ency</w>
hop es</w>
hol der</w>
ga i</w>
fr ames</w>
fic ations</w>
fertiliz er</w>
factor ies</w>
ex changing</w>
evacu ation</w>
enk o,</w>
electro cardi
el ess</w>
e igh
dish es</w>
diplom ats</w>
deci de</w>
d i</w>
countr y."</w>
construc t</w>
consolid ated</w>
competitiven ess
co ali
characteris tics,</w>
certi fied</w>
ca vities</w>
beto v.</w>
att ac
ation s)</w>
appe ars</w>
ambig uous</w>
ambi ent</w>
akh metov.</w>
air ports</w>
ah ko</w>
Studi o</w>
Struc tural</w>
Prof essional</w>
Partner ship</w>
Paci fic</w>
P -
Mul ti
Li any
Ini ti
Europe- Western</w>
Di stance</w>
Ch ec
CI S.</w>
Andre i</w>
6. 9</w>
6 3
5 4
4. 6</w>
2, 000</w>
1 1,
( h
" Development</w>
wro te</w>
work place</w>
with stand</w>
u res.</w>
tic ,</w>
th al
system :</w>
summit ,</w>
substitu tion</w>
subjec ted</w>
stic k</w>
sti ff
state hood</w>
solu bility</w>
sh ak
servic ing</w>
serv ants,</w>
s ni
s ary
roc ket</w>
respectivel y.</w>
regi ste
reconstruc ted</w>
recei ver</w>
prop aganda</w>
pl ain</w>
phys ics,</w>
phosphor ite</w>
par all
ov ascular</w>
on au
ol ia</w>
nucle i</w>
notic ed</w>
metr o</w>
manner .</w>
manag erial</w>
ma them
langu ages.</w>
lam p</w>
l ak
k i</w>
intere st.</w>
happen s</w>
grou ping</w>
grou ped</w>
g es.</w>
financ ing,</w>
exi st
exclu ding</w>
em bassy</w>
ei ther</w>
di r
descri be
der s.</w>
depu ties,</w>
dee ply</w>
d um
cy cles</w>
cy c
crush ing</w>
cou ple</w>
convoc ation</w>
convey or</w>
confir ms</w>
compati ble</w>
co ast</w>
camer as</w>
c ing</w>
bul ldoz
bran ds</w>
bran ch
bloc k
ble ,</w>
b eri
arbitr ation</w>
ar ka</w>
all -
alik ova</w>
acqui re</w>
absor b</w>
abl ing</w>
a ffairs,</w>
Y .</w>
Vas il
U LA
Tar az
TI CS</w>
TECH N
T O
S port
Parlia ment,</w>
Met all
K in
January- June</w>
Issekes hev</w>
Isra el</w>
Her it
Effici ency</w>
Econom y,</w>
E stabl
E ki
Consum er</w>
Compe ten
Center ,</w>
CH P</w>
Ac t</w>
4. 7</w>
4. 2</w>
"Kazakhstan-20 50
" I</w>
world wide</w>
whe el
wh ite,</w>
w ag
vertic es</w>
uni or</w>
treas ury</w>
tem plate</w>
team .</w>
te en
strength ens</w>
step ,</w>
st ages,</w>
special ties.</w>
spe eds</w>
six th</w>
sh ore</w>
sewer age</w>
seed l
sa par
s uring</w>
ri l</w>
rel ating</w>
regul ation,</w>
reform ,</w>
real- time</w>
re agent</w>
r o</w>
profession al
prob abil
ph r
pe p
paradig m</w>
p y
off set</w>
mor tgage</w>
minim ize</w>
men u</w>
medi um,</w>
lin es,</w>
le is
la v</w>
kindergarten s,</w>
in flow</w>
hydro power</w>
hold ing,</w>
gran ular</w>
gra y</w>
go als.</w>
gar ris
g ;</w>
fre ezing</w>
form ation,</w>
fa ster</w>
em ir
e ing</w>
divi ding</w>
desig ners</w>
cra f
concer ns</w>
compres sor</w>
comman ds</w>
civil ization</w>
cir cular</w>
challen ge</w>
ce :</w>
bod y.</w>
bi ologically</w>
attribu te</w>
att ack
ap an</w>
an cies</w>
ai .</w>
accoun ted</w>
a o</w>
[1 ].</w>
[1 -
Women 's</w>
W ord
T ex
Su stain
S M</w>
S M
Res ear
Produc t</w>
Om sk</w>
L ow
L ess
January- August</w>
I V
Hi story</w>
H or
Eura si
Chang es</w>
Calcul ations</w>
Bo ok</w>
Administr ative</w>
Ad ditional</w>
9. 5</w>
8. 6</w>
8 5%</w>
6. 7</w>
3- 4</w>
3 ;</w>
201 1.</w>
200 8,</w>
14 -
0, 39</w>
0 .</w>
yttri um</w>
wi res</w>
viol et</w>
vill age.</w>
vic e-
veri fy</w>
vac ancies</w>
uni formity</w>
traffic king</w>
toge ther,</w>
ter m
te tra
se vent
se ap
s mail
s ?</w>
rol led</w>
reve al</w>
re l</w>
qu ad
process ors</w>
plan ts.</w>
plan ting</w>
pho ton</w>
percei ve</w>
optim ized</w>
nucle us</w>
north -
mo v,</w>
mo de,</w>
mis sil
mil k,</w>
metallurg y,</w>
mar king</w>
mar k
ma x</w>
m er</w>
leg alized</w>
l eng
knowled ge-
it em
it ely</w>
install ing</w>
i i</w>
hyper bolic</w>
harmon ization</w>
guidel ines</w>
g dp</w>
g aps</w>
g _l_k</w>
fat ty</w>
face ted</w>
evol u
energy- efficient</w>
en coun
em it
doc tors,</w>
dis semin
cruc ial</w>
cop ies</w>
control s</w>
col um
cl ass,</w>
cham ber,</w>
celebr ates</w>
cardi ovascular</w>
budge tary</w>
boil ing</w>
atin g.</w>
arti ll
approxim ately</w>
antimon opoly</w>
an tenna</w>
a rest</w>
a is
[ 2</w>
Wash ing
T ,</w>
Stre et</w>
Statis tical</w>
Sh or
Rom an</w>
R C
Por t
Nur -S
N )</w>
Lead ers</w>
Kazav tod
K en
January- November</w>
January- July</w>
Inter active</w>
Hungar y,</w>
Hon ored</w>
Fur ther,</w>
Def ini
D om
B reg
At am
Ardu ino</w>
Ar y
4. 9</w>
4. 1</w>
2011 -201
19 7
0,7 2</w>
0 8</w>
" golden</w>
" Third</w>
year -
work places</w>
well ,</w>
w om
vis it.</w>
vi sion
uni ons</w>
ung st
understand able</w>
un fortunately,</w>
to b
telec om</w>
system atiz
str ains</w>
spectro meter</w>
solu tions,</w>
solu tion.</w>
sk aya</w>
sh im
schedul e,</w>
rais es</w>
r ate,</w>
process ;</w>
present ations</w>
parlia ments</w>
p it</w>
on es,</w>
ologi st,</w>
ol d.</w>
oc tober</w>
objec ts.</w>
non- standard</w>
modern iz
mo squ
meth yl
medi a.</w>
kh ail</w>
introduc es</w>
innov ations,</w>
inhabit ants</w>
in sec
i onic</w>
guest s.</w>
fore sts</w>
fol low</w>
fac ulty</w>
exclu ded</w>
electro des</w>
ed -
dor mit
disp ens
dee per</w>
co de.</w>
campaig n,</w>
broad cast</w>
bio sphere</w>
bel t,</w>
begun .</w>
batt ali
barrel s</w>
athlet es,</w>
ag o.</w>
advis able</w>
abstr act</w>
a mend
Th ai</w>
St reng
ST U
Rob o
Re gul
R am
P en
Ori entation</w>
N aur
Map Reduce</w>
M 2
January- December</w>
Interne t.</w>
G al
F re
Expo-201 7,</w>
Econom ics</w>
Dat ab
D eci
CO VI
Ar ti
Almat y-
A l</w>
A A
12 ,
0, 50</w>
-20 20,</w>
( W
z -
your self</w>
wel fare</w>
urg ical</w>
teach er
surveill ance</w>
sh rub
second- level</w>
s ail
res ;</w>
recipi ents</w>
ready- made</w>
produc ed.</w>
proced ural</w>
poly clinic</w>
politici ans</w>
pl u
person 's</w>
p p.</w>
open ed,</w>
ol ite</w>
nazarbaye v.</w>
n ing.</w>
model ing,</w>
ma r</w>
m amm
l un
l s,</w>
kazakh -
k d
iner tial</w>
im ped
ig nor
ig er
how ever</w>
ho v</w>
gram s</w>
fore stry</w>
f s</w>
expect ations</w>
exoskelet on</w>
et tle
es ia</w>
environ ments</w>
ec o-
discus sion.</w>
diplom acy</w>
des :</w>
cro w
cool ant</w>
cont ac
consider able</w>
competen ce,</w>
co ast
care ful</w>
b on</w>
ate "</w>
arri ve</w>
archi ve</w>
ammon ia</w>
amen ogor
allow ance</w>
al i</w>
T F
Spain ,</w>
Sm all</w>
Shymk ent.</w>
Saginta yev.</w>
S cript</w>
Py th
Organ iz
Oc to
Mong olia</w>
MA T
Kh an</w>
Kar ak
Iran .</w>
Indic ators</w>
Har mon
H ado
German y.</w>
G or
Exam ples</w>
En suring</w>
Earli er,</w>
Dmit ry</w>
Depen dence</w>
Dan ial</w>
D ev
D NA</w>
Char acter
C S
Associ ate</w>
Ak orda,</w>
200 3</w>
199 5</w>
( U
" Modernization</w>
ymp h</w>
world view</w>
with draw
volun tar
ver )</w>
und a
un gan
territor y.</w>
tan eous</w>
t am
stabil izing</w>
simultane ous</w>
sam ples,</w>
robo tic</w>
re distribution</w>
r .
profil es</w>
prep ared.</w>
plan s,</w>
pl us</w>
per s</w>
paren tal</w>
onc ological</w>
oil s</w>
le aching</w>
l uc
inspec ted</w>
ine t</w>
in ven
in og
im ov</w>
ill u
ide ology</w>
hydro gels</w>
homel and.</w>
hap pening</w>
h oc
gener ators</w>
gal a</w>
form ats</w>
fo o
financ e,</w>
ey es</w>
ex tingu
eth ical</w>
establish ed,</w>
esc ents</w>
entro py</w>
emplo y</w>
ele mental</w>
earthqu ake</w>
cros s
cos modro
cop e</w>
conver ting</w>
consum ers,</w>
consist ency</w>
co ok
clim ate.</w>
clear ance</w>
classi c</w>
cir cl
ci es,</w>
char ter</w>
ch ement</w>
b ach
at ov</w>
arti st</w>
appro chement</w>
applic ant</w>
and /
analys ed</w>
an o</w>
aggre g
ach es</w>
Y ear
W ar
Vic tor
TH E
S ym
S to
S hal
S earch</w>
S an
Q MS</w>
Prim ary</w>
Or az
L uk
Kum kol</w>
Kar as
January- February</w>
I g
Emerg ency</w>
Doc u
Dis cus
D et
C lim
C M
B )</w>
Abdrakhman ov</w>
A erospace</w>
5 50</w>
4. 0</w>
20 25,</w>
15 5</w>
10 3</w>
10 0-
0,6 4</w>
w ill
valle y</w>
tu bes</w>
tic ket
thir ty</w>
techn ical,</w>
tas k.</w>
synchron ous</w>
symbol ic</w>
strengthen ed.</w>
stop ping</w>
step s."</w>
specific ally</w>
socio- cultural</w>
sk i
sit es,</w>
sion s.</w>
sh r
scat tered</w>
scal e,</w>
reserv es,</w>
re ment</w>
pul ses</w>
protec tion.</w>
pol ar
play er</w>
per in
pavlod ar</w>
pavili on.</w>
ow ,</w>
other s,</w>
molybden um</w>
man ned</w>
lik ely</w>
law s,</w>
l s.</w>
j une</w>
inter ven
inter ference</w>
intel lec
in valuable</w>
in ess,</w>
in direct</w>
in correct</w>
i k</w>
hydrochlor ic</w>
her o</w>
fir st-
fir m
fem ale</w>
fair ly</w>
facilit ated</w>
esti ci
er ror
en ov.</w>
en do
double -
disclo sure</w>
develop ing,</w>
depu ty,</w>
d am</w>
d ;</w>
cro ps,</w>
chan ge
cent .</w>
capac ity.</w>
c amel</w>
bic y
b ending</w>
ati ze</w>
ar omatic</w>
al ov</w>
al ;</w>
ag an
ab ul
Z hol
W ast
Tam ara</w>
Sultan ov.</w>
South ern</w>
S har
Re ference</w>
Poli tical</w>
Pal e
Paki stan</w>
Mu ham
Mem or
M ass</w>
Kaz atomprom</w>
In v
I CI
Ge o
G IS</w>
Fun d.</w>
DE V
Cr iminal</w>
COVI D-
C l</w>
Abdykalik ova.</w>
9 7
6. 6</w>
6. 2</w>
50 .
4 0.
199 1</w>
17 5</w>
" e-
" Kazakh</w>
yp sum</w>
year 's</w>
white wash</w>
wat ering</w>
us h</w>
us ed:</w>
uniqu eness</w>
tr ad
termin als</w>
ta ]</w>
system s;</w>
system atization</w>
suspen ded</w>
step s.</w>
st y
shaf t</w>
s c</w>
qual ity.</w>
prev ail
present ed,</w>
phon y</w>
p es</w>
orph ans</w>
or dered</w>
non-pro fit</w>
non- linear</w>
no tification</w>
ne arest</w>
medi a,</w>
low est</w>
lo ts</w>
le ak
lan a</w>
it y-
ion ization</w>
intensi vely</w>
innov ation.</w>
iner ti
ine -
increas e.</w>
in k</w>
ide -
husband ry</w>
horiz ons</w>
he ights</w>
gu ard</w>
group s:</w>
gif ted</w>
ge ophysical</w>
four -
fl ash</w>
fe el
ex ception</w>
el -
econom ical</w>
e ag
doub t</w>
doc tr
diffic ulty</w>
diction aries</w>
destruc tive</w>
depos its,</w>
de duc
d aul
cre w</w>
coun t</w>
cost- effective</w>
cont ext,</w>
condens ation</w>
compon ent
commit ment</w>
co at</w>
ca us
boar ds</w>
ber ry</w>
bear ing</w>
b y-
appreci ates</w>
apparat us,</w>
ap ple</w>
am ine</w>
agree ments,</w>
ad ,</w>
a o
[1 -3]</w>
Zh as
W i
The ory</w>
Ter rit
Suleimen ov</w>
Sam ples</w>
S itu
S H
Optim al</w>
N u
N ature</w>
Moscow ,</w>
Malay sia,</w>
M un
M ore
Khan ate,</w>
K un
J ul
I man
E valuation</w>
Breg g</w>
Bai bek.</w>
Alma- Ata
Ali yev</w>
A pr
6. 8</w>
6 8
20 30.</w>
2 60</w>
0,7 8</w>
(1 1)</w>
( X
( 200
" We</w>
zh am
vie wing</w>
ver s.</w>
ven ts</w>
two- dimensional</w>
turb ines</w>
tro op
tri ple</w>
tomor row</w>
ti mat
ti ll</w>
su gar
step s,</w>
stabil ized</w>
sk y.</w>
shap es</w>
self- government</w>
schedul e.</w>
restric tion</w>
rel ate</w>
rehabil it
regul ator</w>
reduc ed.</w>
re volution</w>
re vision</w>
re str
re im
qu ick</w>
produc ts;</w>
pro hi
pow er.</w>
person .</w>
peo ples.</w>
patriotism ,</w>
p estici
ow s</w>
opportuni ties,</w>
oper ations.</w>
olog y"</w>
oc e
observ ance</w>
natur al-
modern ization.</w>
mo re.</w>
military- patriotic</w>
legi timate</w>
landfill s</w>
la v
l umin
j um
iter ative</w>
in tes
in spir
impac ts</w>
ill ar</w>
hour s.</w>
happ en</w>
gam es,</w>
for ce,</w>
figu re,</w>
fail ures</w>
explain s</w>
exem pl
ex porters</w>
eviden ced</w>
engineer ing.</w>
embank ment</w>
di electric</w>
de ad</w>
cour age</w>
confiden tly</w>
concer ned</w>
coali tion</w>
co al,</w>
ci v
chick en</w>
cha os</w>
ce ;</w>
cap illary</w>
cali bration</w>
cal ling</w>
book s,</w>
bi athl
b ab
aud it
attribu tes</w>
artill ery</w>
archi val</w>
ap ril</w>
and/ or</w>
ali yev,</w>
al :</w>
age "</w>
advis er</w>
adol escents</w>
achieve ments.</w>
ab le-
Z ha
Z e
Z H
V oc
Un fortunately,</w>
R )</w>
Program ming</w>
Produc ts</w>
No bel</w>
Mar at</w>
M I
Kazakh mys</w>
Ju dic
I ly
Hado op</w>
Ex port</w>
Ec ology</w>
EDUCA TION</w>
D on
D aul
Cre ate</w>
Ban k.</w>
Alma- Ata</w>
Abdi k
9 8
9 7.
7 8
6. 3</w>
5. 7</w>
13 ,
1, 200</w>
1 1-
0,8 1</w>
0,6 9</w>
" new</w>
" T
" Kaz
veter ans.</w>
v ary</w>
ur istic</w>
ungst en</w>
under graduates</w>
tur key</w>
topic :</w>
top ic,</w>
tool s.</w>
tes ting,</w>
temir tau</w>
substan ti
substan ces,</w>
smoo th
sinuso idal</w>
sever e</w>
satell ites</w>
restor ing</w>
reim bur
rec ti
ra u</w>
ra ther</w>
purch ases</w>
pur ity</w>
ph ic</w>
per mit</w>
paren t</w>
ogene ity</w>
multi faceted</w>
move ment,</w>
m r.</w>
limit ations</w>
l ite</w>
l ag
jus tice,</w>
ity ."</w>
inv it
inform ation;</w>
ine ar</w>
increas ing.</w>
increas e,</w>
hydro dynamic</w>
ho sted</w>
friend ship,</w>
farm s.</w>
factor s:</w>
extrac tant</w>
ex porting</w>
elimin ates</w>
elder ly</w>
elas ticity</w>
effec t,</w>
ed itor
e- commerce</w>
e u</w>
e ."</w>
dro ps</w>
dis ability</w>
diag ram
defend ers</w>
de ple
d ur
d ity</w>
d .
cre ws</w>
conten t.</w>
connec ts</w>
concer ning</w>
concep t,</w>
complic ated</w>
chin ese</w>
chil d,</w>
chemic als</w>
capsul e</w>
cal m</w>
c en
c ation</w>
br aking</w>
b en
attrac ts</w>
assess ment,</w>
am ide</w>
acc o</w>
Rus lan</w>
LA B</w>
K )</w>
For um,</w>
F requ
D el
Bish im
A bai</w>
6. 4</w>
5. 6</w>
4 7
3 5%</w>
2O 3</w>
16 -
10 %.</w>
1 14</w>
zon ing</w>
zh u
ym bek</w>
whe els</w>
w in</w>
valu e.</w>
up bringing</w>
tun nel</w>
thre at
themsel ves.</w>
theat ers</w>
telecon ference</w>
teach er.</w>
surfac e,</w>
suppli er</w>
subsi dy</w>
su l</w>
strong ly</w>
show n.</w>
san itation</w>
s ong</w>
re cover
rail s</w>
public ,</w>
premis es</w>
pow ders</w>
poli tics,</w>
po sted</w>
pher om
perin atal</w>
peo ples,</w>
oper ability</w>
ony ms</w>
olog ical,</w>
oli tion</w>
o si
o res
newsp ap
neutr al</w>
ner s.</w>
negoti ating</w>
milli ons</w>
mat ters</w>
massi ve</w>
m as</w>
long er</w>
le g</w>
lan ding</w>
k g,</w>
k el
j unior</w>
intere st,</w>
ing ,"</w>
inform atic
im mer
i di
hypo thesis</w>
hydrogen ation</w>
high- performance</w>
hierarch ical</w>
h .</w>
good -
g s.</w>
foot ball</w>
foc using</w>
financ ing.</w>
figh ters</w>
fi b
f ligh
es is</w>
ec u</w>
dro ple
diaspor a</w>
deriv ative</w>
d ing:</w>
convic ted</w>
composi tion.</w>
cl ays</w>
cent res</w>
car ds</w>
build ings.</w>
bek ,</w>
be ds</w>
augh ter</w>
assu red</w>
assi stant</w>
analog ue</w>
am ,</w>
a w</w>
Y e
U L
Smar t</w>
S ens
R ,</w>
Petropavlov sk</w>
Pe ter</w>
P ay
Med ic
Mam a</w>
M M
Lithu anian</w>
Le vel</w>
G AN
Future :</w>
Ex po
E qui
Committe e,</w>
Co ordin
C he
Bulg ari
Ar gen
Ak im
Ad vis
Ad ditions</w>
Ac cord
8 0-
1 25
1 0,000</w>
0, "</w>
( II
"expo-201 7"</w>
yn a</w>
week .</w>
wash ed</w>
vet lana</w>
vari ant</w>
un necessary</w>
ul tra
treati es</w>
th ick</w>
ten s</w>
t ed
sy ner
subjec tive</w>
stiff ness</w>
situ ations,</w>
silic a</w>
signific ance,</w>
sig ned,</w>
sh u
sh ock</w>
seminar s,</w>
se p
san it
ro of</w>
ri gi
regist ering</w>
region al,</w>
r approchement</w>
productiv ity,</w>
port al.</w>
play ers</w>
plan t
phas e,</w>
pedi at
pavili on,</w>
organiz ed,</w>
oper ated</w>
ol e</w>
obtain ed.</w>
nur -
nogor sk</w>
newsp aper</w>
ne tic</w>
mer cur
medic ines,</w>
mar ri
locomo tives</w>
jubil ee</w>
it 's</w>
invol ved.</w>
inform ational</w>
influ ences</w>
incenti ves</w>
identi fied,</w>
id ris
id ation</w>
hydroph obic</w>
him .</w>
forecast s,</w>
follow ed</w>
fair ,</w>
exp on
establish ed.</w>
es );</w>
effec tive,</w>
depart ure</w>
dec ades</w>
cr ad
coordin ator</w>
cont our</w>
compos ites</w>
comfor t</w>
child 's</w>
cath ode</w>
build ing.</w>
buc k
attribu ted</w>
astr onau
arsen ic</w>
arg on</w>
architec ture,</w>
approach ,</w>
anti cip
am ing</w>
ad es,</w>
ac tions.</w>
abil ity.</w>
a es
Z hol</w>
Yur i</w>
Tajik istan.</w>
TE R
Su per
Se a,</w>
R ati
P os
O ff
Netherland s,</w>
N G</w>
Myrz akhmetov</w>
Leg al</w>
Kazk osmo
Judic ial</w>
Eki bastuz</w>
EC D</w>
Cauc as
Bay an
Armeni an</w>
A str
A PP
9 th</w>
5. 1</w>
5 ;</w>
4 0-
3. 9</w>
19 5
10- 15</w>
00 C</w>
0,6 3</w>
0 6</w>
- free</w>
, ”</w>
) )</w>
( up</w>
( t</w>
" Orientation</w>
zhan ov,</w>
y ak
wrest l
wo od
volu me,</w>
vol ati
vin ced</w>
vacc in
ultras onic</w>
tys u</w>
transi stors</w>
tr ig
top h
tob acco</w>
ti s</w>
termin ation</w>
te sts.</w>
tau ,</w>
sub mission</w>
special ties,</w>
soldi er</w>
sol d.</w>
sigh ts</w>
seedl ings</w>
se u
school children,</w>
row ,</w>
ri de</w>
research er</w>
repai red.</w>
refin ery</w>
refer red</w>
re fer</w>
qu ery</w>
publ ish</w>
pro of
pressu re,</w>
pe de
par k,</w>
pap er,</w>
organiz es</w>
og ypsum</w>
no ble</w>
mor atorium</w>
mo ment
method ical</w>
mausole um</w>
mar g
k ap
influ encing</w>
in tra-
high- temperature</w>
high .</w>
h inde
green houses</w>
gi ble</w>
flu ores
es e,</w>
er s;</w>
equ ity</w>
effici ency.</w>
dol lar</w>
disc r
difficul ties,</w>
deleg ation,</w>
de hydr
d il
critic ism</w>
countr y,"</w>
cor ps,</w>
con vinced</w>
compil ation</w>
competitiven ess,</w>
coinci des</w>
clin ics,</w>
citizens '</w>
chlor ine</w>
carbi de</w>
calcul ates</w>
bodi ed</w>
bed ding</w>
aver age,</w>
anom al
alcohol ic</w>
ak him
ai -
ag ribusiness</w>
ad just</w>
accompan ying</w>
a de.</w>
Sapar bayev.</w>
Rail way</w>
Provi des</w>
Pri v
Ne ural</w>
More over,</w>
Mi khail</w>
Mechan ical</w>
J ud
Hon orary</w>
H2 O</w>
Georgi a</w>
Fin ance,</w>
F er
E th
D r
Compar ative</w>
Child ren
Car bon</w>
Austr alian</w>
4 5%</w>
2017-201 8</w>
199 8</w>
10 2</w>
’ s</w>
win ning</w>
vi sion,</w>
ver y
un reasonable</w>
un a</w>
uc hin
ture "</w>
trans action</w>
tok es</w>
thous and,</w>
termin ology</w>
te en</w>
si de
s erial</w>
respec ted</w>
ren sic</w>
rel ay</w>
re turns</w>
re productive</w>
re production</w>
provi der</w>
practic es,</w>
port al,</w>
plo ye
pel lets</w>
pati ent
p illar</w>
p )</w>
onom y</w>
on o
miner alization</w>
meteor ological</w>
mess age.</w>
man date</w>
lo ans,</w>
lic enses</w>
leis ure</w>
lay out</w>
la sted</w>
ity ,"</w>
intelligent sia</w>
ic e,</w>
ic al-
i sts,</w>
i a.</w>
heter ogeneous</w>
he uristic</w>
h ung
grow s</w>
groun d,</w>
gif ts.</w>
gas .</w>
fir m</w>
figh ting</w>
fer ry</w>
farm ,</w>
facilit ates</w>
f ans</w>
export -oriented</w>
ethan ol</w>
ern ity</w>
diversi fying</w>
di stances</w>
conc ili
comple teness</w>
commission er</w>
col or
chro me</w>
che ap
character ize</w>
ch ari
ceil ing</w>
c ess
c ad</w>
aren a,</w>
analy si
al man
agglom er
ad he
activi ties;</w>
[ the
[ 7
Zh u
Typ e</w>
Toka yev.</w>
Toka yev,</w>
T or
T op
Si beri
S tokes</w>
Rec om
Re view</w>
Qu es
P E
Or th
M anu
Less on</w>
L ag
Jo h
Integr ated</w>
In st
In dividu
Impro vement</w>
IC AL</w>
I X</w>
G aus
Fri end
Fl ash</w>
Expo-201 7.</w>
D .
Cop per</w>
Competi tion</w>
Comm on</w>
Citiz ens</w>
Ch rist
C /
Av ail
Americ a</w>
8. 8</w>
6 6
6 5%</w>
2 2.
0, 40</w>
) /
" bright</w>
" added</w>
" Heal
window s</w>
us ers,</w>
urban ization</w>
ultra violet</w>
traine es</w>
swim ming</w>
stri ving</w>
strateg ically</w>
spor ting</w>
simul ate</w>
shar ply</w>
sc ann
satis fying</w>
s s
s is</w>
s car
rhen ium</w>
report .</w>
replen ish</w>
refr iger
reconstruc t</w>
r action</w>
questionn aire</w>
propos ed.</w>
proced ure,</w>
popular ity</w>
phosphor ic</w>
pas sport</w>
ore d.</w>
ol ds</w>
nozz le</w>
near by</w>
mon au
model ling</w>
li m</w>
leader ship,</w>
le ase</w>
kul ov.</w>
k an
k air
inter view
integr al-
incom e,</w>
im m
i od
hinde red</w>
furnac es</w>
freedom s</w>
expendit ure</w>
ev ich</w>
euro s</w>
et s.</w>
ess -
en th
elec tive</w>
educ ation;</w>
earth 's</w>
distinc tive</w>
destro y</w>
deman d.</w>
decision .</w>
dec ent</w>
dead lines</w>
d ."</w>
conve y</w>
con ting
colleag ues,</w>
cod ing</w>
co ve
capac itor</w>
bu l</w>
bri qu
be ver
bach el
anim ated</w>
al arm</w>
akh an</w>
ad ults</w>
ad a</w>
activi sts</w>
acqui ring</w>
achieve ments,</w>
ab dykalik
Zhak upo
Wast e</w>
T O</w>
Spec tr
S ho
Metall urgical</w>
Math cad</w>
METHOD OLOGY</w>
Kassym- generous</w>
Increas e</w>
H il
G az
G I
F i</w>
Experi ence</w>
D F
D A</w>
Bo zum
B C</w>
Accord ingly,</w>
Ac tive</w>
Abdik alikova</w>
9. 6</w>
9 )</w>
8. 4</w>
8 0.
7 ,"</w>
6. 1</w>
6 50</w>
5. 4</w>
30 %.</w>
2017 -20
2 1.
2 ).</w>
13 %</w>
1- 2</w>
1 :</w>
1 12</w>
0, 38</w>
( Fig.</w>
( 2-
" smart</w>
zh amb
z hum
you .</w>
wor d,</w>
win ding</w>
versi ble</w>
uni form
top onym
tenge /
t ungsten</w>
t ly.</w>
strong er</w>
step s,"</w>
sph or
speci alization</w>
sp ace
solid arity</w>
skill ed</w>
si bility</w>
sen ds</w>
se es</w>
se at</w>
safet y.</w>
s ors</w>
result .</w>
rel atives</w>
refin eries</w>
recei ved,</w>
re k
r ating,</w>
ques tions.</w>
process ing.</w>
prerequis ite</w>
predic ted</w>
poly g
phas is</w>
pe ak</w>
p ing,</w>
overha ul
orb ital</w>
or ies</w>
norm alized</w>
non- residential</w>
non- food</w>
mo vable</w>
materi al.</w>
lo sing</w>
le ather</w>
l ymph</w>
l enses</w>
l ati
ish ,</w>
interfac es</w>
initi ative.</w>
infec tion</w>
indicat or.</w>
inclu ding:</w>
i b
ho sting</w>
h ome
g est</w>
fu zz
frag ment</w>
fe es</w>
facil ity.</w>
fab ric
ev a,</w>
enth usi
ed ges</w>
e idu</w>
dis soci
detec tor</w>
demonstr ating</w>
decor ative</w>
d res
d econ
cour t.</w>
cool ed</w>
congres s,</w>
bud s
bat yr</w>
b ent
b alls</w>
assemb led</w>
alkal i</w>
al ympic</w>
adv oc
accumul ate</w>
[ 3</w>
Zhumag ul
Yor k</w>
TION AL</w>
T PP</w>
Syri a</w>
Pur pose</w>
Presiden t's</w>
Pr inci
Pe tr
Moscow .</w>
Mat erials</w>
M es
M I</w>
Kokshet au,</w>
Herit age</w>
Gu ard</w>
GD P</w>
Fu el</w>
Fin land,</w>
Fin d</w>
De pu
Beij ing</w>
B O
B L
B I
Austr ia</w>
Assi stant</w>
50 %.</w>
5- 6</w>
3 60</w>
19 6
18 %</w>
. ..</w>
" and"</w>
" P
won der
whe at,</w>
weigh ing</w>
vir us</w>
urg ed</w>
uk ra
transl ate</w>
tour ism
ti les</w>
ti es"</w>
thir d-
textbook s,</w>
ter m,</w>
ten ,</w>
tak en,</w>
t amination</w>
subscri ber</w>
studi ed.</w>
st ly</w>
sit es.</w>
show s,</w>
shif ts</w>
sh an
senten ce</w>
se wing</w>
se t,</w>
se ats.</w>
se ats,</w>
scr at
scenari os</w>
s ers</w>
reve als</w>
relax ation</w>
re min
re fu
r y
probabil istic</w>
prob ation</w>
pro vin
pro be</w>
presti gi
posi tion.</w>
pi x
pen dic
p yro
oxid ant</w>
o den</w>
nation wide</w>
nat ure.</w>
multi layer</w>
mon om
minist erial</w>
miner alog
min es</w>
ment 's</w>
meeting s.</w>
man kin
l ac
kni fe</w>
kindergarten s.</w>
k yrg
ing ots</w>
inform ation-
increas es.</w>
i ties,</w>
i ro
hy t</w>
hospit al,</w>
hom e,</w>
hel ping</w>
gym n
flo ors</w>
fin ite</w>
festi val,</w>
farm s,</w>
fac ial</w>
explan ations</w>
exempl ary</w>
er :</w>
enti ty</w>
engine er</w>
el ong
el iness</w>
effici ently</w>
distribu ting</w>
depu ties.</w>
dependen cies</w>
decision- mak
de als</w>
d ings</w>
condens ate</w>
com memor
civil iz
cinem a</w>
characteris tic
campaig n.</w>
brief ly</w>
be ef</w>
ar c</w>
an cement</w>
an aerobic</w>
al in</w>
al ga
air line</w>
ain t</w>
adv ancement</w>
administr ations</w>
ad hesion</w>
aci dic</w>
ac ts.</w>
Veter ans</w>
UN T</w>
The at
T ai
Switzer land,</w>
St ar
Satpa yev</w>
Resear ch
Q U
Objec t</w>
NAS SR</w>
N S
MAT LAB</w>
M ol
Lond on</w>
L ie
G ar
Fac ulty</w>
Er lan</w>
Entrepreneur s,</w>
E very
Des ig
Defini tion</w>
D am
Bulg arian</w>
Au gu
Ar t</w>
Akmol a,</w>
Agricul ture,</w>
Ac tion</w>
3 80</w>
17 %</w>
0,7 6</w>
- 3</w>
! "</w>
 r</w>
zon es.</w>
w ol
visi bility</w>
victor y.</w>
vi ously,</w>
unda mentals</w>
un it,</w>
u t</w>
the astern</w>
t ed:</w>
strugg le</w>
so f
sing ular</w>
shymk ent</w>
seas on.</w>
seas on,</w>
se aling</w>
scre en
sam pling</w>
s n
resour ce-
rais ed.</w>
radionucli des</w>
r atings</w>
ques tions,</w>
quar ry</w>
pu tting</w>
provi ders</w>
prom p
pre- school</w>
photo s</w>
phosph ogypsum</w>
person s,</w>
od o
od a</w>
neur ons</w>
mo l</w>
minut es,</w>
mellit us</w>
mat ernity</w>
low- enriched</w>
lit ers</w>
learn ing.</w>
le d,</w>
law s.</w>
khan ov.</w>
ke pt</w>
inter pol
insur ance.</w>
in s,</w>
im posed</w>
hy th
hoc key</w>
gol d,</w>
form ance</w>
fair s</w>
fa ther
et e</w>
equal ly</w>
emerg encies</w>
electro chemical</w>
doctr ine</w>
di vers
di ting</w>
der -in-
de po
cylin ders</w>
contrac tors</w>
condition ing</w>
chang ed,</w>
capit al-
bre ed
beau ty</w>
b ]</w>
as hev</w>
amaz ing</w>
all s,</w>
adequ ately</w>
ac ts,</w>
abili ties.</w>
ab ai</w>
a sive</w>
a b</w>
[the ta]</w>
[ 16]</w>
Zhe tysu</w>
Y our</w>
X ML</w>
Wor l
Th en,</w>
Taldyk organ
TE R</w>
T esting</w>
Suleimen ov.</w>
Saginta yev</w>
S vetlana</w>
R T</w>
Quanti tative</w>
Plan ,</w>
Parame ters</w>
P a
Nov em
N ext,</w>
Min eral</w>
Malay sia</w>
Li br
L inear</w>
L P</w>
L C
Kas sy
January- March</w>
Issekes hev.</w>
Exper t</w>
Dem ocr
A G
8 50</w>
6 th</w>
2 70</w>
13 8</w>
13 00</w>
1 30
( on</w>
( more</w>
' ve</w>
 x
z )</w>
w ild</w>
vo tes</w>
vis it
v al.</w>
un limited</w>
tr ag
town s,</w>
tom at
the re,</w>
telecommun ication</w>
tel ls</w>
tain ing</w>
sub str
studi ed,</w>
state- owned</w>
star ch</w>
st y</w>
spe ed,</w>
south -
sm ell</w>
situ ations.</w>
sh ut
sh op</w>
sh a
sec tional</w>
se e,</w>
s on
ri es</w>
rel ational</w>
r i</w>
r hyth
psych ology</w>
produc t.</w>
pho tome
perform ance,</w>
p m
on "</w>
ograph ical</w>
nano technology</w>
mid -
meaning ful</w>
mat ure</w>
list en</w>
lif t</w>
level ing</w>
lawy ers</w>
landscap ed</w>
la m</w>
ko stan
ker nel</w>
k id
k V</w>
judic i
ju ven
join ts</w>
jec ted</w>
interrup tion</w>
integr ating</w>
indic ative</w>
ich .</w>
i als</w>
homel and,</w>
harv est</w>
harmon ious</w>
har den
h alls</w>
gra in,</w>
gi ft</w>
ge ts</w>
gas eous</w>
garden ,</w>
fu el.</w>
frame work.</w>
fish eries</w>
ettle ment</w>
ethno -
el ab
ee o</w>
educ ating</w>
ec ture</w>
e ,"</w>
diseas es.</w>
design ated</w>
deman d,</w>
d ing
coun ts</w>
cos monau
copper -
contrac tual</w>
condition ally</w>
complex es,</w>
compar is
comp action</w>
coast al</w>
clari fication</w>
civ ilian</w>
chann el
centur i
bulldoz er</w>
best os</w>
ba u
aul t</w>
atmo sphere,</w>
athle te</w>
at am
ance stor
ambi tious</w>
am be
al one</w>
al ity.</w>
ag ,</w>
ad here</w>
acceler ating</w>
Zhumag aliyev</w>
Win d</w>
Vic e-
Th is,</w>
TI NG</w>
Sustain able</w>
Sol u
Sh an</w>
Seme y</w>
Sary arka</w>
S i</w>
Ru st
Program s</w>
Pho to
P ass
Method ological</w>
Mem bers</w>
Manag e
Majil is,</w>
M el
M ac
Lyapun ov</w>
Lithu ania</w>
L ist</w>
L ight</w>
L atin
Kap sh
K amenogor
In fluence</w>
IT Y</w>
I E</w>
G O</w>
Em ploye
Doc tor</w>
DEV EL
Cro ati
Cer tification</w>
Ap pro
9 000</w>
5. 9</w>
5- 10</w>
5 8
2050 :</w>
20 22</w>
2 10</w>
16 ,
15 ,
11 ]</w>
10 8</w>
1, 4
1 13</w>
0 7</w>
"Expo-201 7."</w>
wonder ful</w>
war .</w>
un de
ul timate</w>
typ es:</w>
tra de
tissu e</w>
t on,</w>
t i</w>
t esti
sur ger
st- Kamenogor
some one</w>
shrub s</w>
sh ub
serv ants.</w>
s light</w>
ro wing</w>
religi ons,</w>
profess ors</w>
prestigi ous</w>
preferen ces</w>
pre- trial</w>
posi tions,</w>
ple asant</w>
ple .</w>
plan s.</w>
pep ti
parameter ization</w>
organ ism</w>
novel ty</w>
no tice</w>
nam ely</w>
monitor ing,</w>
mo od</w>
min ed</w>
m ari
lifesty le,</w>
li st,</w>
le d.</w>
j sc</w>
iso tropic</w>
ir an</w>
ion izing</w>
instruc tions,</w>
inog rad</w>
infin ite</w>
identi fied.</w>
ide as,</w>
hold ing.</w>
he ar</w>
garden .</w>
fis cal</w>
fertiliz ers,</w>
explor ation,</w>
expect ed.</w>
exi sts</w>
excav ator</w>
en ova</w>
en han
em phasis</w>
em b
el ine</w>
econom ics,</w>
doz ens</w>
don or</w>
disp u
dis h</w>
diff raction</w>
det ach
deser tification</w>
de aling</w>
cr acks</w>
cour ses,</w>
continu es.</w>
conscious ness,</w>
comp ound
co c
clu bs</w>
cloth es</w>
cir c
chann els,</w>
ce ment,</w>
bro ken</w>
bric ks</w>
borrow ers</w>
bor on</w>
assimil ation</w>
as hen
applic ations.</w>
any one</w>
ak ov.</w>
aggre gate</w>
age )</w>
ab in
V it
Ten gi
Step s"</w>
Sta ff</w>
Se t</w>
S un</w>
S agadi
S U
Pol ym
Parlia mentary</w>
O )</w>
Nur-S ultan</w>
Ne w
N PP
MS W</w>
LL C</w>
L ay
Kazavtod or</w>
I s</w>
HT ML</w>
Ex change</w>
English ,</w>
Egyp t</w>
Dec em
De fin
DEVEL OP
DB MS</w>
Bai bek</w>
Al akol</w>
Aktobe .</w>
Adv ant
A re
7 5
5- 7</w>
2010 .</w>
200 7,</w>
199 7</w>
18 ,
15 7</w>
10 1</w>
0,7 4</w>
0 9
(15 )</w>
" Strateg
wo oden</w>
w ear
voluntar ily</w>
ver mic
ur a</w>
un manned</w>
themsel ves,</w>
te a</w>
system "</w>
sy l
survi ved</w>
summ er,</w>
sub urban</w>
st en
ssi l</w>
sk et
sequ ently,</w>
secon ds</w>
seas onal</w>
sal in
sa ves</w>
s- strain</w>
s ad
rou te,</w>
repe at</w>
r ical</w>
prec is
posi tional</w>
poor ly</w>
per pendic
people )</w>
p it
ol in</w>
og onal</w>
offic e.</w>
o zon
notic e
nation ali
n. nazarbayev.</w>
multi pli
mobil ize</w>
mission .</w>
mir ror</w>
miner als,</w>
member s.</w>
m ash
labor .</w>
know ing</w>
kaz atomprom</w>
k ov
k l
k am
jewel ry</w>
j uly</w>
itself .</w>
itself ,</w>
iso thermal</w>
institu tion
inerti a</w>
individu ally</w>
i es:</w>
high ways</w>
h all,</w>
ger many</w>
gam ma</w>
g el
g .,</w>
fro m.</w>
foreig ners</w>
fo ssil</w>
fav or</w>
evolu tionary</w>
er s'</w>
encoun tered</w>
e- portfolio</w>
do g</w>
devic e,</w>
defec t</w>
decision s.</w>
d an
corpor ations</w>
consorti um</w>
con qu
con dol
collap se</w>
col ors</w>
ci es.</w>
char itable</w>
buy ers</w>
barri er</w>
az ing</w>
ati ve-
athlet es.</w>
an num
amorph ous</w>
akim ats,</w>
ag in</w>
adap ting</w>
acr ylic</w>
achiev ed.</w>
accoun table</w>
acceler ator</w>
_n s
[2 ].</w>
Zhezkaz gan
Word s:</w>
WTO ,</w>
W il
W el
Turke stan,</w>
Turk men</w>
Te aching</w>
Syri a,</w>
St ate
Sim ple</w>
Sig nific
SiO 2</w>
Se y
Sary agash</w>
S elec
S el
S OL
Rec ei
Re yn
Pyth on</w>
PR C</w>
Nod es:</w>
Nigmatul in.</w>
Luk ashen
Lab our</w>
L os
J an
I rel
H is</w>
F ish
Equi p
E ven</w>
D ,</w>
Cri tical</w>
Con ditions</w>
Competen ce</w>
Braz il,</w>
B ashk
Autom ation</w>
Ar tificial</w>
Appl ications</w>
Ak su
Afric a</w>
Ab u</w>
A viation</w>
7. 7</w>
25 00</w>
200 9.</w>
200 5,</w>
15 4</w>
13 6</w>
13 -
0,7 9</w>
0,4 2</w>
0 4
( x</w>
' m</w>
" explained</w>
" New</w>
zhol ."</w>
zhe zkaz
z .</w>
withdraw al</w>
wh at
w to</w>
vo ted</w>
vill ages,</w>
v ich</w>
ur ,</w>
under stands</w>
un usual</w>
un us
un loading</w>
un conditional</w>
un ambiguous</w>
u tenant</w>
tu i
tri angular</w>
trac tor</w>
toge ther.</w>
tin al</w>
t led</w>
suppl ying</w>
struc ture.</w>
stimul ants</w>
st ur
st ly,</w>
sol e</w>
soci ological</w>
sko ye</w>
sh ot</w>
semin ar-
selec ted,</w>
sel l
sel inograd</w>
sedi ments</w>
s al</w>
reser ve,</w>
relev ant.</w>
ra in
prof itability</w>
produc ed,</w>
pric ing</w>
pi on
photograph s</w>
pension ers</w>
pe as
pastu res</w>
open ly</w>
ol d,</w>
off ering</w>
o zone</w>
need s,</w>
necess ary.</w>
n ad
mu t
mu ham
move ment.</w>
mo ment,</w>
micro biological</w>
meth an
metabol ism</w>
mercur y</w>
mechan ism,</w>
maslikh at,</w>
maintain s</w>
machine -building</w>
lead ers,</w>
le m
l ying</w>
l actic</w>
kyzyl orda</w>
k t
k ov,</w>
juven ile</w>
justi fy</w>
jo y
integral- differential</w>
installe d.</w>
inde x,</w>
in ser
imag ine</w>
im aging</w>
identi fies</w>
id es,</w>
hygi ene</w>
hospit ality</w>
h at
gymn asi
guaran tor</w>
go s-
go al.</w>
gl aci
gi an</w>
gen e</w>
ge ometr
ga ther
fro zen</w>
form ulation</w>
fo rensic</w>
fing er
expres sing</w>
experi encing</w>
exclu sive</w>
excav ations</w>
eri or</w>
er ron
ed itor</w>
do -
distil led</w>
describe d.</w>
desc end
den ,</w>
decreas ed.</w>
decision s,</w>
continu ed.</w>
cont ex
constitu tion,</w>
con den
co in</w>
clin ic,</w>
char t</w>
ch ain
car av
cad astr
bo hydr
and yk</w>
alphab et.</w>
al d</w>
ai ds</w>
ag on
af gh
a ).</w>
[4 -
[ 8
[ 5</w>
Zh ab
Y ak
Vis ual</w>
Un ity</w>
UNES CO
U st-Kamenogor
Trans fer</w>
Tran spor
Tat ar</w>
Ste p</w>
Sen ate.</w>
S S
R N
Ph il
Organ ization.</w>
MO DE
M as
M L
Lie utenant</w>
Khan ate.</w>
Kap ch
KAZ A
K elim
Inv estig
Indon esia</w>
Inde x</w>
In ten
Im port
I D</w>
H am
Func tion</w>
Frequ ency</w>
F ra
EM G</w>
E EC</w>
Duissen ova.</w>
Depu ties</w>
D ynamic</w>
Cre ated</w>
Compu ting</w>
Chang ing</w>
C ul
C L
B AS
Academ ic</w>
A bay,</w>
9. 3</w>
8. 7</w>
7. 2</w>
30 %,</w>
23 -
2015-201 9</w>
16 %</w>
15 00</w>
10 7</w>
1 1.</w>
1 0,
1 -</w>
00 5</w>
0,8 8</w>
0 3
(12 )</w>
" R
" K.</w>
zh ar
y an</w>
x .</w>
work piece</w>
wom an</w>
witness ed</w>
wh o,</w>
ve "</w>
understand ing,</w>
ts ."</w>
tri angles</w>
tor ney</w>
tograph y</w>
tion ,"</w>
t y"</w>
summit .</w>
sult anov</w>
sugg est</w>
studen ts;</w>
stim ulation</w>
standar d
solu tions.</w>
sh oul
se ek</w>
scre w</w>
satis fies</w>
sam ple,</w>
s q
s our
s now
run off</w>
rou te.</w>
ro pe</w>
res um
real izing</w>
produc tions</w>
pro x
priz e-
privatiz ation.</w>
port als</w>
pollu tion,</w>
pil ots</w>
pharmaceutic als,</w>
perpendic ular</w>
perform ers</w>
pen di
pe ar
pe ak
pat ent</w>
p ne
oxid ase</w>
og rams</w>
od y</w>
necess arily</w>
nano structured</w>
nano composite</w>
n. a.</w>
mul tic
mission s,</w>
meto va</w>
medic ine.</w>
manner ,</w>
m yrz
loc alization</w>
lin k
li eu
l ori
k ore
inter im</w>
in scri
illu str
ig en
hum idi
hon ey</w>
ho od.</w>
her bayev</w>
hect are</w>
hard ness</w>
groun d.</w>
govern ors</w>
gau ge</w>
g/ l</w>
g m
fib rous</w>
feat u
facil ity,</w>
exten ds</w>
explo its</w>
exem ption</w>
ev al</w>
eth n
estimat es,</w>
ess- raising</w>
enc od
emit ted</w>
em bas
ec tor</w>
earli er,</w>
doub led</w>
dat e.</w>
crad le</w>
contrac tor</w>
confi denti
con scri
co ke</w>
co ,</w>
ch ore
ce )</w>
categor y.</w>
buck wheat</w>
bu ff
box ing</w>
borrow ed</w>
ber g</w>
bas e.</w>
bank rup
au gust</w>
ate )</w>
associ ation.</w>
as ym
apparat us.</w>
apart ments,</w>
ap k</w>
ad b</w>
activ ate</w>
ac tor</w>
able- bodied</w>
[3 -
Z o
Vi en
V ide
Tashk ent</w>
T s
S in
Russi an-
Rom ania</w>
Res erve</w>
Per formance</w>
Olympi ad</w>
O 2</w>
Nigmatul in</w>
N D
M is
Isra el,</w>
Inter action</w>
Intellig ent</w>
I ,</w>
H .</w>
G PS</w>
Fir stly,</w>
F ree</w>
Deci sion</w>
Datab ase</w>
D us
D ub
D S</w>
Coun try</w>
CE O</w>
CA D</w>
B es
B M
Autom atic</w>
Austri a,</w>
Al t
Ad ilbek</w>
A id
8. 2</w>
6 %)</w>
4- 5</w>
200 2</w>
2 ),</w>
17 -
13 7</w>
12 6</w>
1 "</w>
00 ,</w>
- optic</w>
- containing</w>
(e. g.</w>
( k
" digital</w>
y o</w>
x i
work :</w>
wel com
weigh ts</w>
vess el</w>
vers ati
un hindered</w>
tra il
tor ial</w>
tim ul
tenn is</w>
tenge )</w>
ten ed</w>
tax es,</w>
tan gible</w>
surg ical</w>
subsidiz ed</w>
standar d,</w>
squ ares</w>
spon taneous</w>
sph erical</w>
sp ong
soil s,</w>
simpli fies</w>
si p
sh ale</w>
serge ant</w>
scientific ally</w>
scholar ships</w>
san atori
ro tary</w>
respon ses</w>
res )</w>
repu tation</w>
repeti tion</w>
re mem
re fraction</w>
psy cho
prov ince</w>
prop ylene</w>
proceed ings,</w>
posi tion
photograph ed</w>
per si
partner ships.</w>
p "</w>
organ ism
of -
ob sol
no tific
ni k</w>
neighb ors</w>
ne o
mil ls</w>
micro controller</w>
member s,</w>
mechanism s,</w>
me g
mach ines,</w>
lo ans.</w>
li z
leak age</w>
kindergarten ,</w>
khan ate</w>
is co</w>
interlocu tor</w>
inter sec
inspec tors</w>
influ x</w>
in ov</w>
ic a</w>
hon est
ha k</w>
gradu ates,</w>
geo thermal</w>
g lo
fin ally</w>
fel low</w>
f ought</w>
f alling</w>
ex chang
est er
erv es</w>
eri a</w>
er no
elimin ated</w>
e gov
dra in</w>
dismis sed</w>
develop ment"</w>
deteri or
desig ner</w>
depart ments.</w>
curricul a</w>
creativ ity,</w>
contrac t,</w>
consump tion,</w>
conduc tors</w>
concili ation</w>
concer ts</w>
compos ed</w>
col ored</w>
co ated</w>
clos est</w>
cli ent-
clean ed</w>
challeng es.</w>
ch enko</w>
ch e</w>
cer am
cam ps</w>
c au
byp ass</w>
ble .</w>
ber bank</w>
bent onite</w>
bat ch</w>
attach ment</w>
associ ate</w>
assem bly.</w>
anc es,</w>
al t</w>
ag grav
accoun t,</w>
a ero
a erial</w>
[ 9
[ 4</w>
Wor k
Standar ds</w>
Sh ch
Sh .</w>
S or
Projec ts</w>
Proble m</w>
Polic y,</w>
P reven
P 2O
Or d
Optim ization</w>
Op tical</w>
N ic
Mo di
K ras
January- May</w>
Im age</w>
Differen t</w>
Def en
Cl ass</w>
C ir
Bayan aul</w>
B l
B ab
Australi a</w>
At mo
Acti vities</w>
A B</w>
9. 9</w>
8. 9</w>
8 8
7. 6</w>
7. 4</w>
2 1-
199 9</w>
199 2</w>
1, 6
( n
( about</w>
" future"</w>
year- old</w>
y ur
y g
with drawn</w>
winter ing</w>
w av
victor y,</w>
val ence</w>
um a</w>
transi stor</w>
traffic king,</w>
touri sts,</w>
tic e.</w>
ten ges</w>
surve ys</w>
subscri bers</w>
stor age,</w>
stat or</w>
speciali st
sp in
sol vents</w>
she ets</w>
sel fl
sal inity</w>
sai d:</w>
religi on,</w>
rec all</w>
prin cip
posi tions.</w>
popular ization</w>
poin ted</w>
pati ents,</w>
pal ac
or "</w>
open -
op ar
on )</w>
odo x</w>
mi x</w>
meth yl</w>
men ov</w>
men ded</w>
m ys
m uc
m m,</w>
lo ok
livest oc
laun ching</w>
l )</w>
kha ,</w>
ing dom
il lar
ie v</w>
hun ting</w>
hom ogeneity</w>
histor ically</w>
hal f-
go t
fuzz y</w>
fu el
found ers</w>
ff s</w>
fel t</w>
fav our
f ly</w>
extingu ishing</w>
examin ations</w>
examin ation,</w>
er s"</w>
equi p</w>
en abling</w>
ed "</w>
discipl ine,</w>
dis rup
dehydr ation</w>
de priv
cur v
conscious ness.</w>
comple ment</w>
chem ical,</w>
check points</w>
ch air</w>
car pe
biog enic</w>
ba iterek</w>
b un
b all,</w>
ation s"</w>
ation ),</w>
assum e</w>
asse ts,</w>
arous ed</w>
ani yar</w>
ame .</w>
akh metov,</w>
a par
[3 ].</w>
Z ATION</w>
US SR</w>
Tal as</w>
Taj ik</w>
TB T</w>
T Z
Scho ol
S ab
Res pon
P aul</w>
P artic
Naur yz
NI PA
Mur at</w>
Mi x
M2 M</w>
Jord an</w>
Jo int</w>
Jap an.</w>
I P
For um.</w>
Father land</w>
F e-
F .</w>
Exam ple</w>
Ex cel</w>
Ec ological</w>
E R</w>
Con nec
Ch ris
C r</w>
C ali
C N
C F</w>
B ro
Analy tical</w>
Ad ap
Ac ting</w>
3. 0</w>
2 2-
15 3</w>
14 4</w>
12 8</w>
10 %,</w>
1 17</w>
0, 80</w>
- 4
( at</w>
" will</w>
zhamb yl</w>
work ing,</w>
weal th,</w>
warm ing</w>
volunte er</w>
vill ages.</w>
ul timat
tu res.</w>
transi ent</w>
trans formed</w>
theore tically</w>
theat rical</w>
teen ag
stres s-strain</w>
sto ch
stak e
sh u</w>
servic es;</w>
sen ate</w>
selfl ess</w>
sedi ment</w>
san ds</w>
saginta yev.</w>
sa w
s ag
reson ance</w>
religi ons.</w>
radi ation,</w>
ra v
r he
public .</w>
proto type</w>
prosecu tors</w>
profession als.</w>
polym erization</w>
phyto sanitary</w>
partner .</w>
ou tre
on it
ol ig
off shore</w>
o ath</w>
nov ember</w>
no thing</w>
more over,</w>
mix er</w>
missil e</w>
mis sing</w>
min ute</w>
micro wave</w>
mega wat
manifest ed</w>
manifest ations</w>
mal ign
ma de.</w>
m idd
li me
li e</w>
kni ves</w>
kilome ter</w>
k us
it eration</w>
interpre ted</w>
inter cultural</w>
intellec tu
im mediate</w>
hypo thes
ho st
him self
herit age,</w>
he at,</w>
hazar ds</w>
hap s</w>
guar di
go ,</w>
ga ther</w>
g all
g al</w>
fix ing</w>
feat ures,</w>
fe at</w>
f on
equ ations:</w>
envis ag
ent "</w>
enh anced</w>
end urance</w>
en a</w>
emul sions</w>
em bar
effec tiven
ed y</w>
eco systems</w>
ec ology,</w>
e igen
disp ut
dis ruption</w>
de ployment</w>
cycl ing</w>
cu p</w>
cryp to
cri ticiz
cour ts,</w>
correc tional</w>
congratul atory</w>
compens ate</w>
commemor ative</w>
col on
cm 3</w>
cham ber
cell ul
categor ies:</w>
c loc
bor der.</w>
b ly,</w>
awaren ess-raising</w>
author 's</w>
ator ial</w>
archi ves</w>
ar mo
ar in</w>
an ds</w>
adi c</w>
addi tive</w>
ad jus
a ev,</w>
a eration</w>
a S</w>
Z har
X X</w>
W i-
V AT</w>
Thail and</w>
Sport s,</w>
Sim il
S election</w>
Ris k</w>
Reyn olds</w>
Re duction</w>
Prof ess
Phys ic
Mat lab</w>
Mam yt
M B
Ko sh
K ent
Jav a
IT -
IC S</w>
Exper ts</w>
Electr ical</w>
E v
E BR
Democr atic</w>
DEVELOP MENT</w>
Clu ster</w>
Clim ate</w>
Children 's</w>
COVID- 19</w>
C C
B re
B it
B en
Australi a,</w>
Ash im
AP I</w>
9. 8</w>
7 7
5 %),</w>
20 30,</w>
19 th</w>
18 -
12 4</w>
10 9</w>
1, 5
0 4</w>
-20 50
(14 )</w>
( O
"k t
" C
zh er"</w>
x )</w>
well .</w>
vis ually</w>
vi al</w>
verte x</w>
vari ance</w>
vacc ination</w>
v i</w>
us er's</w>
tril ingual</w>
treas ur
tow er</w>
tom ic</w>
ti g
th "</w>
tex t,</w>
tal ent</w>
system atize</w>
suffici ency</w>
suff er</w>
sub mitting</w>
solem n
smart phones</w>
sevent h</w>
schem atic</w>
sand y</w>
ri k</w>
revis e</w>
reti rement</w>
recommend ation</w>
rad ic
r y.</w>
r ile</w>
questionn ai
quar ter
purch asing</w>
propos als.</w>
procure ment,</w>
prec inc
phosph ates</w>
pharm ac
ph one,</w>
perspec tive</w>
pat ron
pain tings</w>
pain ting</w>
ov al</w>
oscill atory</w>
ong ,</w>
od es
o es,</w>
nutri ents</w>
num ber,</w>
non- compliance</w>
ni a</w>
n ur</w>
mus cle</w>
mukh tar</w>
molec ul
micro scopic</w>
men tion</w>
mel on</w>
medic inal</w>
manipul ator</w>
lo oks</w>
lim itation</w>
lic en
l o</w>
kilome ters.</w>
ke go
k nit
j inping</w>
intelligent sia,</w>
innov ations.</w>
initi ator</w>
ic e.</w>
ic )</w>
i stan
high light</w>
guarante eing</w>
ge on</w>
g sy
fron t-
fo am</w>
fl amm
f fic</w>
expan ds</w>
exhibi tions,</w>
exac tly</w>
equip ping</w>
ensu s</w>
enh ancing</w>
en ium</w>
ell ing</w>
elec ommun
e .,</w>
di etary</w>
develop mental</w>
depriv ation</w>
conferen ces,</w>
con f
competitiven ess.</w>
collec tions</w>
co bal
client- server</w>
clari fied</w>
centuri es-
cent ro
cat ering</w>
carro t</w>
cap abilities,</w>
business "</w>
biom ed
b es
auc tion</w>
au to</w>
assu red.</w>
armo red</w>
appro ving</w>
anti- nuclear</w>
anomal ies</w>
anom aly</w>
alphab et,</w>
aes thetic</w>
ae a</w>
adju sted</w>
ad sorbent</w>
acryl ate</w>
abdykalik ova</w>
aband on</w>
a /
Z n</w>
Yer zhan</w>
UN ,</w>
Tod ay's</w>
Tas magambeto
T RO
Sur face</w>
R os
P at
P E</w>
Oper ation</w>
N it
Mus lim</w>
Moham med</w>
Mathematic s</w>
L )</w>
Kur man
IC ATION</w>
High -
Fi eld</w>
Ex ternal</w>
Ex pl
EAEU .</w>
Duissen ova</w>
Direc torate</w>
Con centr
C B
Agricul ture.</w>
Agr arian</w>
A bility</w>
A P</w>
9. 2</w>
20 ,
2, 7
199 2,</w>
10 0.
1 18</w>
0,7 7</w>
( IC
( 2</w>
$ 1</w>
z ak</w>
y al</w>
where :</w>
water- soluble</w>
viol ence</w>
vege tables,</w>
val ve</w>
un scheduled</w>
um es</w>
um "</w>
ul ative</w>
truc ks</w>
trans boundary</w>
trans -
traffic ,</w>
tr on</w>
tiv es.</w>
ter r
tas ked</w>
t ul
subsidi ze</w>
subjec t.</w>
studi es.</w>
structur al-
strong est</w>
st a
solemn ly</w>
sol o
so y
small -
sit ting</w>
significan ce.</w>
signat ures</w>
selec ts</w>
school -
s p</w>
rou tes.</w>
ro v.</w>
res ettlement</w>
region )</w>
re generation</w>
rap hy
rang ed</w>
quali ties,</w>
pul p</w>
prior i</w>
prin ter</w>
precinc t</w>
pr on
por ous</w>
poly hed
pollu ting</w>
po l</w>
par k.</w>
oxid ative</w>
osi bir
om in
non- financial</w>
ner ,</w>
negoti ations.</w>
multipli er</w>
mone y,</w>
min u
migr ation,</w>
micro finance</w>
men ting</w>
me ans,</w>
manage ment;</w>
malign ant</w>
magne to
m m)</w>
low- temperature</w>
lori des</w>
lecture r</w>
lead er.</w>
lar ge,</w>
k it
j i</w>
ir s</w>
interpol ation</w>
inform ing</w>
in aug
il e
i- th</w>
gui des</w>
fix ation</w>
finan ces</w>
fab ric</w>
exc itation</w>
example :</w>
ex cep
enzym e</w>
eng er</w>
embas si
em bed
el ite</w>
effec tivel
educ ational,</w>
dis man
difficul ties.</w>
deno te</w>
def ense,</w>
dead line</w>
de formed</w>
curren ts</w>
cr imin
corpor ation,</w>
contradic tion</w>
compu ters,</w>
co sm
cl ick</w>
child hood</w>
centuries- old</w>
car tographic</w>
bur ial</w>
break through</w>
bl asting</w>
bi a</w>
bat yr
back bone</w>
ax es</w>
aur us</w>
as sign</w>
appreci ation</w>
ap p</w>
annu ally,</w>
an ode</w>
amoun ting</w>
ak as
aircra ft,</w>
ag ency.</w>
adjus ting</w>
ad ata</w>
aci d,</w>
a h</w>
[4 ].</w>
Wor ker</w>
Wh y</w>
W a
W IT
V ik
V ali
Tra ffic</w>
Tas k</w>
Sur ve
Stat us</w>
St age</w>
S team</w>
S mail
S P</w>
Rec or
R T
Parlia ment.</w>
N avi
Mukh tar</w>
Mon ac
Mold ova,</w>
Min imum</w>
M ain
Lin u
Liany ungan
Ini tial</w>
Inform atic
Hum an
Hel p</w>
G row
G RA
Fin ally,</w>
Educ ation,</w>
E specially</w>
E )</w>
D ir
D S
C up</w>
C ub
C at
C an</w>
Be is
Analyz ing</w>
Ak sh
9 8.
9 8%</w>
8 th</w>
6 5
4 3
4 2
30 00</w>
24 -
2014-201 5,</w>
2 2%</w>
17 ]</w>
17 ,
12 2</w>
1 %)</w>
0,9 7</w>
0,8 6</w>
0,8 4</w>
0,8 3</w>
. .
-201 5</w>
( see</w>
( b
"Capit al"</w>
" for</w>
" ak
wrest ling</w>
workshop ,</w>
verte br
under went</w>
tri um
trans verse</w>
train ed.</w>
to o
tion ."</w>
therap y</w>
ter n
technologi es"</w>
teach es</w>
task s:</w>
sym p
subjec ts,</w>
strength ,</w>
stre ams</w>
step s:</w>
st ers</w>
st able,</w>
spec t
som eth
softw are,</w>
seed s,</w>
se a,</w>
scenari o</w>
salin ization</w>
s ex
s a</w>
rul er</w>
road "</w>
represent atives,</w>
ren e</w>
rel imin
relimin ary</w>
rel ates</w>
reas on,</w>
pursu ed</w>
procure ment.</w>
prep ared,</w>
post pon
po et</w>
pli ance</w>
percent ,</w>
part s.</w>
p seu
out com
on e's</w>
om o
ologi es</w>
offens es,</w>
observ ed.</w>
no te
moment um</w>
mo t
mo re,</w>
mi st
method s:</w>
mes ophil
mer its</w>
ment -
man .</w>
magn itude</w>
mach iner
lu or
low- frequency</w>
lin ,</w>
leg al,</w>
l end
k z
issu es:</w>
irre versible</w>
inform atiz
inf erior</w>
industri al,</w>
inclu des:</w>
in fo
in ability</w>
im pec
il -
hydrox ide</w>
hear ings</w>
h air</w>
gymnasi um</w>
gener ates</w>
ful ness</w>
fu sion</w>
frequ enc
fe bruary</w>
factor ,</w>
f c</w>
f atten
expo-201 7.</w>
exc ise</w>
enzym es</w>
ene tic</w>
ek i
draf ted</w>
domin ated</w>
direc tions,</w>
dig n
destin ation</w>
death s</w>
d ar</w>
cy ber</w>
cri me.</w>
cor pus</w>
comman ders</w>
colleg es,</w>
co ws</w>
citizen ship</w>
circum stan
chro m
chap ter</w>
champi ons</w>
calcul ation,</w>
broad casting</w>
bio technology</w>
be red</w>
be an</w>
aza қ
ath ers</w>
associ ation,</w>
assemb ling</w>
ash ak
as signing</w>
as bestos</w>
appli ances</w>
announc ed.</w>
announ ce</w>
an th
ambeto v</w>
altern ating</w>
alle t</w>
ali a</w>
al- Farab
akim ,</w>
age ,"</w>
accoun tability</w>
ac king</w>
ac chari
Z .</w>
Yer mek
V ene
Ural sk</w>
Tur gai</w>
Tur an</w>
TE D</w>
T selinograd</w>
Ri o</w>
Putin .</w>
Ph ase</w>
Peters burg
PC E</w>
O ren
Min sk</w>
M ang
M ,</w>
LL C,</w>
L ow</w>
L ong
Kazakh- German</w>
KAZA KH
IS )</w>
Ge ographical</w>
F )</w>
Every one</w>
Energ y,</w>
Commission .</w>
Com pliance</w>
Co ordination</w>
Child ren</w>
C ris
Bulg aria</w>
Braz il</w>
Ba urzhan</w>
Ba h
An sh
An n
Al 2O3</w>
Ak su</w>
Ac counts</w>
50 ,</w>
50 %,</w>
5 0,"</w>
4 %)</w>
200 9
20 4</w>
20 21</w>
18 5</w>
12 7</w>
12 3</w>
10 )</w>
1, 8
1, 000</w>
- forming</w>
" S.</w>
ze olite</w>
yog urt</w>
y az
y ach
wis e,</w>
win d,</w>
w ron
vol can
vir tualization</w>
vap or</w>
updat ed.</w>
up dates</w>
understand ing.</w>
un changed</w>
ul ite</w>
typ es,</w>
tw o
top ographic</w>
tin a</w>
the -
tap e</w>
tab le.</w>
tab le
sym metr
stat es
spar e</w>
sp ent.</w>
sm all,</w>
sk -
ser tal
se it
sche me,</w>
scal e.</w>
row .</w>
recru it
recogn izing</w>
re frac
rail way,</w>
r ated</w>
presiden cy</w>
precipit ate</w>
prag m
pne um
photo chemical</w>
philosoph y</w>
perme ability</w>
ov na</w>
oscill ators</w>
or na
ograph y,</w>
o tan
o '
negoti ation</w>
mo stly</w>
microcred its</w>
ment s)</w>
men cl
me at.</w>
maslikh ats,</w>
m az
jud ges,</w>
intes tinal</w>
inform ative</w>
improve ments</w>
im ov.</w>
il a</w>
i. e.,</w>
hydro gel</w>
hotel s,</w>
histori ans</w>
high way.</w>
happ iness,</w>
g ue</w>
furn itu
fi res</w>
favour able</w>
factor s.</w>
f ishing</w>
f ashi
exemp t</w>
every one.</w>
er- Stokes</w>
er s:</w>
enthusi as
enem y</w>
electro lysis</w>
du plic
discipl ines,</w>
des cent</w>
dee pen
decon tamination</w>
decl are</w>
dec entr
de ed
databas e,</w>
d m3</w>
d ining</w>
cut ter</w>
cour ty
counter -
convec tion</w>
conden sed</w>
concentr ates</w>
colum ns</w>
class es.</w>
circul atory</w>
canc el
c y.</w>
bor der,</w>
bir d</w>
bi ometr
ben ch
bas y</w>
bankrup t
aty rau</w>
attem pt</w>
ati ci
atame ken
as hev.</w>
as hak</w>
arm a</w>
ari es.</w>
approach ing</w>
appar ov</w>
anch or</w>
ampli fier</w>
ag gres
adjust ments</w>
a x</w>
[3 4]</w>
WIT H</w>
Vol ume</w>
Uni fied</w>
Under standing</w>
Taraz ,</w>
TIV E</w>
T est
T elecommun
Standar dization</w>
St or
Siberi an</w>
Se a.</w>
SY STEM</w>
Res ource</w>
Re venue</w>
R un
R emo
Priv ate</w>
Po ten
Po in
Per sian</w>
Par alympic</w>
P reliminary</w>
P L
Navi er-Stokes</w>
Mus lim
Mamin ,</w>
M ess
M c
Log istics</w>
Libr ary</w>
Li fe</w>
Kaz trans
Kaz munai
KAZAKH ST
K os
K i
January- April</w>
J our
Inform atization</w>
Individu al</w>
H u
G W</w>
Eura sia,</w>
Equip ment</w>
Engine er
EU .</w>
EC T</w>
Dossa yev</w>
Discus sion</w>
D ram
D o</w>
Cor rec
Clu b</w>
C ES
C C</w>
Appl ied</w>
Abdul lah</w>
Ab yl
7. 1</w>
6 0.
4 ;</w>
2020 -20
2017-201 8,</w>
0, 37</w>
0, 34</w>
0, 27</w>
0 25</w>
+ +</w>
" with</w>
" as</w>
" ar
yz stan</w>
y abin
y ).</w>
voc abul
vo te.</w>
vehic les.</w>
us ers.</w>
u i
treat ment.</w>
transi tional</w>
trans mit</w>
tran soil</w>
tradition s.</w>
tool ,</w>
three- year</w>
th ing,</w>
ter ;</w>
sym metry</w>
summar ized</w>
sugges tions</w>
substan tive</w>
stead ily</w>
spon gy</w>
sp ra
sou ght</w>
sign al,</w>
show n,</w>
ship ment</w>
sco red</w>
s ’</w>
s in</w>
ro o
ro le.</w>
read ers</w>
re tro
re tains</w>
r ats</w>
r ,</w>
quar rying</w>
pum ped</w>
proced ures.</w>
pro m</w>
polar ization</w>
ple as
pestici des</w>
pain ts</w>
ox ide,</w>
observ ing</w>
nomin ations</w>
nom adic</w>
nigmatul in</w>
nee ded.</w>
n s,</w>
n in
mil len
micro district,</w>
mer it</w>
me t,</w>
may ors</w>
mass es</w>
log istic</w>
leg acy</w>
le as
laure ate</w>
l ity</w>
khan ov,</w>
k g)</w>
iz er</w>
iz ed.</w>
investig ated.</w>
insul ating</w>
instru mental</w>
installe d,</w>
in let</w>
in ert</w>
impec cable</w>
identi fi
ho sts</w>
he rent</w>
ha ,</w>
gener alization</w>
fre e.</w>
form :</w>
fit ness</w>
first ly</w>
fin ish</w>
fil tered</w>
fic ation.</w>
ferro alloy</w>
feed stock</w>
fe eling</w>
favor ite</w>
far ,</w>
fai th
fa una</w>
experi ments,</w>
excur sion</w>
even ly</w>
erec ted</w>
em an
elec tri
elab or
effec tive.</w>
ec t</w>
dr ill</w>
do v</w>
do s
discover ies</w>
digi tiz
di et</w>
di bek</w>
develop ment;</w>
depos it
democr acy</w>
defin itely</w>
decreas es,</w>
de hy
d ron
cou pling</w>
condol ences</w>
communic ations.</w>
colleag ue</w>
ci ph
c ited</w>
bio diversity</w>
bil l.</w>
be ar</w>
b all
attem pts</w>
ation 's</w>
assi sted</w>
ash es</w>
arm y.</w>
ar ds</w>
anal og</w>
aly k</w>
ali ev</w>
alga e</w>
al so,</w>
ak b</w>
ak -
advis e</w>
adv ent</w>
ac le</w>
ab aev</w>
[2 3]</w>
Z n
Valu es</w>
VI II</w>
Tran sl
Th re
Tas ks</w>
TUR E</w>
Slov aki
Secret ary-
Sam ruk-
Rec tor</w>
Pro vision</w>
Presiden ts</w>
Poten tial</w>
Po si
PC M</w>
Nov osibir
Nor way,</w>
N /
Mad ina</w>
M yn
M 1</w>
Lond on,</w>
Lithu ania,</w>
Kaz yna</w>
Kash agan</w>
KAZAKHST AN</w>
I L
I ES</w>
Gener al,</w>
G SM</w>
Employe es</w>
Egyp t,</w>
EC E</w>
E idu</w>
Dra wing</w>
Differen tial</w>
Cris is</w>
Cos s
Con gratul
B lock</w>
Assem bly,</w>
Asi a-
Al p
Ag ribusiness</w>
AN AL
A -
7 0.
27 %</w>
200 6,</w>
200 -
20 %,</w>
2 %)</w>
199 4</w>
15 1</w>
0, 36</w>
(13 )</w>
( as</w>
"Strateg y"</w>
" summed</w>
" Z
" ,"</w>
yiel ds</w>
y al
well-be ing,</w>
wee ks</w>
wat ch</w>
war ri
w er</w>
vol .</w>
vocabul ary</w>
vic inity</w>
vari ability</w>
van adium</w>
v or
urg an</w>
un suitable</w>
um )</w>
twenty- first</w>
tt p
trans it,</w>
touri sts.</w>
top onyms</w>
top ology</w>
to x</w>
tigh tening</w>
thre ad</w>
th y
tetra hed
temperat ures,</w>
te ar</w>
tax i</w>
sun light</w>
struc ture
startu ps</w>
standardiz ed</w>
so viet</w>
so v.</w>
slu d
signific ant
shr ined</w>
shaf ts</w>
sh oc
sh ared.</w>
selec ted.</w>
sci ence
scann er</w>
ro l</w>
revi val</w>
replen ishment</w>
refin ed</w>
read y,</w>
ration ally</w>
rati os</w>
r ate.</w>
r an</w>
profession al,</w>
privatiz ation,</w>
pos it
port able</w>
port .</w>
port ,</w>
po p</w>
pl ed</w>
pi st
percent .</w>
pen dul
past ure</w>
par ity</w>
p h</w>
open ,</w>
oblig ations.</w>
no .</w>
nee ded,</w>
micro scop
mg/ l</w>
mari time</w>
li ver</w>
less ons,</w>
kyrg yzstan</w>
k ov.</w>
k ay
k W
is men</w>
inver ter</w>
inter ior</w>
inspec tions,</w>
inform al</w>
individu als,</w>
im pover
ignor e</w>
ig a</w>
ic on</w>
i st,</w>
hydro geological</w>
high way,</w>
her b
hel io
hear d.</w>
h air
gl ass
ge omorph
ge "</w>
flamm able</w>
fl ush
firm ly</w>
fer tile</w>
fer mentation</w>
exist ential</w>
exclu sively</w>
ex am</w>
ev a
eth ylene</w>
etc. ).</w>
estim ation</w>
erron eous</w>
envis ages</w>
en shrined</w>
en ough
en -
eg g</w>
e tic</w>
dis orders</w>
di odes</w>
desig ns</w>
der-in- Chief</w>
depos it,</w>
dem ic</w>
de formations</w>
d al</w>
correc tive</w>
correc ted</w>
constr aints</w>
constitu ting</w>
cons ular</w>
commission s,</w>
ch lorides</w>
center -
cas es.</w>
car bohydr
c m,</w>
c k</w>
buds man</w>
br a</w>
bel ow
be et</w>
bar rel</w>
bar ley</w>
b om
aud it,</w>
au tog
at ov.</w>
assum ption</w>
ass or
anthro p
analyz er</w>
an ova</w>
an onym
an k</w>
allow able</w>
alloc ating</w>
al in
air mobile</w>
ai t</w>
adop ting</w>
ab as
a yev.</w>
Z holy</w>
Z h</w>
Y u
W W
Un it</w>
ULA TION</w>
Turkmeni stan.</w>
TI ES</w>
T E</w>
Syri a.</w>
S ome
R S</w>
Pro spec
Pro of</w>
Pro ce
PH P</w>
P ul
Out put</w>
Omar ov</w>
Nikol ai</w>
Meas uring</w>
M ic
M F</w>
Lead er</w>
Kaz post</w>
K Z</w>
Industr i
I l
Hil bert</w>
Gen eva</w>
F F
EC ,</w>
E rik</w>
Du bai</w>
Dossa yev.</w>
Cre dit</w>
Cour se</w>
Comman der-in-Chief</w>
Center .</w>
COMP U
CA L</w>
C rit
C d
C T</w>
Ban k
Atmo spheric</w>
Arti st</w>
Ar my</w>
Ar k
Adv anced</w>
Add res
: //
9. 7</w>
9 0.
23 8</w>
2 3.
2 %),</w>
19 ,
15 th</w>
1 16</w>
0 9</w>
(0 )</w>
' re</w>
$ 2</w>
"E ternal</w>
" national</w>
 0
zer o,</w>
y bayev</w>
work ings</w>
white wash
vel y,</w>
v sky</w>
urani um,</w>
two- day</w>
tum or</w>
ts ),</w>
tri bal</w>
transi tions</w>
trac ks</w>
tou ch</w>
tor -
ting ;</w>
ti es)</w>
te re
tax ,</w>
strateg y
sti r
ste re
stat us,</w>
speech .</w>
speciali st,</w>
speci fication</w>
sovereign ty,</w>
small est</w>
sh al
sequ ences</w>
se x</w>
saus age</w>
restaur ant</w>
resol ved,</w>
repai red,</w>
recogn izes</w>
read ing.</w>
re mind</w>
programm ing,</w>
profession ally</w>
pro fic
priz es.</w>
pric e.</w>
prescri bed</w>
pre determined</w>
poly propylene</w>
po v.</w>
plan ned,</w>
pharmaceutic als</w>
per cep
pe ,</w>
path ,</w>
pap er
ov en</w>
outre ach</w>
out come</w>
on :</w>
notice able</w>
no mencl
mo tors</w>
mil ling</w>
mg/ kg</w>
med als.</w>
mat h</w>
ma de,</w>
m "</w>
li ked</w>
lan e</w>
jud ges.</w>
jour nal</w>
iz ed,</w>
it e-
issu ed.</w>
impro ved,</w>
im pl
i on-
hom e.</w>
hi de</w>
h at</w>
guest s,</w>
good- neighbour
ge om
g i</w>
g ence</w>
foun ding</w>
fl ame</w>
expl ored</w>
exhi bited</w>
excav ation</w>
ene w
en ables</w>
emphasiz es</w>
e- to-
e i</w>
drin ks</w>
distil lation</w>
dis advant
dic tion</w>
di atom
develop er</w>
declar ations</w>
dec ay</w>
de form
dam aged</w>
d us
d ough</w>
d in</w>
d es.</w>
cy clo
corrid ors</w>
conver ts</w>
conten ts</w>
consult ants</w>
consist ently</w>
consi sted</w>
comm only</w>
colli sion</w>
collabor ation</w>
classi fy</w>
class room</w>
clari fying</w>
civil ized</w>
centur ies,</w>
cas pian</w>
car ing</w>
cap illar
c ensus</w>
c ,</w>
brig ade</w>
brief ing,</w>
be er</w>
be e
bas ket
b ad</w>
b 2
aus p
atis m</w>
anticip ation</w>
ant agon
ani stan</w>
and -
amm uni
alloc ated.</w>
alle y</w>
ali yev.</w>
al ,"</w>
ail s</w>
afgh anistan</w>
achiev ed,</w>
academ ician</w>
Ze al
X i
Valu e</w>
Uni ons</w>
U su
U K,</w>
U -
Temir tau</w>
Strateg y.</w>
Signific ant</w>
Sem antic</w>
SD OH</w>
S E</w>
Remo te</w>
R ou
R .
Profess or,</w>
Pro posed</w>
P i</w>
Over view</w>
Mul ti-
M ay,</w>
Latvi an</w>
Lat via</w>
Kar ab
Is lam</w>
Ig or</w>
I bra
Histor ical</w>
H ague</w>
H 2</w>
Govern ment,</w>
Ge ography</w>
Fra me
For m</w>
Euro -
Equ ation</w>
En ter</w>
En forcement</w>
E d
Dram a</w>
DE N
D D</w>
Archit ecture</w>
Ann ual</w>
Ak tog
APP L
A ffairs.</w>
9. 4</w>
6 9
6 7
30 0-
24 %</w>
2, 8
199 5,</w>
10 4.
1 11</w>
(16 )</w>
( EAEU
" sam
" (
y er
wo ol
water proof
vol le
vision ary</w>
viol ent</w>
view s,</w>
ver sus</w>
ven ues</w>
valle ys</w>
vac ation
us age</w>
tren ds,</w>
transport ation.</w>
trans continental</w>
train ing;</w>
top ics,</w>
ton ation</w>
toler ance,</w>
ti tu
t ation,</w>
syner g
surpris ed</w>
suc ce
substr ate</w>
subsidi es.</w>
stro ke</w>
specific ations</w>
sol d,</w>
sni per</w>
si ve,</w>
ship "</w>
semin ar.</w>
see ing</w>
secre ts</w>
secon d,</w>
se t.</w>
s ounds</w>
ro of
ris es</w>
reveal ing</w>
refu ge
read y.</w>
rang e,</w>
r h
prep ares</w>
politici ans,</w>
politici an</w>
politic s.</w>
pipel ines,</w>
pendi x</w>
pale ontological</w>
pack ag
ov ich,</w>
out let</w>
our ing</w>
or )</w>
og raphy
offici als,</w>
oblig ation</w>
o )</w>
nor mal
non-prolif er
nat ure
muse um.</w>
mus icians</w>
multi- level</w>
multi- agent</w>
mot to</w>
ministr y.</w>
milli on
metro logy</w>
method :</w>
manufac tur
manifest o</w>
logis tical</w>
literat ure.</w>
lieu tenant</w>
k top</w>
isl amic</w>
inter views</w>
insur ance,</w>
instru ments,</w>
industri alization.</w>
individu al,</w>
in patient</w>
im al</w>
i bul
hom es</w>
helicop ters</w>
hel ium</w>
gl ori
gener al.</w>
form at
fif ty</w>
feren ce,</w>
feel ings</w>
extremis m.</w>
export s.</w>
export s,</w>
execu te</w>
ex change.</w>
ex change,</w>
etc. )</w>
elec tion.</w>
ef ,</w>
ed on
dy ing</w>
du ties,</w>
descend ants</w>
de pression</w>
de ploy
cor ner</w>
cor d</w>
cooper ates</w>
convic ts</w>
consult ative</w>
consider ation,</w>
concre te,</w>
component s:</w>
collec tion,</w>
classi fier</w>
circu it,</w>
circl es,</w>
cham ber.</w>
ch est</w>
ce -building</w>
catt le,</w>
cat astro
capit als</w>
bu tt
begun ,</w>
battali on</w>
b n</w>
ay ed</w>
ausp ices</w>
aud itor</w>
auc tion,</w>
as s.</w>
applic ation.</w>
ap p
an tenn
an other,</w>
algorith mic</w>
age :</w>
abandon ed</w>
Vik tor</w>
U sed</w>
THE MA
T T
T .
Swe den,</w>
Sol ving</w>
Sh ap
S yr
Regi stration</w>
Re ports</w>
Re form</w>
Radi o</w>
Proper ties</w>
Program me</w>
Petropavlov sk,</w>
O ne
Nu tri
Nazarbaye va</w>
Memor andum</w>
Mat erial</w>
MA THEMA
Lo gic</w>
INFORMA TION</w>
Heal th,</w>
Grow th</w>
Er dog
E ,</w>
Dzhak sy
Dem ographic</w>
D auren</w>
D E</w>
Christ mas</w>
Ch o
Ch ap
C ES</w>
Bay es</w>
B I</w>
B G</w>
An sw
Al lows</w>
A tomic</w>
A V
? "</w>
9 7%</w>
5 g</w>
5 5%</w>
5 %)</w>
25 %,</w>
24 .</w>
20 %.</w>
19 ]</w>
14 1</w>
13 9</w>
11 th</w>
1 1%</w>
0,9 5</w>
0 8
/ di
-------------------------------- --------------------------------
- w
(17 )</w>
( w
( -
"M y</w>
" atameken
" astana</w>
 t</w>
Қ azaқ
z u
work ;</w>
we gian</w>
war ning</w>
w as
un ci
turno ver,</w>
tub ular</w>
train ings</w>
tiven ess
third- party</w>
thin king.</w>
th yro
tempor al</w>
techn ic</w>
tax onomy</w>
suppl y.</w>
sulph ur
sugar ,</w>
studi o</w>
strategy 2050
sponsor ship</w>
softw are
so v,</w>
simul ated</w>
simpl est</w>
significant ly.</w>
sever ity</w>
set tings</w>
sec tions,</w>
s ound
s na
s i</w>
rou tes,</w>
ro m
rif le</w>
restr ial</w>
region ;</w>
regi me.</w>
regi me,</w>
reg im
read ing,</w>
re turning</w>
re con
ra ster</w>
r s</w>
r ally</w>
r aid</w>
quali fying</w>
pyram id</w>
purchas ed.</w>
prosper ity.</w>
prior ity.</w>
pre domin
potat o</w>
plen i
plas tics</w>
phenomen a,</w>
pen al</w>
peas ants</w>
patrio ts</w>
os timul
orth ogonal</w>
ore ,</w>
ophy toph
ol oc
of ten,</w>
o z
ne ver
n ick
n a,</w>
mu kha
mon uclear</w>
micro processor</w>
meter ing</w>
mathem atici
marg inal</w>
mar ath
magaz ine</w>
mag ambe
ma jil
luc k</w>
liter acy,</w>
libr ary,</w>
k v
k ingdom</w>
k au
intere sts.</w>
insul in</w>
increas ingly</w>
in tr
in spi
immun e</w>
i i
hydro thermal</w>
husband ry,</w>
hum us</w>
hon est</w>
hon e
grat ulation</w>
given ,</w>
g un
forwar d.</w>
follow ing:</w>
fiel ds.</w>
fi x</w>
fatten ing</w>
fair .</w>
extremis t</w>
expo-201 7,</w>
explo sions</w>
excit on</w>
en velop
embassi es</w>
elong ation</w>
elev ator</w>
dissoci ation</w>
disarma ment,</w>
dis solve</w>
def ended</w>
de mul
d as</w>
crim es.</w>
corrid or.</w>
corpor ation.</w>
conver ters</w>
consolid ating</w>
confiden ce-building</w>
con gratulation</w>
collec tors</w>
collec tives</w>
clust er,</w>
citizen .</w>
chi ps</w>
chi p</w>
cent ners</w>
cal ori
be ets</w>
ba itere
avi ation,</w>
ate ;</w>
at 's</w>
assess ments</w>
as e
arti facts</w>
ar able</w>
any sh
am per
alp ine</w>
algorith ms,</w>
al- oriented</w>
al dehy
al ."</w>
ak .</w>
agric ultural,</w>
administr ators</w>
ad mitted</w>
activ ity;</w>
accep ting</w>
[ 20
[ 18
Z r
Vie w</w>
Tal gat</w>
T R
Stu den
Sh ak
S ou
Rom ania,</w>
Robo tics</w>
R enew
R ES</w>
Ques tions</w>
Pr in
Plat form</w>
Par t</w>
PH YS
P ack
Orth odox</w>
O k
Mod els</w>
Majil is.</w>
M 2</w>
Langu ages</w>
Kore a.</w>
K PI</w>
I z
G P
Establ ishment</w>
EL ICI
De fines</w>
Dal enov</w>
D F</w>
Character istics</w>
Ch el
C lin
Bu kh
Braz ilian</w>
Bo zh
Bish ke
Bal tic</w>
B ase</w>
B U
[...]
