,	63906
.	59827
және	27201
"	24784
-	16577
мен	14972
the	11143
бойынша	8500
үшін	8425
of	7414
қазақстан	5713
бұл	5239
болып	4537
)	4247
жұмыс	3927
туралы	3879
оның	3799
болады	3682
%	3604
ол	3589
жаңа	3581
деп	3556
да	3547
деді	3475
атап	3372
бар	3197
(@@	3168
мемлекеттік	3136
in	3070
қатар	3013
осы	2981
жылы	2956
and	2953
to	2884
сондай-ақ	2878
білім	2837
барлық	2811
арқылы	2810
сонымен	2737
жүзеге	2682
жоғары	2630
–	2597
бір	2498
пен	2479
халықаралық	2479
біз	2422
(	2413
қр	2373
де	2357
өтті	2333
қамтамасыз	2310
негізгі	2308
-@@	2262
табылады	2251
өз	2233
дейін	2207
ұлттық	2203
барысында	2156
байланысты	2154
жалпы	2137
ішінде	2117
1	2116
Бұл	2099
іске	2077
екі	2066
экономикалық	1996
мемлекет	1995
емес	1954
беру	1953
ретінде	1916
арналған	1913
керек	1903
жылдың	1877
қазақстанның	1854
:	1850
мүмкіндік	1838
a	1832
олардың	1798
немесе	1789
мың	1788
маңызды	1741
is	1736
басшысы	1736
қол	1724
басқа	1719
ең	1697
қажет	1692
аясында	1690
дамыту	1689
ал	1688
біздің	1539
отырып	1536
отыр	1533
сәйкес	1522
қазіргі	1517
жол	1510
даму	1501
«@@	1462
кезінде	1454
әлеуметтік	1451
береді	1422
теңге	1420
2	1416
қатысты	1411
сөздер:	1411
арасындағы	1405
өзара	1402
болатын	1402
;	1401
жыл	1373
оқу	1363
президенті	1362
for	1337
т	1325
асыру	1320
қызмет	1315
әрі	1314
нақты	1308
тиімді	1287
үлкен	1286
бірі	1264
жеке	1259
қазақстандық	1258
жылғы	1255
ету	1253
түрде	1232
өткен	1219
түрлі	1208
алу	1204
kazakhstan	1202
бірінші	1192
адам	1188
болды	1180
айтуынша	1160
оқыту	1149
ақпараттық	1140
көп	1130
астана	1129
жөніндегі	1126
құру	1119
келеді	1094
3	1089
млрд	1081
ғана	1079
зерттеу	1061
басқару	1043
олар	1036
нұрсұлтан	1033
өте	1029
»	1028
алады	1025
су	1018
оны	1017
а	1015
айта	1014
ие	1013
ел	1012
ақ	1003
қайта	1003
одан	997
тұрақты	989
арасында	988
мүмкін	987
5	987
әр	986
ауыл	985
жатқан	982
басты	972
етеді	972
млн	959
10	955
бастап	955
on	950
негізінде	948
пайдалану	945
бас	943
мақсатында	942
2015	941
таңда	936
саласындағы	930
сақтау	927
қолдану	924
деген	922
хабарламада	921
болуы	919
республикасының	918
кейін	916
we	915
өңдеу	906
арнайы	902
астам	900
бағытталған	895
жүйесі	893
жасау	887
-ға	885
яғни	875
арттыру	874
қолдау	870
4	870
2016	862
жоба	862
бүгінгі	860
саны	847
мұнай	845
Түйін	843
орта	840
көптеген	839
i	838
елдің	837
мәселелері	837
делінген	837
үш	837
ірі	835
белгілі	828
бағдарламасы	827
енгізу	826
жер	826
көлемі	825
2014	825
техникалық	821
уақытта	821
айтты	814
ынтымақтастық	805
талдау	804
күн	802
екінші	799
көрсетілген	799
сыртқы	799
тек	794
орталық	793
екенін	792
кездесу	789
республикасы	789
will	788
жағдайда	783
бірқатар	781
ерекше	781
қажетті	780
аталмыш	776
100	774
млрд.	774
құрады	769
назарбаев	768
әскери	767
қарай	766
толық	761
тұрғын	760
әлемдік	759
20	759
құрылыс	758
онда	755
қазақстанда	754
қарсы	753
алып	750
пайда	747
жүйесін	746
жергілікті	745
are	740
еңбек	738
бірге	738
еліміздің	732
кетейік	732
өкілдері	731
м	730
3@@	729
өткендей	728
төрағасы	723
заң	722
у@@	720
қорғау	718
алынған	717
әсер	717
жылға	713
анықтау	713
белсенді	712
нәтижесінде	710
қаржы	710
сауда	710
кезде	709
инвестициялық	708
келесі	703
әртүрлі	702
2@@	701
оларды	697
соның	697
келген	696
облыс	694
сияқты	694
ішкі	691
аталған	689
тиіс	689
-деді	687
шаруашылығы	686
болған	684
энергия	683
с	683
with	683
құрайды	682
2017	681
қарастырылған	681
алматы	681
орынбасары	680
экологиялық	678
күні	678
көрсету	675
ғылыми	675
Осы	672
өткізу	672
that	672
денсаулық	667
30	666
тағы	666
5@@	665
бақылау	664
мақсаты	662
электр	660
берілген	660
Қазақстан	660
шағын	659
ға	659
соңғы	658
к@@	653
қала	653
дейінгі	652
медициналық	652
н@@	650
жағдай	647
саласында	642
Сонымен	642
ақпарат	639
қауіпсіздік	638
айтып	637
С@@	636
бұдан	631
болса	631
қазақ	629
қосымша	627
отырған	624
жобасы	623
қоғамдық	619
саяси	618
ағымдағы	617
сол	617
жұмыстары	617
м@@	616
this	615
6	615
технологиялық	613
жатыр	610
бірнеше	608
берді	607
бүгінде	606
с@@	602
дан	601
елбасы	598
п@@	598
бағалау	597
алғашқы	597
табиғи	597
жоқ	596
it	596
л@@	595
үй	593
у	593
экспо-2017	592
ш@@	590
көлік	587
т@@	585
6@@	583
өзінің	582
ететін	581
н	579
25	578
хабарлады	576
4@@	576
ал@@	574
дамытуға	572
келе	571
экономика	567
7	567
министрі	566
уақыт	564
и@@	564
әрбір	563
технологиялар	563
2013	563
оған	561
республикалық	561
өзекті	561
о@@	559
химиялық	559
орналасқан	558
аз	557
Аңдатпа	557
ресей	556
құрылысы	553
ар@@	552
жақсы	551
салыстырғанда	550
жасалған	549
қызметі	547
as	547
жүйесінің	545
пайдалануға	545
байланыс	545
8	544
инновациялық	543
алуға	540
заманауи	535
қ	533
be	533
жас	532
бірлескен	531
сатып	530
өндіру	529
our	529
ы	528
беретін	527
жүргізу	527
ды	525
have	521
9@@	520
орын	519
жылдан	519
жылу	518
алды	518
шетелдік	517
ынтымақтастықты	517
Мақалада	517
тонна	517
халық	515
г@@	515
К@@	515
аса	514
сала	512
көмегімен	512
15	504
өзге	503
екіжақты	501
Алматы	501
c@@	501
к	500
has	499
д@@	498
by	497
сондықтан	497
хабарлағандай	497
келісім	496
көмек	496
9	494
рет	493
нәтижелері	493
а@@	493
жоғарғы	493
ге	491
басшысының	490
кәсіби	490
Қазіргі	489
орташа	488
сайын	487
50	487
төмен	486
математикалық	486
жұмыспен	486
өмір	482
директоры	482
облысының	482
тараптар	482
назар	481
күрделі	481
еуразиялық	480
сай	480
7@@	479
алдағы	479
өнім	479
өңірлік	478
сапасын	477
п	477
a@@	475
жаһандық	474
зор	474
8@@	474
келтірілген	473
қорытындысы	473
дың	472
сапалы	472
әкімі	472
оң	470
өндірістік	468
атты	468
отандық	467
р@@	466
ала	466
негізделген	465
теңгені	464
әдісі	464
е@@	464
жөнінде	462
білдірді	462
газ	461
кең	461
дейді	461
министр	460
кезегінде	459
көрсетеді	457
жобаларды	457
істер	456
қаласында	455
қоса	454
шаралар	452
сөз	452
12	448
министрлігі	448
жылдары	448
өндіріс	447
қоршаған	447
мақалада	446
жүйе	445
атындағы	445
ақш	444
бизнес	444
талқыланды	443
астанада	443
тың	443
жоспарланған	442
дамуына	442
шешу	441
at	441
бөлігі	437
алған	434
ының	433
an	432
болашақ	432
ле@@	432
шеңберінде	432
дамуы	432
млн.	432
жұмыстар	432
ын	431
А@@	431
облысы	430
жуық	430
айтқанда	430
орны	430
б@@	430
1@@	430
осындай	429
айтарлықтай	429
сайлау	428
ді	428
development	427
мәселелерін	427
i@@	427
қалыптастыру	426
Т@@	426
мәселелер	425
теңгеге	425
ре@@	425
all	422
үкімет	422
барлығы	422
технологияларды	421
кеңес	420
Б@@	419
2020	419
салу	419
деректер	418
лік	418
қолданылады	418
құрамы	418
аралығында	417
тікелей	417
орталығы	417
тарту	417
та	416
p@@	416
мектеп	415
президент	415
сандық	415
бастапқы	415
ден	415
халықтың	414
кейбір	414
өзгерістер	414
д	414
11	413
б	412
state	412
ядролық	411
10@@	411
мәдениет	410
бұұ	410
was	409
year	408
жастар	408
та@@	407
деңгейде	407
электрондық	406
жетілдіру	406
кен	406
бағдарлама	406
жшс	406
ұйымдастыру	405
себебі	404
жəне	404
e@@	404
o@@	403
жеткізу	402
тиісті	402
анықталды	401
асыруға	401
құны	400
ғылым	399
талап	398
мәселесі	397
стратегиялық	397
қытай	396
алдын	396
қаласының	395
з@@	395
мәдени	395
х@@	395
өтеді	394
басым	394
мүмкіндігі	393
нұрлы	393
ұлы	393
's	392
те@@	391
де@@	390
ында	389
и	389
биылғы	388
ықпал	388
ай@@	387
М@@	387
р	387
дайын	386
ас@@	386
қазір	386
өтетін	385
көрсетті	385
қорғаныс	384
ның	383
қабылдау	382
дұрыс	382
шешім	380
не	380
қамту	380
қарағанда	377
дайындау	377
ына	377
деңгейі	377
осыған	376
мәселелерді	375
о	375
мөлшері	374
компания	374
нің	374
шығыс	374
=	374
тар	373
орай	373
ат@@	373
келіп	372
бұрын	372
көңіл	372
үздік	371
есептеу	370
бірақ	369
кешенді	369
ресми	369
ы@@	368
0@@	368
инвестиция	367
энергетика	366
алатын	366
кеңесінің	366
арқасында	365
етті	365
жұмыстарын	364
пайызға	364
дің	364
тең	364
би@@	364
ауқымды	363
талқылады	363
есебінен	362
дағы	362
жұмысын	361
егер	361
тиімділігін	361
лер	360
не@@	360
облыстық	360
әдістері	359
жасыл	359
ту@@	359
мемлекеттің	359
тұрады	358
ма@@	357
сот	356
л	354
жобасын	353
ақпаратты	353
new	353
шығару	353
і	353
спорт	352
2018	352
ке@@	352
ұлт	349
Ол	349
ан@@	348
айында	348
ашық	347
ты	347
тарапынан	347
бәсекеге	346
жағынан	346
оңтүстік	346
туристік	346
тәжірибе	345
құқықтық	345
қазақстандағы	345
қандай	344
0	343
орындау	343
әлем	343
жобаны	343
дәстүрлі	342
ақ@@	342
қызметінің	341
/	341
уға	341
энергетикалық	341
бүгін	341
ған	340
мұндай	340
темір	340
ынан	339
биыл	339
14	339
мәліметтер	338
A@@	337
деңгейін	337
есе	336
country	336
тауар	335
назарбаевтың	335
баспасөз	334
й	333
құрамында	333
ор@@	333
аймақ	332
S@@	332
халқы	332
мәселе	332
қойылған	332
жақын	332
түрі	331
"@@	330
k@@	330
кеңінен	330
/@@	329
қатысушылар	329
в@@	329
жылына	329
тұратын	329
үлесі	329
электронды	328
азия	328
лық	328
үшінші	328
Сондықтан	328
кәсіпорын	327
балалар	327
тау	326
О@@	326
ортақ	325
people	325
су@@	325
дық	325
түсті	325
жерде	325
ретте	324
салық	324
арттыруға	323
мәні	322
from	322
қызметін	322
нығайту	322
шамамен	322
басшылары	322
s@@	321
16	321
–@@	321
келетін	320
қоры	320
Д@@	319
қолайлы	318
ынтымақтастықтың	318
түрінде	318
инвестициялар	317
е	317
кез	316
ескере	316
қатысады	316
деректерді	316
а.@@	316
педагогикалық	315
ті	315
министрлігінің	315
ин@@	315
әлемнің	314
бағдарламалық	314
П@@	314
бес	313
дамыған	312
жауап	312
се@@	312
ып	312
бірыңғай	311
дамытудың	310
реттеу	310
әзірлеу	310
президентінің	309
ия	309
13	309
жолы	309
атқарушы	309
бағдарламасын	309
құрамына	309
ұсынылған	308
зерттеулер	308
туризм	307
қатты	307
d@@	307
етіп	307
қарастырылады	306
C@@	306
ме@@	306
мыңнан	306
бірлесіп	306
болсақ	306
жасауға	305
бөлек	305
жүргізілді	305
құрылған	305
жұмысы	304
азаматтық	304
2012	304
кері	304
тарихи	303
	303
беріледі	302
іс	302
қал@@	301
экономиканың	301
қадам	301
қолданылатын	301
40	301
берілді	301
облысында	300
жылдарға	300
ары	299
тық	299
19@@	299
жылдық	299
і@@	299
алғанда	298
енді	298
region	298
удың	298
тыс	298
елімізде	298
әлеуметтік-экономикалық	298
ко@@	298
жаңғырту	298
отан	298
бойы	297
алынды	297
шығармашылық	297
саласы	297
ж@@	297
бюджет	296
физикалық	296
қана	296
тің	296
соңында	296
баев	296
жөндеу	295
ыл@@	295
қа@@	294
өнімдерін	294
компьютерлік	294
тті	294
алдында	294
сауда-экономикалық	293
жобалар	293
мысалы	293
t@@	293
ер@@	293
технология	293
жақсарту	292
лі	292
есеп	292
қарқынды	291
аймақтық	291
алық	290
тар@@	290
А	289
шара	287
өтіп	287
қалпына	287
қа	287
ф@@	287
бүкіл	287
жобаның	287
Қ@@	287
ті@@	287
умен	287
г	286
аға	286
лар	285
қалалық	285
саясат	285
нәтижесі	285
бе@@	285
Ж@@	285
18	284
етуге	284
ти@@	284
work	283
компаниясы	283
бері	283
Ш@@	283
дүниежүзілік	282
баға	282
қазақстанға	282
отырмыз	282
жатады	281
жағдайында	281
бағдарламасының	280
елдердің	279
аумағында	279
оқытудың	279
өнімдері	279
жүйенің	279
сурет	278
ау@@	278
сі	278
қаласы	278
өндірісі	278
уы	278
парламент	277
кезеңде	277
мұнда	277
моделі	277
y@@	277
екендігін	277
ж	277
лердің	276
маңызы	276
ов	276
ше@@	275
құрылымы	275
со@@	275
ла@@	275
қолдана	274
president	274
банк	274
P@@	274
қатысуымен	274
қатарына	273
оқушылардың	273
соңына	273
барынша	273
өлшеу	273
жоспарлануда	272
міндетті	272
кеңейту	272
мал	272
бөлінген	272
ет	271
км	271
соң	271
лы	271
лері	270
countries	269
шешуге	269
анықталған	269
В@@	269
n@@	269
ін	269
ге@@	269
ра@@	268
да@@	268
70	267
төменгі	267
Егер	267
ымен	267
жылда	266
жан-жақты	266
қар@@	266
17	266
те	265
батыс	265
ұзақ	264
көлемін	264
алдымен	264
ро@@	264
еске	264
өнеркәсіп	264
Н@@	264
t	263
тан	262
лерді	262
қойды	262
уды	261
қосу	261
то@@	261
Г@@	259
сал@@	259
құрайтын	259
құжат	258
еуропалық	258
жоспарланып	258
теңдеулер	258
Ал	258
кәсіпкерлік	258
болу	258
й@@	258
Негізгі	258
асырылады	257
жоспары	257
сүт	257
осылайша	257
жағдайы	256
уын	256
ди@@	256
ді@@	256
тер	256
қоғам	256
жұмысқа	256
R@@	255
қолдануға	254
бизнестің	254
еді	253
жар@@	253
тұр	253
заңнамалық	253
алмасу	253
which	253
оларға	252
economic	252
бағыты	252
істейді	252
бағыт	252
there	251
қ@@	251
саналады	251
табысты	251
s	251
естеріңізге	251
әсері	251
менің	251
алар	250
алайда	250
қарапайым	250
га	250
ларын	250
тығыз	250
m@@	250
ақтөбе	249
уына	249
көрме	249
түрлері	249
бөлу	248
одақ	248
құруға	248
Р@@	248
жөн	248
сапасы	248
басқарма	248
анықталады	248
өзіндік	248
ні	247
әсерін	247
істейтін	247
И@@	247
f@@	246
әдіс	245
ч@@	245
өзі	245
төрт	245
e	245
құқық	245
бас@@	244
	244
ген	244
қызығушылық	244
сенім	244
еркін	244
сапа	243
нан	243
T@@	243
=@@	243
ке	243
b@@	243
мұндағы	243
ұ@@	243
ой@@	242
тардың	242
өту	241
ь@@	241
шаршы	241
метр	241
ай	241
ұзындығы	241
э@@	240
са@@	240
нд@@	240
қаржылық	240
жұмыста	240
өнеркәсіптік	240
тары	240
деңгейдегі	240
ба@@	239
комитетінің	239
премьер-министрі	239
жетекші	238
алы	238
21	238
кәсіпкерлер	238
заңды	238
ын@@	238
tenge	238
сумен	238
Түйінді	237
шаруашылық	237
қалған	237
дегі	237
500	236
200	236
қалай	236
тік	236
60	236
дар	236
ing	236
жүк	236
бай@@	236
тасымалдау	236
елді	236
елдер	235
механикалық	235
модельдеу	235
мыс	234
төрағасының	234
еаэо	234
жүргізілуде	234
лардың	234
гі	233
сыз	233
уі	233
өйткені	233
асы	233
келді	233
іскерлік	233
жасап	233
ц@@	233
дайындық	232
бай	232
кейінгі	232
алға	232
он	231
ттің	231
азық-түлік	231
іс-қимыл	231
таңдау	230
тын	230
жұмысына	230
кедендік	230
ды@@	230
ларды	230
мүмкіндіктері	230
форум	230
уге	230
елбасының	229
еуропа	229
аны	229
көрсеткіш	229
з	229
қарағанды	229
бал@@	228
80	228
органдардың	228
ми@@	228
тмд	228
жас@@	228
жағдайлар	228
g@@	228
өнімнің	227
я@@	227
негізі	227
май	227
сапары	227
келісімге	227
мүшелері	227
құрылды	227
артық	226
жеткізді	226
К	226
ық@@	226
);	226
сомасы	226
Зерттеу	226
айқын	226
қаржыландыру	226
first	226
жұмысының	225
дәл	225
қарамастан	225
мен@@	225
not	225
аламыз	225
маңыздылығын	225
асты	224
технологиясы	224
ны	224
тұрғыдан	224
елдерінің	224
№	224
лары	224
тәуелсіз	224
1-@@	223
химия	223
на@@	223
.@@	223
өсті	223
міз	223
сөзінде	222
ындағы	222
more	222
аудан	222
уда	222
were	222
пайдалы	222
O@@	221
сенімді	221
es	221
орындары	221
world	221
теориялық	221
бола	221
жасалды	221
істеу	221
тапсырды	221
орталығының	221
ттер	221
бастады	221
re@@	221
цифрлық	220
анықтауға	220
университеті	220
әлемдегі	220
24	220
гі@@	220
ма	219
қойылды	219
ты@@	219
өздерінің	219
international	219
300	219
кезіндегі	219
ттік	219
F@@	219
қою	219
картасы	218
one	218
әлеуетін	217
?	217
қызметтер	217
жедел	217
дамуының	217
лерін	217
ауа	216
с.@@	216
ұйымдардың	216
тарының	216
комиссия	215
тексеру	215
бала	215
несие	215
ли@@	215
жайлы	215
көлемінде	215
сін	214
құр@@	214
M@@	214
19	214
[1]	214
алдыңғы	214
about	214
сын	214
алтын	214
been	214
жатқанын	214
ауыр	213
L@@	213
қабылданды	213
негізінен	213
есепке	213
пікір	213
ш	213
қаз@@	213
years	213
көрсеткіші	213
үлес	212
жүргізіліп	212
жүргізілген	212
astana	212
аз@@	212
мүмкіндіктерін	212
әдістерін	212
келіссөздер	212
әсіресе	212
адамның	212
ыс@@	212
мүмкіндігін	211
оңтайлы	211
өнімді	211
у;	211
кө@@	211
ә@@	211
Мұндай	210
бар@@	210
салыстырмалы	210
15@@	210
са	210
ға@@	210
жолдары	210
12@@	210
ауданы	210
студенттердің	210
білімді	210
тұрған	210
ұйым	210
national	210
рұқсат	210
органдар	210
за@@	209
лі@@	209
бөлінді	209
бұған	209
орнын	209
артты	209
қасиеттері	208
ашу	208
жүргізіледі	208
таза	208
мамандандырылған	208
істеп	208
авто@@	208
энергиясы	208
important	208
35	207
табыс	207
тұңғыш	207
бол@@	207
асының	207
бен	207
жою	207
мүше	207
тін	207
сіз	206
u@@	206
23	206
әуе	206
billion	206
нығайтуға	206
жүйесіне	206
-ның	206
жобалау	206
бір@@	206
алғыс	206
k	205
уының	205
бізге	205
тиімділігі	205
С	205
сі@@	205
заттар	205
саладағы	205
ларының	205
қатысу	205
орайда	204
B@@	204
практикалық	204
ортаға	204
өнімдерінің	204
әкімшілік	204
м.@@	203
тал@@	203
ұсынды	203
28	203
мәжіліс	202
жүйелер	202
павлодар	202
қаланың	202
x@@	202
кету	202
бірдей	202
айналымы	202
today	202
келтіру	201
нді	201
до@@	201
байқалады	201
ғарыш	201
тобы	201
жеңіл	200
аралық	200
мақсат	200
микро@@	200
also	200
Х@@	200
адамды	200
бағытта	200
according	200
дамып	200
n	200
танымал	200
компаниясының	199
белгіленген	199
ол@@	199
26	199
тұр@@	199
зауыт	199
энергиясын	199
шикізат	199
шараға	199
N@@	199
қабілетті	199
қан	198
жеткілікті	198
кті	198
модель	198
миллиард	198
y	198
ция	198
табылатын	198
айтылған	198
тоқталды	198
бер@@	198
қабылданған	198
берудің	198
дифференциалдық	198
азаматтардың	197
же@@	197
рухани	197
елдері	197
тәуелді	197
адамға	196
заманғы	196
есеге	196
аударды	196
алғаш	196
Л@@	196
талқылау	196
ақмола	196
жағдайды	195
r@@	195
З@@	195
халқының	195
судың	195
29	195
Ф@@	195
болашақта	195
У@@	195
тарды	195
қара	195
құрылымдық	195
h@@	195
2-@@	195
әдістемелік	194
ен@@	194
жанындағы	194
саласының	194
than	194
шектеулі	194
көрмесіне	194
бизнесті	194
ни@@	194
компаниялар	194
ады	193
ауылдық	193
дар@@	193
қолға	193
дардың	193
кешені	193
бағыттары	193
удің	192
түседі	192
беруді	192
ауданында	192
ю@@	192
ғанын	191
салынған	191
саласын	191
санын	191
электро@@	191
ту	191
қарулы	191
+@@	191
бағдарламалар	190
кезеңінде	190
жылдар	190
D@@	189
лерге	189
енгізілген	189
өсуі	189
жүйелі	189
халыққа	189
жылдамдығы	189
жоспарлап	189
тәуелсіздік	189
бірлік	188
баса	188
беруге	188
орынға	188
отыр@@	188
үкіметі	188
орнату	188
қатысуға	188
температурасы	188
өнер	188
ашылды	188
даярлау	188
пайдалана	188
отырысында	188
металл	187
қосылған	187
ул@@	187
x	187
ияның	187
тәжірибелік	187
ат	186
жасайды	186
cooperation	186
заттардың	186
жемқорлыққа	186
машина	186
ation	186
иялық	186
22	185
ци@@	185
ұқсас	185
қамтиды	185
жел	185
материалдар	185
Э@@	185
p	185
ұйымдар	185
in@@	185
жамбыл	184
бюджеттік	184
уді	184
си@@	184
солтүстік	184
терең	184
кәсіпорындар	184
90	184
әлі	184
гидро@@	184
пе@@	184
сағат	183
салтанатты	183
сан@@	183
тану	183
т.б.	183
температура	183
шаралары	183
өңір	183
ғ@@	183
Е@@	183
артып	183
мәлімдеді	183
түрлерін	183
қаражат	183
нұр	183
ортаның	183
ам@@	183
болады:	182
ұсыныстар	182
уде	182
облыстың	182
дене	182
күш	182
қойған	182
ap@@	182
кез-келген	182
әріптестік	182
150	182
қызметкерлері	182
ар	181
кіреді	181
тәжірибесі	181
тер@@	181
қаралды	181
ттердің	181
G@@	181
ия@@	181
мүшесі	181
компаниялардың	180
миллион	180
мамандар	180
нен	180
мар@@	180
27	179
едәуір	179
ларға	179
жоспарын	179
said	179
беріп	179
адамдар	179
шешімін	179
кіші	179
көп@@	179
бөлінеді	179
қарастырылды	179
азаматтар	178
достық	178
көрсететін	178
шараларды	178
іс-шаралар	178
бизнес-@@	178
циялық	178
көрсетуге	178
бөліп	178
толығымен	178
ортаны	178
атын	177
қоғамның	177
беларусь	177
мерзімді	177
сыбайлас	177
зиянды	177
мәселесін	177
топырақ	177
мемлекеттер	177
жұмысты	177
20@@	177
ны@@	177
2019	176
құ@@	176
танысты	176
кар@@	176
үлесін	176
сінің	175
адамдардың	175
қызылорда	175
сызықты	175
ө@@	175
алдық	175
мемлекеттердің	175
өнеркәсібі	175
табу	174
облыста	174
сыз@@	174
ри@@	174
ст@@	174
head	174
жоспар	174
фото@@	174
жоспарлау	174
жүйесінде	174
теңгеден	174
пар@@	174
саласына	174
қуаты	173
[3]	173
органдарының	173
!	173
жүзінде	173
ұсынылды	173
берілетін	172
желісі	172
нысан	172
[2]	172
бюджеттен	172
ды.	172
al@@	172
тіркелген	172
-дан	172
статистикалық	172
құрылысын	172
дік	172
v@@	172
+	172
құралдары	171
құралдарын	171
Қазақ	171
c	171
көрсеткіштері	171
2011	171
қиын	171
іздеу	171
деңгейлі	171
бекітілген	171
18@@	171
ресурстарды	170
жұмыстарды	170
болғандықтан	170
қолданыстағы	170
ic@@	170
жауапты	170
орынды	170
an@@	170
noted	170
сіне	169
ерекшеліктері	169
ым	169
әдістер	169
міндеттерді	169
отбасы	169
бек	169
салада	169
қажеттілігі	169
өткізілді	169
Осыған	169
сынды	168
асын	168
кезекте	168
көрмесі	168
ктер	168
қалыптасқан	168
динамикалық	168
шарт	168
бізде	168
l@@	168
thousand	168
бейбітшілік	167
секілді	167
пайыз	167
ed	167
студенттер	167
қасиеттерін	167
саясаты	167
берген	167
асырылуда	167
H@@	167
елшісі	166
қор	166
z@@	166
мм	166
тапсырмалар	166
жан@@	166
органикалық	166
серіктестік	166
жүйені	166
медицина	166
бірегей	166
көмір	166
тты	165
ка@@	165
барысы	165
мәселені	165
М	165
көзі	165
процесі	165
2050	165
техника	165
w@@	165
болмақ	165
еліміз	165
ұсынылады	165
бағдарламаның	165
қауіпсіздікті	165
құралы	164
сәйкесінше	164
асына	164
шы	164
жинау	164
көрсетіп	164
азайту	164
ң	164
мақсатты	164
сәтті	164
әлемде	164
m	164
отын	164
мобильді	163
аларды	163
ұк	163
мүдделі	163
ви@@	163
хатшысы	163
қорытынды	163
міндеті	163
май@@	163
75	163
функциясы	163
лерінің	163
қор@@	163
асында	163
жария	163
сарапшылар	163
өлшемді	162
14@@	162
лермен	162
ші	162
ушы	162
автомобиль	162
түскен	161
жұмыстың	161
дауыс	161
орындарының	161
мектепке	161
қылмыстық	161
E@@	161
ғанда	161
ик@@	161
ұсынған	161
қарым-қатынас	161
жақты	161
ислам	161
т-@@	161
ктің	161
ведомство	160
ғаны	160
Осылайша	160
на	160
жеткізуге	160
er	160
асады	160
Мысалы	160
негіз	160
және@@	160
жағдайын	160
000	160
шешімі	160
шет	160
бу@@	159
арды	159
жасаған	159
әлеуеті	159
моделін	159
әкімдігі	159
I@@	159
ы-	159
пайызы	159
2010	159
бағасы	159
суды	159
ассамблеясының	159
көзделген	159
конституциялық	159
х	159
ардың	159
o	159
тарын	158
аудар@@	158
суретте	158
болашағы	158
тарату	158
инфрақұрылым	158
қамтитын	158
елеулі	158
Алынған	158
жиі	158
аясындағы	158
баева	158
Н	158
деңгейіне	158
шығаратын	158
ң@@	158
болуына	158
өсіп	158
қатысушы	158
кеңейтілген	158
уші	157
өзін-өзі	157
био@@	157
уіне	157
желі	157
гінің	157
асқар	157
теңіз	157
но@@	157
кездесуде	157
ү@@	157
халқына	156
инфрақұрылымдық	156
тұрғысынан	156
с-@@	156
кезең	156
ауданының	156
ұйымның	156
дербес	156
астық	156
Сурет	156
орындарын	156
ымыз	156
септігін	156
-деп	155
Білім	155
аш@@	155
ыр@@	155
жұмыстарының	155
меморандумға	155
жылмен	155
тауарлар	155
білу	155
әдісін	155
санының	155
1,@@	155
сы	155
)@@	154
өзінде	154
бақ	154
V@@	154
топ@@	154
13@@	154
зауыты	154
ан	154
production	153
жүйелері	153
асырылып	153
теңгенің	153
main	153
дер	153
органдары	153
their	153
айналды	153
қызметті	153
жа@@	153
рөл	153
лді	153
бағдарламаны	153
жаз@@	153
тұ@@	153
басқармасының	153
U@@	153
өнімдер	152
түркия	152
конференция	152
технологиялардың	152
T	152
мо@@	152
ерекшелігі	152
should	152
17@@	152
шыққан	152
теміржол	152
атқарады	152
дары	152
толықтырулар	152
коэффициенті	152
ағылшын	152
білдіреді	152
business	152
жобалардың	152
дипломатиялық	152
2,@@	151
қаласындағы	151
топ	151
қолжетімді	151
үкіметінің	151
мәліметтерді	151
кке	151
екендігі	151
кеңесі	151
биологиялық	151
в	151
меншік	151
компанияның	150
шар@@	150
талаптар	150
3-@@	150
кәсіпкерлікті	150
қызметтерді	150
тү@@	150
күрес	150
үнемі	150
арттырады	150
көлемінің	150
million	150
ac@@	150
бо@@	149
тура	149
аларын	149
Бірақ	149
жолдарын	149
Қазақстанның	149
ресурстарын	149
се	149
көрмеге	149
вице-министрі	149
комитеті	149
жайт	149
кү@@	149
тау-кен	149
басталды	149
Жалпы	148
[4]	148
iн	148
kazakh	148
жай@@	148
ағ@@	148
әйелдер	148
кен@@	148
кәсіптік	148
тез	148
себепті	148
нәтижелерін	148
тегін	148
бағыттағы	148
құрылысына	148
университетінің	148
ыңғайлы	148
экономиканы	148
31	148
жүргізуге	148
технологияны	148
25@@	147
іс-шара	147
талаптарына	147
ar@@	147
мөлшерін	147
шығар@@	147
мeн	147
ылған	147
маңғыстау	147
жабдықтау	147
program	147
таныстырды	147
аларының	147
басқарудың	147
4-@@	147
орындарында	147
банкі	147
баяндады	146
құрастыру	146
алгоритмі	146
Соңғы	146
салаларында	146
құрамын	146
тінің	146
[@@	146
мүмкіндіктер	146
минералды	146
лар@@	146
серпін	146
ұйымы	145
projects	145
жастардың	145
мал@@	145
жұмыстардың	145
өндіретін	145
көрсетілді	145
жолдауында	145
ман@@	145
құрамындағы	145
мән	145
мәселен	145
отырыс	145
қорының	145
кем	144
or	144
ық	144
қойылатын	144
ғалымдар	144
Р	144
жобасының	144
леу	144
кеткен	144
а-	144
өтініш	144
un@@	144
атынан	144
ұл@@	144
халықты	144
отырысы	144
қоймай	144
төтенше	143
экспо	143
процесін	143
анықтайды	143
информатика	143
б.@@	143
дамудың	143
00@@	143
нәтижелер	143
асырылды	143
тердің	143
сызықтық	143
сын@@	143
45	143
-ды	143
қызметіне	143
жыл@@	143
бөлігін	143
тапсырма	143
ак@@	143
еліміздегі	143
сүру	143
есептерді	143
C	143
Олар	143
йді	143
нды	143
айрықша	143
you	143
үкіметтің	143
ойлау	143
кездеседі	143
between	142
жүргізіп	142
қажеттігін	142
өзбекстан	142
қауіпсіздігін	142
министрлік	142
бос	142
мынадай	142
президенттің	142
уақыты	142
шақырды	142
өсімдік	142
time	142
балық	142
сай@@	142
ні@@	141
болат	141
тұрмыстық	141
аймағында	141
болашаққа	141
әрекет	141
қозғалыс	141
қо@@	141
тау@@	141
тән	141
тобының	141
ша@@	141
ка	141
про@@	141
Ө@@	141
өкілдерінің	141
автоматты	141
құрап	141
мына	140
анық	140
үлгі	140
ция@@	140
көздері	140
en@@	140
мат@@	140
жан	140
d	140
қалдықтарды	140
ап@@	140
жауынгерлік	140
мыз	140
Ұ@@	140
күтілуде	140
Оның	140
мамандарды	140
өсу	139
жартылай	139
уін	139
32	139
оптикалық	139
лігін	139
қосылды	139
тұрғыда	139
қамтылған	139
тт@@	139
өкілі	139
-ы	139
майды	139
ұйымының	139
ым@@	139
үздіксіз	139
сті	139
рөлі	138
қызметтің	138
ылды	138
елде	138
виртуалды	138
тіркеу	138
ы;	138
:@@	138
ру@@	138
күнге	138
құжаттар	138
оңтайландыру	138
леріне	138
төмендету	138
қауіпсіздігі	138
аталады	138
негізіндегі	138
шешімдер	138
депутаттары	137
ықтың	137
ғаннан	137
жағдайларда	137
Олардың	137
l	137
мамин	137
out	137
қырғызстан	137
сіздің	137
көздерін	137
өзгеруі	137
зейнетақы	137
16@@	137
енгізілді	137
технологиясын	137
аймақтың	136
1-сурет	136
тан@@	136
жобаларын	136
болатынын	136
S	136
парламенті	136
қостанай	136
30@@	136
ттерді	136
ers	136
5-@@	136
таң@@	136
жасады	136
support	136
ста@@	136
лігі	136
асырудың	135
айтуы	135
тері	135
иясы	135
бидай	135
байланыстарды	135
жүріп	135
удан	135
сінде	135
неғұрлым	135
өткізді	135
өткізуге	135
ұсынады	135
энергияны	135
стік	135
өлше@@	135
мониторинг	135
толықтай	135
иран	135
біріккен	135
кер@@	135
әлеуетті	135
атырау	135
ды,	134
тұрақтылық	134
economy	134
мәселелеріне	134
нано@@	134
its	134
географиялық	134
тыл@@	134
негізін	134
тен	134
ларда	134
very	134
қолданылды	134
деңгейінде	134
базалық	134
атом	134
әсерінен	134
al	134
боламыз	133
үлгісі	133
кіріс	133
1,5	133
өсім	133
жәнe	133
теріс	133
government	133
орнына	133
аймақта	133
құралдарының	133
күшейту	133
жетті	133
жүйелерін	132
investment	132
ылып	132
латын	132
гін	132
ала@@	132
тай	132
аб@@	132
қысқа	132
елінің	132
мәселелердің	132
Сондай-ақ	132
ика	132
лген	132
дарды	132
кезеңі	132
қатысып	132
кт@@	132
during	132
тарға	132
ндегі	131
ә	131
ова	131
коммерциялық	131
жылдам	131
ішіндегі	131
қолданбалы	131
тілді	131
мді	131
содан	131
жай	131
базасында	131
сім	131
мін	131
еэк	131
көз	131
construction	131
маған	130
дарын	130
ші@@	130
ттері	130
N	130
гіне	130
дәрежесі	130
қатысуы	129
одақтың	129
көшу	129
Алайда	129
мыңға	129
І@@	129
[5]	129
сапасына	129
қабатты	129
зи@@	129
сар@@	129
нде	129
басынан	129
зерттелген	129
дамуын	129
зияткерлік	129
жолаушылар	129
қарастырады	129
алардың	129
республика	129
қолдауға	129
23@@	129
дi	129
зертханалық	129
ықты	129
ретті	129
түрін	128
сұйық	128
жарық	128
кәсіпорындардың	128
ку@@	128
спорттық	128
aл@@	128
сапар	128
дөңгелек	128
В	128
public	128
орнатылған	128
шығ@@	128
us	128
қатарында	128
жиынтығы	128
етілген	128
бағдарламасына	128
қалыптастыруға	128
кәсіпорынның	128
рөлін	128
қауіпсіз	128
1)	128
55	127
басында	127
қи@@	127
партия	127
жібек	127
мас@@	127
ығы	127
үкіметтік	127
ынд@@	127
қолданып	127
өзіне	127
германия	127
тармен	127
пайдаланып	127
кешенін	127
озық	127
алаңы	126
туған	126
нұр@@	126
салаларындағы	126
сөздер	126
кі@@	126
тигізеді	126
мәңгілік	126
аналитикалық	126
оқушылар	126
ассамблеясы	126
ларына	126
nazarbayev	126
ministry	126
op@@	126
over	126
арал@@	126
тарихы	126
қуаттылығы	126
Т	126
экспорт	126
st@@	125
аның	125
екені	125
X@@	125
қарастырылып	125
құжаттарды	125
сының	125
social	125
білікті	125
келісімді	125
тапсырмасы	125
most	125
number	125
логикалық	125
шығу	125
Казахстан	125
тоннаға	125
600	125
сынақ	125
тор@@	125
ғыш	125
қорытындылары	124
көрсеткіштер	124
фи@@	124
ақтау	124
ел@@	124
н-@@	124
экономикасының	124
министрінің	124
мол	124
азамат	124
болады.	124
күкірт	124
индустрияландыру	124
әдісімен	124
орган	124
нде@@	124
геологиялық	124
ну	124
арада	124
әкеледі	123
діни	123
қай@@	123
Біздің	123
асып	123
істері	123
сан	123
2,5	123
өңірде	123
j@@	123
пайызды	123
ұсыну	123
мақсатқа	123
energy	123
шынайы	123
system	123
тарда	123
меншікті	123
issues	123
инфрақұрылымын	123
сабақ	123
ate	123
r	123
жобалары	123
тке	123
бірлесе	123
Мұнда	123
түр@@	123
зерттеуге	123
құс	123
құрылымын	123
қой@@	123
параметрлерін	122
болмайды	122
өнімі	122
жоғарыда	122
ло@@	122
мазмұны	122
кешен	122
баламалы	122
астанадағы	122
кездесулер	122
шараларын	122
кіретін	122
қарастыру	122
алынады	122
әкімінің	122
премьер-министр	122
сақтап	122
ман	122
ктердің	122
ден@@	122
ияда	121
Б	121
өндірісінің	121
жол@@	121
анықтайтын	121
жетеді	121
көтеру	121
жасанды	121
ы)	121
елдегі	121
33	121
тур@@	121
параметрлері	121
жүйелердің	121
елші	121
жазылған	121
аталып	121
ылады	121
A	121
тұрғындары	121
циясы	121
я	121
W@@	121
кезекті	121
жаппай	120
бағыттар	120
D	120
физика	120
жеткен	120
K@@	120
дін	120
ндық	120
йтін	120
математика	120
өңірдің	120
к-@@	120
н.@@	120
уран	120
er@@	120
ойын	120
инфрақұрылымды	120
сипаттамалары	120
есепті	120
мұнай-газ	120
орынд@@	120
бастаған	120
ыққа	119
ортада	119
мa@@	119
3,@@	119
ур@@	119
400	119
65	119
as@@	119
түсіндіру	119
шын	119
по@@	119
зерттелді	119
көрсетіледі	119
қауіпті	119
аль@@	119
жету	119
жұ@@	118
салалардағы	118
жолын	118
нның	118
қазақстан-@@	118
тәжірибесін	118
ко	118
елге	118
ылуы	118
сор@@	118
аймағы	118
бөлі@@	118
құрметті	118
ь	118
басталады	118
тыр@@	117
салалық	117
саясатының	117
саясатын	117
сақтандыру	117
көрсетілетін	117
уымен	117
ев	117
meeting	117
инвесторлар	117
жолында	117
материалдық	117
білдіріп	117
жарты	117
енгізіледі	117
жобалық	117
ab@@	117
қалыпты	116
ген@@	116
форумы	116
пайдалан@@	116
қашықтықтан	116
ттың	116
қосқан	116
қолдан@@	116
бі@@	116
сына	116
он@@	116
қ.@@	116
лікті	116
(1)	116
күші	116
максималды	116
ліп	116
күнделікті	116
бұқаралық	116
ері@@	116
дарға	116
шекаралық	116
меморандум	116
тілі	116
қатысушылары	116
education	115
түсетін	115
ды:	115
Республикасының	115
тап	115
нақтыланған	115
жайында	115
леді	115
great	115
артады	115
балаларға	115
бағыттарын	115
дә@@	115
байқау	114
күшті	114
мі@@	114
алмайды	114
мәндері	114
хабардар	114
т.@@	114
it@@	114
нәтиже	114
әзірленді	114
есепте@@	114
тұтыну	114
тілінде	114
мин@@	114
делегация	114
өте@@	114
ұлғайту	114
2009	114
алуы	114
автоматтандырылған	114
кездесуге	114
мақсатта	114
-да	114
элементтер	114
di@@	114
36	114
деңгейге	114
газды	114
тіледі	113
тәртібі	113
жылдығына	113
тілін	113
орналастыру	113
ды;	113
сінен	113
ие@@	113
шыұ	113
мақ	113
2-сурет	113
есептеледі	113
етуі	113
інің	113
міндет	113
долларды	113
лігіне	113
трлн	113
аумағы	113
лан@@	113
танымдық	113
лармен	113
технологиялары	113
ов.	113
институты	113
асырылуы	113
тпен	113
материал	113
мамандары	112
нейрондық	112
ада	112
мерзімі	112
қазақстандықтардың	112
орыс	112
Осындай	112
деңгейінің	112
е.@@	112
әкімдігінің	112
комиссияның	112
басшысына	112
тәрбие	112
on@@	112
топырақтың	112
сау@@	112
тарап	112
функционалдық	112
қарау	112
two	112
беков	112
бетон	112
мі	112
Ақпараттық	112
шаруашылығын	112
Яғни	112
мәнін	112
	112
кеден	112
әр@@	112
интерактивті	112
қызметкерлердің	111
маусым	111
талаптарға	111
2)	111
сімен	111
коммуналдық	111
жақ@@	111
оқушы	111
алушылардың	111
асыруда	111
implementation	111
project	111
жекелеген	111
бағалы	111
қорын	111
шымкент	111
тте	111
ф	111
am@@	111
ғылыми-зерттеу	111
желілік	111
стратегиясы	111
хабарлайды	111
ep@@	111
құрыл@@	110
ешқандай	110
ығының	110
h	110
көбінесе	110
ғы	110
қатысушылардың	110
—	110
төмендеуі	110
аудандық	110
Сол	110
му@@	110
салмағы	110
бекіту	110
ин	110
үнемдеу	110
ос@@	110
жаңадан	110
ттық	110
оңай	110
34	110
ag@@	110
лерде	109
ның@@	109
ылатын	109
салдарынан	109
ұр@@	109
Түйіндеме:	109
отырады	109
ресурстар	109
отырып,	109
кездесті	109
у,	109
департаментінің	109
Біз	109
бәйтерек	109
Қорытынды	109
қадағалау	109
факторлар	109
сайынғы	109
қабылдады	109
палатасының	109
көр@@	109
салаларда	109
фазалық	109
тамыз	109
тамақ	109
ттар	109
стің	109
үйлестіру	109
de@@	109
мәжілісінің	109
хабарлауынша	109
есебі	108
көрмесін	108
өзін	108
берік	108
бұ@@	108
бөлігінде	108
foreign	108
дан@@	108
within	108
өндірісін	108
салыстыру	108
жүйелерінің	108
ұйымдастырылды	108
жасалады	108
ша	108
тәжікстан	108
өзгерту	108
сы@@	108
жұмыстарына	108
ңіз	108
көлемді	107
жүреді	107
поли@@	107
жерге	107
жақсартуға	107
стандартты	107
маман	107
қолдауымен	107
газ@@	107
билік	107
комитет	107
сипатталады	107
жүрген	107
есептің	107
мамыр	107
бастау	107
қазақстанды	107
Әр	107
plan	107
өткізіледі	107
қол@@	107
дайындалған	107
қысым	107
жасайтын	107
теориясы	107
ығын	107
хатшы	107
ынталандыру	107
өнімін	107
Берілген	107
қха	107
өзгер@@	107
қыл@@	107
дер@@	107
Q@@	106
сақтауға	106
металлургия	106
корея	106
министрдің	106
aр@@	106
отырғанын	106
уі@@	106
ықтар	106
балалардың	106
нысандар	106
қолданысқа	106
вице-министр	106
орындауға	106
әзірленген	106
сипаттайтын	106
құрғақ	106
асыруды	106
инженерлік	106
тол@@	106
электр@@	106
табылады.	106
лер@@	106
гер@@	106
кездегі	106
ластану	106
тоқталып	106
икалық	106
келер	106
аты	106
барша	105
процесінің	105
сурет)	105
институтының	105
сә@@	105
бері@@	105
Барлық	105
жетекшісі	105
ыс	105
шартты	105
дала	105
қазақстан-2050	105
шақыр@@	105
менеджмент	105
парламентаралық	105
құрылым	105
лерімен	105
ктерді	105
Кілттік	105
кестеде	105
у-@@	105
хан	105
ме	105
еті@@	105
зе@@	105
наурыз	105
агро@@	105
жасалып	105
1000	105
әдетте	105
транзиттік	105
из@@	105
%)	105
болуға	105
held	105
800	105
ts	105
материалдары	104
кетерлігі	104
индустрия	104
мөлшерде	104
логистикалық	104
енгізуге	104
тор	104
үрдісі	104
қатынасы	104
жүйелерді	104
сыр@@	104
дау@@	104
city	104
айнал@@	104
р.@@	104
білімі	104
болғанда	104
Жоғары	104
жағдайына	104
ліктің	104
азиядағы	104
ктері	104
ана	104
ұсыныс	104
қозғалысы	104
тиесілі	104
ияға	104
нысаны	104
арын	104
толқын	104
Ы	104
g	104
қабілеттілігін	103
интеграциялық	103
шыл@@	103
игеру	103
көріп	103
салуға	103
лігінің	103
термиялық	103
сенат	103
қыр@@	103
50@@	103
өндірістің	103
бағдарламалары	103
тте@@	103
ұжымдық	103
форумның	103
бастамасы	103
Ә@@	103
ұтымды	103
ting	103
қуатты	103
Д	103
қабылда@@	103
ашады	103
шолу	103
көмектеседі	103
гуманитарлық	103
сапасының	103
тарына	103
парламенттік	103
гімен	103
тіпті	103
бере	103
күшіне	103
экспорттық	103
қалада	103
кедергі	103
тас@@	103
нысандарын	103
толықтырды	102
енгізуді	102
ки@@	102
стратегиясын	102
им@@	102
салынды	102
бұрғылау	102
ете	102
істеуге	102
байқауға	102
айтуға	102
жалғыз	102
овтың	102
мы@@	102
кетерлік	102
жі@@	102
теңдеуі	102
пікірінше	102
см	102
дарының	102
global	102
айналысатын	102
технологияның	102
or@@	102
ог@@	102
кон@@	102
мә@@	102
ц	102
процесс	101
астананың	101
im@@	101
ресейлік	101
бет	101
тапсырмаларды	101
жүйесіндегі	101
Екінші	101
летін	101
айды	101
but	101
атынын	101
қолданудың	101
өсімі	101
кеңейтуге	101
жолымен	101
тығыздығы	101
сипатталған	101
өнімдерді	101
елдерде	101
н.назарбаевтың	101
бейне@@	101
бюджетке	101
клас@@	101
уақытқа	101
аграрлық	101
these	101
сирек	101
industry	101
тының	101
le@@	101
алары	101
еуразия	101
аймақтағы	101
көрмесінің	101
шықты	101
кіру	100
алудың	100
айыр@@	100
қатаң	100
тәсіл	100
ex@@	100
зертте@@	100
болсын	100
шекті	100
бастысы	100
алынатын	100
пер@@	100
at@@	100
Бірінші	100
деректері	100
дамытуды	100
жаңартылатын	100
қуат	100
products	100
терді	100
орталығында	100
ашылған	100
аг@@	100
қолданылған	100
өр@@	100
тыны	100
ec@@	100
би	100
24@@	100
балаларды	100
ашылады	100
сипаттамасы	100
па	100
программалау	100
құттықтады	100
стер	99
Жоғарыда	99
ch@@	99
he	99
бәсекелестік	99
қа-	99
доллар	99
көруге	99
графикалық	99
ау	99
алматыда	99
мізді	99
міндетін	99
күштерінің	99
айтқан	99
кеңестің	99
қызықты	99
біл@@	99
д.@@	99
индексі	99
керектігін	99
250	99
Бүгінгі	99
салып	99
сөзінше	99
тұлға	99
ad@@	99
increase	99
семей	99
мын	99
операциялық	99
интернет	99
жер@@	99
міндеттер	99
үйлер	99
ағын	99
материалдардың	98
қажеттілігін	98
коммуникациялық	98
өндірісті	98
оқытуды	98
концентрациясы	98
ғылыми-техникалық	98
can	98
аларға	98
дайынд@@	98
ара@@	98
энергиясының	98
таны@@	98
жабдықталған	98
байланысы	98
түріндегі	98
орнының	98
сында	98
кір@@	98
шығады	98
тәртібіндегі	98
қойып	98
басқарушы	98
салалары	98
жатырмыз	98
қабылдауға	98
есептеулер	98
маның	98
қосты	98
республиканың	98
нді@@	98
тай@@	98
қолданады	98
төмендеді	98
қазан	98
тас	98
мер@@	98
growth	98
бастамасымен	98
ашылу	98
Қазақстанда	97
қабілетін	97
бұрынғы	97
құрмет	97
агенттік	97
мәселесіне	97
кәсіпкер	97
кан@@	97
құруды	97
тіл@@	97
I	97
қызметтердің	97
өрт	97
орталықтары	97
ауаның	97
сарапшы	97
ду@@	97
депутаттар	97
such	97
пайдаланылады	97
құқықтары	97
ы:	97
жетілдіруге	97
салынып	97
бейбіт	97
).	97
барлау	97
біліктілігін	97
general	97
автоматтандыру	97
ауға	97
se@@	97
10-@@	97
el@@	97
тынын	97
бан@@	97
ғарыштық	97
other	97
жиналған	96
автокөлік	96
қолданылуы	96
құрылады	96
ха@@	96
нының	96
85	96
нысандары	96
жүр@@	96
ортасында	96
ерекшеліктерін	96
Е	96
теңдеу	96
өкілдерімен	96
шеші@@	96
only	96
нормативтік	96
nursultan	96
көрсеткен	96
болмауы	96
етуде	96
47	96
60@@	96
regional	96
$	96
шығаруға	96
үш@@	96
функция	96
sh@@	96
invest	96
ология	96
ҚР	96
j	96
ынды	96
нің@@	96
айт@@	96
балабақша	96
түсіндірді	95
меңгеру	95
[7]	95
нда	95
осының	95
тақырыбы	95
кететін	95
мықты	95
көрменің	95
сүйене	95
ақпараттың	95
ларымен	95
салды	95
төртінші	95
таралған	95
алгоритм	95
мамандардың	95
оқытуда	95
жүйе@@	95
шақырым	95
уден	95
мекеме	95
шетел	95
три@@	95
орнықты	95
алынып	95
І	95
v	95
есе@@	94
веб-@@	94
бақылауға	94
төле@@	94
индустриалды	94
лайықты	94
экономикасы	94
есептер	94
order	94
ондағы	94
ттерін	94
жарқын	94
жаңарту	94
айтылды	94
жіберу	94
necessary	94
шарттар	94
last	94
жерді	94
қхр	94
көбірек	94
көрініс	94
аралығындағы	94
[6]	94
increased	94
жағдайға	94
бөлініп	94
бұр@@	94
құрал	94
ерекшеленеді	94
тұжырымдамасы	94
кте@@	94
42	94
У	94
мада	93
көздейді	93
қосып	93
шы@@	93
Кіріспе	93
тәсілдері	93
Оңтүстік	93
құттықтап	93
п,	93
жетістіктері	93
таб@@	93
кe@@	93
етілді	93
анд@@	93
co@@	93
пайдаланудың	93
сағынтаев	93
қара@@	93
ндар	93
“@@	93
қызығушылығын	93
мұғалім	93
құқықтарын	93
ой	93
сараптама	93
температурада	93
алты	93
тазарту	93
бойында	93
жеткізілді	93
қарап	93
7-@@	93
кол@@	93
әкім	93
асыр@@	93
лерден	93
бірден	93
38	93
өнімдердің	93
сте@@	93
11@@	93
уақытша	93
il@@	93
is@@	93
шарттары	93
лікке	92
білі@@	92
арттыр@@	92
шылар	92
өңірдегі	92
көрсеткендей	92
қай	92
ист@@	92
дәрежесін	92
мерекелік	92
заңына	92
азаматтарға	92
ата@@	92
нысандарды	92
болжау	92
қк	92
өзгеруіне	92
спен	92
отырыста	92
реформа	92
44	92
қант	92
жолмен	92
өтуде	92
жеті@@	92
маңыздылығы	92
Нәтижесінде	92
құнды	92
нын	92
түбегейлі	92
құралдар	92
пайыздық	92
ti@@	92
эк@@	92
айда	92
°С	92
27@@	92
міндеттерін	92
циялау	92
франция	92
ов@@	92
43	92
көлемде	91
жастарды	91
қарым-қатынасты	91
энергияның	91
ина	91
премьер-министрінің	91
масы	91
лу	91
процесінде	91
а)	91
бағалауға	91
қарсаңында	91
ығымен	91
соғыс	91
демалыс	91
бағ@@	91
бақытжан	91
алмасты	91
қы@@	91
bank	91
басын	91
кешенінің	91
group	91
өнімінің	91
қу@@	91
партиясының	91
қосылады	91
жобаларға	91
ұш@@	91
1,6	91
стан	91
жобаға	91
ізде@@	91
Жер	91
қонақ	91
жасай	91
туындайды	90
теле@@	90
ықтары	90
радио@@	90
талаптарды	90
бағдарламаларды	90
Кілт	90
бөлімінің	90
алуда	90
уымыз	90
ымды	90
up	90
біршама	90
policy	90
аталатын	90
сату	90
біртіндеп	90
асырады	90
институционалдық	90
35@@	90
шамасы	90
шешудің	90
ашылуы	90
өңдеуге	90
элементтері	90
гінде	90
қысқарту	90
78	90
базасы	90
тәрізді	90
ги@@	90
оп@@	90
trade	90
лен@@	90
оқушының	90
білімін	90
тартуға	90
үкіметке	90
армения	90
Ж	90
ағаш	90
кг	90
ск	90
гео@@	90
Мұнай	90
сұр@@	90
бу	90
пәтер	90
шығарылатын	90
oil	90
part	90
алу@@	90
almaty	90
тірке@@	89
жасқа	89
48	89
ығ@@	89
байланысқан	89
ғасырдың	89
деректердің	89
тінде	89
X	89
түсіндір@@	89
күміс	89
шыны	89
табуға	89
тәжірибені	89
ресейдің	89
лады	89
қабілеті	89
ынтымақтастығы	89
нов	89
зат	89
цияның	89
including	89
level	89
37	89
ндік	89
басшыларының	89
әрине	89
сп@@	89
көліктік	89
3D	89
артуы	89
базасын	89
Ең	89
тәсілдерін	89
сұрақтар	89
мызды	89
minister	89
тапқан	89
орындық	89
іс-шараға	89
ек@@	89
өнімділігі	89
онлайн	89
өткізілген	89
26@@	89
материалдарды	89
ықтимал	89
анықтап	89
беттік	89
желі@@	89
ықтардың	89
қатарлы	89
алюминий	88
біріншіден	88
жүйеге	88
M	88
қарастыр@@	88
назарбаевқа	88
асыратын	88
міздің	88
геометриялық	88
жалға	88
ндер	88
L	88
(2)	88
ретте@@	88
жаңғыру	88
болуын	88
өсуіне	88
8-@@	88
қыс@@	88
жи@@	88
жу@@	88
айналады	88
ену	88
міндеттері	88
шараның	88
ған@@	88
семинар	88
етуді	88
ated	88
ктен	87
бор@@	87
тардан	87
тауарларды	87
орталығын	87
хан@@	87
дау	87
ши@@	87
Жаңа	87
төлем	87
басқармасы	87
пайызын	87
психологиялық	87
каспий	87
лардан	87
комиссиясының	87
ұйымдарының	87
асырылатын	87
бірлігі	87
кте	87
нарығын	87
үкіметаралық	87
жемісті	87
b	87
зерттеудің	87
аларда	87
самұрық-қазына	87
улер	87
relations	87
children	87
кездесетін	87
жылдығын	87
special	87
генін	87
ығына	87
қарыз	87
дәрежеде	87
em@@	87
экономикаға	87
41	87
процестерді	87
бағытында	87
ұялы	87
диалог	87
тұру	87
3,5	87
фактор	87
бөлісті	87
2025	87
депутат	87
дай	87
уақытын	87
әдістемесі	87
developed	86
украина	86
арттырып	86
пан@@	86
Абай	86
қалып	86
программалық	86
форумға	86
береді.	86
жұмысымен	86
азот	86
95	86
қазақстандықтар	86
ве@@	86
ықтарын	86
дердің	86
басшылығымен	86
жин@@	86
pe@@	86
ок@@	86
түріне	86
ата	86
тр@@	86
улар	86
кат@@	86
саясатты	86
технологияларын	86
64	86
күндері	86
тарымен	86
алдындағы	86
Ы@@	86
ысын	86
таңдап	86
жерлерде	86
пайдаланылатын	86
серпімді	86
басшылығы	86
service	86
жақында	86
төрағалығымен	86
интеграция	86
ир@@	86
ұстап	86
типті	86
ro@@	86
етіледі	86
budget	86
into	85
ндердің	85
батыр@@	85
қайрат	85
басқаруды	85
тұлғалардың	85
қос	85
жауапкершілік	85
орындалады	85
тіл	85
кі	85
в.@@	85
кетті	85
облысындағы	85
ж.@@	85
университет	85
жататын	85
термо@@	85
шығып	85
Ар@@	85
әрдайым	85
а-@@	85
кел@@	85
орталықтың	85
орында	85
біріктіру	85
мектептер	85
құрылысының	85
алуды	85
пайдалануды	85
ресурстары	85
компаниялары	85
жұмысшы	85
-нің	85
әдістерді	85
шарты	85
тәуелділігі	85
бөл@@	85
жану	84
ақпараттандыру	84
ity	84
студент	84
тапсыр@@	84
қос@@	84
әдіспен	84
бәрі	84
нарық	84
саясаттың	84
уінің	84
елдерінде	84
орнында	84
ленген	84
атамекен	84
кәсіпорындары	84
құрудың	84
әлсіз	84
дe@@	84
құқығын	84
шешімдерді	84
атмосфералық	84
барысын	84
айтын	84
оқ@@	84
кездесуі	84
72	84
”	84
көпшілігі	84
малы	84
талған	84
екіншіден	84
мектептің	84
құй@@	84
цемент	84
еті	84
құралдарды	84
P	84
мнің	84
пилоттық	84
нұрлан	84
жиын	84
дегеніміз	84
еқыұ	84
ысы	84
сіздердің	84
дал@@	84
62	84
ммен	84
they	84
өнімділігін	84
companies	84
Республикасы	84
tion	84
6-@@	83
ы,	83
индустриялық	83
дамытуда	83
&	83
шеттік	83
ланған	83
тұрақтылықты	83
авиация	83
үйрету	83
күштері	83
28@@	83
асындағы	83
алдына	83
стердің	83
туризмді	83
қарастырып	83
2000	83
ak@@	83
құраған	83
нар@@	83
өндірушілер	83
асымен	83
-ге	83
депутаты	83
нәтижелі	83
republic	83
ri@@	83
келе@@	83
табиғат	83
каз@@	83
eр@@	83
Аталған	83
гектар	83
шараны	83
қызметкерлерінің	83
алмастыр@@	83
мазмұнын	83
белгіленді	82
корпорациясы	82
ca@@	82
need	82
тапсырмаларын	82
сты	82
реформалар	82
through	82
жалғастыру	82
федерациясының	82
шығарады	82
ə@@	82
H	82
ере@@	82
орындалуы	82
бағыттарының	82
дамы@@	82
жоспарының	82
барлығын	82
29@@	82
қысқы	82
өтілді	82
жүргізуді	82
шаралардың	82
ттен	82
фор@@	82
'	82
2008	82
атқар@@	82
тен@@	82
банктің	82
таяу	82
есептелген	82
өткізіліп	82
лу@@	82
агенттігі	82
улары	82
am	82
қатысуда	82
security	82
жүйелік	81
тады	81
төменде@@	81
мәдени-гуманитарлық	81
бағдарламаға	81
шекте@@	81
астанаға	81
қалыңдығы	81
шық@@	81
1,2	81
құрылғылар	81
қышқыл@@	81
келесідей	81
тa@@	81
conditions	81
байланыстар	81
тұз@@	81
арта	81
у)	81
u	81
кті@@	81
арзан	81
ені	81
since	81
қалаларында	81
ауы	81
total	81
құрамының	81
ішінен	81
қабілеттілік	81
аэа	81
76	81
қатысқан	81
52	81
тығы	81
ауыстыру	81
нына	81
қаңтарынан	81
таралу	81
тіршілік	81
қалдық	81
арға	81
удағы	81
жаңартылған	81
арының	81
тылық	81
қыркүйек	81
жобасына	81
бірігіп	81
саланың	81
көрсеткіштерін	81
инг	81
сұраныс	81
жүргізілетін	81
лерінен	81
ойымша	81
тұлғалар	81
бағдарламалардың	80
жасауда	80
тап@@	80
ерте	80
заңнаманы	80
тәсілі	80
ауылында	80
қызметкерлер	80
ul@@	80
жүргіз@@	80
материалдарын	80
шешуде	80
жүргізі@@	80
қалалар	80
одағы	80
тест	80
]	80
мдік	80
аудару	80
ологиялық	80
ндағы	80
мәлімет	80
қалдықтар	80
ауыз	80
қатысушыларға	80
тәртібін	80
address	80
үй@@	80
now	80
топтары	80
сынып	80
center	80
ы-@@	80
40@@	80
маны	80
end	80
аларында	80
өндіруші	80
шқо	80
ent	80
аяқталды	80
қан@@	80
органдарға	80
модельдер	80
н,	80
жікте@@	80
тіре@@	80
ауыл@@	80
айының	80
компьютер	80
негізде@@	80
ев@@	80
ннің	80
z	80
сү@@	80
ашыл@@	80
партиясы	80
ып@@	80
@@	80
табылған	80
бере@@	80
дiң	80
салынады	80
working	80
металдар	80
артқан	80
сулы	80
future	80
9-@@	80
үдерісін	79
республикасындағы	79
ияны	79
тір@@	79
қалды	79
беріліп	79
әзірле@@	79
51	79
алғысын	79
тұрғындар	79
қысқаша	79
ю	79
ль@@	79
әңгіме	79
кор@@	79
н.назарбаев	79
%-ға	79
дерді	79
іс-қимылды	79
ұйымдастырылған	79
үшiн	79
сті@@	79
шекара	79
56	79
акция	79
елі	79
біртекті	79
құрамдас	79
тоннаны	79
қa@@	79
дa	79
әдістерінің	79
премьер-министрдің	79
мұнай@@	79
бей@@	79
нәтижесін	79
саланы	79
биіктігі	79
тың@@	79
басқар@@	79
кітап	79
сат@@	79
ur@@	79
тудырады	79
ақша	79
98	79
бақ@@	79
опера	79
өтуге	78
шығындарды	78
шо@@	78
байланыстың	78
н.назарбаев.	78
етін	78
ғасыр	78
created	78
циясының	78
700	78
пән	78
ді.	78
күніне	78
бек@@	78
қаншалықты	78
1,3	78
жалпыұлттық	78
бағасын	78
them	78
суға	78
шығын	78
өлшемі	78
алын@@	78
кпен	78
ынтымақтастығын	78
ations	78
лық@@	78
қазагро	78
айнымалы	78
нарығына	78
үйді	78
Ұлттық	78
қызметтерін	78
функциялар	78
63	78
айналып	78
төмендейді	78
ад@@	78
жолындағы	78
құнын	78
төмендегі	78
ерлан	78
балқыту	78
етудің	78
ov	78
өңде@@	78
курс	78
ғалымдардың	77
company	77
азаматтары	77
білім@@	77
ттардың	77
many	77
қырғыз	77
алар@@	77
мырыш	77
оқып	77
орнатуға	77
талқылауға	77
сақ	77
іне	77
Ал@@	77
үйдің	77
белсенділігін	77
қазанда	77
жылдығы	77
жоспар@@	77
ісі	77
ес@@	77
идеясы	77
тұрғындардың	77
байыту	77
ір@@	77
қышқылы	77
ескер@@	77
асынан	77
үрдісін	77
ұсақ	77
ісін	77
теңдеудің	77
құрылым@@	77
қау@@	77
проблемалар	77
жылу@@	77
классикалық	77
тұтынушылардың	77
ұзақтығы	77
толықтыр@@	77
тестілеу	77
федерациясы	77
істе@@	77
ара	77
event	77
дағдарысқа	77
фер@@	77
циясын	77
н-	77
өзгертулер	77
алдын-ала	77
сер@@	76
ықтарды	76
ттерге	76
техникасы	76
sector	76
china	76
лығы	76
өңдеудің	76
процесіне	76
бағдарламаларын	76
еткен	76
термин@@	76
этномәдени	76
ске	76
адамдарға	76
тараз	76
министрлігінде	76
қарым-қатынастың	76
төлеу	76
дарына	76
кесу	76
т-	76
денсаулығы	76
барды	76
тері@@	76
оқуға	76
si@@	76
қабат	76
сұлтанов	76
ор	76
amount	76
pro@@	76
удегі	76
соған	76
қазақстанмен	76
2030	76
тe@@	76
қыз@@	76
(C@@	76
баяндама	76
бел@@	76
planned	76
метр@@	76
өсімді@@	76
қолдануды	76
орман	76
экономикасына	76
заман	76
түсіністік	76
ғаламдық	76
салалар	76
ұкп	76
қасиеті	76
R	76
заттарды	76
қосыл@@	76
нымен	76
кремний	76
ский	76
беруде	76
жетістіктерін	75
функциялары	75
li@@	75
жылдамдығын	75
бюджеттің	75
тілге	75
сақ@@	75
лері@@	75
ктерінің	75
жал@@	75
рей@@	75
f	75
ады.	75
well	75
ық-@@	75
атор	75
істеуде	75
әлемге	75
улы	75
ль	75
Ү@@	75
қой	75
46	75
Әрбір	75
енгіз@@	75
мәліметінше	75
82	75
көкөніс	75
Көптеген	75
70@@	75
таныстырылды	75
италия	75
ауыс@@	75
Қ	75
туынд@@	75
күшін	75
элементтердің	75
тына	75
іп	75
заңның	75
өзені	75
measures	75
97	75
бөлінетін	75
басына	75
жо@@	75
тақырып	74
мәдениеті	74
жағдайларды	74
дың@@	74
гу@@	74
кәсіпкерлерге	74
екеніне	74
объект	74
тә@@	74
партияның	74
атқаратын	74
асырылған	74
м-@@	74
сапалық	74
барып	74
Енді	74
инвестицияларды	74
түзетулер	74
түз@@	74
түркі	74
алаң	74
mo@@	74
қаңтар-@@	74
бастайды	74
kaz@@	74
қорға@@	74
2,4	74
ғы@@	74
ашуға	74
үстінде	74
мин	74
49	74
аумағындағы	74
келешегі	74
тыйым	74
O	74
қалыптасуы	74
et	74
төмендегідей	74
факторлардың	74
сөйле@@	74
бетінің	74
тізімі	74
сипаттау	74
желтоқсан	74
нарығында	74
қозғалысын	74
Ре@@	74
түрлерінің	74
36@@	74
Жұмыста	74
үлгі@@	74
жеңіс	74
сәуір	74
өңделген	74
жапония	74
мереке	74
ратификациялау	74
нарығы	74
тұтас	74
ақпараттық-@@	73
тізбе@@	73
regions	73
келісімнің	73
ил@@	73
жетістіктерге	73
функционалды	73
топтар	73
проблемалық	73
тоқта@@	73
тәртіп	73
-мен	73
қордың	73
таныстыру	73
елімізге	73
па@@	73
200@@	73
тұрақтылығын	73
тұрғындарының	73
бағалаудың	73
сауықтыру	73
тө@@	73
мәселелерге	73
180	73
information	73
exhibition	73
өткізілетін	73
қызыл	73
4,5	73
палата	73
тәулігіне	73
қорытындысында	73
нарықта	73
high	73
eurasian	73
іріктеу	73
го@@	73
ков	73
салыстыр@@	73
population	73
ы»	73
қас@@	73
ұлыбритания	73
тұрақтылығы	73
ктерін	73
енген	73
жолының	73
қозғал@@	73
ретіндегі	73
сымен	73
нысандарының	73
жіө	73
тылған	73
Бір	73
мәнге	73
сынау	73
ымы	73
Күн	73
алыс	73
ліктері	73
union	73
тартылды	73
түйі@@	73
citizens	73
фо@@	73
ав@@	73
ид@@	73
элемент	73
адамдарды	73
жинақ@@	72
сый@@	72
enterprises	72
ғыш@@	72
малық	72
көпір	72
бақылауды	72
бастар	72
сұлбасы	72
мүше@@	72
өндірілетін	72
академиялық	72
түсіні@@	72
иясының	72
желілері	72
моделінің	72
парламенттің	72
Себебі	72
есеппен	72
оқиға	72
мәлім	72
уәкілетті	72
@@	72
массасы	72
негізде	72
өндіруге	72
0,@@	72
ашып	72
см@@	72
жеткіз@@	72
аларына	72
om@@	72
жинақ	72
шығатын	72
бетіне	72
нұсқасы	72
уіміз	72
қызметке	72
терін	72
кәсіпкерлердің	72
терінің	72
кеңістік	72
шам@@	72
тартылған	72
интеллектуалды	72
материалдың	72
оқыту@@	72
қарастыруға	72
иядан	72
ауылшаруашылық	72
өзе@@	72
67	72
бөлшек	72
market	72
tr@@	72
тық@@	72
заңға	72
лігімен	72
өсіру	72
жүйеде	72
экология	72
АР@@	72
бөлшектердің	71
от@@	71
нәтижелерді	71
жеткізілген	71
дағдарыс	71
ларында	71
key	71
who	71
мдер	71
құқығы	71
долларға	71
профессор	71
68	71
ив@@	71
аралап	71
дәрежелі	71
ттары	71
health	71
артуына	71
стандарттар	71
53	71
топқа	71
қауымдастығы	71
айтылғандай	71
қолданатын	71
бағытын	71
ма-	71
-ын	71
гi	71
толыққанды	71
ыстық	71
насихаттау	71
гіш	71
мақ@@	71
желісін	71
ле	71
ыз@@	71
қосалқы	71
пат@@	71
кәсіп@@	71
ескеру	71
ұн	71
өз@@	71
клиникалық	71
өсімдіктер	71
уақытында	71
мү@@	71
day	71
таралуы	71
қауымдастығының	71
мәндерін	71
құрам@@	71
жетімді	71
атқару	71
ar	71
сақталады	71
мәскеу	71
у»	71
әуе@@	71
туындаған	71
бұл@@	71
con@@	71
егін	71
ұсынылып	71
po@@	71
білімдерін	71
ахметов	71
мде@@	71
айырмашылығы	71
per	71
директорының	70
сипаттамаларын	70
қосымшалар	70
президентіне	70
амыз	70
іс-шараларды	70
агенттігінің	70
қарастырыл@@	70
әділет	70
болғаны	70
бөлігінің	70
өмірлік	70
меңгер@@	70
aн@@	70
ғал@@	70
моно@@	70
ушылар	70
қатынастарды	70
П	70
агроөнеркәсіптік	70
айналысады	70
ардан	70
law	70
4,@@	70
басталған	70
О	70
есебінің	70
тигізетін	70
өздігінен	70
шаруашыл@@	70
1-ші	70
тұрақ@@	70
en	70
74	70
бұұ-ның	70
ктерге	70
басы	70
[8]	70
ауданда	70
тындығын	70
темір@@	70
электрлік	70
күннің	70
39	70
жү@@	70
шаруашылығының	70
-ке	70
legal	70
нал@@	70
өзгеру	70
жылдардағы	70
пи@@	70
энергия@@	70
аумақтық	70
қатынастар	70
use	70
жүргізуде	70
артықшылықтары	70
одағының	70
орындалды	70
төмендетуге	70
стерді	70
баста@@	70
;@@	70
жағдайдың	70
көлденең	70
es@@	70
сек	70
лд@@	70
ради@@	70
көл	70
өлшем	69
ағы	69
дыр@@	69
гені	69
еншілес	69
үндістан	69
қарашада	69
20-@@	69
си	69
аөк	69
нысанның	69
жоо	69
ация	69
бастама	69
e-@@	69
дүние@@	69
зауыттың	69
ұшыр@@	69
көшбасшысы	69
еле@@	69
терге	69
айына	69
жердің	69
өзгерісі	69
мон@@	69
ли	69
central	69
С-@@	69
бө@@	69
Келесі	69
бастығы	69
120	69
ұйымдары	69
проблемаларды	69
бауыржан	69
бетінше	69
беретінін	69
жылыту	69
бетінде	69
шу	69
елдеріне	69
мақсаттары	69
алуан	69
заңсыз	69
addition	69
долларын	69
күннен	69
сөйлеген	69
И	69
ысына	69
бесінші	69
жақ	69
нәтиже@@	69
ұсынылатын	69
артықшылығы	69
құрастыр@@	69
under	69
аяқталады	68
жалғасады	68
сондай	68
no	68
техниканың	68
),	68
құрамды	68
масын	68
бағдар@@	68
1,7	68
ыны	68
тауға	68
иялар	68
жүретін	68
мей@@	68
еңбегі	68
туындайтын	68
анықтал@@	68
кернеу	68
2005	68
беделді	68
E	68
сенімдімін	68
ақпараттарды	68
ұсын@@	68
Г	68
ток	68
қыркүйекте	68
қызметтері	68
алуына	68
ted	68
us@@	68
г.@@	68
нін	68
дана	68
өлшемдері	68
experience	68
асырылу	68
бағдарламалау	68
серік	68
өзен	68
елорда	68
өндірілген	68
дармен	68
аяқ	68
тұз	68
бағдарламасында	68
орталығына	68
әл@@	68
тоқ@@	68
өткіз@@	68
<@@	68
маусымда	68
алды@@	68
жеткізген	68
орналасуы	68
мет@@	68
туға	68
бөлімі	68
нысандардың	68
корпоративтік	68
қуатын	68
бейне	68
дық@@	68
independence	68
жетіп	68
қала@@	68
ауданындағы	68
фосфор	68
дайындалды	68
назарын	68
ді,	67
өкілетті	67
every	67
сауд	67
жолға	67
жағ@@	67
шер@@	67
луі	67
russia	67
сертификаттау	67
қауіп	67
түсіну	67
аң@@	67
мамырда	67
ттерінің	67
емдеу	67
генде	67
тып	67
жылдамдық	67
кепілдік	67
2017-2018	67
айтар	67
екі@@	67
ұйымдастыруға	67
қытайлық	67
перспективалары	67
өзгерістерге	67
қаңтарда	67
бағытындағы	67
лігі@@	67
баевтың	67
ресурстардың	67
сарапшылардың	67
айлық	67
сәулет	67
мәселенің	67
облысына	67
бекітілді	67
қалады	67
аты@@	67
істей	67
тті@@	67
газбен	67
ақты	67
мәнінде	67
алады.	67
тілінің	67
ұйымдастыр@@	67
services	67
жүргізген	67
статикалық	67
әзірбайжан	67
K	67
ластаушы	67
түрлеріне	67
тәрбиелеу	67
метрді	67
сарап@@	67
вер@@	67
екіншісі	67
құрылымдар	67
ардагерлер	67
қорғауға	67
біріне	67
350	67
қойылады	67
57	67
дегенмен	67
осыдан	67
жерасты	67
көрінісі	67
лю@@	67
валюта	67
инфрақұрылымы	67
ниетті	67
қондырғы	67
сап@@	67
жоспарлы	66
59	66
өткізіп	66
қатынас	66
кезектен	66
уларды	66
жеңілдету	66
владимир	66
q@@	66
адағы	66
ының@@	66
бап@@	66
ді;	66
45@@	66
сипаты	66
анықта@@	66
шыр@@	66
бөлім	66
наурызда	66
қалдықтарын	66
ment	66
мыздың	66
арт@@	66
жүйесімен	66
келуі	66
қам@@	66
қаңтар	66
ағынды	66
сезі@@	66
өңірлерде	66
мүлік	66
есі@@	66
былай	66
қойыл@@	66
лік@@	66
статистика	66
қаржыландыруға	66
сергей	66
формула	66
зерттеуде	66
элементтерін	66
өзгеріп	66
келісті	66
түсу	66
financial	66
жағдайдағы	66
ер	66
ықта	66
қолдаудың	66
энерго@@	66
түсіндіріледі	66
польша	66
банкінің	66
B	66
жиі@@	66
аралас	66
мұнайдың	66
дам@@	66
министр@@	66
баз@@	66
семантикалық	66
өзенінің	66
сайлауға	66
облыстарында	66
transport	66
capital	66
сол@@	66
неміс	66
стер@@	66
желілер	65
ілгерілету	65
көрсете	65
құрылуы	65
local	65
құбыр@@	65
теориясының	65
уші@@	65
басқаруға	65
акционерлік	65
операторы	65
рф	65
құрылғы	65
құбыр	65
болғанын	65
ео	65
жолдың	65
спикер	65
болдырмау	65
айқынд@@	65
айтқандай	65
мақсаттарға	65
жазу	65
орындар	65
дығы	65
7,5	65
негіздері	65
ысының	65
сипаттағы	65
уақытылы	65
танысып	65
пайдаланады	65
щ@@	65
anniversary	65
әйел	65
жүргізеді	65
негізге	65
сіндегі	65
дамуға	65
ушылардың	65
жіберілді	65
қызметінде	65
белгілеу	65
таңдалған	65
жасалатын	65
принципі	65
рәсімі	65
able	65
дәрілік	65
аяқтау	65
болашақтың	65
мемлекетаралық	65
қосады	65
діндер	65
қабылдап	65
атаулы	65
лерінде	65
оқушылары	65
тірек	65
ком@@	65
типтік	65
шығындар	65
бин@@	65
ая@@	65
00	65
өскемен	65
100@@	65
2,7	65
мүлікті	65
коммуникация	65
диаметрі	65
лау	65
мүмкіндігіне	65
жылжымайтын	65
бағасының	65
есептік	65
көрме@@	65
өткізеді	65
өңірлер	65
iнiң	65
әсет	65
мекемелер	65
демек	65
температуралық	65
кедергілерді	65
бастамасын	65
али@@	65
79	65
сөзсіз	65
машиналық	64
тақырыптық	64
тиімді@@	64
салаға	64
зерттелетін	64
дері	64
кезеңімен	64
уақытты	64
есеп@@	64
мды	64
ла	64
қаласына	64
кездесіп	64
жиілік	64
(С@@	64
Электрондық	64
ылық	64
қызметшілер	64
мектепте	64
2,6	64
байқоңыр	64
минут	64
pa@@	64
әдісінің	64
F	64
түйіндеді	64
схемасы	64
шығарылды	64
visit	64
міне	64
и.@@	64
тазалау	64
орындалу	64
шығыны	64
пі@@	64
түрлендір@@	64
тамызда	64
біртұтас	64
қабат@@	64
беті	64
ндардың	64
ірі@@	64
климаттық	64
мұның	64
your	64
компози@@	64
басып	64
азайтуға	64
тапты	64
енеді	64
бірі@@	64
be@@	64
ықтарының	64
Оны	64
гінен	64
нәтижелерге	64
субъектілерінің	64
мұнайды	64
тқа	64
ұйымдастырудың	64
асатын	64
ұсынатын	64
мерзімінен	64
менеджменті	64
пайдаланылды	64
құттықтау	64
сараптамалық	64
сындағы	64
бағдар	64
жиынтығын	64
қажеттігі	64
орталықтарының	64
бой@@	64
мде	64
шығарылған	64
дененің	64
кадрлық	64
дe	64
ережелері	64
жылулық	64
нарықтық	64
қатысатын	64
керісінше	64
өзгеріс	64
қатар@@	64
оқытуға	64
өзгереді	64
2,3	63
дағдыларын	63
U	63
шығарылады	63
қтж	63
жарияланған	63
ымыздың	63
та-	63
тиек	63
іл@@	63
6,5	63
900	63
актілеріне	63
көші-қон	63
қайраткерлері	63
сипаттайды	63
шақыру	63
жүргізді	63
бетімен	63
авиациялық	63
Я@@	63
тұлғаның	63
диагностикалық	63
көздерінің	63
табылатынын	63
аймақтарда	63
параметрлер	63
ақтың	63
ндарды	63
анағұрлым	63
талаптары	63
87	63
Бастапқы	63
әрқашан	63
жабдық@@	63
сұранысқа	63
кеңістіктік	63
73	63
зі@@	63
шай@@	63
құрылып	63
тек@@	63
олимпиада	63
develop	63
жылжымалы	63
мақұлданды	63
шығарып	63
ақпараты	63
заң@@	63
ынтымақтастыққа	63
тәжірибе@@	63
әйелдердің	63
экономикасын	63
алаңында	63
қабылданады	63
желтоқсанда	63
жылумен	63
белсене	63
салаларын	63
өзі@@	63
картасы-2020	63
зерттеулердің	63
-1	63
атқарып	63
ақпараттар	63
тәуекелдерді	63
сөйледі	63
к-	63
ең@@	63
үстел	63
құл@@	63
тыру	63
мен,	63
қонақтар	63
метрологиялық	63
жинақтау	63
анализ	63
келі@@	63
болуымен	63
ақпан	63
process	63
компанияларының	63
жерлер	63
туғызады	63
ұзақмерзімді	63
bodies	63
Ц@@	63
қаражатты	63
металлургиялық	63
түзету	62
төзімді	62
бағалады	62
белгісі	62
екен	62
негіздерін	62
бермейді	62
қорғасын	62
көру	62
ация@@	62
көлігі	62
марат	62
сәйкестендіру	62
мас	62
қашықтықта	62
арнаулы	62
тең@@	62
иканың	62
тәсілдер	62
place	62
ыз	62
министрліктің	62
ісіне	62
қысқар@@	62
ықтарға	62
елдерімен	62
түсін@@	62
желісінің	62
dis@@	62
бұзыл@@	62
алда	62
жұмыстарға	62
пара@@	62
модель@@	62
жауапкершілігі	62
түрдегі	62
үстіне	62
мол@@	62
өзгерістерді	62
мізге	62
young	62
құжатқа	62
технологиясының	62
situation	62
investments	62
патриоттық	62
арда	62
жолдар	62
тіп	62
тылығы	62
процестер	62
инновация	62
хал@@	62
84	62
кей@@	62
ұсынып	62
жақынд@@	62
асыра	62
жұмыс@@	62
салмақ	62
шілде	62
асқан	62
иядағы	62
саналатын	62
шарттарын	62
ында@@	62
алқа	62
қолдап	62
бағытт@@	62
30-@@	62
эыдұ	62
ніп	62
тапсырыс	62
көрсетуді	62
лог@@	62
беруші	62
provide	62
ндер@@	62
results	62
тіне	62
industrial	62
political	62
жемқорлық	62
палатасы	62
жатқандығын	62
times	62
ндері	62
мәліметі	62
Онда	62
көбей@@	62
кеуекті	62
gas	62
әдістің	62
бұлтты	62
үдемелі	62
деңгей@@	62
made	62
адам@@	62
қолда@@	61
іс@@	61
код@@	61
нәтижеге	61
create	61
неді	61
жолдауы	61
қолданған	61
05	61
әй@@	61
материалды	61
жалғасуда	61
холдингі	61
мақсатымен	61
қиынд@@	61
field	61
мызға	61
байқалды	61
тикалық	61
ластануы	61
бe@@	61
83	61
есебін	61
иямен	61
реакция	61
у.	61
мұқият	61
асыл	61
сапармен	61
ғылыми-@@	61
айтсақ	61
орындалуын	61
жасауды	61
компьютер@@	61
ұ	61
ап	61
реформаны	61
цияға	61
attention	61
тіле@@	61
п-@@	61
денсаулығына	61
це@@	61
мерзімін	61
уімен	61
Мақала	61
функциясының	61
ына@@	61
қойнауын	61
түрік	61
(S@@	61
қатысу@@	61
желінің	61
элементі	61
өтуі	61
қатысуын	61
кур@@	61
адами	61
режимінде	61
есептерін	61
modernization	61
несиелік	61
қытайдың	61
жұқа	61
АЛ@@	61
2-ші	61
1,8	61
мектебі	61
жетекшілері	61
ay@@	61
тарында	61
алау	61
кесте@@	61
ақшалай	61
стандарттау	61
тапсыру	61
субсидиялау	61
аудит	61
аттар	61
фе@@	60
паркі	60
болашағын	60
тереңдету	60
масса	60
қыздыру	60
signed	60
agreement	60
мөлшерінің	60
іскер	60
эксперименттік	60
(t)	60
қатысушыларды	60
сезімтал	60
лас@@	60
құрылымды	60
өткізгіштік	60
академиясының	60
шектелген	60
қозғалысының	60
тәуелсіздіктің	60
жоғарыл@@	60
активті	60
тi@@	60
демократиялық	60
states	60
тілде	60
қар	60
69	60
елдермен	60
550	60
түсінік	60
ахқо	60
белгіле@@	60
бойына	60
пай@@	60
у-	60
due	60
қазақстаннан	60
елдерге	60
күйін	60
кірді	60
мның	60
айтатын	60
жүре@@	60
шаруа	60
іргелі	60
оқы@@	60
белгі@@	60
Демек	60
қараша	60
кер	60
қоғамы	60
қоғамда	60
тығын	60
quality	60
әртараптандыру	60
шеңберіндегі	60
аудың	60
биік	60
(мысалы	60
66	60
кәсіпорында	60
піші@@	60
Бұдан	60
құрама	60
комиссиясы	60
нінің	60
жүру	60
есте	60
inter@@	60
un	60
беткі	60
дос@@	60
республикада	60
президенттік	60
теңгесі	60
түсіру	59
атал@@	59
боя@@	59
көзде@@	59
тамақтану	59
ds	59
(сурет	59
86	59
алаң@@	59
ықтар@@	59
100-ден	59
саты@@	59
маңыздылығына	59
оқул@@	59
режимі	59
себеп	59
ян	59
оз@@	59
бағыттарды	59
климаттың	59
деформация	59
радиациялық	59
толтыр@@	59
сақталған	59
дей	59
алмас@@	59
Интернет	59
әріптестікті	59
орналастыр@@	59
энергетикасы	59
ндерге	59
ымызды	59
ауды	59
алушы	59
АС@@	59
4.@@	59
бөлуге	59
Ч@@	59
талды	59
индустриялық-инновациялық	59
орналас@@	59
жеті	59
Оқу	59
есептейді	59
гi@@	59
адамзат	59
институционалды	59
коммуникациялар	59
өткізудің	59
қамтуды	59
тықты	59
көне	59
):	59
сынып@@	59
қарқыны	59
кеше@@	59
мінің	59
егжей-тегжейлі	59
республикасында	59
азаматтарының	59
көбейту	59
пәні	59
сіздер	59
импорт	59
жәрдем	59
қатар,	59
полиция	59
технология@@	59
gr@@	59
сынан	59
кадрларды	59
нашар	59
конференцияға	59
J@@	59
пре@@	59
ынша	59
дарда	59
абай	59
дерек@@	59
қайырымдылық	59
ережелерін	59
масында	59
қарауына	58
ақпаратқа	58
қолжетімділігін	58
көзделіп	58
келтіруге	58
қағаз	58
өнеркәсібінде	58
айналу	58
ван@@	58
құжат@@	58
нарығындағы	58
қазақстандық-@@	58
Астана	58
take	58
еңбекті	58
талаптарын	58
дардан	58
тро@@	58
бойымен	58
infrastructure	58
аудандарында	58
идеясын	58
th@@	58
суы	58
магниттік	58
модельдері	58
бір-бірімен	58
уынан	58
көптеп	58
лікпен	58
54	58
стар	58
сенатор	58
оқушыларға	58
тауып	58
тық-@@	58
соқ@@	58
мысал	58
мақсаттағы	58
кесте	58
белгісіз	58
үлгісін	58
period	58
ациялық	58
көрсеті@@	58
.kz	58
кеңістіктегі	58
арынан	58
elections	58
үйре@@	58
1,9	58
машин@@	58
танытып	58
порталы	58
ұзынд@@	58
көрді	58
айдың	58
режимде	58
ограф@@	58
қаш@@	58
хим@@	58
3)	58
рас@@	58
ұрпақ	58
солардың	58
стық	58
ғылымның	58
іздестіру	58
-делінген	58
бөлшектер	58
мүшелерінің	58
жаңғыр@@	58
жеткізуді	58
үл@@	58
сайлауын	58
мем@@	58
кездейсоқ	58
ресурстарының	58
болмаса	58
activities	58
мұғалімнің	58
шың@@	58
өткізуді	58
Жұмыс	58
сөйлеу	58
қанағаттандыр@@	57
кездесудің	57
potential	57
игі	57
көшбасшы	57
көрсету@@	57
мейлінше	57
become	57
базаны	57
қолданылып	57
түрлендіру	57
стың	57
кеш@@	57
өндірісте	57
Мұндағы	57
құрам	57
гран@@	57
қаражаты	57
білімнің	57
gi@@	57
strategic	57
көпшілік	57
ұйымдастырылады	57
логистика	57
өздері	57
хи@@	57
өмірге	57
күшей@@	57
77	57
айналған	57
қабылдайды	57
th	57
Су@@	57
талқылап	57
гер	57
аяқталған	57
стратегия	57
Ке@@	57
ежелгі	57
кас@@	57
асырыл@@	57
volume	57
Y@@	57
вице-президенті	57
80@@	57
89	57
Ме@@	57
қымбат	57
жандандыру	57
іс-әрекет	57
01	57
құжаттарға	57
тапсырмасын	57
71	57
шыға	57
бақылау@@	57
қосуға	57
келісімдер	57
көшіру	57
шоб	57
ағынының	57
қабылдауды	57
байланысын	57
қоспалар	57
training	57
ашты	57
қалыптасу	57
таудың	57
инвестициялардың	57
э	57
қарым-қатынастардың	57
ландшаф@@	57
қалыптастыр@@	57
-ны	57
зардап	57
ктегі	57
температураға	57
лердегі	57
қарастырамыз	57
Батыс	57
сәуле@@	57
Ай@@	57
нүктесі	57
жинақталған	57
ғaн	57
регламен@@	57
ol@@	57
кезеңге	57
арнал@@	57
жасақ@@	57
желілерді	57
дің@@	57
тиімділік	57
тақ@@	57
өзектілігі	57
мов	57
кестесі	57
2,2	57
қолданыл@@	57
үдерісі	57
талқыланады	57
етеді.	56
шығынын	56
объективті	56
Дегенмен	56
ің	56
Кө@@	56
шығындарын	56
тапсырманы	56
88	56
ci@@	56
ықпен	56
dollars	56
сақталып	56
геннен	56
қышқыл	56
[9]	56
тоннадан	56
пәнін	56
96	56
стандарттарға	56
мені	56
инвесторлардың	56
істеуі	56
жағдайлары	56
пайдаланатын	56
кәрім	56
сүр@@	56
лді@@	56
иясын	56
тарих	56
трансұлттық	56
дипломат	56
ауыстыр@@	56
мәдениетін	56
мақсатымыз	56
әділ	56
ом@@	56
егі@@	56
areas	56
сұрақтары	56
алармен	56
қызметшілердің	56
Одан	56
тип@@	56
жеңілдетілген	56
тынд@@	56
5,5	56
элементтерінің	56
тілі@@	56
әлдеқайда	56
лi@@	56
мамандық	56
майтын	56
жағымсыз	56
апатты	56
инвесторларға	56
lo@@	56
түркістан	56
ағыны	56
көрші	56
қоспа	56
ніне	56
тұтынушылар	56
ic	56
кеңістігінде	56
[1@@	56
үрдіс	56
келтірілді	56
тағайындау	56
кені	56
ах@@	56
аймағының	56
айы	56
телефон	56
санитарлық	56
көрмені	56
зия@@	56
par@@	56
housing	56
мізде	56
tions	56
сти@@	56
интеллектуалдық	56
хат@@	56
қалыптасуына	56
шылық	56
improve	56
−	56
нүкте@@	56
іс-қимылдың	56
көрсетудің	56
мәліметтері	56
сұл@@	56
ет@@	56
ы.	56
district	56
large	56
тегі	56
агроөнеркәсіп	56
біркелкі	56
анти@@	56
доллары	56
желілерін	55
жобасында	55
заттың	55
төмендеуіне	55
110	55
Қазақстандағы	55
кәсіпорындарды	55
ді:	55
отынның	55
аламыз:	55
нген	55
педагог@@	55
assembly	55
реформаларды	55
есімов	55
қуат@@	55
жүргізудің	55
табыл@@	55
шешімді	55
бизнеске	55
делегациясы	55
салынатын	55
ақылды	55
прокуратура	55
еңбекке	55
қазақстандықтарды	55
жұмысында	55
көміртекті	55
тапсырылды	55
оқиғалар	55
so	55
енгізі@@	55
азаматтарды	55
ұлттар	55
шағ@@	55
93	55
қызметімен	55
нер@@	55
министрлігіне	55
көрінеді	55
елші@@	55
хандығының	55
V	55
Microsoft	55
мұ@@	55
еке@@	55
база	55
баев.	55
механизмі	55
Екі	55
ылғал@@	55
бақылаудың	55
айларында	55
жиілігі	55
жабық	55
лы@@	55
көзқарас	55
тауарлардың	55
жел@@	55
дa@@	55
ахуал	55
ттарға	55
жa@@	55
икасы	55
студенттің	55
команда	55
болмаған	55
сайлауды	55
ету@@	55
council	55
құжаттың	55
келтіріледі	55
бөледі	55
ты-@@	55
жасалынған	55
пор@@	55
тоқаев	55
санына	55
қамтылды	55
қарастырайық	55
civil	55
шешімнің	55
құрылымының	55
ғын	55
араб	55
температураның	55
қосымшаларды	55
aрдың	55
зауытының	55
эко@@	55
құралған	55
um	55
тереңдігі	55
фото	55
секторы	55
тіндігін	55
Компьютерлік	55
шаруашылығында	55
н)	55
тында	55
жастарға	55
area	55
қосылуы	55
марапатталды	55
ушілер	55
өседі	55
ари@@	55
көпжақты	55
швейцария	55
participation	55
жерлерді	55
порты	55
сон	55
деректерін	55
organizations	55
role	54
өскен	54
жабдықтар	54
үйлерді	54
ату	54
халықтық	54
бе	54
қажеттіліктерін	54
сектор	54
өндіруді	54
,@@	54
мы	54
ынтымақтастығының	54
ыңыз	54
ева	54
бағытты	54
ойлаймын	54
ндерді	54
жалпыға	54
стері	54
жe@@	54
қалып@@	54
тәуелсіздігінің	54
академиясы	54
уақыттың	54
қарым-қатынастарды	54
Сонда	54
лық-@@	54
дерін	54
көтеруге	54
көміртегі	54
б)	54
көшбасшылары	54
мезгілде	54
туризмнің	54
age	54
4)	54
улардың	54
жолдауда	54
күрт	54
нов@@	54
жіберіледі	54
ттермен	54
үлгілердің	54
ған.	54
тастау	54
set	54
date	54
өндірушілердің	54
облыстағы	54
керекті	54
қосп@@	54
бұрышы	54
пайдаланушылар	54
төсе@@	54
біліктілік	54
келтір@@	54
шараларға	54
қайтадан	54
құндылығы	54
сонда	54
көкшетау	54
Экологиялық	54
үдерісінде	54
исекешев	54
know	54
мге	54
дай@@	54
өндірі@@	54
капитал	54
айналуы	54
теді	54
>	54
суда	54
сенатының	54
ерекшеліктеріне	54
негізделеді	54
пә@@	54
қышқылының	54
меди@@	54
0,5	54
do	54
татын	54
сапарбаев	54
лаудың	54
қазақ@@	54
лардағы	54
34@@	54
university	54
kaznex	54
әмбебап	54
қоғамды	54
стерге	54
қызметінен	54
мдердің	54
әдістердің	54
Ғ@@	54
белсенділігі	54
реттік	54
would	54
ұстау	54
зат@@	54
енгізудің	54
ғанына	54
medical	54
экспортқа	54
үлгілері	54
сен@@	54
хабарла@@	54
оң@@	54
заңы	54
further	54
ум@@	54
тықтың	53
көрсетілгендей	53
ың	53
сингапур	53
сөзін	53
болатыны	53
ИСО	53
орындарына	53
тұрып	53
ерлік	53
гидравликалық	53
манд@@	53
станциясы	53
метрлік	53
12-@@	53
функционал@@	53
гра@@	53
ығынан	53
ve	53
ұмтыл@@	53
2,9	53
еуро@@	53
заңнама	53
дыбыс	53
ғa	53
өнер@@	53
joint	53
жасақтау	53
expo-2017	53
нен@@	53
нан@@	53
мүлдем	53
ави@@	53
ортасы	53
сервистік	53
жүктеме@@	53
кезеңдері	53
кейде	53
lot	53
отбасылық	53
participants	53
2,8	53
растады	53
2007	53
мақсаттарын	53
модельді	53
айту	53
ұэм	53
жолды	53
3,2	53
кин@@	53
эн@@	53
15-@@	53
мұз@@	53
басшылық	53
пайдаланушы	53
меке@@	53
ахуалды	53
өткізгіш	53
ун@@	53
уында	53
good	53
уінде	53
0,47	53
2,1	53
әдістеме@@	53
ұйымына	53
инвестиция@@	53
көз@@	53
идея@@	53
ақпарат@@	53
ндар@@	53
мәслихат	53
жат@@	53
шілер	53
ттарды	53
қаржылай	53
серіктесі	53
Қар@@	53
сақтал@@	53
3-сурет	53
мдерді	53
құм	53
дәлелде@@	53
қы	53
implement	53
қолдайды	53
құрылымында	53
мүгедек	53
барады	53
ұйымдастырушылық	53
формасы	53
aimed	53
осынау	53
деңгей	53
цияны	53
ine	53
бр@@	53
agricultural	53
дым	53
салауатты	53
бұз@@	53
investors	53
басымдық	53
тасы	53
жоюға	53
8,5	53
ly	53
кірі@@	53
бат@@	53
құралдар@@	52
дегенде	52
3,3	52
ымызға	52
ағынан	52
жұм@@	52
сұрақ	52
тұтастай	52
пәндік	52
99	52
үміт	52
александр	52
жиында	52
schools	52
алушылар	52
шанхай	52
бөлін@@	52
облыстарының	52
органдармен	52
келгенде	52
сіп	52
атқарылған	52
инвесторларды	52
өкі@@	52
біріктірілген	52
іс-әреке@@	52
көріні@@	52
өңірінде	52
discussed	52
орта@@	52
орасан	52
bo@@	52
холдинг	52
кітапхан@@	52
kazakhstani	52
ахметжан	52
массив@@	52
ля@@	52
аларымен	52
дин@@	52
ұзақ@@	52
суларының	52
ласта@@	52
тағамдық	52
органдарына	52
ков@@	52
әлеуметтік-@@	52
нарығының	52
граф@@	52
кешеннің	52
technologies	52
way	52
81	52
aды	52
aй@@	52
алгорит@@	52
объекті@@	52
болатындығы	52
ете@@	52
арттыруды	52
аймақтар	52
Ж)	52
ластанған	52
after	52
sphere	52
amounted	52
бро@@	52
жағдайларын	52
мақала	52
орналасу	52
маларды	52
кодексіне	52
күндік	52
58	52
алатынын	52
себептері	52
пол@@	52
ысқа	52
тасымалы	52
білуге	52
оқытушы	52
тұтын@@	52
көрсетіліп	52
маға	52
мәселеге	52
»@@	52
ыны@@	52
ескі	52
табиғатты	52
like	52
дсұ	52
дарымен	52
мемлекеттерінің	52
te@@	52
тұрақтандыру	52
күйі	52
құндылықтарды	52
азайды	52
істен	52
спикері	52
Содан	52
three	52
қалдыр@@	52
кепілі	52
ахуалы	52
тәулік	52
зерделеу	52
орындалған	52
құбыры	52
келешекте	52
дүние	52
қорғаудың	52
кезеңіне	52
students	52
салықтық	52
сындарлы	52
кемшіліктері	52
типтегі	52
жүкте@@	52
шектеу	52
жасаудың	52
демал@@	52
tons	52
әңгімелесу	51
	51
G	51
шарттарды	51
шылардың	51
modern	51
құжаттардың	51
күйінде	51
өнеркәсібінің	51
ғылым@@	51
сыни	51
шев	51
объектілерді	51
көлем	51
technical	51
әбішұлы	51
ағынын	51
мей	51
імен	51
үрдісінде	51
талабына	51
task	51
тымен	51
[10]	51
хо@@	51
секторының	51
азаяды	51
лe@@	51
-2	51
дайындауға	51
амен	51
биогаз	51
конференциясы	51
жоспарлауда	51
жасау@@	51
тыныс	51
көш@@	51
Болашақ	51
ліктер	51
export	51
малары	51
асырып	51
	51
мазмұнды	51
жіктеу	51
ба	51
90@@	51
we@@	51
бізді	51
тарынан	51
гүл	51
жеңістің	51
объекті	51
мінде	51
білуі	51
сс@@	51
тізімін	51
сигнал	51
зерттеулерді	51
прото@@	51
тын@@	51
танысу	51
қасиеттерінің	51
жері	51
man@@	51
me@@	51
ғандар	51
жалақы	51
есептері	51
жылды	51
бү@@	51
жағдайының	51
ұқшұ	51
масына	51
жарамды	51
сапар@@	51
шабуыл@@	51
өндіріске	51
сақтай	51
сабақтар	51
ттарының	51
жоғары@@	51
кре@@	51
3,8	51
Ор@@	51
кин	51
энергиясына	51
шама	51
процестің	51
тығыз@@	51
ғандығын	51
шексіз	51
technology	51
3-ші	51
субсидия@@	51
w	51
сүзгі@@	51
пайдаланушылардың	51
арына	51
айналымының	51
қ.тоқаев	51
ұшу	51
өндірісінде	51
күй@@	51
медиа	51
аппарат@@	51
ыш@@	51
актив@@	51
мета@@	51
З	51
әдістемесін	51
тамаша	51
ынa	51
бастауыш	51
жыр@@	51
қамтуға	51
140	51
қордан	51
ra@@	51
о-@@	51
Бе@@	51
акустикалық	51
отырысының	50
тым	50
3,4	50
society	50
тіндегі	50
физика-химиялық	50
шешімінің	50
дидактикалық	50
даму@@	50
61	50
көзделуде	50
сипаттама	50
этно@@	50
студенттері	50
атқарған	50
атайды	50
іі	50
интернет-@@	50
дамуда	50
nuclear	50
атқарды	50
мәліметтердің	50
қаруды	50
таратпау	50
аударылды	50
тiн	50
Атап	50
рН	50
луін	50
күтіп	50
ылу	50
қалдықтардың	50
framework	50
маманд@@	50
works	50
енгізілетін	50
кеңісті@@	50
шта@@	50
йін	50
аған	50
иннің	50
дәнді	50
дақылдар	50
лай	50
аны@@	50
Үлкен	50
нуі	50
аймағын	50
ио@@	50
қоныс	50
ашылуына	50
ативті	50
мүмкін.	50
2.@@	50
гипер@@	50
музыкалық	50
қызметкерлерді	50
фа@@	50
ып,	50
қалалары	50
тәуелділік	50
Л	50
ымдар	50
механизм	50
қысқартуға	50
міндеттердің	50
астында	50
land	50
92	50
zh@@	50
ғасырда	50
Z@@	50
үрдісінің	50
нарыққа	50
representatives	50
дығын	50
пайыздан	50
малар	50
0-@@	50
інде	50
{@@	50
уль@@	50
ск@@	50
график@@	50
іс-шараның	50
топтардың	50
банктер	50
currently	50
қатынасын	50
кластерлік	50
Ұсынылған	50
ас	50
тұжырым@@	50
ханов	50
Со@@	50
қанда	50
процес@@	50
өзіміздің	50
ir@@	50
cultural	50
лей@@	50
тация	50
во@@	50
Қал@@	50
1,4	50
нм	50
ағаш@@	50
ұлғайды	50
oc@@	50
қабатының	50
қабілеттерін	50
сапарының	50
қауымдастық	50
таның	50
жиыны	50
сте	50
тағайындалды	50
қазірдің	50
студенттерге	50
хабар	50
үйлердің	50
кал@@	50
қалу	50
together	50
қатарынан	50
нетін	50
дәлдігі	50
Мар@@	50
тапсырамын	50
№@@	50
жеткіліксіз	50
болатындығын	50
қызметтік	50
fund	50
1%	50
альды	50
carried	50
дсұ-ға	49
жерден	49
кәсіпорындарының	49
мобильдік	49
айтады	49
институ@@	49
баға@@	49
авиа@@	49
мақсаттар	49
5%	49
]@@	49
governor	49
құрып	49
мектеп@@	49
нe	49
қажетті@@	49
Оқыту	49
жаңғыртуға	49
қою@@	49
г.әбдіқалықова	49
(1@@	49
ескерсек	49
қаладағы	49
гe	49
ган	49
ынның	49
strengthening	49
метрге	49
көбейді	49
кеңесіне	49
қауіп@@	49
ниет	49
интер@@	49
киім	49
asia	49
стандарт	49
кв@@	49
бала@@	49
теңді@@	49
тин@@	49
назарына	49
зиян	49
бағдарланған	49
көтері@@	49
бөлігіне	49
түсінікті	49
бой	49
құрылыстың	49
парламентінің	49
мәдение@@	49
жекешелендіру	49
each	49
талда@@	49
көтерілді	49
сапаны	49
шегі	49
ГОСТ	49
мді@@	49
мәнді	49
кеңістікте	49
қасым-жомарт	49
факторы	49
[12]	49
қалдықтары	49
ә.@@	49
баланың	49
гре@@	49
салуды	49
91	49
ктер@@	49
тексер@@	49
ауда	49
беке@@	49
байқа@@	49
ықтан	49
мүмкіндіктерді	49
байланы@@	49
als	49
африка	49
000@@	49
ықтарына	49
3.@@	49
оқушыларды	49
my	49
жүргізетін	49
Бал@@	49
алгоритмін	49
әзірлеп	49
күнімен	49
құттықтаймын	49
үлгілерін	49
қағида@@	49
жарым	49
1.@@	49
25-@@	49
параметр	49
ттегі	49
].	49
аймақты	49
members	49
транспорттық	49
күнін	49
станция	49
с-	49
көрсеткіштерінің	49
құрылымына	49
оксиді	49
(1-сурет)	49
ерлер	49
тіркелді	49
ығында	49
жануарлар	49
қоюға	49
funds	49
толтыру	48
жақсар@@	48
макро@@	48
алардан	48
ит	48
Кон@@	48
салаларының	48
этникалық	48
қызметтерінің	48
шаң@@	48
Электро@@	48
цифрландыру	48
құзыреттілік	48
educational	48
объектінің	48
тінін	48
тілеймін	48
мамандығы	48
болар	48
тынына	48
дын	48
параллель	48
барысымен	48
ферро@@	48
ТА@@	48
ent@@	48
қамтудың	48
кинетикалық	48
сақтауды	48
орталықта	48
мұр@@	48
шының	48
importance	48
тта	48
салаларына	48
тындығы	48
астамы	48
меніңше	48
жетістіктер	48
диалогты	48
94	48
спе@@	48
бермеу	48
түйді	48
нге	48
тұрғыны	48
жағдай@@	48
ойындар	48
лде@@	48
белсенді@@	48
жатқызуға	48
қанша	48
қыш@@	48
элемен@@	48
макроэкономикалық	48
теріне	48
теория	48
салмақты	48
бөліктері	48
биология	48
ho@@	48
елдеріміз	48
тобын	48
батыр	48
бағалауды	48
тараз@@	48
адан	48
матрицасы	48
active	48
әкеліп	48
камер@@	48
анықтау@@	48
перспективаларын	48
үстіміздегі	48
натрий	48
концентрация@@	48
бір-біріне	48
тра@@	48
қоғамдағы	48
рат@@	48
факторларға	48
жаңаша	48
талабы	48
22@@	48
интегралдық	48
жоғарылату	48
2006	48
конференцияның	48
текше	48
газдың	48
үрдісіне	48
бердібек	48
basis	48
тимур	48
антропогендік	48
Осыдан	48
дыл@@	48
дамыту@@	48
зер@@	48
зерттеу@@	48
қадамы	48
бөле@@	48
ндір@@	48
um@@	48
жөндеуден	48
АТ@@	48
команд@@	48
сипат@@	48
λ@@	48
сая@@	48
әйгілі	48
199@@	48
already	48
гигиеналық	48
күшінің	48
оқушыларының	48
карта	48
Орталық	48
объектілер	48
institutions	48
бұрыштық	48
нарықты	48
(P@@	48
беруі	48
биле@@	48
жұмыссыз	48
оператор@@	48
ын,	48
жағдайларға	48
ence	48
компаниясымен	48
байытылған	48
programs	48
қабылданып	48
fi@@	48
жылыжай	48
сәуле	48
бұрыш@@	48
Жылу	48
алдардың	48
стар@@	48
тізбегі	48
қояды	48
жылы@@	48
көрсетуде	48
көтерді	48
стерін	48
жүктеме	47
процестерін	47
льді	47
н.ә.назарбаевтың	47
Табиғи	47
қоғамының	47
әкелетін	47
профессоры	47
аста@@	47
мемлекетіміздің	47
к.@@	47
шартқа	47
белсенділік	47
топтарының	47
бақыт	47
тыққа	47
мамен	47
сқа	47
ақпараттық-коммуникациялық	47
мe@@	47
үйге	47
ғалым	47
холдингінің	47
қатынасты	47
жиынтық	47
функцияларды	47
сәулелену	47
метриялық	47
ктік	47
тиісінше	47
qu@@	47
инвестицияның	47
барысындағы	47
отырысына	47
шығарыл@@	47
лин@@	47
Cu@@	47
қоры@@	47
елден	47
ғанға	47
Қара@@	47
анықталып	47
өнеркәсіптің	47
үдерісінің	47
көше@@	47
Сандық	47
мерзімде	47
тізі@@	47
авторлар	47
мүдделерін	47
мәселе@@	47
инновациялар	47
нағыз	47
rate	47
онымен	47
икада	47
онкологиялық	47
сым@@	47
өндір@@	47
л.@@	47
барлығына	47
дi@@	47
терезе	47
санап	47
аясын	47
әсеріне	47
фин	47
оңалту	47
-дағы	47
қару	47
қарқынын	47
мәжілісі	47
қалаларда	47
иев	47
қатыса	47
сия@@	47
нәтижелеріне	47
магни@@	47
ландыру	47
табиғаттың	47
га@@	47
ескеріп	47
армен	47
болжам	47
50-@@	47
орнатылды	47
олармен	47
бағытталды	47
military	47
мвт	47
таңдауға	47
электрмен	47
ктермен	47
Ақ@@	47
жобаларының	47
ЕР@@	47
бөлшектерінің	47
provided	47
департаменті	47
Республика	47
арында	47
балама	47
функция@@	47
беріктігі	47
анықтама	47
қатынас@@	47
ашылып	47
мау	47
үр@@	47
min@@	47
мәселелерінің	47
икалық@@	47
аттың	47
қосылу	47
бермек	47
түзе@@	47
мәдениетті	47
бағытталады	47
дәрі@@	47
жаб@@	47
суре@@	47
дірі@@	47
келу	47
шамасында	47
резерв@@	47
Көп	47
әдісті	47
ұдайы	47
кодекс	47
топтық	47
табылды	47
тақырыбында	47
кальций	47
бастамалары	47
м3	47
ақылы	47
майлы	47
4,4	47
example	47
миллионнан	47
АН@@	47
ally	47
ay	47
ведомствоның	47
мaгнит	47
ттерден	47
асуы	46
4,1	46
ілгеріле@@	46
тасымалда@@	46
санды	46
жарық@@	46
ттер@@	46
тынан	46
implemented	46
жуық@@	46
бл@@	46
тапсырмалары	46
қорғауды	46
біріктір@@	46
хабарламасында	46
келіссөз	46
қызы	46
моделдеу	46
қасиеттеріне	46
мадағы	46
priority	46
make	46
дерге	46
театр	46
ардагерлері	46
өтінім	46
есептердің	46
меңгеруге	46
лдік	46
кетсек	46
ндерін	46
қаржыландыр@@	46
тізіміне	46
күштердің	46
қарастырды	46
фран@@	46
when	46
жазғы	46
компанияларды	46
кредиттік	46
функцияның	46
domestic	46
Ішкі	46
125	46
Ко@@	46
ың@@	46
в.	46
көздейтін	46
стационарлық	46
аймағына	46
кезеңмен	46
тәжірибесіне	46
орындалатын	46
Математикалық	46
заңнамаға	46
түсі@@	46
университе@@	46
қосатын	46
буын	46
ва	46
тон	46
жаңар@@	46
серіктес	46
ыға	46
картоп	46
олог	46
сары	46
стен	46
байланыстыр@@	46
қатары	46
бірлестіктер	46
фармацевтикалық	46
атор@@	46
Қоршаған	46
адамнан	46
оль@@	46
@@	46
жалғасын	46
пәндер	46
еш	46
сенемін	46
маминнің	46
файл@@	46
жәрдемақы	46
бүгінге	46
бұзушылық	46
6,9	46
материалын	46
филь@@	46
тараптардың	46
(2@@	46
тік@@	46
шараларының	46
басшыларымен	46
бәсекелестікті	46
үйрену	46
индустрия@@	46
қатыс@@	46
арымен	46
Өйткені	46
тұрғындарына	46
(П@@	46
қат@@	46
таулы	46
екендігіне	46
кеңей@@	46
массалық	46
динамикасын	46
ance	46
кем@@	46
тұқым@@	46
ұйымға	46
үзіліссіз	46
дис@@	46
ктерімен	46
полиго@@	46
бағаның	46
ұсыны@@	46
канада	46
нше	46
білеміз	46
ымын	46
болжам@@	46
етпейді	46
must	46
ліктерді	46
жеңіп	46
көркем	46
бөлуді	46
әрекеттесу	46
problems	46
сербия	46
жж	46
аман@@	46
қалалардың	46
компоненттерінің	46
қарастыратын	46
allocated	46
second	46
started	46
лауды	46
шеш@@	46
сүйе@@	46
сегмен@@	46
iк	46
жастағы	46
кри@@	46
терроризмге	46
өсімдіктердің	46
culture	46
орындау@@	46
дәлел	46
нығматулин	46
үлгілер	46
жылқы	46
ауына	46
география	46
модельдің	46
жалғастыр@@	46
қондырғылар	46
commission	46
su@@	46
көздеп	46
қаб@@	46
испания	46
тетіктерін	46
common	45
дәрігерлер	45
ous	45
сарапшылары	45
S-@@	45
қаржыландырудың	45
ларынан	45
тілдік	45
табысы	45
жолдауының	45
Ау@@	45
спектр@@	45
%@@	45
қызметкері	45
сандар	45
никель	45
ндерінің	45
мәндер	45
ика@@	45
қола	45
air	45
маңызға	45
деңгейінен	45
қабілетті@@	45
диа@@	45
айқындау	45
айналымын	45
Соның	45
ақпанда	45
қоспалардың	45
фракция@@	45
индустриалды-инновациялық	45
per@@	45
сөз@@	45
лай@@	45
модулі	45
тылып	45
ұңғым@@	45
амин@@	45
бара	45
4,2	45
тайды	45
ing@@	45
өкілдерін	45
аппараттық	45
болатынына	45
орналасады	45
тарапы	45
маңындағы	45
4,8	45
сигнал@@	45
дамытудағы	45
нер	45
аралас@@	45
концентрациясының	45
creation	45
competition	45
0,2	45
экономик@@	45
water	45
кадрлар	45
деректерге	45
елорданың	45
басқалар	45
жеткізіп	45
шаруашылығына	45
'@@	45
бұйымдар	45
сервис	45
лме@@	45
бойындағы	45
най@@	45
диффузиялық	45
әкімдігінде	45
көтерме	45
дыб@@	45
small	45
қамтыл@@	45
үнемдеуге	45
жауапкершілігін	45
сенімділік	45
әзірлеуге	45
шу@@	45
ұста@@	45
ант	45
анықталады:	45
тов	45
қабылдаған	45
студенттерді	45
қаржыны	45
байланыста	45
апта	45
стратегиясының	45
деректі	45
дерінің	45
өті@@	45
жиынға	45
дамытып	45
жайын	45
үрді@@	45
адал	45
«Қ@@	45
дамыта	45
нор@@	45
мемлекетінің	45
ТЕ@@	45
байқаудың	45
көлеміндегі	45
маңызын	45
қазба	45
тандыру	45
басталып	45
грузия	45
геодезиялық	45
Кейбір	45
мамандарының	45
қабілеттілігі	45
аэро@@	45
экономикадағы	45
ors	45
ter	45
жалпы@@	45
елдік	45
келісім@@	45
палатаның	45
ауыр@@	45
Заманауи	45
онлайн-@@	45
see	45
БА@@	45
жұмыстар@@	45
дәріс	45
өңірлерінде	45
автомат@@	45
станция@@	45
жарияланады	45
көктемгі	45
иеленді	45
қиындықтар	45
әкімдік	45
циясына	45
effective	45
суларды	45
рәсіміне	45
шикізатты	45
2022	45
өмірі	45
құм@@	45
елдеріміздің	45
ын-	45
параметр@@	45
автобус	45
заңының	45
ысымен	45
метан	45
иондарының	45
among	45
перспективалы	45
дәр@@	45
тo@@	45
ақш@@	45
институт	45
бірін	45
сыйлық	45
атыны	45
ғимараттар	45
ис@@	45
ақ-ның	45
түрге	44
әскери-техникалық	44
тепе-теңдік	44
зо@@	44
шешуші	44
арлық	44
төзімділік	44
жағымды	44
тәртібінің	44
кезеңдегі	44
being	44
таныстырып	44
жетілдір@@	44
мәртебесін	44
сi@@	44
шлак	44
жанов	44
спортшы	44
ндарының	44
лінің	44
мән@@	44
жеткізе	44
шынықтыру	44
картасын	44
мамандарын	44
-де	44
мәртебесі	44
ықпалын	44
белде@@	44
ғa@@	44
шығынды	44
ойын-сауық	44
мемлекетке	44
аймақтарында	44
қап@@	44
макарон	44
айынан	44
ган@@	44
жолдарының	44
теті@@	44
әкімшілігінің	44
меңгерушісі	44
хе@@	44
контур@@	44
эр@@	44
қорына	44
stressed	44
3%	44
келісілген	44
күріш	44
периодты	44
тарихын	44
құрал@@	44
қайтар@@	44
даярлық	44
тардағы	44
food	44
еңбе@@	44
тұлғалық	44
см-1	44
жағдайлардың	44
тартты	44
лап	44
схе@@	44
қажеттілік	44
дық-@@	44
малардың	44
қабырғ@@	44
4,7	44
млн.@@	44
кезеңінің	44
ғимараттың	44
ххі	44
шұғыл	44
генетикалық	44
көрнекі	44
мнен	44
оли@@	44
азиялық	44
мұз	44
used	44
үлгінің	44
америка	44
гендік	44
жанында	44
қосқанда	44
лығын	44
events	44
зауы@@	44
тіні	44
метал@@	44
мәжілістің	44
отыра	44
отыру	44
agriculture	44
гене@@	44
кезде@@	44
АҚ	44
тылығын	44
әбдіқалықова	44
қарым-қатынастар	44
АҚ@@	44
кр@@	44
қосылыстар	44
тұрғыз@@	44
тиімсіз	44
операциялар	44
nation	44
құралдардың	44
ғ	44
құндылықтар	44
plant	44
мектептерде	44
тк@@	44
алмастыру	44
тіліне	44
private	44
ұйымдастырды	44
осында	44
көрмеде	44
бірлігін	44
ректоры	44
спектрі	44
басу	44
ететінін	44
where	44
>@@	44
термен	44
ассамблея	44
нау@@	44
қазақтың	44
ғандықтан	44
positive	44
анықтаймыз	44
жауапкершілікті	44
білетін	44
14-@@	44
археологиялық	44
37@@	44
жеткізіледі	44
vi@@	44
жолдауын	44
кәсіпорны	44
өту@@	44
мысалға	44
кция@@	44
сараптау	44
втың	44
уінен	44
ндіру	44
тәжірибеге	44
индустриясы	44
бағыт@@	44
аумағына	44
дамуында	44
қорлары	44
Й@@	44
тарат@@	44
курсын	44
сомасына	44
Жұмыстың	44
элементтерді	44
балл	44
израиль	44
пас@@	43
арттырудың	43
қағаз@@	43
4,3	43
дарынды	43
ресурстар@@	43
өміріне	43
тордың	43
др@@	43
Химиялық	43
жоспарлары	43
Қорыта	43
робототехника	43
құбыл@@	43
інен	43
бақылаушы	43
жарыс	43
)-@@	43
спортшылар	43
лайды	43
Есептеу	43
Жыл@@	43
жаң@@	43
дүниеге	43
коммуникативтік	43
отырысқа	43
маң@@	43
дәрігер	43
road	43
денсаулығын	43
іс-@@	43
кеңсе@@	43
тырыс@@	43
ge@@	43
ауысу	43
нүкте	43
кеме@@	43
тауар@@	43
тарта	43
аяғына	43
Адам	43
кетеді	43
конституция	43
ding	43
school	43
орталықтарын	43
құрлық	43
алқап@@	43
мыңдаған	43
аудитор@@	43
ұрпаққа	43
5.@@	43
көбіне	43
қашықтан	43
қанат	43
қоймасы	43
қызметтерге	43
аша	43
балқы@@	43
жұмыртқа	43
Же@@	43
алгебралық	43
интеграцияланған	43
Халықаралық	43
сызбасы	43
өкілдеріне	43
0,8	43
жасалынды	43
same	43
4-сурет	43
жау@@	43
туге	43
Су	43
күтілетін	43
ушылық	43
ыстың	43
his	43
қаупі	43
Гидро@@	43
модельде@@	43
жұмыссыздық	43
6]	43
бекова	43
2021	43
ылығы	43
есептеуге	43
байланыстардың	43
ali@@	43
құраса	43
капиталға	43
ұсынуға	43
oр@@	43
құпия	43
әрқайсысы	43
бұру	43
тінен	43
life	43
икалық-@@	43
bilateral	43
5,2	43
ори@@	43
ІН	43
автор@@	43
бағдарла@@	43
тірі	43
эксперимент	43
me	43
customs	43
ӛ@@	43
комиссары	43
болатындай	43
ғылымды	43
result	43
құраушы	43
received	43
бғм	43
зерттеп	43
тапсырмалар@@	43
и-	43
Тү@@	43
ad	43
әзербайжан	43
млрд.теңге	43
жылдарында	43
егіс	43
тараптың	43
спорттың	43
аудандары	43
сүлейменов	43
next	43
Қо@@	43
қоректік	43
инженер@@	43
шаққанда	43
көрнекті	43
анықтаудың	43
to@@	43
қалаларының	43
ескері@@	43
диаграммасы	43
сұхбат	43
management	43
шоғыр@@	43
бағалап	43
жекеменшік	43
жанд@@	43
экспорты	43
хром	43
енуі	43
қa	43
терде	43
көрініп	43
ылғал	43
уақыттағы	43
иль@@	43
азаматы	43
эксперимен@@	43
and@@	43
қалыптасты	43
құрылғылардың	42
мерзімге	42
бағалау@@	42
көрмесінде	42
	42
істеген	42
мақұлдады	42
мағынасы	42
ары@@	42
таныстыр@@	42
шешіледі	42
Бір@@	42
тәжірибелер	42
елордада	42
дисперсті	42
берудегі	42
opportunity	42
фармацевтика	42
ыстыр@@	42
маркетинг	42
толықтыру	42
мк@@	42
[2@@	42
facilities	42
шифр@@	42
айырмашылық	42
орталықтар	42
құрылымдардың	42
шешімдерін	42
community	42
матриц@@	42
қазанд@@	42
әзірленіп	42
алда@@	42
өмірде	42
жетістікке	42
мойынд@@	42
типі	42
шісі	42
астана-@@	42
au@@	42
ip@@	42
паш	42
анды	42
пленарлық	42
реттейтін	42
өзгертуге	42
parliament	42
(А@@	42
markets	42
ұлғайтуға	42
11-@@	42
әкімшілігі	42
кей	42
әріптесі	42
астаналық	42
draft	42
кибер@@	42
келуге	42
бос@@	42
үдерістерді	42
америкалық	42
сипатын	42
басымдығы	42
office	42
айға	42
масының	42
тартымды	42
тәртібінде	42
тоқыма	42
ce@@	42
үле@@	42
процестердің	42
балаға	42
танытты	42
алғаннан	42
улері	42
дизель	42
сынақтан	42
сипатта@@	42
күкіртті	42
мазмұнына	42
тетін	42
тінді@@	42
ғимарат	42
қысымды	42
шa@@	42
ерекше@@	42
дыққа	42
мектептердің	42
йі@@	42
йе@@	42
форумда	42
кадр@@	42
орнатылады	42
фин@@	42
табады	42
туды	42
композициялық	42
жолдарды	42
тегіс	42
С)	42
қызметтеріне	42
бірлікті	42
азияның	42
о-	42
Әдетте	42
маркалы	42
ықтағы	42
мемлекеттен	42
жағы	42
принциптері	42
анған	42
университетінде	42
equipment	42
нейро@@	42
талдауға	42
аэроғарыш	42
режимін	42
сектордың	42
br@@	42
ensure	42
Поли@@	42
атқарылып	42
алушының	42
гіндегі	42
тұрғысында	42
келеміз	42
гіш@@	42
қорытындылай	42
берілуі	42
мың@@	42
ұлғаюы	42
мәтіні	42
басымдықтары	42
Әсіресе	42
мекемелердің	42
аурухана	42
жыныстарының	42
0,52	42
0,49	42
1,1	42
қабаты	42
емхан@@	42
тыны@@	42
3,1	42
үзі@@	42
аймағындағы	42
қаралған	42
жүрек	42
different	42
0,55	42
кадр	42
мектебінің	42
жалған	42
вин@@	42
шал@@	42
қосылып	42
ды)	42
техниканы	42
сайлауалды	42
центр@@	42
тылады	42
16-@@	42
тәжірибеде	42
өсуін	42
тон@@	42
open	42
үсті	42
ушыл@@	42
him	42
organization	42
іі@@	42
мл@@	42
4,9	42
ұқ@@	42
ne@@	42
ді)	42
бастамаларды	42
9,5	42
сәуірде	42
third	42
құжатты	41
жеңі@@	41
Бұл@@	41
ks	41
қыздыр@@	41
мемлекеттері	41
субсидия	41
(2	41
жеңілде@@	41
экспорттау	41
формул@@	41
provides	41
салалардың	41
контейнерлік	41
салған	41
~	41
жеткіздік	41
коэффициенттері	41
кең@@	41
Оларды	41
өткізген	41
пр@@	41
лы-@@	41
күнде	41
мінде@@	41
жұтылу	41
саясатына	41
эффекті@@	41
art	41
зде@@	41
онд@@	41
нақты@@	41
жылдарда	41
1995	41
жоспарына	41
операцияларды	41
тараған	41
ақаба	41
aу@@	41
ДА@@	41
_@@	41
маз@@	41
арттыратын	41
пластикалық	41
Іле	41
сіз@@	41
тіндігі	41
жете	41
е-@@	41
баспана	41
дизайн	41
көлемдегі	41
te	41
тигіз@@	41
параметрлерінің	41
одаққа	41
ады;	41
функциясын	41
үйі	41
дықтың	41
зерттеліп	41
з-@@	41
шетелде	41
атынына	41
гүл@@	41
Кілтті	41
қолжетімділік	41
салмақ@@	41
ықпалдас@@	41
конфессияаралық	41
sp@@	41
беттің	41
Жеке	41
жеңілдіктер	41
жүктелген	41
конференциясына	41
нова	41
id@@	41
лек@@	41
халқымыздың	41
үдерісіне	41
атады	41
диффузия	41
коэффициентін	41
өнімділік	41
had	41
шы-	41
мұра	41
entrepreneurs	41
металдардың	41
ұсыныстарын	41
шан@@	41
үнемде@@	41
бор	41
баяндалған	41
өріс	41
талғат	41
тарихи-мәдени	41
еме@@	41
ұсыныстарды	41
істей@@	41
мақта	41
following	41
тілік	41
жағына	41
кино@@	41
асп@@	41
пакеті	41
тайтын	41
нысанды	41
мамандықтар	41
кәсіпорындарға	41
пал@@	41
дерлік	41
2001	41
ше	41
қағаздар	41
жанынан	41
дамушы	41
факторларды	41
тұрмыс	41
таңдағы	41
функцияларын	41
ст	41
емдік	41
зиялық	41
негізіне	41
кәсіпкерлерді	41
қалыптасады	41
айтылады	41
лік-@@	41
ерітінді@@	41
тәжірибелі	41
Оқушылардың	41
қызметшілері	41
ациясы	41
шығаруды	41
әскер	41
суреттер	41
Алайда,	41
жіберілген	41
1991	41
бұлттық	41
бүкіләлемдік	41
red	41
талшықты	41
adopted	41
бейімде@@	41
оқу-@@	41
бекі@@	41
think	41
ортасын	41
То@@	41
көтер@@	41
бетіндегі	41
]:	41
1-суретте	41
кәсіпкерлері	41
Про@@	41
significant	41
°@@	41
ықтық	41
дану	41
integration	41
media	41
ид	41
Ғылыми	41
жаңал@@	41
сатылы	41
атақты	41
өл@@	41
инг@@	41
фир@@	41
гор@@	41
даниал	41
ник@@	41
жабдықтарды	41
тексері@@	41
Био@@	41
көрсеткішке	41
талқыланып	41
3,7	41
жатқаны	41
шешімдері	41
жалғастыруға	41
құрған	41
алаңда	41
тұрғындарды	41
аудандарда	41
арадағы	41
емес,	41
геология	41
бірқалыпты	41
фильм	41
beginning	41
үде@@	41
forum	41
сей@@	41
өндіреді	41
төрағалық	41
дті	41
тағайынд@@	41
тақырып@@	40
үдерістер	40
құрылатын	40
инвестор	40
«А@@	40
біреуі	40
without	40
компоненттері	40
айр@@	40
ресурс	40
Де@@	40
әрекеті	40
титан	40
russian	40
қолдауы	40
азай@@	40
театр@@	40
	40
мдері	40
сақтаудың	40
because	40
мынандай	40
жөнде@@	40
МВт	40
икасының	40
керек.	40
1-	40
ттерімен	40
кірістер	40
акциясы	40
1994	40
сайты	40
тел@@	40
вице-премьер	40
ттерінде	40
ризашылық	40
лігінде	40
егістік	40
көздерден	40
К)	40
топтың	40
қауіпсіздіктің	40
өздерін	40
аяқ@@	40
оск	40
объектілері	40
employment	40
ұлтаралық	40
таев	40
коэффициен@@	40
музей	40
history	40
ісі@@	40
meters	40
MS	40
қасиеттер	40
стандарттары	40
сомаға	40
талқыға	40
өрне@@	40
Na@@	40
қатынастардың	40
ғыштар	40
кро@@	40
кеңесте	40
	40
при@@	40
Жар@@	40
Құ@@	40
ауданның	40
құю	40
ауғанстан	40
0,6	40
телекоммуникациялық	40
қайраткері	40
міндеттерінің	40
кеңестер	40
өндіріледі	40
лендіру	40
хабарлама	40
160	40
йік	40
дайындығы	40
таба@@	40
ауру	40
динамикасы	40
ded	40
қаралады	40
мжә	40
енгізіліп	40
өткізі@@	40
луіне	40
көрсеткіштеріне	40
оператор	40
еріне	40
қасымбек	40
тран@@	40
әдістермен	40
hold	40
температурасын	40
колледж	40
баның	40
шах@@	40
субъектілерін	40
=0	40
спектрлік	40
қорытындыл@@	40
туғыз@@	40
аурулар	40
син@@	40
жарты@@	40
белгілері	40
қақпасы	40
ұлғай@@	40
түсінігі	40
министрлігімен	40
формуласы	40
сұрақтарға	40
ұзар@@	40
жасалуда	40
ктор@@	40
жақсыбеков	40
0,43	40
нарықтағы	40
нында	40
пошта	40
бейі@@	40
есебінде	40
үлгідегі	40
юнеско	40
мының	40
толықтырып	40
бассей@@	40
мәліметтерге	40
ai@@	40
жүктерді	40
бейнелеу	40
жиырма	40
күшейтуге	40
бағдарламаларының	40
нысан@@	40
аға@@	40
там@@	40
ланады	40
дәрігерлік	40
елдерінен	40
уш@@	40
бақылауда	40
n-@@	40
бастау@@	40
тәсілін	40
ндарына	40
free	40
^@@	40
американдық	40
өңдейтін	40
үлгілерінің	40
(Б@@	40
мл	40
бағыттардың	40
jobs	40
сенаттың	40
айналым	40
станциялары	40
тұжырымдамасын	40
сауатты	40
полимерлі	40
нов.	40
әді@@	40
account	40
игеруге	40
зон@@	40
ережелер	40
беделін	40
дәреже@@	40
ілді	40
тудың	40
Ұсынылып	40
талдаудың	40
кристал@@	40
дайындаудың	40
болуда	40
130	40
торлар	40
аспайды	40
ресур@@	40
компонен@@	40
expo	40
5)	40
институтын	40
5,3	40
нa@@	40
жасырын	40
(R@@	40
төбе@@	40
басқарылатын	40
анықтауда	40
жоспарға	40
тін@@	40
тартып	40
дылық	40
дол@@	40
қызметкер	40
тарихында	40
ұос	39
климат	39
any	39
көк	39
АҚШ	39
компания@@	39
қабаттың	39
теңдеулерді	39
оқу@@	39
тәртіпті	39
қасиетін	39
ондық	39
xxi	39
лау@@	39
0,48	39
республикасына	39
вич	39
йдің	39
қалыптастырады	39
әлеует	39
бейімделу	39
ум	39
орнат@@	39
жүруде	39
көміртек	39
курсының	39
сипаттамалар	39
бал	39
түсір@@	39
пеш@@	39
8,4	39
процесті	39
iн@@	39
дaн	39
шоғырланған	39
мділігі	39
процессор@@	39
салдар@@	39
досаев	39
form	39
standards	39
литва	39
дей@@	39
маңы	39
аяқтал@@	39
тілген	39
Басқа	39
цех@@	39
экспорт@@	39
ұғымдар	39
science	39
тм@@	39
зауытта	39
топырақ@@	39
достастық	39
үйле@@	39
шектік	39
материалдарының	39
маль@@	39
қаражаттың	39
отырды	39
ортал@@	39
абаттандыру	39
сенаторлар	39
бағаланады	39
үй-коммуналдық	39
өңірі	39
гендерлік	39
тобына	39
кәсіпорындарда	39
төлемдер	39
сигналдарды	39
бa@@	39
уақтылы	39
мекемелерінің	39
да,	39
жұмсалған	39
төмендеу	39
жүректен	39
қолда	39
қамтып	39
факторлары	39
натын	39
фактор@@	39
сүріп	39
платфор@@	39
стандарты	39
ресурстық	39
сағ	39
holding	39
коэффициентінің	39
тасын	39
}	39
ұйым@@	39
іім	39
Ин@@	39
істің	39
дайындығын	39
қолдауды	39
лмеген	39
шысы	39
сауданы	39
pi@@	39
ттерде	39
концентрациясын	39
көмір@@	39
К-@@	39
±@@	39
мкм	39
сомасында	39
саз@@	39
теңдеуін	39
эй@@	39
ұйымдастырушылар	39
кемі@@	39
субъектілері	39
мәдени-@@	39
құрастырылған	39
әлі@@	39
леріндегі	39
«Т@@	39
ашқан	39
құжатта	39
тәсілдерді	39
аторлар	39
ұсыныстары	39
always	39
араластыр@@	39
трансфер@@	39
2-	39
жерінде	39
алдары	39
баяндалды	39
азамат@@	39
Микро@@	39
қоғамға	39
тұрады:	39
5,8	39
ный	39
ен	39
мыңы	39
өткізгіштігі	39
тізбек	39
мәрте	39
шекар@@	39
таңда@@	39
доллардан	39
техногендік	39
атауы	39
съезі	39
тапшылығы	39
старды	39
activity	39
бөлінуі	39
ates	39
қоғамдық-саяси	39
механиз@@	39
бұзылуы	39
долл.рын	39
тылуы	39
cities	39
айн@@	39
қарқындылығы	39
ерінің	39
жандарға	39
control	39
бастал@@	39
дағдыларды	39
шарасы	39
сіңір@@	39
суреттегі	39
тандыр@@	39
бөлді	39
қоспасы	39
ски@@	39
журнал@@	39
депутаттардың	39
йт@@	39
ысында	39
мұғалімдердің	39
жағдайындағы	39
матрица	39
de	39
	39
кіл@@	39
ауаны	39
қабіле@@	39
қарусыздану	39
әлемді	39
.,	39
метрия	39
ерекшеле@@	38
салыстырып	38
бағдарламада	38
0,45	38
талдауы	38
сөзді@@	38
түсінуге	38
қасиетті	38
циялар	38
дәстүр@@	38
тация@@	38
деме@@	38
асырудағы	38
сауалнама	38
бойынша@@	38
бөлімдері	38
концер@@	38
ғыз@@	38
талар	38
мезгі@@	38
member	38
кернеудің	38
тығына	38
efforts	38
шығуы	38
0,3	38
05@@	38
ктері@@	38
класы	38
бес@@	38
бар.	38
сайлауы	38
жазық	38
кандидатурасын	38
сa@@	38
ель	38
бар:	38
күштер	38
ics	38
ран@@	38
хат	38
за	38
directions	38
complex	38
жұмысшылардың	38
шарада	38
параллельді	38
тақырыбына	38
киберқауіпсіздік	38
ттан	38
et@@	38
секторын	38
ғандығы	38
мысал@@	38
елімізді	38
өнімдерге	38
туады	38
(1	38
агрег@@	38
жүз	38
дәлелденген	38
шар	38
Бол@@	38
физиологиялық	38
processing	38
мдерін	38
ақшаны	38
декларация	38
графика	38
теория@@	38
сіңірген	38
ыдырау	38
Жо@@	38
105	38
цемен@@	38
In@@	38
дайды	38
игерілді	38
ліктерін	38
мүмкінді@@	38
німен	38
зерттеуді	38
аппарат	38
сабақтың	38
ондаған	38
қаралып	38
ано@@	38
үнде@@	38
8,7	38
туындап	38
көрсеткіштердің	38
төмендетеді	38
кітапхана	38
жауап@@	38
ақпаратпен	38
айналыс@@	38
аймақ@@	38
[11]	38
мүмкін:	38
әкімші@@	38
Коши	38
гал@@	38
етілетін	38
terms	38
біраз	38
әзір	38
ология@@	38
орын@@	38
ғандардың	38
құрды	38
қайтыс	38
whole	38
физ@@	38
барған	38
фито@@	38
ұз@@	38
тығының	38
алса	38
алардағы	38
мед@@	38
қондырғыларды	38
ндары	38
желіні	38
молекулалық	38
II	38
грант	38
building	38
рекреациялық	38
айтыл@@	38
ысынан	38
power	38
комп@@	38
жаңғыруы	38
өзгері@@	38
арттыра	38
улерді	38
сутегі	38
қорғас	38
атқарылуда	38
ұрпақтың	38
bi@@	38
Арал	38
гісі	38
филиалы	38
орал	38
қаны	38
3,9	38
климатты	38
ko@@	38
күш@@	38
керемет	38
Мемлекеттік	38
5,7	38
	38
қалыптастырудың	38
Ф	38
ттеріне	38
0,53	38
res@@	38
кескі@@	38
4,6	38
what	38
тарифтік	38
сұрып@@	38
Солтүстік	38
нат@@	38
әкелуі	38
проблемалары	38
баспа	38
білімге	38
тыңда@@	38
ыр	38
салады	38
бетін	38
минималды	38
170	38
1.	38
атмосфераға	38
бұлақ	38
баә	38
суық	38
8,2	38
Электронды	38
серіктестікті	38
салын@@	38
үміткер	38
sa@@	38
Нақты	38
сам@@	38
әреке@@	38
әкімдері	38
назарбаевты	38
берушілер	38
Денсаулық	38
қызмет@@	38
partnership	38
бейімделген	38
енгізіп	38
ҒА	38
өт@@	38
оқу-әдістемелік	38
committee	38
теңдеуді	37
жайы	37
жүргізілуі	37
мелер	37
өндіруде	37
ға,	37
қосымш@@	37
ғандай	37
реттеуге	37
жариялаған	37
(4)	37
көздеріне	37
кемінде	37
атомдық	37
expected	37
келісімдерге	37
ықпалдастық	37
-ақ	37
тәрбиеле@@	37
өзге@@	37
маманның	37
плаз@@	37
төмен@@	37
pre@@	37
жолаушы	37
ескерту	37
зді	37
қолданыс	37
тімен	37
0,51	37
өңірлерді	37
иясына	37
46@@	37
strengthen	37
жүкті	37
мекен	37
аймаққа	37
көрсеткішті	37
aлa@@	37
сервер@@	37
магний	37
терроризм	37
көшбасшыларының	37
оңтүстік-шығыс	37
оларда	37
ерболат	37
бірлестіктердің	37
қозғаушы	37
корпус	37
тапсырмаларының	37
сатысында	37
қате@@	37
әскерлері	37
ланд@@	37
реттеудің	37
лықты	37
мақсатындағы	37
ұйымдастырылып	37
қысымы	37
өсімін	37
г/@@	37
ауди@@	37
видео	37
ғанд@@	37
текті	37
стандарттарды	37
Республикасында	37
if	37
қауым	37
ған:	37
ой-@@	37
201@@	37
(3)	37
таралуын	37
aлық	37
интеллект	37
қисық	37
мə@@	37
айналдыру	37
кездері	37
қоғам@@	37
концерттік	37
концентр@@	37
«С@@	37
жете@@	37
нұр-сұлтан	37
сұрақтарды	37
pl@@	37
сәйкес@@	37
пайдаланылуы	37
мділік	37
мау@@	37
икасын	37
document	37
суының	37
алгоритмдер	37
сақтау@@	37
жиілікті	37
символ@@	37
stability	37
орталықтарында	37
анатын	37
дыбыстық	37
арал	37
Жүргізілген	37
бағаны	37
органы	37
азаматтың	37
құжаттарын	37
60-@@	37
шылары	37
ақпараттандырды	37
бастан	37
технологияларға	37
математ@@	37
ьды	37
полимер	37
болу@@	37
формалары	37
ми	37
сегіз	37
түрі@@	37
тив@@	37
саналы	37
күйде	37
береміз	37
66@@	37
марапаттау	37
ліктен	37
елі@@	37
бюджетті	37
2015-2016	37
аймақтарды	37
аяқталғаннан	37
қолжетімділігі	37
бітімгершілік	37
ating	37
араластыру	37
ушілердің	37
election	37
өтпелі	37
техник@@	37
қалдық@@	37
лім	37
code	37
iлi@@	37
ауқымы	37
тұрақтандыр@@	37
дамуындағы	37
кет@@	37
талаптардың	37
программа	37
рау@@	37
айту@@	37
тарих@@	37
жердегі	37
Мұ@@	37
ed@@	37
жие@@	37
кәсіпкер@@	37
келіссөздердің	37
ғыштың	37
дылығы	37
no@@	37
ном@@	37
ортасына	37
реактор	37
технологиямен	37
пайдаланған	37
қаржыландыруды	37
аймақтары	37
бiлiм	37
вектор@@	37
сессия	37
5,@@	37
мдер@@	37
240	37
аттеста@@	37
вал@@	37
сақталуы	37
арабиясы	37
параметрлердің	37
фу@@	37
басқарушылық	37
визалық	37
өңірінің	37
далған	37
спортты	37
best	37
химия@@	37
стардың	37
7,3	37
ук@@	37
str@@	37
ткш	37
пан	37
тұжырымдама	37
санаттағы	37
оқулықтар	37
тeр@@	37
жетуге	37
пікірталас	37
қолдады	37
жақыпов	37
архитектуралық	37
білдір@@	37
програм@@	37
күштік	37
топырақты	37
sk@@	37
ардагері	37
қаланы	37
сала@@	37
сәйкестік	37
азайтады	37
изм	37
бастамалар	37
тігін	37
ISO	37
балет	37
7,6	37
ографиялық	37
knowledge	37
аспектілері	37
қаты@@	37
шол@@	37
бөлімінде	37
келісі@@	37
ар-	37
Қор@@	37
кторы	37
шағыл@@	36
ада@@	36
қарастырылатын	36
пайдаланыл@@	36
сиыр	36
дж@@	36
бөлігіндегі	36
айл@@	36
мұнайгаз	36
тациялық	36
іс-	36
мөлшер@@	36
want	36
импуль@@	36
финляндия	36
толы	36
қыркүйегінде	36
семинарлар	36
алтын@@	36
мадан	36
лдің	36
нық	36
петропавл	36
t-@@	36
спир@@	36
отынды	36
мұны	36
бастамаларын	36
масштаб@@	36
лайтын	36
зертхан@@	36
көлеміне	36
алға@@	36
ндарға	36
ойла@@	36
дами	36
музыка	36
сыйымдылығы	36
2003	36
бейбітшілікті	36
6,3	36
үйде	36
заның	36
дас@@	36
purpose	36
өңдеуді	36
орындайтын	36
сізге	36
қосылатын	36
square	36
аумағын	36
үшіншіден	36
облыстары	36
жанама	36
құзыретті@@	36
бөліну	36
Si@@	36
көпқабатты	36
көтерген	36
лі-@@	36
қажет.	36
тариф	36
салдары	36
әл-ауқатын	36
9,3	36
жоспардың	36
1:@@	36
қарасты	36
лып	36
фабрик@@	36
өңірлердің	36
8,3	36
der	36
пікірі	36
мәніне	36
50%	36
терден	36
баған	36
1-кестеде	36
желісіне	36
объектілердің	36
мағ@@	36
Орта	36
тауарлы	36
миссия@@	36
қадам@@	36
аумақ@@	36
шаш@@	36
станциясының	36
үлке@@	36
белгі	36
ұғымы	36
саламыз	36
апат@@	36
түсуі	36
фар@@	36
мерзі@@	36
объектісі	36
(Т@@	36
кова	36
қондырғының	36
3,6	36
қызметкер@@	36
tasks	36
был@@	36
approved	36
тұқымды	36
мемлекетті	36
т)	36
ж.	36
нарықтың	36
құрылғыларды	36
жағында	36
күресу	36
кері@@	36
жаңалықтар	36
міз@@	36
орталыққа	36
СТ@@	36
түсіп	36
министрлер	36
шығарған	36
кезең@@	36
әу@@	36
орындайды	36
қт@@	36
воль@@	36
бөлімде	36
машиналар	36
құжаты	36
trans@@	36
қолданылу	36
далалық	36
тәжірибелері	36
sc@@	36
информатиканы	36
педагогика	36
түйін	36
сауаттылық	36
Ресей	36
(T@@	36
геосаяси	36
мақсат@@	36
кондитерлік	36
өнімдеріне	36
ыдыр@@	36
бурабай	36
мақсатына	36
сіңіру	36
аза@@	36
дайындап	36
қр-ның	36
өзгерістердің	36
g-global	36
пәнаралық	36
ұй@@	36
көре	36
чехия	36
стандарттарына	36
ыдырысов	36
седі	36
инфляция	36
қарауға	36
бейнесі	36
1500	36
көрсетеді.	36
параметрі	36
450	36
goods	36
маш@@	36
бейнеленген	36
автожол	36
туде	36
тi	36
мыстың	36
мақсатын	36
ba@@	36
жүзіндегі	36
Түркістан	36
айқындалған	36
транс@@	36
сіздерге	36
қанын	36
температур@@	36
жұмсалатын	36
қытайға	36
инвестор@@	36
жаңғыртудың	36
алушыларға	36
теңдік	36
ЖШС	36
интегралды	36
СТ	36
ндеріне	36
маршру@@	36
сыныптан	36
экстремизм	36
ларындағы	36
мұқтаж	36
ттарын	36
department	36
қабылдауы	36
удамыз	36
анықтады	36
ты-	36
іс-әрекетін	36
-тың	36
түзу	36
Виртуалды	36
порт@@	36
лi	36
минер@@	36
да-	36
get	36
меңгерген	36
стан@@	36
шегінде	36
ыл	36
қиындық	36
thus	36
алматының	36
білді	36
өзгеде	36
шығынд@@	36
he@@	36
Ш	36
оқылымда	35
Бұ@@	35
қарым-қатынасы	35
фаз@@	35
tic	35
мм@@	35
альдық	35
Те@@	35
қомақты	35
маңында	35
tourism	35
із@@	35
алғанын	35
елордалық	35
құнының	35
аттық	35
автор	35
бейімдеу	35
деуге	35
Өлше@@	35
бұзу	35
төраға	35
атының	35
сәттілік	35
спортпен	35
reforms	35
рен@@	35
тасты	35
күй	35
тамыр@@	35
әскери-@@	35
деңгейлері	35
2%	35
серіктестігі	35
ma@@	35
құтқару	35
сәйкестігін	35
көршілес	35
температурасының	35
тағам@@	35
клин@@	35
regard	35
1992	35
форумына	35
көмектің	35
бoл@@	35
мик@@	35
хро@@	35
тәріздес	35
анали@@	35
саға@@	35
операция@@	35
ықтималдығы	35
жазып	35
@@	35
january	35
компоненттердің	35
ымның	35
АЛЫҚ	35
labor	35
компанияларға	35
бұзылған	35
комитеттің	35
мир@@	35
көк@@	35
оқо	35
өзбек	35
үйлесімді	35
шикі	35
заңдар	35
берушілердің	35
қатерлі	35
ОР@@	35
судьялар	35
established	35
нормативті	35
sts	35
арнаған	35
аттардың	35
Маңғыстау	35
индек@@	35
нысаналы	35
шыны@@	35
айық	35
азияда	35
әкк	35
маларын	35
1200	35
атына	35
органның	35
халықтарының	35
ұлан	35
сатыл@@	35
абонен@@	35
қылмыс	35
астыр@@	35
баланы	35
бастаманы	35
7,7	35
құрылысқа	35
теңізінің	35
кинематикалық	35
есептегенде	35
ё@@	35
м.	35
терезе@@	35
әуежай@@	35
ери@@	35
йонсондық	35
алгоритмдері	35
тест@@	35
кодексі	35
кеш	35
ішінара	35
аударма	35
йміз	35
дамуымен	35
білдіретін	35
жетісті@@	35
Физикалық	35
ев.	35
тасымал	35
ғыл@@	35
дақыл@@	35
қабылдайтын	35
институттары	35
кило@@	35
issue	35
жалпыланған	35
негіз@@	35
тудыратын	35
нәтижесіне	35
қаңтардан	35
икаға	35
ұя@@	35
әрекетте@@	35
8,6	35
минералдық	35
лауазымды	35
қолдаймыз	35
жағдайларына	35
идм	35
мент	35
бөге@@	35
мелі	35
0,62	35
күйдіру	35
данған	35
әкімдіктер	35
Z	35
өмірінің	35
деріне	35
отыратын	35
(E@@	35
өлшенетін	35
жә@@	35
ұйымдастыруды	35
соғысының	35
Әртүрлі	35
айтамыз	35
үз@@	35
бей	35
елдерден	35
ia	35
33@@	35
полимерлік	35
ынан@@	35
туы	35
chairman	35
түзілуі	35
шe@@	35
синтетикалық	35
(5)	35
мультимедиялық	35
материалдық-техникалық	35
байланыс@@	35
тектес	35
фабрикасы	35
таратылған	35
академия	35
мұғалімдер	35
әсері@@	35
туристер	35
Ге@@	35
жылдығымен	35
желдің	35
0,57	35
тумен	35
scientific	35
change	35
университеттің	35
мақсаттарына	35
даяр@@	35
қызметші	35
кеме	35
білікті@@	35
алдымызда	35
Қаз@@	35
fe@@	35
вен@@	35
универсиада	35
Сапа	35
қондырғысы	35
жетілдіруді	35
supply	35
күш-жігерін	35
ұқсас@@	35
тамақ@@	35
Google	35
Java	35
жылдардың	35
current	35
кейіннен	35
есептейміз	35
tes	35
көтеріп	35
ber@@	35
суі	35
модельдерін	35
кені@@	35
жоғар@@	35
қаласынан	35
артуда	35
Деректер	35
білдірген	35
қалыптасып	35
дтік	35
уақы@@	35
парк	35
resources	35
салтын	35
л-@@	35
станда	35
ұйымдармен	35
express	35
тре@@	35
5,1	35
театрының	35
департамент	35
дамуды	35
портал@@	35
бето@@	35
инфрақұрылымының	35
анықталатын	35
қажет:	35
мәтіндік	35
кезе@@	35
айқындап	35
ұст@@	35
қажеттігіне	35
шеберлік	35
мәдениеттің	35
директорлар	35
𝐴@@	35
possible	35
леудің	35
техникасын	35
өсуде	35
қарастырылуда	35
ten@@	35
талық	35
құқ@@	35
106	34
тереңдетуге	34
мұғалі@@	34
Co@@	34
жарылды	34
цияда	34
арман	34
цияланған	34
гендігін	34
жоспарды	34
дене@@	34
температурасына	34
help	34
particular	34
несиелеу	34
алмаған	34
деңгейімен	34
вол@@	34
проблемасы	34
ресейге	34
старға	34
дайындауда	34
спектрлері	34
сақтайды	34
каның	34
талып	34
ады@@	34
деңгейіндегі	34
медаль	34
айтулы	34
жоспарда	34
дықты	34
қамтыған	34
радиусы	34
белсенділігінің	34
нығайтудың	34
шаның	34
қабылданатын	34
мейді	34
түрінің	34
жерлердің	34
формат@@	34
38@@	34
әсер@@	34
индустриялды	34
Алматы:	34
нормативтік-құқықтық	34
тауардың	34
қолданушы	34
жоқ@@	34
мақсаты@@	34
демографиялық	34
федералды	34
зауытын	34
жабдық	34
халқын	34
қамқор@@	34
құрылғының	34
Windows	34
ортадағы	34
төтеп	34
дәленов	34
мұғалімдерін	34
2.	34
ғалы	34
жылында	34
қабылдан@@	34
(0@@	34
ктерден	34
идеялар	34
ОҚЫТУ	34
бірлесті@@	34
практика	34
болады@@	34
interested	34
модельдеудің	34
төмендеп	34
талқылайды	34
аумақты	34
төмендеген	34
миссия	34
6,4	34
елдердегі	34
сайтында	34
идея	34
ацияның	34
үйрен@@	34
болашақтағы	34
ян@@	34
курсы	34
өткім	34
игілігі	34
делегациясының	34
(M@@	34
кеңеске	34
лан	34
плазмалық	34
сөндіру	34
0,60	34
осылай	34
кедергі@@	34
тереңді@@	34
пікір@@	34
залы	34
күн@@	34
м)	34
кеңе@@	34
ойын@@	34
ңі@@	34
миссиясы	34
себеп@@	34
ата-ан@@	34
дтер	34
аударып	34
үеұ	34
беріліс	34
past	34
leader	34
200-ден	34
ық-	34
тұлғаны	34
компонент	34
әзірлеген	34
жүздеген	34
атанды	34
жата@@	34
course	34
тала@@	34
үшбұрыш@@	34
мәжілісінде	34
бензин	34
зерделе@@	34
шақты	34
8,1	34
direction	34
тасымалдаудың	34
принцип@@	34
int@@	34
кә@@	34
теу	34
ван	34
пысық@@	34
various	34
малайзия	34
built	34
әкімдіктің	34
3-4	34
аралықта	34
мұраға@@	34
кесінді@@	34
каталитикалық	34
қоспаларды	34
түзіледі	34
олардан	34
жұмыстарымен	34
қыздар	34
мемлеке@@	34
сауаттылығын	34
блок	34
ақы	34
тұрғындарға	34
ғалам@@	34
Би@@	34
керектігі	34
Ақтөбе	34
жолда	34
француз	34
фаза	34
өнері	34
гр@@	34
ph@@	34
хатшылығының	34
нығай@@	34
ние@@	34
жаттығ@@	34
жиналды	34
теже@@	34
үдерістердің	34
парламен@@	34
құпия@@	34
тақырыбын	34
удеміз	34
мәсімов	34
iнде	34
ыңғай@@	34
дегенді	34
лa@@	34
majilis	34
федералдық	34
бағалауы	34
нiң	34
www.@@	34
баршаға	34
заңна@@	34
(N@@	34
improvement	34
жетілдірілген	34
модельдерді	34
өскелең	34
жоғал@@	34
дарында	34
aр	34
графиялық	34
табыстарға	34
сектор@@	34
	34
based	34
шекарасы	34
шілдеде	34
фили@@	34
Брэгг	34
кабине@@	34
институттарының	34
ұшыраған	34
әңгімеледі	34
	34
зал@@	34
ушыларға	34
СО@@	34
өмір@@	34
сенімділігін	34
гранттар	34
түрікменстан	34
механ@@	34
театры	34
ттері@@	34
х.@@	34
стр@@	34
емхана	34
ова.	34
құрылғысы	34
орталықтандырылған	34
жазуға	34
ктив@@	34
келтіреді	34
диоксиді	34
туді	34
бірлестігінің	34
ту;	34
мерзім	33
орындады	33
up@@	33
жүйесі@@	33
lin@@	33
лігі;	33
инвестицияны	33
қаражатын	33
көре@@	33
кеше	33
құруда	33
europe	33
аптасына	33
Математика	33
өңдеуші	33
тауды	33
леуді	33
Cu	33
микроскоп@@	33
көрші@@	33
0,71	33
iv	33
мөлшеріне	33
ерінен	33
отырып@@	33
іс-шаралардың	33
сенімін	33
талап@@	33
ала-	33
қатысушысы	33
орналастырылған	33
ндe	33
түсіндіріп	33
серв@@	33
ұйымдастырып	33
тұтынушыларға	33
киі@@	33
көрсеткіштерді	33
114	33
мекемелері	33
кішігірім	33
кәдеге	33
түсіндіруге	33
нәтижелердің	33
6,8	33
-дің	33
ғар@@	33
іш@@	33
н.	33
жабдықтың	33
азайып	33
жаттығулар	33
компаниялармен	33
4-ші	33
заманда	33
құралдарына	33
дәлдігін	33
тындай	33
тараптан	33
сәттен	33
Басқару	33
жоспарлар	33
келісімшарт	33
мамандығының	33
артықшыл@@	33
өзектілігін	33
созылған	33
тыңайтқыштар	33
нe@@	33
ұны	33
қатынастарын	33
кітаптар	33
дайындалу	33
00-@@	33
марганец	33
абаев	33
ереже	33
иесі	33
Сыртқы	33
∆@@	33
115	33
қатысушыларына	33
әкі@@	33
тетігі	33
өңірлердегі	33
суретке	33
туриз@@	33
Шымкент	33
шашыр@@	33
тотығы	33
жатқанына	33
қозғалтқыш@@	33
Гео@@	33
сейсмикалық	33
шеше	33
1/@@	33
зация	33
оқытушылар	33
хатшысының	33
мектептегі	33
дір@@	33
тексеріс	33
шараларына	33
хатта@@	33
дәурен	33
қашықтық	33
taken	33
қызығушыл@@	33
peace	33
жүйелерінде	33
аттары	33
дануы	33
телефо@@	33
стратегия@@	33
ттарына	33
сим@@	33
соғады	33
аралады	33
бекітіл@@	33
care	33
20-дан	33
байбек	33
өкілетті@@	33
0,46	33
ліктерге	33
кедей@@	33
av@@	33
мүлде	33
желілердің	33
лсе	33
б-@@	33
профилактикалық	33
тактикалық	33
Кар@@	33
сирия	33
IS@@	33
Fe@@	33
шақырылды	33
жеңілдетеді	33
220	33
жетім	33
әлеуетінің	33
округ@@	33
британдық	33
облысынан	33
көрсеткішін	33
НД@@	33
қозғады	33
ңізді	33
кәсіпкерліктің	33
кеңістікті	33
сотқа	33
айырмашыл@@	33
өтеу	33
конференциясының	33
торап@@	33
аумақтың	33
картасының	33
IT	33
Информатика	33
0,7	33
тауарларға	33
шілік	33
тауда	33
командасы	33
жаттығу	33
асфаль@@	33
reached	33
(6)	33
тивті	33
үйлестір@@	33
5,6	33
маусымында	33
желтоқсанында	33
ттерінен	33
аспектілерін	33
вело@@	33
жоспарла@@	33
мауы	33
ылғалдылығы	33
міндетіміз	33
дап	33
үрдістер	33
отырысын	33
unity	33
стратегиясында	33
летінін	33
талдықорған	33
организ@@	33
алматы-@@	33
елінен	33
лауазымына	33
заңдылықтарын	33
нсіз	33
Жү@@	33
лгенін	33
uc@@	33
танып	33
Шығыс	33
hi@@	33
паке@@	33
сорб@@	33
ерікті	33
зінде	33
Техникалық	33
0,65	33
tor	33
желілерінің	33
кездесе@@	33
жариялады	33
үлестірілген	33
әдістеріне	33
норматив@@	33
оқытудағы	33
сондықтанда	33
кезеңнен	33
ыш	33
experts	33
вар@@	33
атауға	33
ліктерінің	33
элементтің	33
нып	33
көрсетуі	33
көреміз	33
тәртібіне	33
конвер@@	33
еуропадағы	33
сәйкестендір@@	33
қоса@@	33
agency	33
ұшырайды	33
метрден	33
тақырыптар	33
жұмылдыру	33
сипаттал@@	33
көшпелі	33
дамыз	33
жартысы	33
алмай@@	33
болғанымен	33
сонд@@	33
жұмсалады	33
ерітінді	33
жарияланды	33
рах@@	33
Каспий	33
істі	33
ИҚ-@@	33
қажеттілігіне	33
ушысы	33
қолайсыз	33
алмасуға	33
игер@@	33
супер@@	33
тетіктері	33
launched	33
ағының	33
біре@@	33
жеткізі@@	33
жшс-нің	33
алматыдағы	33
бағыттау	33
модульдік	33
өзгеруін	33
концерт	33
exchange	33
кооператив@@	33
баны	33
ынын	33
салтанат	33
МД@@	33
гектарға	33
1998	33
инновация@@	33
жекешелендіруге	33
@@	33
ия)	33
ғылымдарының	33
тылықтың	33
ъ@@	33
нормалар	32
youth	32
әдістерімен	32
әдістеме	32
партиялық	32
сенімділігі	32
сигналдың	32
танудың	32
рe@@	32
party	32
ауда@@	32
ents	32
Гра@@	32
conference	32
креди@@	32
ограм@@	32
ұлғайып	32
алиев	32
көмекші	32
жең@@	32
мереке@@	32
(7)	32
өзгеріске	32
әріптес	32
кеңістігін	32
экономикада	32
tim@@	32
қоз@@	32
балқым@@	32
отырғаны	32
алмайтын	32
құндылық	32
дайындалып	32
бен@@	32
аушы	32
оқиғаларды	32
тілінен	32
тоб@@	32
39@@	32
оқу-жаттығу	32
сұхбат@@	32
жүктеу	32
ереже@@	32
суармалы	32
гүлшара	32
мүшелігіне	32
өндіріп	32
-тің	32
тармақ@@	32
q	32
міндетте@@	32
иялы	32
басшыларына	32
стеріне	32
аспекті@@	32
келсе	32
ластан@@	32
шартын	32
Ма@@	32
қиылыс@@	32
мға	32
rights	32
біріктіретін	32
басылым@@	32
қышқылды	32
алатындай	32
шебер@@	32
баяндамасында	32
салаларды	32
жәрдемдесу	32
үйінің	32
тапсырмасына	32
Кез	32
са-	32
Ті@@	32
3.	32
Әлеуметтік	32
көмекті	32
ical	32
үмі@@	32
ындa	32
нүктелері	32
келушілер	32
months	32
бітір@@	32
кәдімгі	32
сынақтар	32
өлшенген	32
өрі@@	32
жүйелерге	32
де,	32
балан@@	32
тіліндегі	32
iр@@	32
қонақтары	32
серпі@@	32
платформа	32
қолдана@@	32
шығындардың	32
рәсі@@	32
Электр@@	32
104	32
дро@@	32
үшін@@	32
дәлелденді	32
family	32
Ер@@	32
сіздік	32
жалақысы	32
жап@@	32
besides	32
кезеңді	32
біледі	32
ндей	32
бастадық	32
informed	32
айқындайтын	32
сайт	32
Зертте@@	32
ктеріне	32
прокурор	32
оптималды	32
ус	32
фрагмен@@	32
тартылады	32
билет	32
2015@@	32
таңдалды	32
2015-2019	32
критери@@	32
көзқарас@@	32
түп@@	32
көшбасшыл@@	32
mon@@	32
ауытқуы	32
келмейді	32
нұсқа@@	32
(D@@	32
ипотекалық	32
атындығын	32
ағы@@	32
былтыр	32
таны	32
террористік	32
армия	32
дерінде	32
таба	32
crisis	32
уы@@	32
елшілігі	32
этносаралық	32
біле@@	32
атом@@	32
м2	32
6,2	32
жастан	32
ТТ@@	32
бағытына	32
басқаратын	32
мақсаттарды	32
өсімді	32
ақорданың	32
court	32
[3@@	32
king	32
өмірдің	32
пайдаланылған	32
ауылының	32
centers	32
сатылды	32
қаныққан	32
кезеңін	32
насихат@@	32
ем@@	32
ик	32
Дәстүрлі	32
//	32
6,@@	32
stage	32
success	32
86@@	32
айқындайды	32
беретініне	32
нығайтып	32
мдермен	32
айдау	32
until	32
моделіне	32
жалғас@@	32
тігі@@	32
атқа	32
құрамымен	32
нәтижелерінің	32
introduction	32
әдісіне	32
əр	32
az@@	32
мыр@@	32
ктерде	32
бiр@@	32
taking	32
Мас@@	32
қағидасы	32
ауы@@	32
мод@@	32
алық@@	32
шифрлау	32
280	32
перспективалық	32
capacity	32
бi@@	32
таст@@	32
тин	32
тоқсанында	32
жұмысшылар	32
өнімге	32
нақтырақ	32
ке-	32
took	32
ф.@@	32
қасие@@	32
соғысы	32
амын	32
5-тен	32
prices	32
ымызда	32
Ан@@	32
Эк@@	32
аналог@@	32
крист@@	32
инфрақұрылымның	32
қаже@@	32
болжамды	32
үрдістерді	32
50-ден	32
сипатталатын	32
иканы	32
газдардың	32
шыға@@	32
acы	32
тізбекті	32
пайды	32
проце@@	32
стермен	32
women	32
назарға	32
индукциялық	32
біріктіреді	32
орнатқан	32
қыз	32
МПа	32
байқауы	32
мәтінді	32
сұраны@@	32
адамзаттың	32
oл@@	32
дағы@@	32
бiр	32
асырылуын	32
компоненттер	32
қолданумен	32
сессиясы	32
қырғызстанның	32
Технологиялық	32
кешенінде	32
металл@@	32
элементтік	32
уі;	32
биліктің	32
мөлшерінде	32
жоспарында	32
өмірін	32
түзі@@	32
Q	32
AD@@	32
қорларын	31
establishment	31
катализатор@@	31
астананы	31
тпе@@	31
тұлғ@@	31
асыз	31
аласыз	31
бюросының	31
нәрсе	31
another	31
уғa	31
қабыр@@	31
ғасырдағы	31
8)	31
қорытындылады	31
	31
байланыстыру	31
ұйымдарда	31
эти@@	31
маг@@	31
тоқтату	31
алдарды	31
includes	31
әрекеттер	31
бір-бірінен	31
шешімдердің	31
assistance	31
ымда	31
талқыл@@	31
алаңына	31
жасай@@	31
];	31
жолақты	31
қис@@	31
түсуде	31
шикізаттың	31
конструктивті	31
республикасымен	31
желтоқсандағы	31
so@@	31
сульф@@	31
лығына	31
жө@@	31
тереңірек	31
қате	31
қазақ-@@	31
4]	31
тұрақсыз	31
жетекшілігімен	31
көлемдік	31
инновацияларды	31
әзірлеуді	31
құра	31
әлиев	31
әкеп	31
ғасыр@@	31
энергетиканың	31
ant	31
days	31
ak	31
(t@@	31
зиялы	31
жабдықтардың	31
мп@@	31
диаграм@@	31
ктерінде	31
вице-министрдің	31
қанағаттандыратын	31
көрген	31
30%	31
leaders	31
ктерінен	31
жаңа@@	31
пайдалануда	31
лыққа	31
initiative	31
жүзде@@	31
шыларға	31
новтың	31
бо-	31
жылдар@@	31
банктердің	31
7,@@	31
континен@@	31
калық	31
қасиеттерге	31
аумақта	31
өндірудің	31
leading	31
аларындағы	31
суару	31
шақ@@	31
медиация	31
құқық@@	31
бұзушылықтар	31
пaйдa	31
стандартқа	31
Δ@@	31
қдб	31
басшылығының	31
вьетнам	31
gu@@	31
пен@@	31
жетістігі	31
бәрін	31
cis	31
марк@@	31
фестиваль	31
ұйымдастырған	31
қысымның	31
тоқтап	31
диагностикалау	31
электромагниттік	31
аурухан@@	31
ліне	31
Өндірістік	31
отбасыларға	31
популя@@	31
они@@	31
әскерлерінің	31
рәсімдеу	31
M-@@	31
өңделеді	31
шақырыл@@	31
тұруға	31
нығайта	31
пала@@	31
нөлге	31
Өз	31
қo@@	31
конвен@@	31
ваның	31
икемді	31
офи@@	31
тауарды	31
дәстүр	31
тауарларының	31
атқаруда	31
и-@@	31
ауылшаруашылығы	31
пәндерді	31
басқал@@	31
industrialization	31
старын	31
ақуыз@@	31
боз@@	31
векторы	31
табысқа	31
жор@@	31
координаталар	31
й-@@	31
шин@@	31
сұраққа	31
техн@@	31
табылады:	31
пирами@@	31
АК@@	31
т»	31
жа-	31
алдар@@	31
нас@@	31
кодексінің	31
(мысалы,	31
қолданылуда	31
тәуелділігін	31
педагог	31
балы	31
елдеріндегі	31
тауарлары	31
псих@@	31
шығуға	31
тауарлық	31
сел@@	31
бетке	31
ықпал@@	31
магнитті	31
токтың	31
форматта	31
жаратылыстану	31
жануарлардың	31
алмасып	31
тетра@@	31
ардагерлерге	31
ұсынымдар	31
етіне	31
лагерь@@	31
өңдеуде	31
төгі@@	31
гель@@	31
сізді@@	31
ish@@	31
ліктердің	31
given	31
тексеруге	31
сулар	31
білген	31
алау@@	31
стро@@	31
бюдже@@	31
егу	31
деформация@@	31
professional	31
беле@@	31
бауырлас	31
оқ	31
өкілді@@	31
баспасөзде	31
сұрау	31
нде,	31
герлік	31
айқындалды	31
Жел	31
параметрлерді	31
таным	31
10%	31
агенттіктің	31
жіті	31
ды-@@	31
тұрғызу	31
докторы	31
жой@@	31
пунк@@	31
металлург@@	31
give	31
ушыларды	31
маңыз@@	31
туынды	31
торы	31
алдар	31
лды	31
сайлаушылардың	31
талданған	31
қаржының	31
изо@@	31
сабақта	31
сөзі	31
fin@@	31
автономды	31
опер@@	31
бағындыр@@	31
ндыр@@	31
some	31
кедергілер	31
ескерткіш	31
нақтылау	31
мат	31
ang@@	31
attract	31
желісінде	31
6,6	31
9,6	31
тұрғандай	31
көше	31
жастары	31
қолданыла@@	31
еңбек@@	31
тик@@	31
луде	31
сыйлығының	31
ory	31
масымен	31
дискретті	31
с)	31
болғандай	31
температурасында	31
ымының	31
индустрияландырудың	31
Топырақтың	31
шару@@	31
tax	31
ұстаз@@	31
formation	31
human	31
ластануының	31
меже@@	31
құрылғ@@	31
сертификат@@	31
комплек@@	31
сабақ@@	31
out@@	31
сұйытылған	31
ұнтақ	31
туі	31
іздені@@	31
дығының	31
sub@@	31
салатын	31
қоспаның	31
жартысында	31
бойыншa	31
problem	31
қалыптастыруда	31
іс-әрекеті	31
инвесторлармен	31
european	31
Х	31
access	31
қимасы	31
г-@@	31
әрекетін	31
тілігін	31
for@@	31
че@@	31
іс-шараларға	31
тағам	31
инжиниринг	31
үйлесі@@	31
теңдеуінің	31
құрылысты	31
айналысуға	31
консультациялар	31
қолдануы	31
ary	31
қазақмыс	31
байланыстары	31
мімен	31
0,39	31
авторы	31
мг	31
км@@	31
асимптотикалық	31
320	31
геометр@@	31
курстар	31
орнындағы	31
қатынастары	31
саяхат@@	31
ақыл@@	31
серіктестіктің	31
continue	31
кеткендей	31
·@@	31
Al@@	31
жағдайларында	31
клубының	31
бақша	30
акт	30
әбді@@	30
өнеркәсіпте	30
ота	30
сәулелен@@	30
интерфей@@	30
қақ@@	30
коммерция	30
Ас@@	30
импорт@@	30
түпкілікті	30
қадамды	30
түркияның	30
Бұған	30
ағынның	30
пойыз	30
Ақпаратты	30
у:	30
heads	30
әдістері@@	30
штаб@@	30
салым@@	30
ендігі	30
рейтинг	30
тұрды	30
пайыз@@	30
stan@@	30
интегр@@	30
ies	30
шарттарға	30
ота@@	30
клиен@@	30
талатын	30
ving	30
холдингтің	30
а.	30
қаласын	30
шеңбер	30
Y	30
сүйенсек	30
model	30
vi	30
редакция@@	30
видео@@	30
кездесуді	30
шамасын	30
мет	30
мұхтар	30
(A@@	30
көліктің	30
жүктемені	30
тілігі	30
ығындағы	30
біліп	30
құп@@	30
жетекші@@	30
құндылықтарын	30
ді»	30
тұт@@	30
пікірін	30
ұсыныл@@	30
кітап@@	30
реактор@@	30
рі@@	30
ақш-тың	30
united	30
ндарын	30
тазал@@	30
кс@@	30
аренадағы	30
ғалымдары	30
зе	30
relevant	30
есірткі	30
ati@@	30
руслан	30
ика-	30
график	30
Жамбыл	30
беріктік	30
көмекте@@	30
лендір@@	30
idea	30
0)	30
орналастырылды	30
кесе@@	30
өзгеше	30
диапазонында	30
көлік-логистика	30
қалыптастырып	30
əсер	30
декларация@@	30
координ@@	30
есептелінеді	30
ауылындағы	30
газдар	30
кторлар	30
мер	30
бүр@@	30
иі@@	30
жүйелеріне	30
қабылдай	30
ведомствоаралық	30
мұғалімдерді	30
кезек	30
жүгі@@	30
торлардың	30
рәсімдерін	30
практик@@	30
staff	30
changes	30
жобасымен	30
жариялау	30
қорлар	30
ушылары	30
санау	30
ортамен	30
ғарыш@@	30
пті	30
жанар@@	30
анықтай	30
фло@@	30
AS@@	30
жолына	30
бюджеті	30
ans	30
тұтқыр	30
құбырлар	30
мыз.	30
рель@@	30
серікте@@	30
қарым	30
ұйымдасқан	30
session	30
брифинг	30
солай	30
стары	30
жасаймыз	30
іріктеп	30
space	30
альді	30
заттарға	30
share	30
бөлшектері	30
күндізгі	30
5,9	30
стерде	30
әле@@	30
ндігі	30
@@	30
жазық@@	30
потенциалды	30
аппараты	30
зақым@@	30
тиімділігіне	30
жасы	30
әл-@@	30
бағдарламалар@@	30
қосылыстардың	30
леріміз	30
mer@@	30
деңгейі@@	30
конституциясының	30
пішіні	30
павильоны	30
мақал@@	30
-дың	30
пла@@	30
сары@@	30
аударылады	30
0,4	30
cost	30
координат@@	30
Зерттеулер	30
метрі	30
биікті@@	30
сервер	30
(H@@	30
мемлекеттік-жеке	30
нүктесінде	30
қатардағы	30
ауылда	30
жүз@@	30
сах@@	30
рол@@	30
құбырлары	30
difficult	30
тапсырған	30
ай-	30
дже@@	30
комитетіне	30
тика	30
морфологиялық	30
гeн	30
қаза	30
мақұлданған	30
эквивален@@	30
есіл	30
әдебие@@	30
түрлерімен	30
ғ.@@	30
малар@@	30
іледі	30
таушы	30
сайыс	30
ii	30
кестесін	30
таста@@	30
құбылыстарды	30
қызметте	30
deputy	30
бағытқа	30
портал	30
генератор@@	30
құжаттары	30
депутаттық	30
есептеп	30
шешімімен	30
оңтүсті@@	30
кеңістігі	30
тылу	30
горизон@@	30
атсалыс@@	30
құқылы	30
камера	30
назар@@	30
лығының	30
Нәтиже@@	30
МЕ@@	30
44@@	30
лов	30
қауымдастықтың	30
тілдерді	30
алгоритмнің	30
дарынан	30
ашуды	30
тұрғ@@	30
кезі@@	30
болжамы	30
шаң	30
математиканы	30
майы	30
иранның	30
теңізі	30
аймақтардың	30
fl@@	30
дәлірек	30
40-@@	30
серіктесті@@	30
германияның	30
МА@@	30
жүйелер@@	30
қимыл@@	30
функциялардың	30
ди	30
көбейіп	30
ықтарымен	30
операторлардың	30
арналады	30
дейін)	30
матикалық	30
өтіні@@	30
навигациялық	30
асырды	30
қатысуына	30
өнімдерімен	30
кластер	30
иыұ	30
ста	30
ерітіндісі	30
99@@	30
беген	30
балабақшалар	30
ч	30
мекендерде	30
анық@@	30
аймыз	30
жан-@@	30
ықтармен	30
елді@@	30
…@@	30
five	30
сессиясында	30
ology	30
қарастыруды	30
орталық@@	30
етуші	30
мдық	30
largest	30
иондар	30
қанағаттандыру	30
бөлме@@	30
ұзын	30
юр@@	30
класс	30
мәмс	30
мақсаттарының	30
ings	30
ИН@@	30
эм@@	30
месі	30
мәселесінің	30
cы	30
фильтр@@	30
шамасына	30
яр@@	30
болды.	30
дaғы	30
бoйыншa	30
оқшау@@	30
экология@@	30
иелері	30
мыз@@	30
талдау@@	29
шешуді	29
Кү@@	29
ады:	29
күрделі@@	29
исламдық	29
раз@@	29
сақталуын	29
лыл@@	29
битум	29
критерийі	29
тартуды	29
belarus	29
ұбт	29
жетекшілік	29
бекітті	29
aй	29
iш@@	29
дты	29
лдер	29
Фурье	29
реттеуші	29
көпмүше@@	29
амандық	29
баталов	29
ұйымдарды	29
ит@@	29
мырза	29
ни	29
иондық	29
сұрақтарын	29
еш@@	29
болуының	29
сабақты	29
жіберілетін	29
ануы	29
аль	29
артықшылықтарын	29
арм@@	29
ke@@	29
код	29
сарқыл@@	29
кәсіпорынды	29
how	29
танысуға	29
жарылғыш	29
көрі@@	29
иондары	29
температураны	29
аул@@	29
алап	29
өнімділікті	29
н:	29
тке@@	29
жүгері	29
жуығы	29
объектілерінің	29
алгоритмінің	29
major	29
жемқорлықпен	29
қайтару	29
мазмұ@@	29
ерік	29
ескеретін	29
көліктік-логистикалық	29
ших@@	29
схема	29
к)	29
беріктігін	29
аударған	29
қыш	29
таған	29
көтерілген	29
тәуелді@@	29
заманның	29
ылар	29
биі@@	29
жұмыстарда	29
report	29
автоматтандыр@@	29
үйренуге	29
α@@	29
×@@	29
цех	29
икадағы	29
мекеме@@	29
Un@@	29
жинап	29
көрінетін	29
сатуға	29
имитациялық	29
қаупін	29
назардан	29
модуль	29
үлесіне	29
аптада	29
Ұлы	29
асырған	29
ite	29
көрсеткіштерге	29
тектоникалық	29
алмай	29
Қызылорда	29
5,4	29
мүшелік	29
Мұның	29
уақытының	29
hectares	29
ari@@	29
ақтар	29
сыртқа	29
start	29
диагностика	29
ологиясы	29
нәтижені	29
қару-жарақ	29
шығарудың	29
экспози@@	29
анықтау;	29
ірікте@@	29
ty	29
арасынан	29
үйі@@	29
көзқарасы	29
documents	29
against	29
төзімді@@	29
бұрыннан	29
0,1	29
ыды@@	29
негізі@@	29
соғ@@	29
баспанамен	29
ЛЕР@@	29
мақтан	29
тауы	29
жария@@	29
белдеу	29
қарудан	29
7,9	29
мұрат	29
аймақтарын	29
саты	29
болмай	29
tive	29
компонентті	29
ма-@@	29
шарттарына	29
шө@@	29
өндірісіне	29
адб	29
қосымшаның	29
сау	29
шығуына	29
ways	29
single	29
тығы@@	29
-ң	29
тал	29
ттелген	29
бейнені	29
белгілен@@	29
қиындықтарға	29
тандырылған	29
ураның	29
өлшеуге	29
өңірлерге	29
перспектив@@	29
пози@@	29
өмірі@@	29
әлемі	29
Қытай	29
ра	29
жалғастыруда	29
жаз	29
Ди@@	29
opportunities	29
қысқарды	29
қаулы	29
флор@@	29
қонақтарға	29
ард	29
жетуі	29
қайтты	29
дөңгеле@@	29
үдеріс	29
тербеліс	29
орби@@	29
вари@@	29
орнынан	29
жиһаз	29
бренд@@	29
est	29
капитал@@	29
лімен	29
жеткізеді	29
қазандық	29
бірінші@@	29
шикізаттық	29
сы»	29
-қа	29
ологтар	29
сағ@@	29
қазақстандықтарға	29
сілтеме	29
it-@@	29
tical	29
индикатор@@	29
Үшінші	29
6,7	29
100-@@	29
рефор@@	29
Құрылыс	29
бағдарламаларына	29
корпорация	29
мысалдар	29
Мә@@	29
өнеркәсіп@@	29
келтіретін	29
9,1	29
биометриялық	29
қарастырған	29
сұранысты	29
ки	29
мүдде	29
заряд@@	29
қазатомөнеркәсіп	29
тоз@@	29
дақылдары	29
сы;	29
жарықтандыру	29
міндеттемелерін	29
директор	29
мемлекеттерге	29
компоненті	29
қарастыруда	29
ық)	29
қанат@@	29
developing	29
ε	29
сарыарқа	29
цикл@@	29
00-ге	29
қатысушыларының	29
ақ-@@	29
солтүсті@@	29
жүлде@@	29
хабар@@	29
тартымдылығын	29
7,4	29
Э	29
ндіруге	29
жанармай	29
гіміз	29
reported	29
алдың	29
бөлше@@	29
тәуекел@@	29
өндірістегі	29
орыннан	29
топтарға	29
олимпиадалық	29
improving	29
архитектурасы	29
учаскесінде	29
se	29
операция	29
80-@@	29
ысу	29
мамандарға	29
кәсіпорынға	29
режим	29
дағдарыстың	29
кәрі@@	29
ретінде@@	29
cl@@	29
3000	29
жарысқа	29
кция	29
тap@@	29
pay	29
ұйымдарға	29
кеңесшісі	29
қалың	29
қазақстан-қытай	29
шығындары	29
визасыз	29
студен@@	29
пәнінің	29
ұйымдастырушылардың	29
тәсілмен	29
здің	29
қорымен	29
шаққандағы	29
Si	29
арнап	29
ауытқу	29
ин.	29
йлі	29
шла@@	29
қызметкерлеріне	29
ақтық	29
балалы	29
сұйықтықтың	29
командалық	29
ig@@	29
нөлдік	29
дінаралық	29
лану	29
қару@@	29
уы;	29
бур@@	29
low	29
шақырылған	29
mi@@	29
проблемаларын	29
миним@@	29
ЖӘНЕ	29
қауіпсіздікке	29
нінде	29
құрылымдарының	29
Белгілі	29
дерінен	29
статист@@	29
қабылдануы	29
ұйымдастыруда	29
ob@@	29
prime	29
Үш	29
робот	29
той@@	29
реформалау	29
фазасы	29
түті@@	29
republican	29
мәті@@	29
before	29
иондардың	29
иялық@@	29
өтпе@@	29
дәрігер@@	29
жылдамдықты	29
талапқа	29
тұжырымдамалық	29
ушылармен	29
Ком@@	29
нші@@	29
nur@@	29
басшыл@@	29
plans	29
кепілдендірілген	29
лор@@	29
арыс	29
басымдылық	29
ымдарды	29
айыппұл	29
емде@@	29
мұражай@@	29
сендірді	29
хаб	29
added	29
ағынд@@	29
генер@@	29
дайтын	29
талдап	29
магистр@@	29
лге@@	29
жаса@@	29
көш	29
шұңқыр@@	29
ттеу	29
үйір@@	29
біліктілікті	29
ерекшелігін	29
нидерланды	29
салығы	29
лiк	29
тәжірибесімен	29
кӛ@@	29
мырзахметов	29
қазмұнайгаз	29
тарап@@	29
Оған	28
проблема	28
ады,	28
хқко	28
резеңке	28
байланыстарын	28
географ@@	28
рек	28
турбин@@	28
иясында	28
байланыстырады	28
леп	28
fact	28
сыздық	28
Мұнай@@	28
ағына	28
растау	28
тағайындалған	28
деңгейлік	28
opening	28
bayev	28
opened	28
ры	28
қуантады	28
аөсшк	28
саммитіне	28
ег@@	28
алдымызға	28
кВт	28
дифференциалды	28
ва.	28
ани@@	28
кедергісіз	28
жолдау	28
мақаласында	28
жүр	28
Қазақ@@	28
фрон@@	28
эт@@	28
қауіпсізді@@	28
successful	28
жөндеуге	28
фестивалі	28
-на	28
Көмір@@	28
лауаз@@	28
тәрбие@@	28
ауқымын	28
пу@@	28
apдың	28
(x)	28
материалының	28
жыны@@	28
басымдыл@@	28
дауларды	28
бағыттың	28
технологиясына	28
теңге@@	28
independent	28
ЫҚ	28
авторлары	28
пайдаланушыларға	28
Кесте	28
ник	28
ондай	28
т;	28
роль	28
ура@@	28
өлшемдер	28
өзгерген	28
асан@@	28
мысалында	28
тергеу	28
дтық	28
қарым-қатынасын	28
-бұл	28
құбырының	28
жемі@@	28
алық-@@	28
н;	28
ушыларының	28
өтуіне	28
кафедрасының	28
higher	28
=0@@	28
құбылыс	28
кестеге	28
интервал@@	28
лгені	28
грам@@	28
квадраттық	28
түсірілген	28
көлбеу	28
south	28
отыны	28
том@@	28
ойлап	28
аумағының	28
аяқталуы	28
ыңызға	28
дәлелі	28
ымдағы	28
материалы	28
ғимараттардың	28
байқаймыз	28
процестерінің	28
уларға	28
ғылымдар	28
тқыш@@	28
eн	28
9,8	28
жады@@	28
ard	28
дүйсенова	28
жаяу	28
тапсырмасымен	28
ыстарды	28
есептеуіш	28
жетілдірудің	28
mission	28
(М@@	28
еніп	28
мәні@@	28
транспорт	28
аяқталып	28
103	28
соң@@	28
әзірге	28
бұрыш	28
study	28
тыңайтқыш@@	28
көрсеткіштен	28
fer@@	28
біліктілігі	28
келісімі	28
нитри@@	28
ендіру	28
іргетасы	28
мекемесінің	28
қолданылады.	28
оқулық	28
эли@@	28
таға	28
петро@@	28
os@@	28
d-@@	28
ғылымға	28
сыйлықтар	28
заңдастыру	28
гиялық	28
пәнді	28
сер	28
аймақтарға	28
шартт@@	28
қанағаттан@@	28
агробизнес-2020	28
ель@@	28
аспан	28
күштерін	28
құрылымның	28
жұп@@	28
түйінді	28
әртүрлі@@	28
сайланған	28
шығармашыл@@	28
бөлімшелері	28
дипломат@@	28
шектеулер	28
ықтарда	28
тиіспіз	28
күзе@@	28
жеңімпаздары	28
ақуыз	28
ктор	28
сабақтарында	28
ану	28
мүдделіміз	28
міндегі	28
фирма	28
қамсыздандыру	28
ла-	28
кт	28
жолдардың	28
көпір@@	28
топтастыр@@	28
ғалым@@	28
даярлаудың	28
үштен	28
беткей@@	28
төлеуге	28
1300	28
зерттеушілер	28
пысықтау	28
лeр@@	28
S)	28
азаюы	28
орнық@@	28
көлік-логистикалық	28
мысты	28
долл	28
жұп	28
технологиялармен	28
eн@@	28
ешқашан	28
жарлық	28
конфигура@@	28
үлгілерді	28
ерімен	28
талантты	28
congratulate	28
strategy	28
нұсқаул@@	28
құтқар@@	28
112	28
аймақаралық	28
о.@@	28
соз@@	28
6,1	28
мдері@@	28
%-@@	28
0,9	28
қызметкерлерге	28
ризашылығын	28
алуын	28
мдегі	28
мызда	28
халықпен	28
кәріз	28
циалық	28
басқарады	28
омаров	28
корпорация@@	28
баев@@	28
priorities	28
делегацияның	28
enti@@	28
тыp@@	28
апат	28
бөлімше@@	28
rel@@	28
қалаға	28
деформа@@	28
оқиғ@@	28
аналар	28
байы@@	28
марапат@@	28
карби@@	28
бұлар	28
сурет@@	28
ілгерілетуге	28
тартыл@@	28
МЕН	28
қарас@@	28
спорт@@	28
айындағы	28
жалғастырып	28
1	28
Жұ@@	28
4-суретте	28
массасының	28
го	28
материалдар@@	28
неге	28
s-@@	28
сфер@@	28
rec@@	28
күйге	28
сайла@@	28
фикация@@	28
бир@@	28
процедур@@	28
андрей	28
тұжырымда@@	28
пл@@	28
меморандумдарға	28
sports	28
лін	28
цин@@	28
болгария	28
өсір@@	28
тіндіктен	28
бәсекелестікке	28
ауытқу@@	28
2-суретте	28
7,2	28
ЛЕ@@	28
өтілген	28
0,66	28
орт@@	28
басқалары	28
ауқымда	28
тәсілді	28
заңын	28
Орташа	28
к.мәсімов	28
protection	28
қаңтарында	28
тілдері	28
тигізіп	28
89@@	28
тылды	28
CO@@	28
нындағы	28
territory	28
do@@	28
ative	28
мдерге	28
Қарағанды	28
сұй@@	28
ізден@@	28
қарауды	28
әзірледі	28
параметрлік	28
жандар	28
кабинеті	28
панель@@	28
Және	28
ьді	28
түзілген	28
қоңыр	28
физик@@	28
.5	28
құндылығын	28
екінші@@	28
17-@@	28
сызық	28
ресейден	28
аларынан	28
electric	28
кетуі	28
жұлдыз@@	28
мүмкіндігінше	28
берге@@	28
қамты@@	28
karaganda	28
шарттың	28
заңнаманың	28
ті-@@	28
су-@@	28
175	28
болдық	28
қолжетімділікті	28
ығы@@	28
жететін	28
өткізетін	28
атмосфераның	28
болғаннан	28
дере@@	28
[13]	28
іліп	28
салыстыруға	28
forces	28
зация@@	28
тәжірибемен	28
монитор@@	28
tu@@	28
ардың@@	28
жағу	27
стерінің	27
тілдер	27
тотық@@	27
корей	27
ерітіндінің	27
жүйедегі	27
деректермен	27
құжаттармен	27
түле@@	27
кезеңдерінде	27
болады;	27
ауру@@	27
өзгерісін	27
аяғында	27
әдi@@	27
bek	27
датчик@@	27
гей@@	27
көлікті	27
~@@	27
α	27
диапазо@@	27
0-ден	27
интегра@@	27
болат@@	27
decision	27
әуежай	27
қабылдауда	27
іле@@	27
Бай@@	27
бақ-@@	27
полимер@@	27
сессия@@	27
смайылов	27
қуан@@	27
корпу@@	27
affairs	27
өңіраралық	27
s)	27
осал	27
жылдамдығының	27
жасына	27
тұруы	27
әлеуметтік-мәдени	27
форумының	27
қолдайтын	27
үйлесімді@@	27
жac@@	27
көбеюі	27
жақсартады	27
жылжы@@	27
ортасының	27
I-@@	27
алгоритмдік	27
суреттерде	27
қабілетінің	27
конференция@@	27
лген@@	27
заңдары	27
ерен	27
Сары@@	27
кеңістігіндегі	27
қаң@@	27
акция@@	27
Өлшеу	27
өзекті@@	27
дәрежесіне	27
Мысалы,	27
кілт	27
goals	27
0,58	27
200-@@	27
мемлекетті@@	27
деректер@@	27
герлер	27
орындап	27
Ұй@@	27
proposed	27
болмай@@	27
innovation	27
кеңес@@	27
(G@@	27
төңірегінде	27
95@@	27
гендер	27
лауреаты	27
мемлекеттермен	27
көзделеді	27
ассамблеяның	27
қабаттардың	27
қынд@@	27
кадмий	27
балалары	27
қиып	27
маларға	27
дәйекті	27
нмен	27
суб@@	27
тарифтер	27
a-@@	27
тапсырмалардың	27
кеңейтіп	27
төрағалары	27
ылғалдыл@@	27
белгілеп	27
валю@@	27
қазандағы	27
өлкетану	27
еңбектерінде	27
министрліктер	27
қаңтардағы	27
ынсыз	27
қолданамыз	27
айналысып	27
сарапта@@	27
Pro@@	27
сто@@	27
отырғанына	27
ыстары	27
мекеменің	27
here	27
ЫН	27
дайындайтын	27
байқалған	27
л-	27
әдеби	27
ыстар	27
мәндерінің	27
анықтадық	27
жам@@	27
жылдағы	27
ушілік	27
төлемдерді	27
өтініштер	27
зия	27
қарайды	27
кәсіби@@	27
естерінізге	27
ңіздің	27
жұр@@	27
нақ@@	27
наурыз@@	27
төрайымы	27
жабдықтары	27
былтырғы	27
пайдаланушының	27
тотығу	27
кино	27
әде@@	27
48@@	27
action	27
не,	27
теңсізді@@	27
алынуы	27
әмір@@	27
Назарбаев	27
келешегін	27
қызығушылығы	27
алма@@	27
жерлерге	27
−@@	27
блогы	27
сыйымдыл@@	27
жұмыстан	27
итер@@	27
жануар@@	27
Әрине	27
аурулардың	27
Құр@@	27
ісінің	27
шарттардың	27
жөнінен	27
кты	27
динамика	27
э.@@	27
форма@@	27
өздеріне	27
тх@@	27
төзімділігін	27
сәулесінің	27
шеккен	27
істеді	27
тереңде@@	27
мәліме@@	27
ойдағыдай	27
гері@@	27
іздестір@@	27
қaл@@	27
атқарылды	27
кәсіпорындарын	27
ндері@@	27
шы-@@	27
Фото@@	27
Вт/@@	27
нəтиже@@	27
оқытушының	27
фр@@	27
млн.теңге	27
мәтінінде	27
шиелені@@	27
шешудегі	27
дерде	27
fication	27
ретке	27
ely	27
улердің	27
учаскесі	27
сына@@	27
мады	27
территор@@	27
шұғыл@@	27
өсімнің	27
шығар	27
терінде	27
тұтынушылық	27
орна@@	27
саясат@@	27
генді	27
шеңбер@@	27
жиілігін	27
аудандағы	27
термодинамикалық	27
баяндап	27
мор@@	27
деңгейден	27
күйі@@	27
түзілу	27
еэк@@	27
дәлізі	27
білетіндей	27
терімен	27
present	27
(К@@	27
mr.	27
жоспарларын	27
тіліп	27
анимациялық	27
дәрежедегі	27
технологияларының	27
тәжірибелерді	27
жад	27
уля@@	27
байла-	27
reduce	27
пациенттердің	27
дағдар@@	27
шалар	27
атау@@	27
тем@@	27
шекаралас	27
әзір@@	27
үлесінің	27
қызметкерлерін	27
mar@@	27
қуаныш@@	27
ver@@	27
фазалы	27
венгрия	27
орындарымен	27
біріг@@	27
may	27
universities	27
бекіткен	27
департамен@@	27
ational	27
шешілетін	27
түсірі@@	27
жүйелерде	27
мүдде@@	27
д-@@	27
дон@@	27
төл@@	27
Тәжірибе	27
sm@@	27
…	27
сенсор@@	27
бағалайды	27
гидрокси@@	27
зертхана	27
зерттеулерде	27
өзгерту@@	27
қабықш@@	27
құ-	27
прокуратураның	27
сымсыз	27
Зертханалық	27
қоя@@	27
тындағы	27
ажырамас	27
технологиялар@@	27
мазмұны@@	27
Әл-Фараби	27
5-ші	27
ашықтық	27
тұзды	27
мәдениетінің	27
бірлестік	27
судьялардың	27
гім	27
du@@	27
қалаған	27
векторлық	27
7,8	27
тізбегінің	27
апаттар	27
құрау@@	27
шыдан	27
шаңғы	27
0,78	27
түспе@@	27
туындысы	27
талдай	27
challenges	27
қызме@@	27
енгізілуі	27
ai	27
ұж@@	27
улеріне	27
Деректерді	27
енгізген	27
accordance	27
өлім	27
сені@@	27
талады	27
industries	27
Сырдария	27
метрикалық	27
керлер	27
қазын@@	27
об@@	27
қоя	27
чемпионы	27
жоба@@	27
id	27
жағалау@@	27
completed	27
келісімдерді	27
7]	27
жәй	27
қалыптас@@	27
сыр	27
тп@@	27
кент	27
ашатын	27
өкінішке	27
қорғанысы	27
сөздердің	27
калий	27
pu@@	27
старының	27
ынталандыруға	27
алгоритмдерді	27
лікте	27
дасы	27
асы@@	27
ыc@@	27
форумды	27
жарияла@@	27
тылар	27
төбе	27
Павлодар	27
алаңын	27
перспективті	27
мүмкіндікті	27
қорғал@@	27
ісінде	27
АМ@@	27
жұмыстарында	27
дауға	27
көме@@	27
көбі@@	27
ык	27
латвия	27
le	27
гар@@	27
дeр@@	27
tors	27
бағдарламас@@	27
жеңілдік	27
ама	27
ндармен	27
проблеманы	27
орындалып	27
уіш	27
еқдб	27
біріктіріп	27
Бас@@	27
цикл	27
жылж@@	27
сөздің	27
спектроскопия	27
realization	27
луге	27
шындық	27
мекемесі	27
Жергілікті	27
фестиваль@@	27
ланып	27
қоғамдастық	27
металды	26
шығарды	26
top	26
қызметтегі	26
өндіруші@@	26
тарихындағы	26
тәуелсіздігіміздің	26
Ро@@	26
уде@@	26
танылды	26
түзілетін	26
нені	26
то	26
жылжыту	26
жандандыр@@	26
ғылымының	26
экспо-@@	26
әрекетінің	26
сигналдарын	26
Екіншіден	26
ымен@@	26
position	26
путин	26
tal@@	26
адамгершілік	26
құрамның	26
критикалық	26
дос	26
көшербаев	26
қалы	26
музы@@	26
Нәтижелер	26
қуаныш	26
заңда	26
санат@@	26
тг	26
ктордың	26
102	26
бра@@	26
ұғым@@	26
қазылар	26
лануы	26
жалпыл@@	26
формуламен	26
дағдыл@@	26
go	26
субъекті@@	26
реакция@@	26
жалғасы	26
онды	26
Тур@@	26
ету;	26
нат	26
non-@@	26
егеменді@@	26
аттестаттау	26
жұмсау	26
Қарапайым	26
меген	26
кеңістігіне	26
өнерінің	26
маларының	26
иони@@	26
инспек@@	26
Жол@@	26
Авторлар	26
бозымбаев	26
70-@@	26
трансшекаралық	26
қозғалатын	26
[3	26
2004	26
бұзылуына	26
қарқын	26
ақырлы	26
жетілдіріп	26
оңтайландыр@@	26
гру@@	26
especially	26
жүйке	26
анықтаған	26
қорға	26
басылым	26
түпкі	26
құзіретті@@	26
таныс	26
қаул@@	26
ago	26
клубы	26
морф@@	26
groups	26
штейн	26
бұұ@@	26
Тек	26
компьютерде	26
семинарға	26
тозуға	26
байқалып	26
көрмелер	26
ұсақтау	26
аударылған	26
скен	26
үйкеліс	26
бірлестігі	26
campaign	26
сұрақ@@	26
бағалан@@	26
қаннан	26
парниктік	26
белгілер	26
бейнеле@@	26
түрлі@@	26
Талдау	26
сөзіне	26
футбол	26
отбасылар	26
кластер@@	26
жібер@@	26
од@@	26
операторлар	26
өздеріңіз	26
8,9	26
жасақталған	26
жабынд@@	26
қосымшасы	26
тануға	26
Олай	26
аймақтарының	26
ақпараттандыр@@	26
inten@@	26
біріктіруге	26
оқу-тәрбие	26
құралын	26
дықтар	26
байқау@@	26
тасымалдаушы	26
сарайы	26
ғысы	26
сабаққа	26
0,73	26
қозғалтқыштың	26
0,56	26
өні@@	26
кле@@	26
орындарды	26
евтің	26
хор@@	26
тыңдалды	26
9,2	26
тәуелсіздігін	26
сіл@@	26
қ.	26
тұн@@	26
кептір@@	26
00-де	26
салыс@@	26
анның	26
шынд@@	26
бақыл@@	26
мекемелерде	26
0,59	26
9,@@	26
замануи	26
тоқталған	26
суге	26
комплекс	26
қадамдар	26
дығына	26
Ой@@	26
арту@@	26
тасының	26
пікірлер	26
дискі@@	26
сұйықтық	26
әрекеттерді	26
competitive	26
бойлық	26
кадрлардың	26
дері@@	26
авторлардың	26
ұшақ@@	26
own	26
W	26
big	26
early	26
қайыр@@	26
керамикалық	26
трансформа@@	26
сириядағы	26
құзыретті	26
жаға@@	26
pi	26
мемлекеттік-жекешелік	26
мг/кг	26
ur	26
циялы	26
жұмы@@	26
base	26
ескеріледі	26
actively	26
ран	26
2-3	26
кали@@	26
стағы	26
арда@@	26
динам@@	26
inv@@	26
өтейік	26
беруші@@	26
мыңдай	26
гидр@@	26
концеп@@	26
картасына	26
паған	26
гипс	26
20%	26
жалдамалы	26
санынан	26
көрсете@@	26
-дейді	26
ымдары	26
уақыттық	26
(19@@	26
орам@@	26
trillion	26
міндеттемелерді	26
тақырыбындағы	26
ий	26
ғимараты	26
мінен	26
ұңғыма	26
сипаттамасын	26
Жас@@	26
құйылған	26
саудаға	26
жылдамдықпен	26
әсем	26
бірден-бір	26
қолданы@@	26
ардагер	26
құбылыстар	26
мүшелерімен	26
м;	26
gy@@	26
депутаттарының	26
ай-@@	26
Мәселен	26
23-@@	26
points	26
комиссияға	26
kar@@	26
(x@@	26
сон@@	26
жасалынып	26
стері@@	26
кеңсесінің	26
55@@	26
мерейтойлық	26
creating	26
параметрлеріне	26
сызба	26
өзгерістері	26
тасымалданатын	26
ЕТ@@	26
ann@@	26
Мульти@@	26
шақырамын	26
көгілдір	26
таймыз	26
өңірге	26
гравитациялық	26
қолмен	26
украинадағы	26
елінде	26
алатау	26
дайынбыз	26
тығыздық	26
жасақтама	26
ұстанымы	26
тұрмы@@	26
Электр	26
органолептикалық	26
мониторингі	26
көтереді	26
орнатып	26
22-@@	26
делег@@	26
қамтылады	26
қарайтын	26
ті)	26
асуда	26
нама	26
ауыспалы	26
етудегі	26
efficiency	26
мұхамедиұлы	26
алюмини@@	26
Желі@@	26
зерттеулерге	26
нүктенің	26
partners	26
лену	26
энергиямен	26
Әрі	26
ландыр@@	26
лей	26
жинақтал@@	26
ты)	26
болашағына	26
ved	26
депута@@	26
жарлығына	26
иле@@	26
сулары	26
өткізуде	26
өнеркәсібіне	26
жіберуге	26
қашықтықты	26
тыл	26
малармен	26
қозғалыстың	26
вариан@@	26
кедергісі	26
corporation	26
дара	26
рейтинг@@	26
орындардың	26
ауданына	26
босатылды	26
қызыл@@	26
формулалар	26
техно@@	26
сем@@	26
аралау	26
(2-сурет)	26
қапшағай	26
танымал@@	26
сақталу	26
дуалды	26
сарайында	26
тау-@@	26
сутек	26
компоненттерін	26
конференциясында	26
бі	26
стре@@	26
ендір@@	26
әзірлеуде	26
телі@@	26
тациялау	26
цен@@	26
үдерістерін	26
өсіп-@@	26
ерекшеліктері@@	26
өн@@	26
ыста	26
ашық@@	26
line	26
Туристік	26
сорбен@@	26
[4@@	26
туу	26
графигі	26
əді@@	26
54@@	26
230	26
сәтте	26
процестері	26
ИКАЛЫҚ	26
білік	26
модификация@@	26
ықтимал@@	26
қазбалар	26
әдемі	26
абзал	26
іміз	26
тік-@@	26
орнатыл@@	26
Балқаш	26
ылуын	26
жауапкершілікке	26
салаларға	26
қылы	26
атмосфер@@	26
жарлыққа	26
құрастырылды	26
кеннің	26
кемшілігі	26
бағалары	26
real	26
энергияға	26
әрі@@	26
ach@@	26
щ	26
нормаларды	26
қарым-қатынас@@	26
қабатта	26
саламатты	26
аудандар	26
мальто@@	26
оза	26
қарқынмен	26
put	26
right	26
жүйесінен	26
қыр	26
пə@@	26
көзі@@	26
0,67	26
секция@@	26
тұтас@@	26
дардағы	26
орындарда	26
кешендері	26
апаттық	25
ды»	25
шаруашылықтың	25
әліпбиіне	25
innovations	25
ыт@@	25
іс-әрекеттер	25
түсе@@	25
0,54	25
side	25
скан@@	25
2/@@	25
AP@@	25
[15]	25
экстра@@	25
құрылғылары	25
тұтынушы	25
жұмсақ	25
(5@@	25
астанасы	25
ақыр@@	25
ұжым	25
мүгедектер	25
стандық	25
oper@@	25
кванттық	25
м/@@	25
Жезқазған	25
жағын	25
сеніммен	25
ерінде	25
сәйкестігі	25
нығаюына	25
цилиндр	25
ER@@	25
тұлғаларға	25
байқал@@	25
соншалықты	25
стерімен	25
жыныс	25
төменде	25
орнықтылық	25
құмды	25
жеңілдетуге	25
war	25
aм@@	25
ынып	25
меңгері@@	25
5-сурет	25
стандарттарын	25
ID@@	25
генерация@@	25
aу	25
массасын	25
уақытына	25
емтихан	25
reads	25
(немесе	25
түркі@@	25
теңдеулері	25
сапардың	25
administration	25
орган@@	25
пікірлерін	25
впен	25
поль@@	25
жиналыс	25
толық@@	25
әріптестіктің	25
қолдауына	25
компанияларын	25
қауіпсіздігіне	25
consider	25
deputies	25
жинақтаушы	25
күкір@@	25
сығ@@	25
мүсі@@	25
жиналып	25
Server	25
сәулелендіру	25
сенеміз	25
doing	25
химияны	25
0,68	25
көзін	25
қағидаты	25
demand	25
екеуі	25
кезеңіндегі	25
жыныстар@@	25
presented	25
спектр	25
қалыптастыруды	25
N-@@	25
лиг@@	25
құн	25
нүктелер	25
металдарды	25
old	25
әзірленеді	25
арифметикалық	25
табамыз	25
8,8	25
2014-2015	25
тарлық	25
көрсе@@	25
тура@@	25
Қаратау	25
сарапшыларының	25
tur@@	25
диф@@	25
субъектісі	25
протокол@@	25
келесі@@	25
бағалаймыз	25
баянд@@	25
көліктер	25
конференцияда	25
асинхронды	25
бару	25
шап@@	25
әдісі@@	25
датчик	25
стандартына	25
қажеті	25
гидродинамикалық	25
секторды	25
арналып	25
дем@@	25
миллионға	25
2015-2017	25
ұзындығын	25
алаңға	25
басп@@	25
2002	25
конкур@@	25
вице-@@	25
-нан	25
жасауы	25
қаржыға	25
сүтті	25
тазартылған	25
worth	25
белгіленеді	25
табиға@@	25
орындарынан	25
(2-@@	25
мдерден	25
criminal	25
нығайтуда	25
жылдығында	25
терм@@	25
жобаларына	25
дылығын	25
қосу@@	25
белдеуі	25
жерін	25
қытайдан	25
пайдалану@@	25
Әлемдік	25
Өнімнің	25
жетіспеушілігі	25
функцияны	25
тиі@@	25
мдеу	25
нұсқасын	25
табыстады	25
бауыр@@	25
ңізге	25
әрекеттің	25
баратын	25
салт-дәстүр@@	25
топони@@	25
тәжірибелерін	25
қасым@@	25
милли@@	25
батыры	25
жібері@@	25
мысыр	25
дақ	25
виде@@	25
aры	25
(а)	25
орналастыруға	25
σ@@	25
деформациялық	25
ауытқ@@	25
19,@@	25
көмірді	25
болаттың	25
көбі	25
компьютерлер	25
Бұлтты	25
ure	25
manufacturing	25
сетін	25
лауға	25
growing	25
мүмкіндіктерге	25
ұзындығының	25
қозға@@	25
облыс@@	25
ұғым	25
құндыл@@	25
del@@	25
cri@@	25
органдарымен	25
салмағын	25
тіндей	25
қозғалды	25
берілі@@	25
Тҥйін	25
religious	25
ресурстарға	25
баяу	25
тұйық	25
өнімділігінің	25
теңгелік	25
орындай	25
модуль@@	25
моде@@	25
бейорганикалық	25
%;	25
ou@@	25
act	25
юрий	25
дәрежесінің	25
iм@@	25
аққа	25
республик@@	25
синтез	25
сы-	25
эффект	25
емес@@	25
бая@@	25
алтай	25
м-	25
кез@@	25
момен@@	25
тылатын	25
қуатының	25
sion	25
қабатын	25
дәлелдеу	25
Құрыл@@	25
жапонияның	25
мото@@	25
радиоактивті	25
ess@@	25
хатшыл@@	25
рентген	25
сорбент	25
жазыл@@	25
жасақталды	25
a.	25
21-@@	25
конференциялар	25
лауазым@@	25
→@@	25
компьютердің	25
феромо@@	25
8,@@	25
ГІ	25
пе	25
басшы	25
басқа@@	25
ос	25
қоңыр@@	25
participate	25
партия@@	25
concept	25
sin@@	25
мульти@@	25
рұқсат@@	25
болашақ@@	25
асуына	25
алаңдарын	25
gdp	25
reform	25
жабдықты	25
registered	25
зауытында	25
базасының	25
денген	25
қарашасында	25
сипатта	25
крипто@@	25
торлық	25
vic@@	25
леді:	25
бac@@	25
Не@@	25
eкт@@	25
sectors	25
ұжымы	25
сақин@@	25
қамтылуы	25
эмульсия@@	25
асы;	25
интеллекту@@	25
ГАЖ	25
сосын	25
алгоритмдерін	25
ованың	25
8%	25
тариф@@	25
уағдаласты	25
медицин@@	25
беріл@@	25
несиелендіру	25
02	25
шалғай	25
қабаттар	25
желідегі	25
мaл@@	25
property	25
қасиетіне	25
Оқытудың	25
түлектері	25
анықтамалық	25
кірпіш	25
ал-	25
қамтамасыздандыр@@	25
агентті@@	25
сыздандыр@@	25
сауданың	25
Studio	25
босату	25
қызметі@@	25
қадамда	25
тa	25
игілігіне	25
алма	25
қылмысқа	25
съезд	25
полковник	25
бұйымдарды	25
interest	25
ұнтақ@@	25
мұнайлы	25
іздеп	25
aktobe	25
ethnic	25
сi	25
мерейлі	25
man	25
әбден	25
интерфейсі	25
бөлме	25
гe@@	25
анда	25
ye@@	25
бастығының	25
бұйымдары	25
реформалардың	25
жасөспірімдер	25
құрл@@	25
салтанатында	25
businesses	25
жеделхатта	25
қарашадағы	25
еаэо-ның	25
Бақылау	25
Жан@@	25
жарна@@	25
ш.@@	25
геофизикалық	25
облыстардың	25
орынбасарлары	25
мен)	25
украинаның	25
(Р@@	25
отбасының	25
бойынша:	25
мова	25
салынуда	25
шын@@	25
келетінін	25
стандар@@	25
language	25
берікті@@	25
рух@@	25
моңғолия	25
шеткі	25
фосфат	25
0,40	25
қолдай@@	25
төленетін	25
зу	25
посткеңестік	25
алап@@	25
кіріп	25
ch	25
тоғжанов	25
ыңызды	25
iz@@	25
миссиясының	25
қиыл@@	25
процессі	25
кілті	25
отырыстың	25
сайлаудың	25
коллектор@@	25
көмірсутек	25
шінің	25
сипатқа	25
AC@@	25
Тау@@	25
la@@	25
transfer	25
тыңайтқыш	25
СО2	25
спутниктік	25
қамтиды.	25
Қыз@@	25
пойыз@@	25
жобада	25
қоқыс	25
масынан	25
алдарын	25
дағдылар	25
кере@@	25
заттары	25
list	25
мүшелеріне	25
алқабы	25
needs	25
коммерция@@	25
талқыланған	25
тілетін	24
direct	24
жері@@	24
оңтайландыруға	24
үлгісінің	24
байқап	24
шекарасында	24
тымыз	24
болмады	24
?@@	24
қанд@@	24
those	24
legislation	24
ья@@	24
мәтін	24
реттеуді	24
құрылыс@@	24
математиканың	24
автобу@@	24
талан@@	24
қатарын	24
қоспасының	24
мұғалімдерінің	24
станциясын	24
шамалы	24
дерден	24
есік	24
дайындалуда	24
орны@@	24
Жаз@@	24
зор@@	24
жүйемен	24
санайды	24
қолдануда	24
кредит	24
%-дан	24
енгізді	24
актілер	24
49@@	24
Студенттердің	24
жарыл@@	24
толқындар	24
жалғастыра	24
тасымалдауға	24
әке@@	24
village	24
моделі@@	24
лге	24
тірші@@	24
прогре@@	24
тудыр@@	24
aн	24
лдi	24
мг/@@	24
талданды	24
(L@@	24
Құмкөл	24
әкел@@	24
көпұлтты	24
белгілеген	24
та-@@	24
цик@@	24
амин	24
КО@@	24
бағытының	24
ауруы	24
әрекеттерін	24
рәсімде@@	24
акті@@	24
тамыр	24
механизмдерін	24
сөзбен	24
үлгіні	24
отыр.	24
ауғанстандағы	24
шақырымға	24
пробле@@	24
кциялық	24
кеңсесі	24
ліктеріне	24
9,4	24
қауымдастық@@	24
iндeгi	24
кішкентай	24
аф@@	24
ажыр@@	24
өрісі	24
әбіл@@	24
[14]	24
леді.	24
қабылдаудың	24
табылады@@	24
Дирихле	24
қатысатынын	24
саны@@	24
болмайтын	24
air@@	24
мұғалімі	24
суретті	24
мамандықтары	24
ial	24
позиция@@	24
қозғалтқыш	24
тәртіппен	24
нев@@	24
Алдымен	24
ациялар	24
Android	24
м/с	24
ашылатын	24
құралдарымен	24
нынан	24
oun@@	24
сазды	24
сигналдардың	24
аумақтарды	24
сөздерді	24
жүктемесі	24
орд@@	24
көшуге	24
теңдеулердің	24
пайызбен	24
молекул@@	24
әбдірахманов	24
физи@@	24
iкт@@	24
Төменде	24
категор@@	24
өсуімен	24
house	24
мажарстан	24
н.ә.	24
аралығы	24
жұмыссыздар	24
2016-2017	24
ура	24
кезеңнің	24
АТ	24
еңбегін	24
жібереді	24
жабу	24
жекешелендірудің	24
ну@@	24
жауапкерші@@	24
луінің	24
шаруашылығындағы	24
еліне	24
маңыздысы	24
аурулары	24
allow	24
8-і	24
отте@@	24
ойларын	24
өндірушілерге	24
науқаны	24
деграда@@	24
ындық	24
cases	24
сипаттауға	24
пышақ@@	24
түйірші@@	24
оңтүстік-@@	24
құзыреттілігін	24
жарлығымен	24
Тұр@@	24
өлке@@	24
sport	24
күр@@	24
жүгір@@	24
түзуші	24
эмпирикалық	24
Жоғарғы	24
зерттелінді	24
реттейді	24
айырымдық	24
алатыны	24
көкейкесті	24
сауат@@	24
sive	24
әйелдерге	24
зин	24
елшілігінің	24
тоғ@@	24
ашықтығын	24
col@@	24
шыларының	24
керек:	24
жинауға	24
18-@@	24
ров	24
ығы;	24
ынының	24
топтағы	24
үн@@	24
73@@	24
(б)	24
техникасының	24
оқытылатын	24
Зерттеудің	24
кенді	24
ғаламтор	24
ішіне	24
тұтынудың	24
жою@@	24
жару	24
дәлелдеп	24
рельеф@@	24
жұмсалды	24
үдері@@	24
corruption	24
күту	24
Бел@@	24
өрнекте@@	24
innovative	24
гіштік	24
шешеді	24
aл	24
fully	24
желтоқсанға	24
артта	24
ән	24
тіркел@@	24
францияның	24
could	24
қымбат@@	24
fair	24
жыныстардың	24
реті	24
ser@@	24
бағаланды	24
әсерінің	24
пішінді	24
магистральдық	24
мінез-құл@@	24
идеясының	24
жәрмеңке@@	24
қорынан	24
Мақ@@	24
close	24
есептеудің	24
индустриалдық	24
тотықтыр@@	24
жарату	24
алмасуды	24
told	24
0,81	24
айтылып	24
ашықтығы	24
ver	24
құрылғысының	24
өткізілуі	24
конкурсқа	24
жоспардан	24
тұрақсыздық	24
терминалы	24
мәндерді	24
асу	24
бақылап	24
сатысы	24
Анық@@	24
қасиет	24
бағдарлы	24
тілдерін	24
көшбасшылар	24
өсу@@	24
облысымызда	24
@@	24
mining	24
сіздерді	24
блог@@	24
қыс	24
board	24
рецеп@@	24
бақылаушылар	24
тұқым	24
төзімділігі	24
сатын	24
аумақ	24
өңіріндегі	24
32@@	24
анимация	24
капиталды	24
47@@	24
шілдеге	24
десек	24
ата-аналар	24
бірле@@	24
өң@@	24
additional	24
арн@@	24
ерекшелігіне	24
мүмкіндіктеріне	24
00С	24
тұжырымдамасының	24
тауарларын	24
дақ@@	24
мәліметтерін	24
ско@@	24
ттармен	24
декомпози@@	24
Тапсыр@@	24
қатысқаны	24
мак@@	24
сұйық@@	24
analysis	24
ұйғар@@	24
тақырыптары	24
МЕМСТ	24
ұрпақты	24
базаның	24
gl@@	24
зациясы	24
иіл@@	24
с.ахметов	24
түспек	24
универсиадаға	24
әріптестер	24
ңіздер	24
ва@@	24
шешіп	24
қалаларды	24
ижтм	24
Таң@@	24
15%	24
ыда	24
таңдал@@	24
түсуге	24
сулардың	24
сынға	24
Қосымша	24
кенов	24
кeз@@	24
иевтің	24
квазимемлекеттік	24
уақыттан	24
fac@@	24
қорытп@@	24
учаскі@@	24
стір@@	24
резиден@@	24
residents	24
мын@@	24
candidates	24
ae@@	24
бөлінеді:	24
кірісті	24
ын-@@	24
ace	24
сұранысы	24
жүргіздік	24
олог@@	24
бұзылу	24
(9)	24
engineering	24
’@@	24
квт	24
september	24
секторында	24
Мектеп	24
ТЖ	24
жалпылама	24
механизмдері	24
east	24
иидмб	24
қорғаны@@	24
тәрбиелеп	24
әділбек	24
ru@@	24
meetings	24
ережелерді	24
орденімен	24
ширек	24
көмекке	24
субсидиялар	24
маңыздағы	24
тарту@@	24
іс-қимыл@@	24
қатыса@@	24
57@@	24
оқи@@	24
processes	24
индонезия	24
sco	24
өткізілуде	24
данады	24
қондырғысының	24
asian	24
процесстерді	24
түсірген	24
annual	24
фермен@@	24
ингтік	24
жшс-@@	24
кок@@	24
институттар	24
қoc@@	24
қр-да	24
атымен	24
сұранысын	24
спек@@	24
сөзді	24
болатынбыз	24
өрісінің	24
Интер@@	24
mutual	24
байқауының	24
сұрыпты	24
оты@@	24
біліктіліктерін	24
өлі@@	24
лек	24
жеткізудің	24
клуб@@	24
Пара@@	24
бақыланатын	24
судья@@	24
ДЕ@@	24
ажырату	24
тасымалдауды	24
АЛД@@	24
дайындауды	24
кезең-кезеңімен	24
қойылып	24
санд@@	24
саз	24
арма@@	24
әкімдігінен	24
блокт@@	24
монополияға	24
іп@@	24
қатынаста	24
консул@@	24
қадамын	24
t	24
теңгері@@	24
серпінді	24
ast	24
Сол@@	24
құрылымға	24
растайды	24
тоқтала	24
күре@@	24
жетілдірі@@	24
шақырамыз	24
депози@@	24
тозаң@@	24
𝑥@@	24
ap	24
орналастырылады	24
congress	24
ңыз@@	24
пәндердің	24
критерийлері	24
торлары	24
м»	24
аппараттың	24
заңдыл@@	24
el	24
ылуда	24
97@@	24
қоспалары	24
қарағанд@@	24
аспап@@	24
сынам@@	24
2014-2016	24
студенттеріне	24
ресейде	24
бейінді	24
goal	24
жоққа	23
жабдықтарын	23
п.@@	23
теңде@@	23
	23
алтыншы	23
параболалық	23
БЖ	23
пте@@	23
сәт@@	23
конденса@@	23
logistics	23
қазына	23
керек@@	23
кепілдендіру	23
шикізат@@	23
Ары	23
бoлaды	23
лас	23
generation	23
ҚазҰПУ	23
ертінді@@	23
кандидат	23
азаю@@	23
банкін	23
аспайтын	23
з.@@	23
Мыс	23
үсте@@	23
шілдеден	23
жүргізуші	23
алқасы	23
ынға	23
750	23
ора@@	23
мәнінің	23
одақты	23
5000	23
атордың	23
4.	23
қорды	23
болған@@	23
ықтардан	23
роботты	23
академ@@	23
сыйақы	23
иман@@	23
зерттеушілік	23
т.	23
біртанов	23
sted	23
әкелді	23
қосындысы	23
үлгi@@	23
астындағы	23
электрлі	23
тәуекел	23
темекі	23
салыстыра	23
requirements	23
тілдің	23
қақп@@	23
ИК@@	23
оқыған	23
мүдделілік	23
бекітіледі	23
пассивті	23
луы	23
тті-@@	23
литр	23
техникалық-экономикалық	23
елбасымыз	23
серверге	23
лігінен	23
стандарттардың	23
съезінде	23
қоны@@	23
өндіріс@@	23
жобалаудың	23
кәсіподақтар	23
H2O	23
respect	23
Түр@@	23
тәсіл@@	23
анықтауды	23
",	23
конструкция@@	23
ілі@@	23
жошыбаев	23
мыс@@	23
қабыл@@	23
ыстарына	23
жоо-@@	23
аттарды	23
9,7	23
ткіш	23
өткір	23
жұмылдыр@@	23
коммуникация@@	23
байқаушылар	23
бағытталуы	23
шебері	23
қаржысы	23
III	23
solve	23
бөлімшелерінің	23
мүмкіндіктерімен	23
sing	23
хам@@	23
жобал@@	23
мыздағы	23
бағы@@	23
preparation	23
лгeн	23
қаттылығы	23
нәтижелерімен	23
құрылымдарды	23
ваго@@	23
бірінен	23
шығысында	23
сәбіз	23
мән-@@	23
бет@@	23
қолданыла	23
мама@@	23
сағатқа	23
машық@@	23
курсында	23
ылығын	23
іскер@@	23
негізсіз	23
толып	23
promote	23
өтке@@	23
recent	23
өндірушілерді	23
тамара	23
жинал@@	23
критерийлер	23
дәрі-дәрмек	23
ked	23
supreme	23
co	23
nor@@	23
болаты@@	23
жеріне	23
december	23
Бағдарла@@	23
станцияларын	23
пақ	23
нінен	23
сыну	23
эф@@	23
факторларының	23
елмен	23
тру@@	23
дамиды	23
ЕК@@	23
фикация	23
бастауға	23
ешбір	23
коэффициент	23
Са@@	23
ус@@	23
дені	23
дәлелдейді	23
introduced	23
айнымалылар	23
нысанда	23
тарындағы	23
қаулысымен	23
евро@@	23
қатысы	23
жоқтығы	23
dr@@	23
метал	23
түзеді	23
формасын	23
ттар@@	23
газы	23
Ми@@	23
импульстік	23
2500	23
зерттеген	23
бағытталатын	23
бейді	23
анады	23
біліммен	23
өтініш@@	23
еуропаға	23
алын	23
families	23
ºС	23
траектор@@	23
оқытушылары	23
күнкөріс	23
ПТ@@	23
цзиньпин	23
әлеумет@@	23
дат@@	23
<	23
аген@@	23
толқындардың	23
диалогтың	23
даярлығы	23
аурудың	23
124	23
ивті	23
ушілерге	23
айлы	23
Жаң@@	23
ұсынамыз	23
ұбх	23
үштік	23
спор@@	23
ұс@@	23
наның	23
increasing	23
Сатпаева	23
лав@@	23
пәтерлі	23
қия@@	23
кес@@	23
павильо@@	23
әдебиет	23
қолданылады:	23
астан@@	23
ЖЭС	23
сур@@	23
ev@@	23
els	23
ұйымдастырушылары	23
хлорлы	23
есептеулерді	23
өндірілді	23
мекендерді	23
ауыз@@	23
сілкіні@@	23
санаймыз	23
ығыстыр@@	23
жетістіктерінің	23
қазагроқаржы	23
екендіктерін	23
инд@@	23
бразилия	23
ойлауды	23
өзгертеді	23
деміз	23
жарнама	23
financing	23
беу	23
сібір	23
қашаған	23
ғыштарды	23
мұқтаж@@	23
ами@@	23
achievements	23
қондырғылары	23
ты,	23
мерекелеу	23
0,61	23
қатер@@	23
келелі	23
өрнек	23
ha@@	23
гі)	23
holiday	23
бұйрығымен	23
қалдығы	23
full	23
жады	23
қосуды	23
тқан	23
игерудің	23
қағидалары	23
ойынша	23
объектілерін	23
арттырды	23
ациялау	23
іс-әрекетінің	23
орыны	23
дақылдардың	23
aрының	23
құрылу	23
шығара	23
диаметр@@	23
холдингтер	23
жаңартылмалы	23
революция	23
тұрғындарын	23
дайындаған	23
Data	23
факульте@@	23
болжауға	23
believe	23
(10@@	23
com@@	23
ғалиев	23
қысқартады	23
нығ@@	23
есебіне	23
144	23
егемен	23
diplom@@	23
ымы@@	23
қараш@@	23
0,76	23
дәуір@@	23
әріпте@@	23
al.,	23
Цифрлық	23
2010-@@	23
тақырыпты	23
модерни@@	23
жерлерінің	23
емдел@@	23
сауална@@	23
топ-@@	23
рам@@	23
оқудан	23
лықпен	23
agencies	23
пі	23
хаттама	23
көрсетке@@	23
жоғарылады	23
ұйымдастырылатын	23
ындағы@@	23
арқалық	23
істердің	23
қонақтарды	23
обьекті@@	23
хабарланғандай	23
ұғымдарды	23
оф@@	23
орындалуына	23
ушінің	23
нға	23
1993	23
environment	23
дәрі-дәрме@@	23
көрсетілген.	23
актілерге	23
Жаб@@	23
жай-күйі	23
гип@@	23
эфир@@	23
мәжілісте	23
ирандық	23
сі;	23
көрсеткішінің	23
атып	23
әрекеттердің	23
ize	23
сұйықтың	23
ықшам@@	23
істеуіне	23
терроризммен	23
судағы	23
шлам	23
лицензия@@	23
сор	23
дандыру	23
асфальт	23
йлік	23
айналымға	23
курстары	23
ынталандыр@@	23
талдаулар	23
тұтынатын	23
тербелмелі	23
кл@@	23
шілдесінен	23
ақырғы	23
кеңейтуді	23
алатындығын	23
шошқа	23
битумды	23
Лаплас	23
ірге@@	23
ауын	23
ture	23
(I@@	23
әк	23
үрдістің	23
қоңырау	23
тaр@@	23
сыл@@	23
шектеу@@	23
бөлетін	23
күйіне	23
акцияның	23
87@@	23
тiк	23
жасалуы	23
нақтылы	23
республикадағы	23
ная	23
25th	23
aрды	23
кісі	23
ылмайтын	23
МП@@	23
сигналдар	23
гі;	23
пайдалануы	23
note	23
сом@@	23
кемші@@	23
жерлердегі	23
саяхат	23
pr@@	23
ион	23
00-ден	23
сериялы	23
эквивалентті	23
аясы	23
Медициналық	23
орындарындағы	23
алаңда@@	23
жариялан@@	23
оқшаулау	23
есептеу@@	23
грек	23
әңгіме@@	23
ran@@	23
басының	23
орлық	23
ологияны	23
(Д@@	23
steps	23
ндерде	23
Дә@@	23
bal@@	23
7,1	23
[1	23
б.сағынтаев.	23
заңдылықтары	23
практикада	23
әрекеттері	23
Қол@@	23
құралдармен	23
ғимараттарды	23
ological	23
ltd	23
графиктер	23
қуаттыл@@	23
павильон	23
акт@@	23
ғимарат@@	23
зерттеуші	23
жалғасып	23
мамырында	23
тылықты	23
қарсыл@@	23
таль@@	23
бірегей@@	23
мембран@@	23
мұнаймен	23
игері@@	23
анықтай@@	23
шен@@	23
ционал@@	23
бағдарламал@@	23
тылыққа	23
дағдылары	23
жүн	23
жай-күйін	23
opinion	23
g-@@	23
диод@@	23
бре@@	23
бордақылау	23
іс-қимылын	23
8]	23
tic@@	23
introduce	23
ардағы	23
таң	23
107	23
зациялау	23
ұйымдастырудағы	23
electronic	23
молибден	23
Кәсіби	23
бастамашы	23
жеңіске	23
25%	23
негіздеу	23
облыстар	23
негізгі@@	23
қолданушының	23
түс	23
біріншісі	23
паның	23
9]	23
қолөнер	23
гидролиз	23
болса@@	23
authorities	23
өтініші	23
жүй@@	23
вагон	23
абсолютті	23
дү@@	23
conduct	23
саудасы	23
есептерінің	23
0С	23
квадрат	23
ография	23
көздерінен	23
сеп@@	23
кси@@	23
прогресс	23
turnover	23
партиялар	23
сананы	23
тербелі@@	23
ляньюньган	23
involved	23
транзит	23
шығымы	23
қамқорлық	23
тақта	23
thanks	23
yev	23
тату@@	23
алаңдары	23
қарастырдық	23
бри@@	23
терминдер	23
провин@@	23
қалыпқа	23
ье	23
лингвистикалық	23
𝐾@@	23
нысандарына	23
мыналар	23
жерлері	23
әріп@@	23
гы	23
қолжетімді@@	23
теңіз@@	23
means	23
Алғашқы	22
Мо@@	22
жойыл@@	22
нығайтады	22
eaeu	22
just	22
ұяш@@	22
дио@@	22
мәңгі	22
book	22
пайда@@	22
бағал@@	22
бақ-береке	22
оқитын	22
сәр@@	22
бизнесін	22
ияларды	22
шев.	22
халықтар	22
сынд@@	22
арте@@	22
жұма@@	22
бағалауда	22
амплиту@@	22
дәруме@@	22
ази@@	22
танысады	22
бағасына	22
ator	22
iнe	22
ms	22
мұра@@	22
190	22
safety	22
long	22
сұраныстың	22
евтың	22
жылының	22
цилиндр@@	22
трансформация	22
студенттік	22
алай	22
аңғар@@	22
Сәйкесінше	22
ыспен	22
растайтын	22
саясаты@@	22
conducted	22
маманы	22
егіншілік	22
бе-	22
сұ@@	22
while	22
мəселе@@	22
етінің	22
жүргізе	22
осыны	22
гу	22
іші@@	22
берме@@	22
ашм	22
сақта@@	22
ықшам	22
жолағының	22
есептен	22
рәсімін	22
стратегияны	22
йік:	22
АҚШ-та	22
қышқылдары	22
есту	22
желісіндегі	22
мжс	22
қайтал@@	22
тамен	22
бог@@	22
жапондық	22
MapReduce	22
Сәтбаев	22
сырттан	22
ықтималдығын	22
банктік	22
әлде	22
қайда	22
учаскелерін	22
nur	22
түрлi	22
хана	22
бастамасының	22
холдинг@@	22
жоб@@	22
кіріс@@	22
алды-@@	22
тәуліктік	22
ӘДІСТЕМЕСІ	22
сынап	22
тұрақтылықтың	22
қондырғылардың	22
графит	22
хар@@	22
қимыл	22
кіші@@	22
шақ	22
қарау@@	22
пәкістан	22
тозу	22
созыл@@	22
үлесі@@	22
көтеріліп	22
кластерді	22
ында:	22
алғы@@	22
жеделде@@	22
қазавтожол	22
втің	22
территория@@	22
лендірілген	22
сыны@@	22
зияның	22
мәжбүр	22
лицензиялау	22
қымбаттады	22
нүктелі	22
генді@@	22
мағынасын	22
(1-@@	22
заңдарды	22
сақтауда	22
йі	22
амер@@	22
істерді	22
номин@@	22
ациясының	22
Аста@@	22
Алматы@@	22
геометрия	22
нит	22
бөлінуде	22
үлгіде	22
27-@@	22
жауапкершілікпен	22
skills	22
азаматтарына	22
өсі@@	22
критерий	22
классификациясы	22
дұрыстығын	22
интеграциялау	22
мк	22
бермей	22
жеміс	22
бау@@	22
тасымалдау@@	22
тату	22
мембраналар	22
еркімен	22
оқуды	22
аце@@	22
қосындыл@@	22
басшысын	22
ато@@	22
сана	22
виз@@	22
қабаттағы	22
леу@@	22
әзірлеудің	22
жолдаудың	22
155	22
ауада	22
шамадан	22
шыларына	22
рационалды	22
жіө-нің	22
іс-шараларын	22
Пе@@	22
картал@@	22
кеев	22
сөздік	22
ндермен	22
pres@@	22
басқаша	22
көмектесетін	22
ілгері	22
потенциалдық	22
саясаттағы	22
жолақ@@	22
1=@@	22
)/@@	22
тетігін	22
кс	22
қазақстандықтың	22
міз:	22
ерекшеліктер	22
топтарын	22
жазықтықта	22
арын@@	22
әзірленуде	22
құзыр@@	22
әб@@	22
талы	22
көшір@@	22
[1].	22
бург	22
маусымына	22
M)	22
тізбектің	22
тег@@	22
ба-	22
мөлшердегі	22
тиімділікті	22
Web-@@	22
баты@@	22
san@@	22
басымдыққа	22
аудандардың	22
жеткілік@@	22
сəйкес	22
кету@@	22
орындал@@	22
стыр@@	22
жатақхан@@	22
металдың	22
ants	22
tor@@	22
дсәдм	22
ұрп@@	22
materials	22
қоспаны	22
қабатқа	22
көл@@	22
институтында	22
қабатында	22
бейім	22
технологияға	22
еаэо-@@	22
association	22
agreements	22
ораз@@	22
әскер@@	22
керне@@	22
органдарда	22
тырысамыз	22
nowadays	22
экстремизмге	22
ұйымдастырады	22
қырлы	22
кәмелетке	22
partner	22
талаптар@@	22
қажет@@	22
най	22
долларына	22
режим@@	22
ences	22
орналасты	22
go@@	22
метрология	22
судің	22
Бұндай	22
ылым@@	22
көле@@	22
геніне	22
өндірді	22
жасуш@@	22
импорттық	22
отырғандай	22
жасадық	22
дағдарыстан	22
ымдардың	22
әкімдіктердің	22
мұха@@	22
қозғалады	22
Қазақста@@	22
жұмағалиев	22
келтіріп	22
уда@@	22
н»	22
ескерілген	22
магнит	22
концентрациясына	22
онжылдықта	22
бағдарламасымен	22
қатынасының	22
ЭК@@	22
ұсына	22
ұлының	22
ағз@@	22
research	22
(Ж@@	22
магистранты	22
кейін@@	22
Сыр@@	22
тель@@	22
шығыстары	22
азат	22
стандағы	22
мәскеуде	22
қарады	22
салдарын	22
жетімді@@	22
сақталатын	22
филиалының	22
ste@@	22
(F@@	22
мақшы	22
қанды	22
иегері	22
ть@@	22
несиелер	22
бағыттарына	22
	22
makes	22
гист@@	22
comprehensive	22
ат-@@	22
ЫНДА	22
таныт@@	22
ақау@@	22
ындар	22
ізгі	22
ұғымын	22
атқыш	22
қымыз	22
жетістіктерді	22
отанымыздың	22
жүйелердегі	22
mechanism	22
жіктелуі	22
жасау;	22
дәлдікті	22
мүддесін	22
танған	22
Пә@@	22
соттың	22
үміттенемін	22
фильмдер	22
азайған	22
тур	22
е.ыдырысов	22
истикалық	22
мағын@@	22
β@@	22
шикізатын	22
кезектегі	22
эффективті	22
қатынастың	22
енетін	22
өкілдерінен	22
сәл	22
қышқылдық	22
пәтерлік	22
цин	22
тех@@	22
синтездеу	22
көзінің	22
germany	22
масштабты	22
демалу	22
ысындағы	22
°	22
белгілі@@	22
шілігі	22
терми@@	22
жеткізілетін	22
Педагогикалық	22
comm@@	22
ағын@@	22
қоғамдастықтың	22
тасқыны	22
КС@@	22
маға@@	22
бөлшектерін	22
орындаудың	22
құрылғыларға	22
5-6	22
ресурстарына	22
smart	22
фтор@@	22
модуля@@	22
ter@@	22
жапыр@@	22
модульді	22
хлор@@	22
қарусыз	22
001	22
бәсекеле@@	22
ескерткіш@@	22
долл.	22
мық@@	22
кім	22
иісі	22
basic	22
СЖ	22
насихаттауға	22
маса	22
құрылымдарын	22
таз@@	22
paid	22
румыния	22
мазмұндық	22
executive	22
олай	22
қағидаларын	22
Бей@@	22
органдарында	22
әрекетті	22
форматы	22
отырғыз@@	22
Гц	22
салсақ	22
ұйымдастырыл@@	22
қалдықтарының	22
Бұр@@	22
бюро	22
генерал-майор	22
жк	22
тіркеуден	22
вке	22
ыстар@@	22
салалар@@	22
жақсылық	22
аймақтардағы	22
тағдыр@@	22
модификацияланған	22
СМЖ	22
бостандығынан	22
есепте	22
нөмірін	22
Топырақ	22
мағлұмат	22
0,41	22
үгі@@	22
вті	22
жоғарылауына	22
мұрағат	22
интеграция@@	22
ыздар	22
сырықтың	22
communication	22
let	22
табан	22
нәресте	22
талш@@	22
mat@@	22
микроскоп	22
матрицасының	22
беретіні	22
президенттері	22
жеңімпаз	22
gan@@	22
туристердің	22
ндісі	22
ori@@	22
күтім	22
ЭМ@@	22
С-та	22
fied	22
іс-шараны	22
сипаттамаларының	22
alization	22
body	22
танылған	22
persons	22
радиу@@	22
ығыс@@	22
build	22
етілуі	22
сейі@@	22
aлғaн	22
сұлба	22
қабілеттілікті	22
шұжық	22
термині	22
0,50	22
үлестір@@	22
дамытатын	22
оқушысы	22
нашар@@	22
дағ@@	22
даярлауда	22
ce	22
қож@@	22
flo@@	22
ведомствосының	22
ile	22
мдерінің	22
шаға	22
туылған	22
нақтылады	22
констру@@	22
байтын	22
қадағалап	22
.6	22
басшылығына	22
кезеңдерде	22
индустриялды-инновациялық	22
ЫЛ@@	22
кеңейтеді	22
мағынада	22
Жүйе@@	22
үшөлшемді	22
бензол	22
𝐵@@	22
көлігімен	22
инер@@	22
-ден	22
apы	22
ху@@	22
сілтеме@@	22
күрделілігі	22
favorable	22
ез@@	22
000-нан	22
expressed	22
ass@@	22
Инд@@	22
АВ	22
С/@@	22
жағдайлар@@	22
қонақ@@	22
21@@	22
трансферті	22
асырыла	22
Cr@@	22
мил@@	22
мəліметтер	22
байланыстыратын	22
жетік	22
президен@@	22
техникамен	22
тұрғылықты	22
дейін@@	22
айдан	22
туындады	22
bar@@	22
aқ@@	22
түсті@@	22
мүгеде@@	22
july	22
визуалды	22
шабуыл	22
жаңалық	22
0,0	22
құрай@@	22
тініне	22
жүктеменің	22
kegoc	22
offices	22
жазб@@	22
саналатынын	22
түрлері@@	22
аймақтарына	22
ннен	22
aлынғaн	22
тальды	22
нда@@	22
dialogue	22
көшіп	22
тəсі@@	22
анықтамасы	22
талқылайтын	22
құрa@@	22
трлн.	22
қабілетіне	21
көшбасшылық	21
жазылады	21
бұйымдарын	21
түркітілдес	21
елдерді	21
@@	21
Құрылған	21
платформасы	21
жұлдыз	21
таныстырылымы	21
корпоративті	21
һ@@	21
мектептерінде	21
жетпе@@	21
жетпес	21
лылығы	21
aйды	21
түйе	21
берілмек	21
ү.ж.	21
сіздігі	21
үне@@	21
үкіме@@	21
фик@@	21
't	21
стано@@	21
НАССР	21
нүктелерін	21
таева	21
[3].	21
күл@@	21
нысанын	21
(4@@	21
тұл@@	21
быз	21
тәсілде@@	21
болжау@@	21
ыстарын	21
керлердің	21
польшаның	21
семинар@@	21
қалыптастырудағы	21
цияла@@	21
қамсыздандыр@@	21
министрліктерінің	21
ктар	21
естелік	21
енгізеді	21
атыр@@	21
дизай@@	21
басқаруда	21
алсақ	21
айнымалыларды	21
аң	21
value	21
менеджмен@@	21
дизельді	21
құрылғылармен	21
қалуға	21
сө@@	21
механизмін	21
хаттаманы	21
ратификация@@	21
барысына	21
мұнай-химия	21
толқындық	21
түйіршікті	21
ью@@	21
құла@@	21
байқалуда	21
pos@@	21
схемасын	21
инвестициялау	21
ия»	21
promotion	21
датчиктер	21
өлшеудің	21
халық@@	21
workers	21
тұрғанын	21
үлестік	21
кап@@	21
азық	21
станцияларының	21
профиль@@	21
клетк@@	21
кезеңінен	21
sions	21
жиынының	21
қр@@	21
бизнесі	21
жамылғысының	21
ғышы	21
жеміс-жидек	21
алмады	21
өзгеретін	21
аударуға	21
ымдылық	21
Сын@@	21
сері@@	21
otan	21
экспорттың	21
145	21
мемлекетте	21
қауіптер	21
Оптикалық	21
көпшілікке	21
ves	21
адре@@	21
Бақыл@@	21
дандыр@@	21
баруға	21
(О@@	21
бидайдың	21
гиперболалық	21
салқынд@@	21
сома	21
гіп	21
3-	21
табиғи-@@	21
ойлау@@	21
шот	21
әкімдер	21
әкімдерінің	21
эконом@@	21
бірде-бір	21
Орал	21
үкіметтері	21
льдік	21
практ@@	21
digital	21
теңдікті	21
Кең@@	21
шламының	21
ынған	21
3-суретте	21
инфрақұрыл@@	21
Біріншіден	21
мұхи@@	21
конвейер	21
өндірістер	21
физика-механикалық	21
тәжірибеден	21
қызметші@@	21
студенттермен	21
пайдал@@	21
ұлттың	21
ұңғыл@@	21
2020@@	21
harmony	21
қозғалған	21
оль	21
көрсеткіш@@	21
ғыдан	21
берушінің	21
талқыладық	21
prepared	21
ындай	21
с;	21
жылыжай@@	21
шарттарының	21
зерттей	21
жоғарылауы	21
нысандарға	21
айналма	21
икадан	21
ықпалдастықты	21
vice	21
dra@@	21
проте@@	21
ағымы	21
қандайда	21
графи@@	21
вокзал	21
сыздандыру	21
алматылық	21
заттармен	21
ықтималдық	21
уге,	21
микро	21
ready	21
Теориялық	21
нүктеде	21
then	21
att@@	21
даның	21
құқығына	21
ақпар@@	21
штаттық	21
орында@@	21
жинаған	21
әсерімен	21
көшірі@@	21
еуропаның	21
теміртау	21
жылуөткізгіштік	21
потенциалы	21
тотығ@@	21
operation	21
бірлікке	21
желіге	21
тізім	21
ктивті	21
агроөндірістік	21
ортсайлауком	21
өтемақы	21
теоре@@	21
𝑖@@	21
экзоскеле@@	21
бағдары	21
компоненттерді	21
онк@@	21
Күрделі	21
Айта	21
бөлік	21
қорғайтын	21
теориясын	21
пло@@	21
ішкі@@	21
құрылуына	21
сезімтал@@	21
дығымен	21
үйренеді	21
15-20	21
айд@@	21
қорғалатын	21
қалыптастыратын	21
айтқым	21
әдістер@@	21
төмендетіп	21
аударыл@@	21
бабының	21
едім	21
айыру	21
номинация	21
Қазақстандық	21
комиссия@@	21
ерекшеліктерімен	21
сотының	21
бaғытт@@	21
өткізгіш@@	21
әрекеттесу@@	21
gre@@	21
бұйр@@	21
желіде	21
official	21
Ги@@	21
sur@@	21
тасымалдаушылар	21
ролін	21
ауылдағы	21
цияларды	21
отырысты	21
тартудың	21
ортадан	21
халқымыз	21
тудырды	21
»,	21
бель@@	21
тұтқырлығы	21
түзілі@@	21
нүктелердің	21
коды	21
маусымдағы	21
бөлген	21
австралия	21
орналасатын	21
заңнамасын	21
күнбағыс	21
контрол@@	21
шілдедегі	21
сӛздер:	21
хатта	21
конвенцияны	21
жылдамдығына	21
қабыршақ@@	21
ұйымдарында	21
memorandum	21
ТҚ@@	21
ЖҚ@@	21
министрлерінің	21
долл.р	21
almost	21
рег@@	21
микроорганизмдердің	21
ағып	21
меңгеріп	21
цияларын	21
42@@	21
факті@@	21
having	21
-2017	21
вод@@	21
оқу-жаттығ@@	21
(3@@	21
ерітіндідегі	21
желілерде	21
тұқымдас@@	21
asi@@	21
түтікше@@	21
тұндыру	21
ауылы	21
hope	21
іс-әрекетке	21
басқарды	21
жоғарылайды	21
млрд.@@	21
4-5	21
ндi	21
2;	21
моноқалаларды	21
сервері	21
Тірек	21
ысты	21
мемлекеттік-жекеменшік	21
армен@@	21
сауда@@	21
арындағы	21
тықтар	21
құнар@@	21
transition	21
AN@@	21
қабатындағы	21
активтерді	21
сұрақтарына	21
кірген	21
като@@	21
игі@@	21
өтуін	21
саммитке	21
сыныптар	21
өкілдігінің	21
мымен	21
өтініштерді	21
иялық-@@	21
1997	21
түр	21
ымға	21
лмек	21
қондыр@@	21
біркелкі@@	21
мүмкінші@@	21
тотығының	21
ыстардың	21
куә@@	21
қим@@	21
етуіне	21
кепілді@@	21
күнінен	21
блок@@	21
ұстанымдарын	21
кернеу@@	21
тапшыл@@	21
бөлімдерінің	21
мамандықты	21
стандарт@@	21
электрон	21
айқындады	21
мір@@	21
көмірсутектер	21
ерлердің	21
нұсқасында	21
75@@	21
шысының	21
Тең@@	21
bur@@	21
жағалауында	21
пуль@@	21
ғай	21
АКТ	21
ықпалы	21
маршрут	21
Екі@@	21
нүктесінен	21
specific	21
леуге	21
уіш@@	21
0,63	21
сқо	21
экспортты	21
үнемдейтін	21
лаудан	21
истік	21
АУ@@	21
келтіріл@@	21
қылмыспен	21
бие	21
электрондар	21
тұрақсыз@@	21
сыйымдылығын	21
наурызында	21
магистран@@	21
сүзі@@	21
жаһандану	21
угe	21
сиыр@@	21
шешілді	21
туристерді	21
экра@@	21
мөлдір	21
жартыжылдығында	21
экстракция@@	21
дағды	21
үйінде	21
Мобильді	21
жo@@	21
луі@@	21
КЕ@@	21
қойылым@@	21
ында)	21
дтердің	21
мезгілінде	21
кезінен	21
университеттер	21
мети@@	21
құрылыстары	21
тоқаевтың	21
мұнымен	21
адсорб@@	21
центрі	21
тақырыпқа	21
нақтыл@@	21
отырғандығын	21
быр@@	21
биохимиялық	21
MA@@	21
кестелер	21
Келтірілген	21
деңгейлерін	21
жүзу	21
сым	21
жүй-	21
бә@@	21
конкурс	21
бетті	21
атамқұлов	21
үшбұрышының	21
ауданын	21
сипат	21
T-@@	21
тығымен	21
нә@@	21
құлдыр@@	21
байланысты@@	21
балл@@	21
БІЛІМ	21
терең@@	21
жойып	21
үйлестірілген	21
бесжылдығы	21
бөліктерінің	21
түс@@	21
еңбектері	21
қондырғыл@@	21
қын@@	21
Күн@@	21
vo@@	21
б.сапарбаев	21
мәлімде@@	21
астро@@	21
гендіктен	21
емес.	21
наз@@	21
еркіндік	21
step	21
қолдайтынын	21
бoлып	21
aлды	21
(10)	21
56@@	21
өрлеу	21
сайланды	21
лат@@	21
ақыл-ой	21
бетонның	21
клиент	21
however	21
гияның	21
шоғырлан@@	21
спектрін	21
болуы;	21
мақалалар	21
еріткіш@@	21
design	21
үші@@	21
ндыру	21
visited	21
стационар	21
сараптамасы	21
реттелген	21
инду@@	21
over@@	21
көмірқышқыл	21
сарапшының	21
аяқталуға	21
Cl@@	21
үиид	21
аммиак	21
iне	21
I)	21
hel@@	21
сөйлеп	21
байланыстар@@	21
ADS-B	21
үрдістерін	21
жұмысшылары	21
корпусы	21
әрекеттесуі	21
Ex@@	21
өңделетін	21
базасына	21
iran	21
кезек@@	21
ланатын	21
индикатор	21
жалға@@	21
мейрам	21
vii	21
сип@@	21
тұрғызылған	21
түсінігін	21
ктeр@@	21
қалаушы	21
активтерін	21
157	21
Өз@@	21
Оқыту@@	21
қиындықтарды	21
тасмағамбетов	21
мамыр@@	21
жылжу	21
кварц	21
байланысының	21
ГР@@	21
IC@@	21
өсімдіктерді	21
эксперименталды	21
әкімнің	21
әкелінген	21
қайталан@@	21
5]	21
күресте	21
тұтқырлық	21
назарда	21
нитр@@	21
төрағ@@	21
сапарымен	21
systems	21
зерттеулері	21
aлд@@	21
Re@@	21
масса@@	21
өтетінін	21
үміттенеміз	21
ералы	21
2-ден	21
дм3	21
ативтік	21
телімі	21
осьтік	21
түлек	21
қасиеттерді	21
Ю@@	21
температура@@	21
кулагин	21
тарапты	21
мерекесі	21
такт@@	21
конвенция	21
бо	21
леуші	21
ұғ@@	21
ида@@	21
логист@@	21
бақытты	21
суретші	21
нұсқа	21
500-ден	21
үймен	21
мелері	21
санитар@@	21
үлестерін	21
ыңыз@@	21
Ar@@	21
ика»	21
автокө@@	21
тұғырна@@	21
қамтуы	21
қолданды	21
мысалдары	21
stations	21
қарама-қайшыл@@	20
талданады	20
құралының	20
[2].	20
аймақтарындағы	20
end@@	20
тәсілдермен	20
Студен@@	20
бұрмал@@	20
же	20
бю@@	20
кристалды	20
aktau	20
робото@@	20
ролі	20
come	20
compl@@	20
қарай@@	20
oның	20
бaғдaрлa@@	20
экспедиция	20
орындауда	20
ful	20
анықтала@@	20
арналды	20
өзгере@@	20
қалаларындағы	20
есептеймін	20
таңдаған	20
ғай@@	20
мәртебе	20
(8)	20
цз@@	20
β	20
лин	20
дин	20
ктe@@	20
шығарушы	20
бау	20
грамо@@	20
мақсатпен	20
андыр@@	20
acy	20
жасыр@@	20
иордания	20
өңдеуден	20
түрк@@	20
өнімдері@@	20
тесі@@	20
әскери-теңіз	20
Газ	20
заңдылық	20
ауруларға	20
екенді@@	20
кавказ	20
таңдайды	20
ғандағы	20
талдауды	20
ғылымы	20
эл@@	20
біле	20
sources	20
ric@@	20
аудандарының	20
сорбциялық	20
түсіне	20
тамыз@@	20
шұ@@	20
Тәу@@	20
терминал	20
сүйемелде@@	20
аударады	20
cap@@	20
итальяндық	20
сессиясының	20
пропорционал	20
(«@@	20
тама	20
ДІ	20
халықтары	20
екілік	20
нормаларын	20
энергетиканы	20
(кесте	20
малды	20
айнымалыл@@	20
қамти	20
Кері	20
all@@	20
қойылымы	20
кезден	20
ндігін	20
үлгісінде	20
таныту	20
Бері@@	20
ліс	20
жаңғырту@@	20
уындағы	20
judges	20
қисығы	20
имплан@@	20
жиынтығының	20
йді.	20
не-	20
Қай@@	20
4%	20
қаппаров	20
комбинаты	20
суларын	20
өндіріліп	20
nations	20
ктеу	20
сиялық	20
күштерді	20
.0@@	20
қоймасының	20
дәлдікпен	20
судан	20
шапшаң	20
ді?	20
ертіс	20
кітапханасы	20
энергиясымен	20
венгр@@	20
бұұдб	20
дәлізінің	20
ахмето@@	20
шыларын	20
бeр@@	20
суреті	20
диплом	20
дор@@	20
кəсіби	20
101	20
лице@@	20
мүмкіндігінің	20
Интерактивті	20
гөрі	20
нт	20
өрістің	20
егілген	20
тармақтары	20
ретін	20
бы	20
көрікті	20
виру@@	20
анализі	20
себептен	20
керлік	20
регрессия	20
шасы	20
қты	20
0,77	20
лылығын	20
əртүрлі	20
kazakh-@@	20
Бар@@	20
ix	20
париж	20
препараттар	20
үлгілеу	20
мелерді	20
мектептері	20
минералдар	20
тасына	20
сигналды	20
мамандар@@	20
дисперсия@@	20
ұйымдастырушы	20
суын	20
аймағ@@	20
Алтай	20
ұстауға	20
иннов@@	20
)2	20
моль/л	20
тигізді	20
жақсартып	20
дім	20
әдіснамалық	20
екіге	20
Осының	20
ира@@	20
тасымалын	20
ологияның	20
қалуда	20
белгілерін	20
сақтайтын	20
Жүйенің	20
теңдеуге	20
елдері@@	20
станциялар	20
constitution	20
санатына	20
параметрлеу	20
қорында	20
сайлауда	20
келеше@@	20
Қостанай	20
чев@@	20
кластердің	20
күштің	20
нейтро@@	20
жұмағұлов	20
қасы	20
принтер@@	20
мигра@@	20
он-@@	20
point	20
нды@@	20
ғана@@	20
Қойылған	20
ланың	20
	20
ақсу	20
нормасы	20
3]	20
жүргіземіз	20
эндо@@	20
порт	20
тұздардың	20
Дайын	20
ндыл@@	20
отырғызу	20
ін@@	20
ақтоғай	20
ныс	20
тұлғаларды	20
сезімін	20
ойлаудың	20
түсім	20
бетпе-бет	20
эвристикалық	20
тастауға	20
P-@@	20
сандарды	20
есептеуді	20
қазагро@@	20
traditional	20
supported	20
көгалдандыру	20
королі	20
500@@	20
өткеннен	20
қазанында	20
кемшіліктер	20
көмегін	20
Қызыл@@	20
кәсібі@@	20
кеңесін	20
мек	20
месін	20
қақ	20
iii	20
ңді	20
мда	20
табыс@@	20
басқада	20
таралу@@	20
тасп@@	20
орынбасарының	20
ушының	20
both	20
түсі	20
өздеріңізге	20
ыммен	20
изоля@@	20
лык	20
rural	20
мұнайбитумды	20
ЦИ@@	20
ІНІҢ	20
үйінді	20
обл@@	20
өзбекстанның	20
алшақ@@	20
медициналық-санитарлық	20
тәу@@	20
к.мәсімов.	20
еритін	20
жарам@@	20
менші@@	20
gh@@	20
тыныштық	20
алу;	20
боса@@	20
техногенді	20
ED@@	20
отбасын	20
жағдайларының	20
жастармен	20
=1	20
басымдықты	20
процен@@	20
кодекске	20
жинағы	20
лазерлік	20
аулар	20
кіле@@	20
cr@@	20
айқындалады	20
иялардың	20
ционды	20
led	20
sen@@	20
тан-@@	20
ержан	20
цехы	20
бөлімшелер	20
por@@	20
director	20
электрондардың	20
жуықтау	20
әл-Фараби	20
талдау;	20
қалыптасуын	20
жарылыс	20
киелі	20
contribu@@	20
өңдеп	20
өндірген	20
циялардың	20
ережесін	20
жиынд@@	20
attended	20
күйе@@	20
included	20
кіріспе	20
бағыттық	20
сызығы	20
-2020	20
баласы	20
қм	20
талшықты-оптикалық	20
монополиялар	20
қабылдадық	20
полициясы	20
яды	20
ауданға	20
тудыру	20
атағы	20
income	20
градиен@@	20
іру	20
live	20
гелі	20
жолаушылардың	20
жігер@@	20
қиынға	20
тұтынушыға	20
қамтыды	20
тұрғызылды	20
қалау@@	20
өлшеуді	20
хабарландыр@@	20
ерекшеліктерінің	20
ташкент	20
тарихымен	20
ақы@@	20
ынтымақтастықта	20
380	20
ил	20
ұстаз	20
Ту@@	20
гибридті	20
қабаттары	20
november	20
ауруларды	20
білдіремін	20
келетіні	20
тарихына	20
үрдісті	20
Адам@@	20
жобалармен	20
9,9	20
range	20
машиналары	20
o-@@	20
бесжылдық	20
MATLAB	20
млн-нан	20
коның	20
көзіне	20
лмей	20
көбе@@	20
аяқтады	20
әріптестерін	20
цифр@@	20
валентті	20
еаэо-ға	20
қоймалары	20
қазтрансойл	20
қуаттылығын	20
төлеген	20
принциптерін	20
қысы	20
толтырылған	20
жеткізуші	20
секторда	20
салмақтық	20
гетеро@@	20
жарысы	20
таңдау@@	20
ттарында	20
куә	20
графен	20
м-ге	20
Статистикалық	20
топта	20
шaр@@	20
дамытады	20
мекендер	20
кг@@	20
ететіні	20
арлы	20
related	20
жaғдaй@@	20
жақтарын	20
сертификатын	20
V-@@	20
орал@@	20
нұсқал@@	20
режимді	20
ушілерді	20
келі	20
қызметкерлерімен	20
көпжылдық	20
пост@@	20
айналасында	20
стенд@@	20
мүмкіншілік	20
борыш@@	20
қызметшілерді	20
даярлауға	20
адамы	20
нақ	20
заңнамасына	20
концентрация	20
мере@@	20
портының	20
сі)	20
түнгі	20
жек@@	20
сайлан@@	20
келеді.	20
сивті	20
құрылымдары	20
кинемат@@	20
progress	20
бағдарламаларға	20
тасымал@@	20
олимпиад@@	20
Арнайы	20
объек@@	20
ттeр@@	20
SQL	20
жағдайдан	20
ордың	20
пісіру	20
2]	20
устр@@	20
см2	20
кін	20
криптографиялық	20
еңбекпен	20
қателік	20
жапон	20
өлімі	20
торлы	20
үміткерлер	20
бат	20
ыб@@	20
өміріндегі	20
квадр@@	20
төр@@	20
элементінің	20
жыныстары	20
отырмын	20
бірауыздан	20
әл	20
бағамының	20
ережесі	20
қорларының	20
машиналардың	20
табиғатқа	20
бюросы	20
кәсіпорындарында	20
car@@	20
керек;	20
импульсті	20
сауда-саттық	20
берілсе	20
ченко	20
күйінің	20
проблемалардың	20
қауіп-қатер	20
түстік	20
өзгерте	20
уға@@	20
II@@	20
тар-	20
аре@@	20
ысқан	20
бастамаларына	20
циялары	20
жерлерін	20
территориясында	20
vision	20
миссиясын	20
тартылып	20
қарастыра	20
азайту@@	20
қорыту	20
Сонд@@	20
тіндігіне	20
еуроодақ	20
сұр	20
ғыр@@	20
бақылау-@@	20
көрін@@	20
C-@@	20
мағыналы	20
ескерткіштер	20
зар@@	20
жол-@@	20
0,42	20
ушыларына	20
флю@@	20
келгенін	20
zhan	20
символы	20
ссия@@	20
бин	20
серіктестер	20
several	20
Ə@@	20
маңыздыл@@	20
ері	20
орлар	20
ұсынады.	20
теорема	20
австриялық	20
менед@@	20
кәсіпкерліктер	20
дизайны	20
	20
қаражат@@	20
аумағынан	20
өндiрi@@	20
төмендеуін	20
шешілуі	20
negotiations	20
информа@@	20
өрісін	20
робо@@	20
иде@@	20
0,44	20
программалар	20
ун	20
ось@@	20
үнемді	20
консультативтік	20
Ауа	20
тренингтер	20
түсу@@	20
аудио	20
конструкторлық	20
жұмыc@@	20
қарым-қатынасының	20
тамасы	20
сыныпты	20
жә-	20
ons	20
рін	20
джи	20
done	20
көпшіліктің	20
ымына	20
дайындайды	20
байқауына	20
жолдармен	20
теорияның	20
half	20
жыр	20
бip@@	20
кездесуінде	20
осымен	20
реляциялық	20
тұлғаға	20
өтілі	20
көзге	20
таксоном@@	20
анықтаймыз:	20
айналмалы	20
ауқымдағы	20
мac@@	20
Кәсіп@@	20
тарапының	20
chamber	20
үйінді@@	20
дақылдарды	20
гізі@@	20
тезірек	20
қанына	20
carry	20
минерал@@	20
бөлшектің	20
жылдықта	20
кәсіпорынд@@	20
wide	20
қорғалған	20
анима@@	20
материалдармен	20
жар	20
тәрби@@	20
шыларды	20
таныстырылады	20
барлығының	20
Еуропа	20
қыркүйектегі	20
ісік	20
аккредиттеу	20
басшылыққа	20
тегі@@	20
бұрғыл@@	20
гло@@	20
әлеуетіне	20
Ерітінді@@	20
интеграцияның	20
қарақ@@	20
ators	20
мекендердің	20
нүктесінің	20
етпейтін	20
бөлімдер	20
федер@@	20
жэне	20
2020-@@	20
нотари@@	20
қолданыста	20
шешетін	20
сәуірінде	19
таңғы	19
тағдыры	19
ens	19
шоғырландыр@@	19
17,@@	19
дайындалатын	19
Бі@@	19
мұрасы	19
Сарап@@	19
сіздігін	19
кіндік	19
жеңісімен	19
аландыру	19
қаржысын	19
import	19
құжаттама	19
қанағаттандыруға	19
бағытталғанын	19
идеялары	19
кеші@@	19
Сей@@	19
құралды	19
шешіміне	19
-1@@	19
менеджері	19
қб	19
RE@@	19
үлдір@@	19
005	19
қашықтыққа	19
мізбен	19
бөліне@@	19
қырымбек	19
көрсеткішімен	19
кестедегі	19
осі	19
кеңесші	19
болмасын	19
негізді	19
келісу	19
ров@@	19
уaқыт	19
өзгеруде	19
жaну	19
комбин@@	19
төре@@	19
пайдаланушыға	19
ліктерімен	19
бишімбаев	19
дәлі@@	19
заманға	19
тысы	19
жемісі	19
ықпалдастықтың	19
аталды	19
кам@@	19
»)	19
03	19
ерітіндісінде	19
орындарға	19
initiatives	19
тартатын	19
балабақш@@	19
дәстүрге	19
sug@@	19
ығысу	19
тонды	19
малдың	19
сұрыптау	19
кескіні	19
таратуға	19
Ғылым	19
ИҚ	19
кешендер	19
мділікті	19
соттардың	19
ыңыздың	19
қызметпен	19
Жібек	19
100-ге	19
ther	19
шифрлеу	19
100%	19
statement	19
көшуі	19
актілерді	19
орналасуын	19
Судың	19
she	19
овпен	19
әл-фараби	19
анов	19
комите@@	19
қолдану;	19
электроника	19
ris@@	19
изатор@@	19
қатын@@	19
амплитудасы	19
технологиялы	19
қызметкердің	19
ып-@@	19
ланды	19
жөнел@@	19
шетелге	19
Заң@@	19
каталог@@	19
заттық	19
became	19
тивтік	19
ымдарының	19
пайдасын	19
күш-жігер@@	19
өнеркәсібін	19
цилиндрлік	19
моди@@	19
ткі@@	19
known	19
уға,	19
STEM	19
институттардың	19
мультимедиалық	19
«Д@@	19
ғали	19
пайтын	19
жәрмеңкесі	19
қосымшасын	19
ыма	19
соқтығыс@@	19
шақырымды	19
kilometers	19
агент	19
сәулеттік	19
рәсімдерді	19
болжануда	19
bul@@	19
сіздікті	19
игерілген	19
гендей	19
гаага	19
табылады,	19
масс@@	19
деформациясы	19
парақш@@	19
бағаға	19
мәліметтермен	19
бастайтын	19
1,0	19
селекторлық	19
орындауды	19
көшбасшысының	19
лон	19
өлшемдерін	19
ктивтік	19
0,97	19
мектепті	19
қуаныштымыз	19
receive	19
эмоциялық	19
организмнің	19
елестету	19
ғылыми-әдістемелік	19
ә)	19
мейір@@	19
астамын	19
мәслихаттар	19
талқыланатын	19
кешеніне	19
өсімінің	19
тәжірибелік-@@	19
ening	19
сов	19
аумен	19
азот@@	19
под@@	19
реактив@@	19
стандартт@@	19
тыңдады	19
жұмыстарынан	19
ауруларын	19
ТІ@@	19
ніндегі	19
саммиті	19
газдарды	19
тықтан	19
полимерлер	19
зі	19
мой@@	19
жандарды	19
асырап	19
bring	19
әкімдікте	19
көлеңкелі	19
қыштың	19
колледж@@	19
тыңайтқыштарды	19
бул@@	19
11]	19
иттер	19
Ку@@	19
синте@@	19
ұстаным@@	19
нұсқалары	19
тудің	19
Жердің	19
ауының	19
Дұрыс	19
Қашықтықтан	19
october	19
кли@@	19
байқаушы	19
Эксперимен@@	19
unique	19
ұмтылу	19
establish	19
фосф@@	19
буыны	19
корпусының	19
тындықтан	19
басындағы	19
map	19
Кен@@	19
тіні@@	19
облыстарынан	19
Мұғалім	19
тмд-ға	19
1;	19
режимінің	19
мектебінде	19
шешімдерінің	19
жойылып	19
лиз@@	19
Импуль@@	19
сия	19
ағанда	19
қозғалысты	19
stable	19
сертификат	19
улерін	19
мо-	19
компьютерге	19
ББ@@	19
азайтып	19
патриотизм	19
«М@@	19
«Қазақстан	19
ЫР@@	19
ерек@@	19
домин@@	19
пойызы	19
тарымыз	19
дмитрий	19
туристерге	19
Ca@@	19
пункті	19
km	19
құралады	19
себепші	19
сотта	19
қарапайымдыл@@	19
өңірлері	19
персоналды	19
ауысуы	19
ұмы@@	19
лаңкестікке	19
фотоэлектрлік	19
вакцин@@	19
тиіс.	19
Есепте@@	19
›@@	19
кеңсе	19
electricity	19
тоқса@@	19
ересек	19
конституциясы	19
understanding	19
ill@@	19
темірдің	19
ыст@@	19
13-@@	19
тиімділігінің	19
жемқорлықты	19
ұстанымын	19
драма	19
табыстар	19
тіркеуге	19
реформаның	19
шешімге	19
өкілеттіктерді	19
парламентари@@	19
тауарларына	19
салығын	19
Шығар@@	19
аяс@@	19
әскерге	19
ланы@@	19
ліктермен	19
legislative	19
модельдеуді	19
түсініктеме	19
бағала@@	19
мекемеде	19
ЭД@@	19
құрылтай@@	19
тaбылaды	19
бүйір	19
илемде@@	19
таумен	19
шеруге	19
юнеско-ның	19
кеңеюіне	19
амбулатория	19
м-ден	19
sign	19
оқытатын	19
ылым	19
жәрмеңке	19
SO@@	19
жетістіктерімен	19
xx@@	19
ТЕР@@	19
ТЕҢДЕУ@@	19
ҮШІН	19
(Қ@@	19
мдар	19
ежелден	19
тасқан	19
жүктемелер	19
лаз@@	19
демократ@@	19
функцияларының	19
келтірген	19
қабаттық	19
негізделіп	19
тіліктің	19
дағдарысты	19
алатынына	19
лекция	19
қойма	19
тенден@@	19
триллион	19
climate	19
ore@@	19
тей@@	19
index	19
азаюына	19
аномал@@	19
дра@@	19
талай	19
экспортын	19
формада	19
айгүл	19
жіп@@	19
сайысқа	19
meat	19
австрия	19
тәжірибесінің	19
кандидаттардың	19
диспер@@	19
таратыл@@	19
work@@	19
плане@@	19
бетінен	19
(d@@	19
інші	19
sch@@	19
күшейтеді	19
құндылықтары	19
объектіге	19
ЕС@@	19
reconstruction	19
bak@@	19
салудың	19
түрімен	19
корпорациясының	19
ғаш	19
күзде	19
бухгалтерлік	19
құрылысымен	19
көрсетілі@@	19
6-сурет	19
Өткен	19
тиiмдi	19
талға@@	19
кескінде@@	19
ұлғаюына	19
ауысады	19
бұрышты	19
қышқылымен	19
табиғатын	19
1-ге	19
тезде@@	19
chinese	19
баянда@@	19
тж	19
мүм-	19
туғызу	19
конгре@@	19
период@@	19
ноқат	19
дерімен	19
chemical	19
съезінің	19
%-ды	19
сасы	19
Бүгінде	19
батырмасын	19
транзи@@	19
көлемі@@	19
*	19
аренада	19
benefits	19
ғанды	19
мұражай	19
leadership	19
ық,	19
басқан	19
фосфорлы	19
ведомствода	19
дермен	19
г/л	19
туризмі	19
тыруға	19
қосымшалардың	19
критерий@@	19
жетіспе@@	19
mit@@	19
жоспарымен	19
чу@@	19
банкно@@	19
толығырақ	19
саябақ@@	19
талаптарының	19
ұлыбританияның	19
вак@@	19
даярла@@	19
табамыз:	19
компанияларымен	19
жаза	19
Тө@@	19
іс-әрекеттің	19
ғанша	19
бейнесін	19
ҚА@@	19
мам@@	19
кенін	19
соғысындағы	19
ice	19
Web	19
құлов	19
стимулятор@@	19
ТМД	19
келуіне	19
қайнар	19
кәсіпкерлікке	19
instructions	19
ақтөбеде	19
мандары	19
Arduino	19
commissioned	19
резин@@	19
еңбекақы	19
жеңілді@@	19
мұнайға	19
Қ)	19
зер	19
мансаптық	19
эле@@	19
ically	19
қосылыстарды	19
лондон	19
аэ@@	19
бep@@	19
тара@@	19
«Қаз@@	19
хлор	19
экспортының	19
қабырға	19
талары	19
кеңістіктің	19
speech	19
responsibility	19
қаңтар-қыркүйекте	19
бабы	19
талдауда	19
улар@@	19
лықтың	19
ағында	19
ақордада	19
физикалық-химиялық	19
айталық	19
қышқылдар	19
Экономикалық	19
облыстарда	19
мердігер	19
талқылаудың	19
кeл@@	19
гия	19
зертханасында	19
Өсімдік	19
бекітуге	19
шарт@@	19
ыпты	19
Фор@@	19
сметалық	19
сайлауына	19
ру	19
refl@@	19
0,64	19
ain@@	19
диапазоны	19
карь@@	19
форматында	19
өзіміз	19
дауыстық	19
баларын	19
қын	19
валюталық	19
қу	19
тжм	19
жәрмеңкеге	19
Академ@@	19
формал@@	19
мәртебелі	19
қорық	19
жо-	19
уларын	19
эволю@@	19
алгоритмді	19
сарапшылық	19
саясаткерлер	19
концепциясы	19
рейтингі@@	19
рин	19
0,38	19
кезең-кезеңмен	19
араласу	19
жамылғ@@	19
қарым-қатынаста	19
off@@	19
образ@@	19
тарау@@	19
бейнелер	19
кеңестік	19
орнатылып	19
𝜃@@	19
the@@	19
Ag@@	19
pol@@	19
ылғалдың	19
орнымен	19
ндеу	19
арттыруда	19
соққы	19
қызметіндегі	19
әр-түрлі	19
transit	19
изотермиялық	19
interaction	19
Есіл	19
дипло@@	19
кене@@	19
теңдеу@@	19
басталуы	19
болaтын	19
өнім@@	19
эволюциялық	19
сипаттамалар@@	19
баптау	19
икал@@	19
БҚ	19
сайтынан	19
жылуды	19
practice	19
себептер	19
көмектесу	19
tly	19
қадағалауды	19
орталықтарына	19
жоғарылат@@	19
(6@@	19
артықшылық	19
тұтынуды	19
сэ@@	19
2017@@	19
09@@	19
барлығымыз	19
оС	19
нұсқаларын	19
58@@	19
қоймайды	19
топтастыру	19
эксп@@	19
теңдессіз	19
салтанаты	19
тіркелу	19
алады:	19
әсе@@	19
таға@@	19
ұнының	19
бас-	19
Нано@@	19
күтеміз	19
сауда-экономика	19
энергиялық	19
РЕ@@	19
-1)	19
дсұ-ның	19
ымдарын	19
сынақтарға	19
нобель	19
банкі@@	19
нығайтудағы	19
’	19
ауысуына	19
қадамдарды	19
қашық@@	19
therefore	19
қарағай	19
тобында	19
ойындарды	19
бастапқыда	19
сотталған	19
стегі	19
шатыр@@	19
1996	19
жол-көлік	19
ленді	19
итті	19
дәлелдеді	19
Джо@@	19
зерттейтін	19
IT-@@	19
өтер	19
жұмсауға	19
De@@	19
суретте@@	19
PC@@	19
ережелеріне	19
алғаны	19
кенде	19
әкімдердің	19
қаны@@	19
овқа	19
Химияны	19
одақпен	19
визуали@@	19
judicial	19
топта@@	19
құратын	19
аладағы	19
импульс	19
уақыт@@	19
aрқылы	19
процесстердің	19
рының	19
ндерінен	19
амилопект@@	19
синтезі	19
нидерланд@@	19
ктендір@@	19
жазбалар	19
аланған	19
газға	19
Желілік	19
зa@@	19
аторы	19
тізімге	19
зен@@	19
көлемінен	19
бұндай	19
жоғарылатуға	19
han@@	19
тұзы	19
ңғ@@	19
sk	19
нарықтарға	19
дрена@@	19
қателігі	19
жанова	19
data	19
places	19
roads	19
іс-шар@@	19
ашылуында	19
байланысқа	19
өсімдіктің	19
entities	19
enforcement	19
e)	19
kazakhstanis	19
ресімде@@	19
парламентке	19
tt@@	19
делегаттар	19
біз@@	19
операторының	19
ған,	19
жүктеледі	19
диалог@@	19
sign@@	19
terrorism	19
жад@@	19
вокз@@	19
ойдамын	19
турнир@@	19
akmola	19
қолдан	19
ұсынысы	19
procedure	19
беру@@	19
алушыларды	19
тқы	19
кәсібін	19
қашықтығы	19
артуын	19
маркет@@	18
оқушыны	18
айналымына	18
кооперация@@	18
Mo@@	18
трафик	18
а»	18
еуразияның	18
таңдай	18
HTML	18
температуралы	18
тотықсыздандыр@@	18
конституцияның	18
техноло-	18
жаңалығы	18
бірде	18
андық	18
біріктіре	18
hub	18
ain	18
сүз@@	18
шетелдегі	18
аудағы	18
иерархиялық	18
зин@@	18
жету@@	18
экспеди@@	18
тысқары	18
Түйінсөздер:@@	18
даға	18
жоғарла@@	18
кил@@	18
серіктестігінің	18
бағаларын	18
аман	18
элементтерге	18
бағалай	18
монопол@@	18
шев@@	18
есебімен	18
Дифференциалдық	18
Жасалған	18
08	18
eрa@@	18
делегацияны	18
анық-	18
жұмыссыз@@	18
олар@@	18
сақталуына	18
түл@@	18
субъектілеріне	18
sides	18
белсендіру	18
кернеуі	18
қуаттың	18
сі:	18
саясатта	18
карбонат@@	18
штің	18
ауадағы	18
2016-2019	18
ды-	18
тапсырысты	18
жазылып	18
серпімділік	18
лінген	18
рәміздер	18
ауаға	18
идеяларын	18
бірімен	18
сеңіз	18
ore	18
инте@@	18
қапталған	18
теңдеулерін	18
0,74	18
кіріктірілген	18
қалғандары	18
станның	18
көшесі	18
ЖЭО@@	18
80%	18
жолдады	18
сайлаушылар	18
«Ш@@	18
ЫҚТ@@	18
Тер@@	18
етумен	18
клиник@@	18
зерттеуі	18
Тәжірибе@@	18
қабылдай@@	18
ауымыз	18
ized	18
лет	18
мауға	18
құрал-жабдықтар	18
сатыға	18
испанияның	18
дәрістер	18
сабақтарды	18
парат@@	18
ты»	18
Жетісу	18
брифингте	18
Минералды	18
existing	18
консультан@@	18
jsc	18
cu@@	18
.4	18
туралы»	18
болаттардың	18
әлсіре@@	18
70%	18
қызу	18
uni@@	18
тар)	18
шығармашыл	18
доценті	18
үстелдің	18
түйіндер	18
өркенде@@	18
танытқан	18
even	18
тәжірибелерімен	18
доктрин@@	18
тәуелсіздігі	18
түркіменстан	18
ports	18
Модельдеу	18
келге@@	18
ндарда	18
швеция	18
тепе-теңді@@	18
friendship	18
жэк	18
ті:	18
Сар@@	18
(B@@	18
алқасының	18
бұрышын	18
ксіз	18
мелерін	18
құрық	18
серверлік	18
лайық	18
ей@@	18
өзендерінің	18
мұғалімдерге	18
light	18
кра@@	18
пир@@	18
елдерін	18
беріктілігі	18
джа@@	18
мамандарына	18
үшін,	18
қалуы	18
солтүстік-@@	18
республикамыздың	18
гомо@@	18
синтаксистік	18
ата-ана	18
қолданушылар	18
фракциясы	18
рын	18
музейінің	18
бағамы	18
ашылмақ	18
тə@@	18
ОҚ@@	18
жуу	18
нығайтуды	18
emergency	18
Сабақ	18
wh@@	18
amendments	18
отбас@@	18
жіберіп	18
65@@	18
тил@@	18
тунне@@	18
API	18
Оларға	18
түрлендіргіш@@	18
Т)	18
йтінін	18
заманында	18
мсіз	18
профи@@	18
тартқан	18
бірінде	18
pilot	18
батарея@@	18
1-і	18
atory	18
child	18
болжай@@	18
дәрігерлердің	18
жалғастыратын	18
test	18
ғыр	18
тексеріледі	18
әйнек	18
жүгінген	18
шараларымен	18
эпи@@	18
оттегі	18
шық	18
under@@	18
стандартының	18
қаралатын	18
ta@@	18
internal	18
макси@@	18
параметрлерге	18
гель	18
98@@	18
құрылғыларының	18
газдандыру	18
жетекшісінің	18
тәжірибесінде	18
ний	18
табылатыны	18
мысыр@@	18
жиындар	18
2016-2020	18
этап@@	18
тойлау	18
алдын-алу	18
оқу-	18
сүйенеді	18
153	18
инвесторлары	18
соғұрлым	18
ионды	18
кв	18
құбырын	18
б.байбек.	18
les	18
атыс	18
ыстарының	18
D-@@	18
Қа@@	18
құрметпен	18
чес@@	18
ГИ@@	18
core	18
03@@	18
discuss	18
индустриаландыру	18
кластерлеу	18
producers	18
факт	18
антты	18
Көп@@	18
мүмкін,	18
гіз@@	18
жамылғысы	18
қазбаларды	18
Open@@	18
меморандумның	18
форматқа	18
кездесу@@	18
асының@@	18
түсініп	18
жаздық	18
кеңістігінің	18
фер	18
лен	18
кесте)	18
Аталмыш	18
ведомстволарының	18
баяндалады	18
қаржысына	18
демократия	18
геодинамикалық	18
секунд	18
рат	18
құралдарға	18
pri@@	18
дабыл	18
Net@@	18
ған»	18
жұқ@@	18
өзгерді	18
ills	18
takes	18
ығыстыру	18
дыру	18
aрa@@	18
баж	18
сөре@@	18
алым	18
кәсіп	18
біті@@	18
орталықтардың	18
асқын	18
objects	18
aнықтa@@	18
қабиболла	18
еріктілер	18
құзыре@@	18
құжатта@@	18
мето@@	18
Кіші	18
мальды	18
термин	18
лер)	18
гидролиз@@	18
келешек	18
энергет@@	18
циясында	18
wi@@	18
те-	18
ымдық	18
шеберлерінің	18
органының	18
2-кестеде	18
ағзасына	18
тоғыз	18
жұмыстармен	18
қаржыл@@	18
стігін	18
ell	18
say	18
улерінің	18
шешілмеген	18
s.@@	18
виктор	18
650	18
руд@@	18
employed	18
дәрігері	18
гетерогенді	18
Б)	18
ness	18
уранды	18
тындығына	18
02@@	18
гол@@	18
67@@	18
модельдердің	18
етпе@@	18
зи	18
af@@	18
синхронды	18
полиэтилен	18
zhambyl	18
нші	18
этикалық	18
стартап@@	18
тербелістер	18
потенциалын	18
met	18
м3/@@	18
маларына	18
орналасуына	18
нүктесін	18
миллиондаған	18
everyone	18
меннің	18
aқ	18
сiн	18
1700	18
тазар@@	18
Қозғалыс	18
циялану	18
жеткізілі@@	18
үкіметіне	18
кандидаттар	18
морфологиясы	18
жұмылдырылды	18
Matlab	18
инженерлік-@@	18
contribution	18
түйісу	18
жаңбыр@@	18
цияланатын	18
дық.	18
ЛІ@@	18
дәлді@@	18
мұражайы	18
машинақұрылысы	18
атуға	18
кердің	18
жүйесі;	18
IP	18
Модель@@	18
баль@@	18
шa	18
тексерілді	18
луімен	18
Көл@@	18
nom@@	18
тестілік	18
Hadoop	18
ро	18
конструкциялық	18
жезқазған	18
таудағы	18
акцияға	18
жды	18
кодекстің	18
web-@@	18
сілтілік	18
план@@	18
өкілдік	18
бөлшектерді	18
institute	18
жақсаруына	18
бейнебақылау	18
0,70	18
сенаты	18
қасиетке	18
трас@@	18
52@@	18
ғасырлық	18
сәйкестікті	18
метанның	18
реестр@@	18
органы@@	18
моном@@	18
Ав@@	18
gn@@	18
қажеттіліктеріне	18
қоспасымен	18
тінді	18
сы)	18
контен@@	18
әдеби@@	18
Сал@@	18
рент@@	18
i)	18
банкімен	18
спорты	18
тект@@	18
зай@@	18
тәсілдерінің	18
т/@@	18
гіштігі	18
пик@@	18
а,	18
к.	18
80-нен	18
НЕ@@	18
шетелдің	18
	18
беларусь@@	18
Инновациялық	18
стипенд@@	18
қосымшаны	18
санкция@@	18
рау	18
аху@@	18
санаймын	18
көрке@@	18
альянсы	18
анал@@	18
таңдалады	18
теоремасы	18
аумақтағы	18
′@@	18
𝑦@@	18
өлшеуіш	18
оксидінің	18
ған)	18
маңыз	18
суреттен	18
диодты	18
күнді	18
далатын	18
кооперация	18
лмейтін	18
quarter	18
АВ@@	18
цес@@	18
жылдам@@	18
бетонды	18
pleased	18
үстемдігі	18
құрметіне	18
өндірісіндегі	18
arch@@	18
60%	18
етуін	18
паев	18
бaр	18
жүйелері@@	18
мәслихат@@	18
кешендік	18
бұрындары	18
киіз	18
алты@@	18
Белсенді	18
ақа@@	18
корреляция	18
келісімшартқа	18
жылдамдық@@	18
доңғал@@	18
нү@@	18
гендігі	18
ймен	18
Син@@	18
77@@	18
Әді@@	18
серіктестерінің	18
foundation	18
despite	18
port@@	18
2013-@@	18
пли@@	18
түйінде@@	18
жоғалған	18
едік	18
құрамасы	18
туындылары	18
Fe	18
терезесі	18
суреттерді	18
хлори@@	18
программасы	18
студенті	18
жеке-жеке	18
корреля@@	18
модельде	18
материал@@	18
ведомстволық	18
секір@@	18
courts	18
бекұлы	18
Химия	18
өсуінің	18
қр-дағы	18
ability	18
желтоқсанмен	18
тери@@	18
теңдігі	18
рентген@@	18
жоо-ның	18
негіздеріне	18
зауытына	18
ov@@	18
қондырғыларын	18
ндерінде	18
positions	18
чех	18
жаңартуға	18
позицияға	18
түст@@	18
орындаған	18
тауын	18
науқанын	18
ықтарында	18
ili@@	18
face	18
шылармен	18
шалғайдағы	18
жүлде	18
еңбегінің	18
тауары	18
яның	18
комитетімен	18
лді.	18
(15)	18
can@@	18
балалар@@	18
Мектеп@@	18
жұқпалы	18
гeн@@	18
анмен	18
тексерулер	18
тари@@	18
сценари@@	18
Тұз@@	18
мәжіліске	18
жаққа	18
Матери@@	18
жылдамдықтың	18
considered	18
оқиғалардың	18
тізбегін	18
локомотив@@	18
ik@@	18
districts	18
iз	18
Пар@@	18
ведомстволар	18
генератор	18
лығымен	18
atyrau	18
рмк	18
энерготиімділік	18
әңгімелеп	18
тәрбиелен@@	18
иса@@	18
беттерінің	18
байұлы	18
ЭҚ@@	18
селе@@	18
педагогтардың	18
ыстан	18
кеңесінде	18
балары	18
зияны	18
формаларын	18
bill	18
prosperity	18
ауруханалар	18
kh@@	18
атов	18
Қорытындылай	18
бaйлaны@@	18
ұлғаю	18
РО@@	18
түc@@	18
ылғaн	18
стігі	18
үлгілерде	18
ЕН@@	18
79@@	18
жолаушыларға	18
серіктестермен	18
курорттық	18
gratitude	18
учаскелік	18
(x	18
консульта@@	18
арнасы	18
сағадиев	18
тұлғал@@	18
ақыл-@@	18
соғысқа	18
өкілдер	18
мұхамбетов	18
Map@@	18
ким	18
табиғаты	18
АРДЫ	18
оқушыға	18
Атмосфералық	18
green	18
кіргіз@@	18
нейрожелілік	18
лі-	18
өнімділігіне	18
қыл	18
пайдаға	18
журналистерге	18
даярлауды	18
тог@@	18
үміткер@@	18
𝐵	18
алас@@	18
циялауға	18
алып@@	18
june	18
applications	18
өтінімдер	18
ЫС@@	18
ғышты	18
IP@@	18
ойы	18
архитектур@@	18
таралуының	18
алынуда	18
массал@@	18
6)	18
10-11	18
бизне@@	18
штаб	18
міне@@	18
ыc	18
Жі@@	18
Жер@@	18
моне@@	18
Газ@@	18
Соған	18
ісіну	18
орталығымен	18
қap@@	18
bu@@	18
representative	18
тұрмысы	18
еді.	18
мүмкiндiк	18
аэф	18
signing	18
%-ы	18
тиеу	18
геоақпараттық	18
.2	18
бағалаулар	18
тасып	18
жуырда	18
идті	18
aly@@	18
ek@@	18
360	18
ская	18
исті	18
қатыстыр@@	18
dedicated	18
компанияны	18
transportation	18
кездесулері	18
атмосферада	18
кестеден	18
хэ@@	18
ілетін	18
периодтық	18
мөлшері@@	18
М-@@	18
шынықтыр@@	18
үшін)	18
[16]	18
сен	18
көтермелеу	18
маларында	18
жылудың	18
59@@	18
дықтардың	18
ктi	18
1999	18
ауған	18
идеяны	18
эстония	18
молдова	18
кеңейіп	18
0,72	18
оқушыларына	18
асырылуына	18
арналары	18
паркінің	18
Адамның	18
тенге	18
тонна@@	18
туын	18
пакетін	18
ша-	18
126	18
ЭЕМ	18
саммит	18
тығыздығының	18
гранттық	18
mayor	18
ссия	18
жарыстың	18
Ресейдің	18
практикасы	18
жазатайым	18
Ве@@	18
CN@@	18
түлегі	18
technological	18
форма	18
ca	18
гия@@	18
тігі	18
ағыл@@	18
турбина	18
сының@@	18
сінде@@	18
тін,	18
интерактивтік	18
мақсаты:	18
prevent	18
беков.	18
лар)	18
әрекеттегі	18
капиталдың	18
карталар	18
фон@@	18
thing	18
процессін	18
210	18
Бу@@	18
ue	18
катар	18
shows	18
құрудағы	18
қол-	18
магистраль@@	18
Се@@	18
oлoгиялық	18
i-@@	18
мм-ге	18
рек@@	18
суретшілер	18
нс	18
чи@@	18
бостанд@@	18
идеологиялық	18
interesting	18
defense	18
сынақ@@	18
дубай	18
өзендер	18
қолбасшысы	18
238	18
қорытындысын	18
учаскесін	18
туда	18
кла@@	18
қауқарлы	18
2024	18
октан	18
қоятын	18
жеңімпазы	18
құбылысы	18
ри	18
show	18
медицинада	18
алғысымды	18
Кол@@	18
refin@@	18
пай	18
ог	18
антиоксидан@@	18
Жоғарыдағы	18
шәкір@@	18
мг/л	18
ықп@@	18
кəсіп@@	18
мекені	18
материалдарға	17
уақытымен	17
болаттан	17
Le@@	17
Learning	17
шенелген	17
жеткіземіз	17
Ресейде	17
табыстың	17
біздер	17
үрдістердің	17
тармағы	17
форумын	17
бұлт	17
лған	17
хаб@@	17
өзен@@	17
сұлы	17
жолдау@@	17
алмасуы	17
3d	17
кабель@@	17
астанал@@	17
қатер	17
пробация	17
түрлен@@	17
шағылысу	17
б.сұлтанов.	17
мөлшерле@@	17
разряд@@	17
ар-@@	17
340	17
вакуум@@	17
ym@@	17
дизельдік	17
көрсеткіштерімен	17
108	17
кодек@@	17
отырар	17
отбасында	17
тарифтердің	17
Ша@@	17
ескеріліп	17
автобустар	17
парт@@	17
әзірлемелер	17
фазаға	17
бенз@@	17
танытуда	17
көмектесе@@	17
немесе@@	17
ағыз@@	17
ологиясын	17
мерекемен	17
peoples	17
ескерілетін	17
рахмет	17
Веб-@@	17
аппаратының	17
қуандық	17
сағатына	17
қаба@@	17
тарапына	17
коэффиценті	17
шілікті	17
себебі@@	17
маркасы	17
ақтөбе@@	17
(11)	17
тәтті	17
ика-@@	17
шынында	17
тиіс:	17
сәулелендір@@	17
оптимизациялау	17
президентіміз	17
нышаны	17
Com@@	17
мәлімет@@	17
ттep@@	17
мa	17
154	17
енгізе@@	17
trust	17
тәуел@@	17
хаттамасы	17
жоғалып	17
бір-бірін	17
оқыды	17
much	17
пақ@@	17
тәжірибенің	17
гені@@	17
ina	17
табуда	17
тізбесін	17
Па@@	17
айта@@	17
бөлшекте@@	17
бизнесме@@	17
стікті	17
орда@@	17
балапан	17
Транс@@	17
abroad	17
тaрaлуы	17
жабын	17
орталықтан	17
құрамға	17
әл-ауқаты	17
батыл	17
achieve	17
құзыреттілігі	17
тұжырымдам@@	17
белгілерді	17
мәліметтеріне	17
ИК-@@	17
колледждер	17
мекемелерін	17
отанның	17
теориясында	17
бірмәнді	17
қыға	17
шалдыққан	17
сөздері	17
даған	17
қышы	17
физико-химиялық	17
рефлек@@	17
ties	17
шетелден	17
қарашаға	17
бастамаларының	17
ттер;	17
еріген	17
мұраны	17
дархан	17
класты	17
4,0	17
мерейтойына	17
зондтау	17
болдым	17
148	17
ткіш@@	17
қарама-қарсы	17
әсерлі	17
әдеттегі	17
136	17
теміз	17
механизмінің	17
кейінірек	17
кө-	17
диаграмма	17
(В@@	17
σ	17
дүке@@	17
қатынастарының	17
надағы	17
ойымызша	17
реакциялар	17
ауырлық	17
маусымы	17
хабарланды	17
к»	17
техникалар	17
толтыруға	17
itation	17
таудан	17
ардагерлердің	17
дәлдік	17
факуль@@	17
270	17
торының	17
comb@@	17
ушісі	17
құрамы@@	17
ем	17
Шығ@@	17
заңмен	17
наурыздағы	17
мемлекеті	17
тартылатын	17
бүлдірші@@	17
0,83	17
скляр	17
қалғаны	17
шебер	17
лик@@	17
kazenergy	17
[1-@@	17
міндеттеріне	17
көмірдің	17
жаңғыртуды	17
бензин@@	17
inf@@	17
convention	17
significantly	17
дина	17
[1-3]	17
қоспасын	17
шығаруда	17
нь@@	17
жазады	17
repair	17
decided	17
мүшесінің	17
үйлеріне	17
өңірлерінен	17
Өндір@@	17
Проблемалық	17
шеңбері	17
дайындалады	17
Тағы	17
дайындады	17
ліктері@@	17
қабілеттері	17
реакциясы	17
шақырғаны	17
ьдық	17
оны@@	17
қолданылуын	17
Жин@@	17
пайдаланылуға	17
тотықтырғыш	17
станциясында	17
машиналарды	17
ойлаймыз	17
жатса	17
жарақа@@	17
алмасудың	17
дель@@	17
бекет	17
векторының	17
бада	17
кеңістікке	17
жалпылау	17
р.жошыбаев	17
нидерланд	17
сұрақтың	17
гау@@	17
сенімге	17
басымдықтарының	17
алаңдар	17
жоқтығын	17
тәж@@	17
метеорологиялық	17
шаруашылықты	17
ES@@	17
кәсіпорындарына	17
фра@@	17
базар@@	17
мамырдағы	17
юн@@	17
денелердің	17
қалдырған	17
арта@@	17
(3-@@	17
се,	17
J	17
денсаулыққа	17
вертик@@	17
шү@@	17
43@@	17
тоқсан	17
127	17
хатын	17
анықталуы	17
жетке@@	17
өзек	17
алабының	17
ыстыққа	17
жиын@@	17
қайырбекова	17
emphasized	17
hon@@	17
биту@@	17
ведомств@@	17
content	17
сорбция	17
))	17
көрсеткішпен	17
silk	17
моделде@@	17
үйіне	17
мазмұндағы	17
етпек	17
вор@@	17
асыл@@	17
ттардан	17
философ@@	17
изациялау	17
шілікке	17
қырты@@	17
өркендеуі	17
мәселелерімен	17
торды	17
эыдұ-ның	17
қысқартып	17
мыш	17
«Б@@	17
Me@@	17
solutions	17
форум@@	17
specialists	17
сульфи@@	17
қатынасына	17
қатынасында	17
қарам@@	17
RA@@	17
өзгеруінің	17
лаңкестік	17
стіру	17
ішілік	17
үшін:	17
тере@@	17
тамызға	17
порталында	17
икамен	17
байланыстыра	17
164	17
орналастырады	17
коррозияға	17
ade@@	17
кафедр@@	17
салқындату	17
төмендегі@@	17
жобалауға	17
модельдеуге	17
сағаттық	17
қуаныштымын	17
фиялық	17
finance	17
енуіне	17
2,0	17
жоспарларды	17
норма	17
сүруге	17
таужыны@@	17
сің@@	17
сапасыз	17
таралады	17
сіңірі@@	17
questions	17
жауын@@	17
ұстан@@	17
Ад@@	17
ыннан	17
неді:	17
атқара@@	17
раста@@	17
сөзінің	17
аторлық	17
біртек@@	17
заңдарға	17
жартысынан	17
дауыл@@	17
жазған	17
ұпай@@	17
ойындары	17
опт@@	17
міндеттерге	17
бытыр@@	17
үйлестіруші	17
(И@@	17
күтіліп	17
zone	17
sky	17
lear@@	17
жабдықтармен	17
топыр@@	17
жетінші	17
parties	17
лдері	17
бұйымдардың	17
produce	17
орындаушы	17
құрауы	17
лазер@@	17
169	17
операцияларын	17
сүзу	17
лылық	17
Өзен	17
фазалар	17
әбі@@	17
О)	17
келімбетов	17
қарыз@@	17
алғы	17
қарқынд@@	17
жақтың	17
тамасына	17
тұрақтылығына	17
өзгерістерін	17
тұтастығын	17
vers@@	17
сик@@	17
иелік	17
реттелетін	17
бөлшегі	17
0,79	17
Al	17
полярлық	17
пәнге	17
жетіспеуші@@	17
айналысу	17
уларының	17
ескерту@@	17
monitoring	17
қоймай,	17
(Сурет	17
қатысында	17
ұйымды	17
ндірілген	17
Ресей@@	17
іргелес	17
DF@@	17
бөлмелі	17
рөліне	17
штей@@	17
ондар	17
жазба	17
өркение@@	17
2010-2014	17
ұнтағы	17
семинардың	17
ұсынысын	17
ems	17
шек	17
шығыстағы	17
aim	17
tem@@	17
дайындығына	17
plo@@	17
қасына	17
модул@@	17
сив@@	17
объектісінің	17
қазу	17
called	17
лік,	17
бөлімін	17
ақ-мен	17
үйретеді	17
орынның	17
ess	17
атынд@@	17
көңі@@	17
гипо@@	17
айнымалысы	17
қолдану@@	17
қызықтыратын	17
платформасының	17
Суретте	17
уге@@	17
Жүйе	17
модернизациялау	17
аяқтап	17
файлдар	17
іздеуді	17
тілдес	17
М1	17
зонд@@	17
өлең@@	17
шабуылдардың	17
ыдыра@@	17
кристалдық	17
мөлшерімен	17
қашықтық@@	17
мемлекеттерде	17
заңгерлік	17
pris@@	17
атау	17
оперативті	17
көмірсу@@	17
форматын	17
болжамдар	17
айналасындағы	17
successfully	17
до	17
Жұмы@@	17
бердік	17
е.досаев.	17
процедуралар	17
биология@@	17
анаэробты	17
халқы@@	17
тaл@@	17
units	17
жағдайда@@	17
price	17
өндірушілері	17
дының	17
ак	17
сарыағаш	17
деу	17
арғы	17
гере@@	17
лицензия	17
жасасу	17
пестици@@	17
train	17
лиф@@	17
біріңғай	17
ұсынамын	17
Тор@@	17
айналдыр@@	17
ойындарын	17
қауіп-қатерлерге	17
зерттеушілердің	17
dy@@	17
мұқа@@	17
person	17
оның@@	17
t)	17
өзгеше@@	17
арас@@	17
ұштастыр@@	17
xi	17
Көлік	17
енгізілуде	17
ses	17
around	17
[3-@@	17
электрохимиялық	17
мдеріне	17
мүшелерін	17
соттар	17
көрсеткені	17
жобалау@@	17
барыс@@	17
сыртында	17
St@@	17
жандандыруға	17
cam@@	17
интеграцияны	17
қызығушылықтарын	17
6-сы	17
сайлаудағы	17
режимдерін	17
ауқымында	17
тaбиғи	17
Машиналық	17
achieved	17
press	17
ауысымды	17
лықтар	17
көркемдік	17
қытаймен	17
серіктестері	17
аймен	17
𝑗	17
таныса	17
ғының	17
тарапқа	17
экономика@@	17
шығудың	17
сервисі	17
таяуда	17
ұнынан	17
бұрышының	17
ске@@	17
бол	17
жалпыхалықтық	17
қашан	17
message	17
кетпе@@	17
жарақтандыр@@	17
мұнан	17
Қосп@@	17
ерекшеленетін	17
ушілері	17
ақын	17
-С@@	17
шаруашылықта	17
𝐷	17
аспауы	17
авто	17
өлшемін	17
жағынан,	17
жанар	17
нарықтарына	17
цинк	17
түлектер	17
ойынд@@	17
мембрана	17
Li@@	17
интеграл	17
ндардан	17
өркендеуіне	17
құрамдас@@	17
ластануын	17
қойылуы	17
0,75	17
далардың	17
жеке@@	17
атқаратынын	17
шөп	17
отынмен	17
лep@@	17
қатпарлы	17
алмас	17
күші@@	17
мүгедектерді	17
ііі	17
абылай	17
келмейтін	17
2+	17
кірісіп	17
сорғы	17
то-	17
a)	17
қамтылып	17
лімі	17
(7@@	17
фа	17
ning	17
өлшеулер	17
есін	17
recently	17
300-@@	17
белорусь	17
90-@@	17
белсендір@@	17
ков.	17
табатын	17
lower	17
сығу	17
ылғалдылық	17
талас	17
қолай@@	17
дамыту;	17
қалп@@	17
эффектісі	17
әдістерге	17
ыстарға	17
ерке@@	17
берді@@	17
ықта@@	17
expect	17
істеуді	17
нау	17
студентке	17
exports	17
gen@@	17
екпін	17
EHR	17
пайымынша	17
term	17
Құрамында	17
құрылғыл@@	17
жекешелендір@@	17
ня@@	17
бағалар	17
күзгі	17
har@@	17
cop@@	17
жәрдемде@@	17
өндірумен	17
асыруы	17
несиелендір@@	17
беріктілік	17
уни@@	17
анализ@@	17
еэо	17
мүмкі@@	17
reduced	17
секторына	17
әдеп	17
пәндері	17
citizen	17
0,69	17
бір-	17
(t	17
АҚТ@@	17
ортас@@	17
ими@@	17
ердің	17
Аман@@	17
тәртіптік	17
ақау	17
Ірі	17
шайынды	17
түрінен	17
𝑛@@	17
вакуумдық	17
жөндеуді	17
aлaды	17
журналистер	17
күнінде	17
трансферт	17
st	17
соци@@	17
хирургия	17
ленуі	17
does	17
ДІҢ	17
формулалары	17
г)	17
ушіге	17
ization	17
электроли@@	17
экстремистік	17
began	17
ымeн	17
personnel	17
уранның	17
танк	17
чин@@	17
1.5	17
талардың	17
нысандарында	17
ашыт@@	17
механизмдер	17
дәлелді	17
алады;	17
мұғалімдері	17
із	17
ток@@	17
/мин	17
26-@@	17
инв@@	17
қызықтыр@@	17
басымды	17
кептіргіш	17
connected	17
қауымдас@@	17
бағалайтын	17
маке@@	17
мекемелерінде	17
үзді@@	17
дизайн-@@	17
саудадағы	17
бург@@	17
рі	17
заңдылықтарды	17
бельгия	17
|	17
ace@@	17
сынама	17
гам@@	17
топтамасы	17
armed	17
сәйкесті@@	17
деректерінің	17
өнеркәсібіндегі	17
турбулентті	17
идентификациялау	17
леp@@	17
фракциясының	17
Есептің	17
номинация@@	17
сілті@@	17
дипломмен	17
ауылға	17
хирургиялық	17
формальды	17
өзгеріссіз	17
month	17
байды	17
кін@@	17
exam@@	17
биттік	17
тep@@	17
гiз@@	17
әс@@	17
ase	17
сөзі@@	17
бтық	17
ε@@	17
тоқ	17
көмегі	17
канаданың	17
хоккей	17
принципін	17
интерв@@	17
зерттеледі	17
ле-	17
нысанының	17
циялауды	17
ттiк	17
ілеспе	17
кав@@	17
march	17
автомобильдер	17
тeхнoлo@@	17
импор@@	17
бөлім@@	17
роботтың	17
əле@@	17
aғыны	17
айналғанын	17
шығысы	17
шынымен	17
traffic	17
нүктелерінің	17
жіберді	17
делегат	17
ссиялық	17
нөмірі	17
few	17
loans	17
Фи@@	17
|@@	17
жаңашыл@@	17
объектіні	17
жалғастырады	17
lack	17
қылмыстар	17
өкпе	17
колледжі	17
рейс	17
long-term	17
силик@@	17
бергі	17
трансформатор	16
шешті	16
дақылдарын	16
түзетілген	16
манов	16
ықыл@@	16
менеджерлер	16
бәсекелес	16
аспа@@	16
XML	16
шілердің	16
ently	16
port	16
лем@@	16
сүті	16
оңтай@@	16
900@@	16
рақ@@	16
әкімшілендіру	16
Бер@@	16
мұн@@	16
ғимаратының	16
конфессия@@	16
лли@@	16
кілттік	16
жиынын	16
жaңa	16
есептеулердің	16
Алгоритм	16
kindergartens	16
контур	16
үдерістің	16
шөл@@	16
қалдыру	16
қандар	16
кезінде@@	16
БЕ@@	16
пайызына	16
құрайтынын	16
облысын	16
граф	16
баб@@	16
жаңғыртылуы	16
татьяна	16
ұйымдастырушысы	16
береді:	16
қозғалмалы	16
қха-ның	16
сабақтардың	16
ауызша	16
күллі	16
лого@@	16
ертерек	16
директор@@	16
гімізді	16
орф@@	16
ынтымақ@@	16
жаман	16
денсаулықты	16
пере@@	16
Фер@@	16
интернетке	16
окси@@	16
реа@@	16
ord@@	16
палатасымен	16
мемлекеттерімен	16
болуынан	16
елжан	16
қазұ@@	16
органдарын	16
синтезде@@	16
экскурсия	16
т:	16
өңделуі	16
шатыр	16
номиналды	16
зepттe@@	16
Білімді	16
тораб@@	16
алю@@	16
арақатынасы	16
тұтынушыларды	16
ике@@	16
науқанына	16
жинайтын	16
десте@@	16
мәселелермен	16
Қазақстан@@	16
шабло@@	16
ақпараттардың	16
берілге@@	16
ттердегі	16
баевқа	16
өзендердің	16
баламасы	16
павильонын	16
Белгі@@	16
экономикасында	16
рө@@	16
фирмалар	16
Объ@@	16
disabilities	16
тығ@@	16
дайындау@@	16
MP@@	16
speaking	16
spiritual	16
жалақысын	16
5-	16
үлкей@@	16
жедел-@@	16
мақаланың	16
болса,	16
кернеуді	16
шалды@@	16
етіліп	16
Тұтын@@	16
қосар@@	16
монумен@@	16
сипаттамаларына	16
our@@	16
қанаты	16
жетерлік	16
ко.	16
#	16
ор-	16
6.	16
ұжымдар	16
300@@	16
кітапты	16
Осылайша,	16
карталары	16
теңдеулерге	16
параметрлі	16
көр-	16
ұнтақтау	16
телекоммуникация	16
den	16
сатыда	16
ерікті@@	16
137	16
алғанына	16
модулінің	16
орындалса	16
мектептен	16
айнымал@@	16
бах@@	16
талшық	16
балық@@	16
спутник@@	16
қс@@	16
тұжырымдаманы	16
жарнамалық	16
pavlodar	16
қағидаттарын	16
бидің	16
саясатқа	16
кедір-бұдыр@@	16
лік)	16
микроскопиялық	16
сілкінісі	16
Азия	16
көрсетілуде	16
төменді@@	16
құстардың	16
260	16
болaды	16
арзандады	16
қозғалысқа	16
2018@@	16
секторындағы	16
тарифтерді	16
Торғай	16
шөл	16
ытылған	16
°C	16
	16
0,86	16
жеңімпаз@@	16
presidential	16
[...]
