the	182849
of	149713
and	55193
in	47379
to	42216
a	27871
is	25961
for	20387
on	14007
with	13979
The	12784
that	11209
are	10704
will	10023
as	9654
by	9333
this	9195
be	8704
-	8701
Kazakhstan	8372
.	6747
at	6614
from	6385
was	6260
In	6120
an	6055
,	5682
development	5105
it	5100
state	4900
we	4801
which	4600
were	4337
has	3954
new	3870
work	3847
have	3739
also	3630
not	3607
all	3521
our	3198
system	3174
Republic	3151
head	3133
noted	3127
main	3072
(@@	3000
"@@	2943
can	2885
According	2870
said.	2847
their	2825
"said	2666
region	2566
information	2556
production	2528
between	2522
been	2455
its	2445
about	2441
international	2409
part	2372
thousand	2358
first	2328
number	2315
into	2302
well	2302
than	2272
one	2242
more	2229
billion	2213
or	2077
people	2074
use	2067
economic	2056
these	2011
implementation	1975
should	1969
This	1944
other	1943
increase	1935
out	1930
there	1915
cooperation	1910
Kazakhstan,	1894
It	1889
issues	1879
year	1868
construction	1858
field	1850
important	1832
national	1819
program	1813
countries	1786
energy	1773
"the	1772
million	1765
1	1760
President	1758
"	1758
two	1718
Kazakh	1716
As	1712
tenge	1693
results	1657
country	1644
during	1642
necessary	1637
such	1631
products	1631
addition,	1623
used	1620
process	1616
only	1600
training	1593
Minister	1585
world	1558
educational	1554
projects	1552
education	1545
Kazakhstan.	1516
project	1508
meeting	1507
according	1502
through	1470
special	1470
conditions	1465
you	1452
level	1451
​	1446
most	1428
During	1422
carried	1416
water	1409
I	1408
using	1393
public	1385
support	1385
social	1376
order	1371
quality	1368
held	1365
oil	1341
same	1334
2	1322
but	1314
year,	1303
based	1297
high	1293
regional	1292
city	1278
business	1270
including	1265
time	1259
various	1254
data	1244
under	1243
students	1230
framework	1224
amount	1223
Ministry	1204
within	1201
method	1197
At	1189
methods	1189
kazakhstan	1172
planned	1172
each	1170
his	1156
he	1138
large	1132
they	1132
control	1130
technologies	1124
report	1117
investment	1101
article	1092
create	1089
who	1082
years	1076
foreign	1069
working	1066
modern	1061
when	1060
study	1058
after	1049
many	1045
model	1043
them	1036
representatives	1036
Almaty	1028
)	1026
developed	1018
basis	1009
Nursultan	1008
very	999
A	996
great	995
meeting,	992
capital	990
created	985
increased	982
technology	980
3	979
provides	977
To	976
time,	973
need	973
Nazarbayev	966
measures	959
activities	939
provided	936
service	935
Figure	933
center	930
5	929
complex	923
services	922
management	918
aimed	918
amounted	917
transport	916
plan	916
State	914
gas	912
result	912
formation	908
total	904
trade	901
National	899
further	896
volume	891
today	891
being	886
effective	884
"he	884
creation	875
future	873
per	869
following	864
up	863
area	861
attention	860
industry	858
technical	858
worth	856
For	853
areas	849
industrial	845
accordance	838
exhibition	836
systems	835
economy	833
take	829
form	828
over	827
materials	824
4	823
local	822
place	820
scientific	820
10	817
where	817
set	817
discussed	815
value	814
due	812
company	809
current	808
improve	807
research	805
analysis	804
is,	803
must	802
population	793
develop	792
small	789
temperature	787
provide	785
different	782
last	780
second	779
account	779
end	774
relations	773
=	773
participation	771
processing	766
made	764
government	758
region,	757
experience	755
tenge.	753
since	753
budget	752
global	752
domestic	751
power	751
plant	751
among	750
him,	750
medical	746
region.	745
health	744
participants	744
become	743
regions	739
military	735
growth	731
knowledge	731
potential	730
law	729
-@@	728
event	725
received	721
enterprises	717
solution	715
without	713
three	711
ensure	709
joint	708
natural	704
period	701
possible	701
structure	700
organization	692
environmental	691
We	691
considered	690
importance	690
implemented	689
given	688
presented	688
improving	685
tons	684
general	681
companies	680
composition	680
financial	677
any	672
then	667
country.	662
if	661
do	656
young	655
allocated	655
requirements	653
citizens	651
Development	648
obtained	646
president	645
bilateral	642
policy	640
took	640
life	636
market	636
strengthening	635
agricultural	634
agreement	632
equipment	632
properties	631
tasks	631
application	628
content	627
i	623
types	622
year.	620
processes	619
specific	619
now	617
air	613
computer	612
example,	610
noting	606
group	605
children	604
cultural	602
said	601
Prime	601
innovative	599
expressed	599
100	599
change	598
legal	598
related	597
creating	596
infrastructure	596
changes	596
On	594
school	591
organizations	591
chemical	587
developing	586
Currently,	584
Eurasian	584
political	583
role	582
significant	579
visit	577
issue	576
allow	576
Therefore,	575
security	573
resources	569
signed	568
situation	568
6	567
parties	567
electronic	566
attended	564
active	563
type	562
design	562
problems	561
determined	560
material	559
regard,	557
taking	557
tenge,	556
Angdatpa	556
no	555
bodies	555
activity	551
direction	551
's	549
20	549
together	549
environment	547
heads	547
housing	547
Deputy	546
human	546
determine	543
rate	540
make	539
network	534
funds	531
works	530
surface	529
communication	528
;	528
goal	528
some	526
30	524
:	524
tourism	524
Russian	519
country,	519
exchange	518
facilities	517
values	516
territory	516
learning	516
land	516
specialists	513
capacity	513
nuclear	512
space	511
countries.	511
does	510
professional	506
mathematical	504
higher	503
Economic	501
8	500
interest	498
years,	498
introduction	495
increasing	495
operation	492
Chairman	492
supply	492
programs	491
task	491
located	489
department	488
implement	488
proposed	487
parameters	485
A.	484
several	484
so	484
7	484
republican	483
additional	482
certain	480
objects	477
stage	476
heat	475
institutions	475
next	474
If	474
reduce	474
point	473
chairman	473
,"	473
every	468
good	467
solve	467
indicators	466
anniversary	466
efficiency	466
members	466
Foreign	464
along	464
average	461
purpose	460
open	459
called	459
language	458
compared	458
single	457
technological	457
member	456
cost	454
elements	452
Astana	451
protection	451
mass	450
taken	450
common	449
fuel	448
physical	448
Kazakhstan's	447
Thus,	447
concept	446
able	446
modernization	445
concrete	442
individual	441
opening	441
allows	440
day	440
best	440
road	439
deputy	437
times	435
country's	435
Council	435
Recall	435
district	434
strengthen	433
zone	432
science	430
food	430
practical	427
terms	426
states	426
equation	425
us	425
forum	425
University	425
1,	425
until	425
paid	423
waste	423
general,	422
goods	422
body	422
way	420
work,	418
minister	417
building	417
digital	416
European	416
characteristics	416
teaching	416
raw	415
countries,	414
t	414
built	414
youth	413
stability	412
state,	412
culture	411
labor	411
strategic	411
central	410
means	410
9	410
One	410
document	408
2015	408
events	408
competition	407
connection	407
Affairs	407
documents	405
priority	405
),	404
50	403
When	403
established	402
cities	402
fund	401
Government	401
includes	400
your	400
private	398
free	396
share	396
fully	395
get	394
turn,	393
S@@	393
Head	393
investments	393
how	393
function	393
15	392
Also,	392
currently	390
positive	390
%	389
test	388
holding	388
2017	388
comprehensive	388
Central	387
message	387
capital.	386
society	385
consider	385
leading	385
shows	385
particular,	383
square	382
internal	381
approved	380
independent	380
system,	379
algorithm	379
program,	377
help	377
people,	377
contribute	377
0	377
third	376
beginning	376
initiative	376
flow	375
press	375
receive	374
people.	374
thermal	373
shown	372
own	372
product	371
civil	370
integration	369
plans	369
organized	369
course	369
real	369
ensuring	368
improvement	367
mutual	366
sports	366
2014	366
date,	366
assessment	365
impact	364
2015,	364
included	364
schools	363
sector	362
preparation	362
Today,	362
found	362
began	362
groups	361
access	361
January	361
history	360
sources	360
partnership	360
opportunities	360
5@@	360
Since	358
"On	356
features	356
range	356
problem	355
effect	355
km	355
student	355
before	355
customs	354
noted,	353
2016,	353
plants	353
factors	352
equations	351
models	350
World	349
fact	349
transition	348
personnel	348
named	347
introduced	347
25	347
standards	346
He	346
General	345
opportunity	344
interaction	344
both	344
soil	344
points	343
against	343
software	342
places	342
subject	342
teachers	342
formed	342
Office	341
bank	340
produced	340
distribution	339
2016	339
enterprise	338
possibility	338
conference	338
reached	337
commission	336
largest	336
basic	336
calculation	336
past	336
C	336
draft	335
entrepreneurs	335
."	335
providing	335
12	335
jobs	335
line	334
prospects	334
acquainted	334
6@@	334
include	333
components	333
socio-economic	333
right	333
low	332
adopted	332
director	331
action	331
m	331
products,	331
difficult	330
actively	330
legislation	329
+	329
mobile	328
historical	328
assistance	328
tax	328
side	328
official	328
functions	326
maximum	326
mechanical	326
concentration	326
elections	325
ways	325
a.	325
s	325
achieve	324
South	324
depending	324
transfer	324
employees	323
another	323
k@@	323
relevant	323
studies	322
full	322
meat	321
export	321
consists	320
example	320
creative	320
in@@	319
ability	319
deputies	318
traditional	318
safety	318
got	318
applications	317
personal	317
Nazarbayev.	317
give	317
nature	317
employment	317
solving	316
G@@	315
studied	315
These	315
residents	313
2@@	313
instructions	312
addition	312
spoke	312
B@@	311
treatment	311
length	311
applied	311
needs	310
achievements	310
continue	310
associated	310
monitoring	310
samples	310
education,	309
party	309
K.	309
8@@	308
forces	308
2014,	308
s.	306
solutions	306
visited	306
case	305
pedagogical	305
solar	304
state.	304
dynamic	304
skills	303
decrease	303
prices	303
4@@	303
am	303
K@@	303
electric	302
key	302
what	302
phase	302
units	302
proposals	302
Union	301
direct	301
see	301
And	301
interested	301
list	300
half	300
metal	299
degree	299
five	298
world.	298
11	297
T@@	297
opened	297
3@@	297
However,	296
bill	296
influence	296
engineering	296
this,	296
transportation	296
contribution	295
teacher	295
substances	295
experts	295
object	293
akim	293
became	292
person	292
capital,	292
directions	291
layer	290
goals	290
(Figure	289
rural	289
especially	288
instructed	288
platform	287
By	287
China	287
my	287
Russia	286
decision	286
village	286
parts	286
A@@	286
result,	285
above	285
participate	285
economy,	285
Governor's	284
From	284
s,	284
Assembly	284
cannot	284
know	284
devices	283
primary	283
lot	283
force	282
distance	282
pressure	282
council	282
green	281
corresponding	281
centers	281
International	281
networks	280
operating	280
determining	280
medium-sized	280
Kazakhstani	279
expert	279
reports	278
indicator	278
republic	278
may	277
re@@	277
y@@	277
executive	277
light	276
committee	276
section	276
designed	276
acid	276
depends	276
meet	275
requires	275
effectiveness	275
idea	275
want	274
find	274
whole	274
actions	274
copper	273
increases	273
heating	273
7@@	273
size	273
P@@	273
economy.	273
standard	273
Information	273
election	273
show	272
thanks	272
lead	272
speed	272
sent	272
leadership	272
hold	271
think	271
December	271
M@@	270
would	270
investors	270
leaders	270
existing	270
early	269
legislative	269
movement	269
obtain	268
Security	268
forms	268
rights	267
theory	266
because	266
railway	266
0@@	266
development,	266
Education	266
performance	266
practice	266
work.	266
2020	266
etc.	265
Vice	265
Committee	265
wide	265
care	264
months	264
agreements	263
B.	262
Governor	262
Department	262
launched	262
Internet	262
No.	262
complete	261
successful	261
C@@	260
implementing	259
There	259
approach	258
external	258
independence	258
achieved	258
known	258
OF	258
present	257
D@@	257
principles	257
industry,	257
showed	257
large-scale	256
meetings	256
methodological	255
traffic	255
therefore,	255
costs	254
attract	254
2017,	254
May	254
here	254
meters	254
board	254
high-quality	254
memorandum	254
East	254
years.	253
R@@	253
tourist	253
UN	253
informed	253
June	253
LLP	253
N.	252
defined	252
Within	252
200	252
expected	251
frequency	251
2013	251
university	251
performed	250
near	250
s@@	250
reforms	250
t@@	250
un@@	250
workers	249
program.	248
cooperation,	248
simple	248
With	248
discuss	247
consumption	247
laboratory	247
sustainable	247
office	246
differential	245
put	245
highly	245
financing	245
9@@	245
lower	244
CIS	244
provision	244
build	244
16	244
liquid	243
favorable	243
September	243
confidence	243
demand	243
class	243
mechanism	243
tools	243
discussed.	242
es,	242
strength	242
search	242
step	241
understanding	241
calculations	241
1@@	241
rules	241
cooperation.	241
Table	241
decreased	240
March	240
Parliament	240
statement	240
Director	239
base	239
weight	239
14	239
annual	239
T	239
conduct	239
world,	239
Secretary	239
).	239
solid	238
close	238
H@@	238
radiation	237
structures	237
logistics	237
topical	237
40	237
initial	237
four	237
g@@	237
future,	237
classes	237
entire	236
those	236
People	236
October	236
sectors	235
position	235
met	235
wind	235
upcoming	235
days	235
significantly	235
mining	235
procedure	234
reported	234
selected	234
recent	234
Bank	234
Kazakhstanis	233
pay	233
F@@	233
presence	233
o	233
Majilis	232
thanked	232
L@@	232
linear	232
First	232
scientists	232
had	232
500	231
specialized	231
b@@	231
After	231
strategy	231
universities	231
source	230
10@@	230
d@@	230
coefficient	230
al@@	230
an@@	230
M.	229
technologies,	229
All	229
13	229
development.	229
long	229
widely	229
institution	229
required	229
completed	229
buildings	229
programming	229
Aktobe	228
delegation	228
unit	228
drawing	227
property	227
particular	227
industries	227
assembly	227
always	227
mixture	227
18	226
i@@	226
modeling	226
sphere	226
reduced	226
presidential	225
mainly	225
1)	225
pollution	225
repair	225
p@@	225
reduction	225
Keywords:	224
system.	224
Chinese	224
site	223
electricity	223
o@@	223
registered	223
Following	222
image	222
less	222
N@@	222
ministry	222
code	222
major	222
Institute	221
Asian	221
discussion	221
event,	220
project,	220
n@@	220
competitive	220
es	219
ready	219
grain	219
questions	219
Karaganda	219
emergency	218
tool	218
y	218
begin	218
growing	218
white	217
carbon	217
unique	217
mechanisms	217
theoretical	217
advanced	217
ar@@	216
I@@	216
equal	216
residential	216
ing	215
November	215
secondary	215
generation	214
300	214
cases	214
mineral	214
Russia,	213
conducted	213
[1]	213
station	213
bring	213
factor	213
July	212
k	212
initiatives	212
x	212
Energy	212
2013,	212
dedicated	211
dialogue	211
identified	211
introduce	211
responsibility	211
prepared	210
did	209
optimal	209
available	209
E@@	209
	209
roads	209
products.	208
turnover	208
trade,	207
team	207
a@@	207
leader	206
community	206
much	206
parliament	206
congratulated	205
er	205
divided	205
N	205
steps	204
Ambassador	204
/@@	204
An	204
°	204
medium	204
peace	203
final	203
success	203
Economy	203
involved	203
stable	203
video	203
gave	203
produce	203
levels	203
amendments	202
takes	202
often	202
agriculture	202
coal	202
mode	202
reducing	201
s)	201
map	201
structural	201
behalf	201
characterized	201
planning	201
expand	201
quantitative	200
administrative	200
stages	200
2)	200
bodies,	200
women	200
price	200
$@@	200
already	200
Health	199
b	199
attracting	199
constant	199
age	199
projects.	199
around	199
z@@	199
family	198
hectares	198
views	198
e	198
armed	198
a,	198
production,	197
prevent	197
e@@	197
figure	197
device	197
fields	197
affect	196
case,	196
location	196
agreed	196
component	196
border	196
minimum	196
principle	196
projects,	196
resistance	196
measurement	195
supported	195
K	195
integrated	195
m@@	195
17	195
authorities	195
living	195
element	195
flour	194
all,	194
persons	194
O@@	194
income	193
even	193
table	193
union	193
long-term	193
measuring	192
climate	192
unity	192
topic	192
indicated	192
Of	192
functional	192
ate	192
150	192
Great	192
competitiveness	191
machine	191
April	191
Center	191
at@@	191
progress	191
directly	191
u@@	191
user	191
judicial	191
negative	191
passenger	190
selection	190
thinking	190
come	189
milk	189
limited	189
urban	189
institutional	189
regulatory	189
question	188
studying	188
manufacturing	188
awarded	188
n	188
leads	188
previous	188
approaches	187
chamber	187
responsible	187
text	187
respect	186
non-@@	186
sample	186
expansion	186
changing	186
address	186
representative	186
ties	185
organizations,	185
density	185
They	185
population.	184
view	184
alternative	184
train	184
transit	184
testing	183
Zhambyl	183
evaluation	183
60	183
Science	183
efforts	183
August	183
matrix	183
New	182
astana	182
organic	182
calculated	182
Senate	182
session	182
administration	182
purchase	182
di@@	181
ak@@	181
determination	181
U@@	181
installation	181
industrialization	181
v@@	181
Kyzylorda	180
specified	180
partner	180
renewable	180
drew	179
consumer	179
80	179
city.	179
carry	179
ers	179
regions,	179
name	179
regulation	178
obtaining	178
master	178
families	178
trillion	178
Also	178
Defense	178
registration	177
Pavlodar	177
V@@	177
Over	177
services,	177
start	177
left	177
That	177
enter	176
like	176
combat	176
interests	176
association	176
entities	176
installed	176
energy,	175
path	175
expense	175
makes	175
intellectual	175
Based	174
connected	174
experimental	174
criminal	174
constantly	174
index	174
competence	174
But	173
diagram	173
virtual	173
negotiations	173
decisions	173
e.	173
presents	173
participating	173
Islamic	172
Investment	172
published	172
future.	172
risk	172
[2]	172
similar	172
stressed	172
announced	171
organizing	171
completely	171
veterans	171
organize	171
credit	170
require	170
metals	170
collection	170
deep	170
supporting	170
Almaty,	170
g	170
agro-industrial	170
users	170
ceremony	170
strong	169
distributed	169
education.	169
[3]	169
Social	169
nation	169
ed	168
launch	168
innovation	168
considered.	168
Chamber	168
dynamics	168
agency	168
c@@	168
Mangistau	168
ratio	168
condition	168
regions.	167
laws	167
zones	167
conducting	167
engaged	167
Asia	166
reported.	166
done	166
house	166
1,@@	166
believe	166
establish	166
investigated	166
guests	166
wheat	165
live	165
humanitarian	165
efficient	165
harmful	165
promising	165
defense	165
crisis	164
houses	164
industry.	164
Akmola	164
underway	164
timely	164
B	164
districts	164
appropriate	163
h@@	163
dairy	163
equipped	163
exports	163
consisting	163
database	163
diplomatic	163
partners	163
Research	162
presentation	162
Organization	162
concluded	162
concepts	162
);	162
deposits	162
Public	162
understand	162
r@@	162
s;	162
expanded	162
storage	161
35	161
mm	161
algorithms	161
er@@	161
loans	161
friendly	160
sign	160
hope	160
priorities	160
permanent	160
uranium	160
course,	160
cluster	160
stations	160
productivity	160
ch@@	160
iron	159
online	159
diseases	159
operations	159
accuracy	159
invited	159
paper	158
created.	158
contains	158
February	158
70	158
impetus	158
independence,	157
process,	157
reconstruction	157
expanding	157
19	157
observed	157
lack	157
follows:	157
aspects	157
US	157
signal	157
dependence	157
clearly	156
operator	156
beneficial	156
as@@	156
difference	156
2018	156
big	156
words:	156
on@@	156
clear	156
businesses	156
neural	155
sh@@	155
promote	155
ation,	155
level,	155
steel	155
enforcement	155
cars	155
entrepreneurship	155
im@@	154
media	154
limit	154
allowed	154
species	154
steam	154
2017.	154
f@@	154
culture,	154
city,	154
level.	154
words	154
integral	154
combustion	153
while	153
analytical	153
benefits	153
12@@	153
status	153
sure	153
24	153
technology,	152
M	152
art	152
am@@	152
formula	152
19@@	152
preliminary	152
still	152
s:	152
producers	152
15@@	152
Kazakhstan"	152
consideration	152
it@@	151
remote	151
25th	151
Academy	151
en@@	151
prepare	151
protect	151
reserves	150
2016.	150
de@@	150
?	150
Analysis	150
acts	150
correct	150
output	150
reports.	150
heavy	150
it.	150
indicates	150
successfully	150
decree	150
W@@	150
relationship	150
reliable	149
23	149
towards	149
operational	149
total,	149
transferred	149
D	149
today,	149
conditions,	149
least	148
21	148
religious	148
ing,	148
characteristic	148
reach	148
capabilities	148
go	147
Industry	147
cover	147
E	147
Due	147
considering	147
commercial	147
2015.	147
shall	147
making	147
separate	147
release	147
t.	147
pension	147
speech	147
interactive	146
previously	146
determines	146
covered	146
Such	145
agriculture,	145
areas.	145
mathematics	145
round	145
effectively	145
es.	145
28	145
recognition	145
2012	145
apartments	145
electrical	144
brought	144
famous	144
today's	144
gold	144
monitor	144
forming	144
Culture	144
holiday	144
top	143
agenda	143
Results	143
entered	143
Commission	143
equipment,	143
China,	143
s"	143
ti@@	143
[4]	142
payment	142
economic,	142
markets	142
society,	142
variable	142
readiness	142
court	142
ore	141
geographical	141
signing	141
statistical	141
ground	141
Europe	141
Nazarbayev,	141
Roadmap	141
constitutional	141
settlements	141
everyone	141
p	141
continuous	141
portal	141
27	140
y,	140
sides	140
u	140
say	140
So,	140
(	140
spiritual	140
es@@	140
resource	140
courses	140
useful	140
well-being	139
classification	139
pipeline	139
them,	139
seen	139
ov.	139
deformation	139
foundation	139
3D	139
j@@	139
fight	139
gives	138
Law	138
qualified	138
Then	138
chemistry	138
ions	138
kazakh	138
reform	138
training,	138
2,@@	137
expo	137
Federation	137
mutually	137
finished	137
l@@	137
pilot	137
E.	137
t,	137
Last	137
ac@@	137
L	137
preschool	137
d	137
highest	137
relative	137
vector	137
emphasized	137
JSC	137
tests	137
r	137
load	136
could	136
maintain	136
child	136
examination	136
R.	136
lines	136
quarter	136
five-year	136
optical	135
project.	135
package	135
Cooperation	135
advantages	135
center,	135
st@@	135
x@@	135
fire	135
al	135
compounds	135
services.	135
methodology	135
circuit	135
however,	135
describes	135
technologies.	134
led	134
S.	134
socially	134
a)	134
authors	134
construction,	134
height	134
Fund	134
chain	133
compliance	133
ag@@	133
R	133
layers	133
States	133
18@@	133
ab@@	133
magnetic	133
times,	132
him	132
"100	132
transmission	132
added	132
se@@	132
Mr.	132
effects	132
cargo	132
term	132
adoption	132
ul@@	132
criteria	132
environment,	132
North	132
certification	131
Internal	131
congress	131
400	131
Z@@	131
Board	131
revealed	131
angle	131
or@@	131
market.	131
decided	130
normal	130
book	130
film	130
be@@	130
drilling	130
described	130
worked	130
biological	130
measured	130
candidates	129
f	129
dollars	129
moving	129
perform	129
600	129
combined	129
crops	129
forum,	129
contract	129
organizational	129
institutions,	129
ecological	129
l	129
processed	129
establishment	128
ideas	128
materials,	128
System	128
dollars.	128
departments	128
population,	128
policy,	128
opinion,	128
plays	128
organizations.	128
popular	128
United	128
exhibition,	128
corruption	128
apply	127
22	127
[5]	127
is@@	127
issued	127
Trade	127
district,	127
identification	127
came	127
ad@@	127
associations	127
century	127
place.	127
procedures	127
and,	127
polymer	127
contributes	127
study,	126
sites	126
execution	126
date	126
convenient	126
Agency	126
preservation	126
competitions	126
systems,	126
primarily	126
ov,	126
2,	126
infrastructure,	126
Caspian	126
sections	126
parliamentary	126
e,	126
29	126
intensity	125
harmony	125
wished	125
commissioned	125
graduates	125
despite	125
26	125
ation	125
Kostanay	125
V	125
children's	125
h	125
format	125
upper	125
students,	124
EXPO-2017	124
recognized	124
business,	124
relations,	124
it,	124
month	124
2014.	124
90	124
Re@@	124
2018,	124
charge	124
You	124
rational	124
14@@	124
information,	124
physics	124
hours	123
relations.	123
absorption	123
critical	123
corresponds	123
reporting	123
play	123
German	123
accounting	123
consumers	123
actual	123
memory	123
Because	123
analyzed	122
time.	122
note	122
feature	122
aviation	122
nazarbayev	122
interesting	122
quickly	122
Data	122
raised	122
jobs.	122
plan,	121
friendship	121
themselves	121
turn	121
wave	121
vocational	121
citizen	121
facilities,	121
opinion	121
assets	121
cognitive	121
reference	121
Al@@	121
availability	120
promotion	120
speech,	120
ts	120
issues,	120
told	120
scheme	120
resolution	120
them.	120
Minister,	120
spectrum	120
six	120
Turkish	120
introducing	120
production.	119
day,	119
cloud	119
reason	119
artificial	119
American	119
automated	119
banks	119
river	119
az@@	119
rocks	119
branch	119
ed,	119
word	118
athletes	118
market,	118
parallel	118
caused	118
war	118
uses	118
cement	118
atmosphere	118
geological	118
explained	118
creates	117
reliability	117
thickness	117
si@@	117
universal	117
voltage	117
prevention	117
route	117
(1)	117
server	117
fish	117
meters.	117
focused	117
learn	117
legalization	117
simulation	117
move	117
mission	117
trends	117
color	117
eliminate	117
annually	116
series	116
identify	116
issues.	116
qualitative	116
Conclusion	116
supports	116
look	116
communal	116
parameter	116
containing	116
Introduction	115
know,	115
sound	115
serve	115
center.	115
activities.	115
"The	115
S	115
logical	115
et	115
staff	115
1000	115
having	115
improved	114
slag	114
Note	114
employed	114
possibilities	114
schoolchildren	114
preparing	114
weapons	114
direction,	114
starting	114
30@@	114
G	114
totaling	114
	114
daily	114
core	114
submitted	114
producing	114
remains	113
entry	113
significance	113
activities,	113
16@@	113
added.	113
er,	113
fixed	113
Management	113
volumes	113
pays	113
sensor	113
contact	113
advantage	113
target	113
rich	113
literature	113
languages	113
positions	113
hydrogen	112
enterprises,	112
us@@	112
J@@	112
moment	112
affects	112
tons,	112
reaction	112
spring	112
started	112
exhibition.	112
5%	112
noted.	112
loan	112
museum	112
depth	112
areas,	112
Program	112
reflected	112
balance	112
maintenance	112
society.	112
River	112
petroleum	112
800	112
ov	112
definition	111
scale	111
y.	111
ic	111
occurs	111
million.	111
completion	111
analyze	111
assess	111
soils	111
diameter	111
closely	111
45	111
akims	111
poultry	111
needed	111
silk	111
causes	111
created,	111
companies.	111
man	111
impossible	111
thing	110
relevance	110
17@@	110
us,	110
an,	110
Now	110
exchanged	110
ancient	110
money	110
250	110
3,@@	110
car	110
branches	110
updated	110
silicon	110
flows	110
boiler	109
itself	109
difficulties	109
call	109
front	109
times.	109
inside	109
subjects	109
Plan	109
75	109
w@@	109
dis@@	109
D.	109
exceed	109
coordinate	109
managing	109
(in	109
West	109
context	109
c	109
ic@@	109
X@@	108
innovations	108
transformation	108
competition,	108
signals	108
trained	108
preparations	108
web	108
20@@	108
area.	108
transport,	108
targeted	108
reflects	108
3)	108
risks	108
informatics	108
automatic	108
literacy	108
out.	108
certificate	107
Summary:	107
confirmed	107
1.5	107
co@@	107
data,	107
Otan	107
ar	107
old	107
Regional	107
valuable	107
version	107
fundamental	107
becomes	107
period,	107
communications	106
Y@@	106
computing	106
visit,	106
vehicles	106
science,	106
Kaz@@	106
Service	106
authorized	106
reserve	106
Expo	106
lesson	106
glass	106
sale	106
gratitude	106
intended	106
again	106
household	105
written	105
ethnic	105
service,	105
recently	105
loss	105
13@@	105
theme	105
return	105
proved	105
seminar	105
Among	105
Shymkent	105
shape	105
el@@	105
farms	105
operate	105
IT	105
j	105
d.	104
700	104
disabled	104
[@@	104
pavilion	104
controlled	104
concert	104
post	104
area,	104
meeting.	104
functioning	103
Latin	103
sufficient	103
Western	103
Our	103
kindergartens	103
rule	103
insurance	103
animals	103
depend	103
4,@@	103
billion.	103
audit	103
shared	103
republic.	103
throughout	103
spent	103
farm	103
agencies	103
us.	102
ethnocultural	102
thus,	102
arrived	102
academic	102
summit	102
Business	102
"Nұrly	102
English	102
2020,	102
fourth	102
es)	102
People's	102
P	102
Each	102
traditions	102
ion	102
remain	102
goods,	102
25@@	102
desire	102
1.	102
Thanks	102
implemented.	102
choose	102
00@@	102
travel	102
Using	101
interval	101
micro@@	101
motion	101
whose	101
diffusion	101
ated	101
Asia,	101
everything	101
objective	101
zinc	101
non-governmental	101
business.	101
report,	101
dry	101
schedule	101
systematic	101
companies,	101
coming	101
category	101
powder	101
synthesis	101
review	101
sector,	101
event.	101
Ak@@	101
ap@@	101
1-@@	100
automation	100
50%	100
affairs	100
benefit	100
states,	100
bodies.	100
gross	100
focus	100
architectural	100
rates	100
disciplines	100
More	100
abilities	100
architecture	100
collected	99
resources,	99
import	99
z	99
er.	99
Environmental	99
saving	99
anti-corruption	99
inter-parliamentary	99
Main	99
conclusion	99
extraction	99
fair	99
security,	99
complex,	99
salt	99
short	99
stage,	99
2-@@	99
ting	99
zh@@	99
becoming	99
programs,	98
sets	98
motor	98
deepening	98
institutions.	98
ating	98
port	98
electron	98
eastern	98
states.	98
complexes	98
atmospheric	98
conference,	98
reception	98
celebration	98
Asia.	98
boundary	98
photo	98
translation	98
Supreme	98
subsidies	98
al-@@	98
>	98
website	98
assigned	98
fraction	98
fulfill	98
scheduled	97
Union,	97
oxide	97
measure	97
diesel	97
psychological	97
il@@	97
situation,	97
violations	97
combination	97
talk	97
ts,	97
servants	97
relation	97
mixed	97
Union.	97
save	97
minerals	97
knowledge,	97
e-@@	97
ro@@	97
solved	97
20th	97
livestock	97
objectives	97
assessing	97
receiving	96
32	96
victory	96
zhol	96
conclusion,	96
game	96
won	96
public-private	96
Code	96
peoples	96
X	96
animal	96
categories	96
campaign	96
nursultan	96
speaker	96
(2)	96
atomic	96
entering	96
Protection	96
sea	96
al.	96
humidity	96
detail	96
ed.	96
powers	96
invest	96
safe	96
villages	96
offices	96
Methods	95
metallurgical	95
park	95
dioxide	95
numbers	95
hydraulic	95
others.	95
security.	95
Day	95
rest	95
23@@	95
2010	95
"S@@	95
promoting	95
em@@	95
closed	95
self-@@	95
"-	95
released	95
mountain	95
3,	95
government,	95
regime	95
&	95
nitrogen	95
says.	95
Sports	95
ten	94
Pedagogical	94
percent	94
Belarus	94
devoted	94
aircraft	94
(t)	94
Speaking	94
rapid	94
reactor	94
achieving	94
2.5	94
"Kazakhstan	94
almost	94
description	94
declaration	94
enterprises.	94
patients	94
temperatures	94
deposit	94
sub@@	94
choice	94
channel	94
solemn	93
U	93
Astana,	93
bayev	93
2012,	93
trust	93
rating	93
remaining	93
silver	93
passed	93
policy.	93
ates	93
'	93
water,	93
practice,	93
figures	93
input	93
accepted	93
GOST	93
out,	93
sanitary	93
Technology	93
revenues	92
experience,	92
department,	92
competent	92
absence	92
coordination	92
reaches	92
meets	92
powerful	92
stress	92
optimization	92
transparency	92
changed	92
widespread	92
engineering,	92
ensures	92
Moscow	92
response	92
regarding	92
winter	92
bridge	92
company,	92
payments	92
additions	92
cattle	92
textbooks	92
oxidation	92
Ar@@	92
entrepreneurs,	92
images	92
equality	92
just	91
budget.	91
intend	91
operators	91
hand,	91
migration	91
citizens.	91
What	91
continues	91
here.	91
specialist	91
dust	91
underground	91
conversion	91
H	91
below	91
topics	91
ol@@	91
healthy	91
cycle	91
34	91
practices	91
[7]	90
radio	90
bright	90
heritage	90
better	90
Kyrgyz	90
foundations	90
budget,	90
kindergarten	90
eve	90
Finance	90
spatial	90
t)	90
begun	90
productive	90
challenges	90
ambassador	90
trading	90
cause	90
1%	90
cm	90
facilities.	90
specialties	90
republic,	90
Technical	90
Association	90
mandatory	90
bus	90
[6]	90
n.	90
intensive	90
congratulate	90
winners	90
authority	90
Key	90
police	90
gases	90
phenomena	90
composite	90
place,	90
century,	89
ing.	89
noise	89
complexity	89
protocol	89
O	89
bi@@	89
resulting	89
language,	89
rehabilitation	89
36	89
LLP,	89
developed.	89
Oil	89
affecting	89
Patriotic	89
plant,	89
tourists	89
doctors	88
situations	88
Belarus,	88
detection	88
forecast	88
shell	88
laid	88
health,	88
author	88
emissions	88
teams	88
orientation	88
exercises	88
criterion	88
probability	88
far	88
en	88
ation)	88
protecting	88
facility	88
grade	88
!	88
tariff	88
examined	88
regular	88
3-@@	88
children,	87
substance	87
to@@	87
ge@@	87
that,	87
honor	87
ai@@	87
Kazakhstan-2050	87
ans	87
zhol"	87
lending	87
environmentally	87
care,	87
stored	87
Agriculture	87
module	87
space,	87
3%	87
collective	87
estimated	87
extreme	87
express	87
grown	87
pressing	87
Chemical	87
Control	87
s-@@	87
robotics	86
terminal	86
te@@	86
decomposition	86
maintaining	86
preserve	86
ur@@	86
voiced	86
machines	86
experts,	86
delivery	86
trend	86
apparatus	86
ISO	86
Natural	86
usually	86
prize	86
law,	86
akimat	86
almaty	86
sequence	85
enough	85
War	85
rotation	85
cells	85
recommendations	85
middle	85
bo@@	85
produces	85
ation.	85
sugar	85
Uzbekistan	85
instruments	85
curve	85
southern	85
phenomenon	85
sulfur	85
Kyrgyzstan	85
teach	85
EAEU	85
privatization	85
threat	85
end,	85
spheres	85
spread	85
appreciated	85
sector.	85
Another	85
(the	85
infrastructure.	85
al,	85
multilateral	85
held.	85
coordinates	84
conversation,	84
es"	84
sales	84
link	84
provisions	84
savings	84
survey	84
bek	84
expression	84
vice	84
geometric	84
conductivity	84
gradually	84
red	84
individuals	84
IR	84
homogeneous	84
Nur@@	84
secondly,	84
commodity	84
children.	84
inter@@	84
(for	84
barriers	84
Prosecutor	84
kg	84
akimats	84
characterizing	84
article,	84
33	84
error	84
om@@	83
melting	83
furnace	83
equipment.	83
Almaty.	83
clean	83
explain	83
unified	83
Despite	83
Sh@@	83
wells	83
5,	83
contracts	83
measures,	83
2013.	83
direction.	83
31	83
entrepreneurial	83
on,	83
achievement	83
cleaning	83
territorial	83
Z	83
institute	83
jobs,	83
prosperity	83
recommended	83
days,	83
ratification	83
procurement	83
destruction	83
funds,	82
abroad	82
me	82
Vladimir	82
reflecting	82
pulse	82
headed	82
cell	82
smart	82
define	82
plenary	82
coverage	82
Given	82
calculate	82
inspection	82
reverse	82
nodes	82
considers	82
doing	82
fertilizers	82
modernize	82
visual	82
schools,	82
Kyrgyzstan,	82
1.@@	82
rare	82
begins	82
defines	82
exceeded	82
terrorism	82
western	82
plastic	81
native	81
resolved	81
55	81
method,	81
Mayor	81
once	81
30%	81
appearance	81
Entrepreneurs	81
non-permanent	81
finance	81
covers	81
disabilities	81
vegetable	81
citizens,	81
settlement	81
outside	81
management,	81
greenhouse	81
intelligent	81
company's	81
life,	81
Under	81
elected	81
Expo-2017	81
younger	81
es;	81
process.	81
alloy	81
minister,	81
exploration	81
aluminum	80
investment,	80
corporate	80
sold	80
concluded.	80
Germany	80
hub	80
qualifications	80
spectra	80
coefficients	80
grew	80
2019	80
neighboring	80
intergovernmental	80
consequences	80
proposal	80
ak	80
used,	80
y"	80
In@@	80
profile	80
in,	80
Turkestan	80
5-@@	80
ke@@	80
kaz@@	80
act	80
delivered	80
service.	80
Special	80
establishing	80
phosphorus	80
6,	80
follows	80
Germany,	80
Q@@	79
programme	79
tourism,	79
70th	79
patriotic	79
sensitive	79
alphabet	79
sensors	79
wish	79
ova	79
bayev,	79
directed	79
regard	79
diagnostic	79
went	79
a.@@	79
home	79
Askar	79
th@@	79
2011	79
send	79
page	79
mixtures	79
observers	79
meter	79
calculating	79
raising	79
invested	79
experiment	79
le@@	79
de	79
comparison	79
involvement	79
polling	79
constructive	79
norms	78
bitumen	78
ranks	78
Forum	78
.@@	78
festive	78
discussed,	78
summer	78
pass	78
festival	78
activity,	78
love	78
(C@@	78
4)	78
united	78
portfolio	78
horizontal	78
methods,	78
voice	78
library	78
performing	78
propagation	78
plasma	78
man@@	78
pipelines	78
competencies	78
obligations	78
newly	78
subsoil	78
invitation	78
envisaged	78
currency	78
channels	78
s,"	78
Office,	78
represented	78
thematic	77
reduces	77
firstly,	77
scientists,	77
programs.	77
Turkey	77
2%	77
industries,	77
spectral	77
energy.	77
ine	77
few	77
rivers	77
protein	77
ongoing	77
passing	77
forward	77
check	77
offers	77
completed.	77
research,	77
instead	77
attracted	77
cent	77
day.	77
signs	77
od@@	77
dimensions	77
Soviet	77
imports	77
subsequent	77
Iranian	77
rental	77
recorded	77
evaluate	76
china	76
graph	76
V.	76
placed	76
methane	76
preventive	76
Training	76
Forces	76
original	76
hot	76
44	76
reflect	76
4,	76
duration	76
games	76
sk@@	76
fiber	76
urgent	76
offer	76
es:	76
group,	76
double	76
period.	76
peaceful	76
routes	76
variety	76
F	76
fifth	76
Czech	76
processes,	76
uniform	76
Technologies	76
room	76
Ch@@	75
""	75
physicochemical	75
Shu	75
yl@@	75
2.	75
district.	75
names	75
II	75
clinical	75
weak	75
th	75
fruitful	75
sources,	75
resolve	75
blood	75
jointly	75
judges	75
ay@@	75
experiments	75
47	75
tons.	75
10%	75
face	75
well-known	75
stimulate	75
no@@	75
20%	75
mortality	75
upon	75
removed	75
birth	75
ter@@	75
Transport	75
accumulation	75
LLP.	75
particles	75
ec@@	75
accumulated	74
allocate	74
48	74
combining	74
EU	74
b.	74
About	74
healthcare	74
Web	74
t-@@	74
hospital	74
investors.	74
impurities	74
b)	74
180	74
restoration	74
measurements	74
handed	74
multimedia	74
raise	74
percentage	74
velocity	74
oxygen	74
supplied	74
therefore	74
IN	74
specially	74
organizers	74
s),	74
arising	74
contain	74
supply,	74
d,	74
aim	74
42	74
thus	74
manufacturers	73
Turkey,	73
(S@@	73
latest	73
sphere.	73
independently	73
positively	73
appointed	73
ers,	73
airport	73
circle	73
commissioning	73
training.	73
Plant	73
bread	73
examples	73
pre-@@	73
monument	73
ted	73
Constitution	73
computers	73
select	73
cutting	73
single-industry	73
appointment	73
filter	73
<	73
contributed	73
1st	73
cubic	73
Today	73
ation;	73
occupies	73
estimate	73
65	73
ova.	73
sky	72
documentation	72
familiarized	72
900	72
bringing	72
tariffs	72
a-@@	72
Most	72
demonstrate	72
tested	72
stone	72
reasons	72
letter	72
satellite	72
biogas	72
thousands	72
monthly	72
Nұr	72
cases,	72
sodium	72
seven	72
wear	72
24@@	72
regardless	72
bio@@	72
trip	72
concentrations	72
intends	72
accession	71
corporation	71
intensify	71
job	71
21st	71
stop	71
today.	71
financed	71
Er@@	71
sand	71
graphics	71
complex.	71
answer	71
flights	71
Astana.	71
Japanese	71
high-tech	71
amounts	71
120	71
Olympic	71
student's	71
Tajikistan	71
nonlinear	71
competition.	71
funds.	71
belt	71
identity	71
department.	71
award	71
ali@@	71
ai	71
students'	71
ology	71
Let's	71
her	71
k,	70
goal,	70
Ukraine	70
multi-@@	70
appeared	70
Construction	70
Affairs,	70
ice	70
electoral	70
Russia.	70
drinking	70
pace	70
variables	70
week	70
ator	70
Quality	70
block	70
op@@	70
elimination	70
qualification	70
8%	70
freight	70
id@@	70
entrepreneurs.	70
systemic	70
visitors	70
chief	70
um	70
printing	70
links	69
turbine	69
Nұrly	69
surfaces	69
container	69
reflection	69
moral	69
these,	69
irrigation	69
grants	69
acids	69
6%	69
ministries	69
world's	69
down	69
served	69
ri@@	69
south	69
modes	69
100%	69
tasks,	69
approval	69
affected	69
generated	69
periodic	69
months,	69
filling	69
[8]	69
asphalt	69
former	69
T.	69
):	69
Semipalatinsk	69
French	69
um@@	69
suitable	69
via	69
colleagues	69
lands	69
combating	69
moisture	69
construction.	69
grow	69
kar@@	69
memoranda	69
zero	69
Industrial	69
Mathematical	68
Its	68
trains	68
ob@@	68
governor	68
feed	68
axis	68
typical	68
graphic	68
dynamically	68
model,	68
MW	68
recalled	68
4.	68
northern	68
events.	68
a"	68
Many	68
threats	68
Application	68
drug	68
hectares.	68
specialists.	68
bayev.	68
eurasian	68
independence.	68
Kazagro	68
guarantee	68
membership	68
Communications	68
record	68
career	68
crop	68
seminars	68
Recall,	68
overall	68
adaptation	68
X-ray	68
7,	68
waiting	68
manufacture	68
centers,	68
semantic	68
(hereinafter	68
drive	68
club	68
recovery	68
correctly	68
partnership,	68
marketing	67
equilibrium	67
7%	67
russia	67
recreation	67
ing@@	67
nickel	67
regulating	67
me@@	67
den@@	67
teachers,	67
Issues	67
Armed	67
au@@	67
Turkic	67
clay	67
exceeds	67
Development,	67
initiated	67
Kar@@	67
sown	67
cooperate	67
par@@	67
returned	67
statistics	67
cooling	67
growth,	67
serious	67
forced	67
20,	67
scope	67
Strategy	67
(P@@	67
Method	67
ir@@	67
mar@@	67
occupational	67
realization	67
Representatives	67
doctor	67
Production	66
explained.	66
manufactured	66
sectoral	66
Saudi	66
connecting	66
praised	66
arise	66
discussing	66
spheres.	66
skin	66
lives	66
request	66
v	66
events,	66
theater	66
fine	66
peculiarities	66
errors	66
action,	66
covering	66
Congress	66
damage	66
landscape	66
2009	66
display	66
opens	66
window	66
Zh@@	66
continued	66
un	66
troops	66
receives	66
shortage	66
Embassy	66
retail	66
register	66
iz@@	66
thin	66
try	66
hydrocarbons	66
medicine	66
inspections	66
con@@	66
wall	66
agenda.	66
consciousness	66
Green	65
ite	65
earlier	65
guarantees	65
Computer	65
issue.	65
Model	65
abroad.	65
4%	65
agreement,	65
radius	65
Y	65
steppe	65
pH	65
ations	65
tu@@	65
prime	65
How	65
factory	65
expo-2017	65
Work	65
indicate	65
8,	65
52	65
drawn	65
ten@@	65
Sea	65
others	65
viscosity	65
presented.	65
purchased	65
"Business	65
taxes	65
farmers	65
organization,	65
community.	65
qualities	65
fund,	65
4-@@	65
groundwater	65
grid	64
submit	64
Korea	64
students.	64
low-income	64
problematic	64
garden	64
Road	64
filled	64
gasoline	64
helps	64
developed,	64
amplitude	64
describe	64
2019,	64
der	64
y-@@	64
minutes	64
so@@	64
centers.	64
]	64
courts	64
east	64
books	64
ing)	64
people's	64
72	64
diplomat	64
profession	64
industries.	64
modified	64
excellent	64
41	64
interethnic	64
stock	64
yet	64
familiarize	64
pl@@	64
effort	64
chaired	64
experienced	64
38	64
senior	64
celebrate	64
lessons	64
government.	64
THE	64
emergence	64
apartment	64
salts	64
life.	64
beautiful	64
2nd	64
panel	64
Compared	63
command	63
investor	63
ber@@	63
width	63
tr@@	63
pro@@	63
oriented	63
in.	63
carrying	63
Learning	63
participated	63
connect	63
compiled	63
analyzing	63
Iran	63
kilometers	63
fall	63
Taking	63
specialty	63
3.5	63
ex@@	63
25%	63
immediately	63
Civil	63
plane	63
baev	63
ores	63
	63
elections.	63
temporary	63
inequality	63
refining	63
requirement	63
detailed	63
Tokayev	63
00	63
59	62
talented	62
France	62
continuation	62
Professor	62
era	62
separation	62
et@@	62
talks	62
violation	62
scientist	62
Europe,	62
analysis,	62
vi@@	62
demonstrated	62
capable	62
constitution	62
hectares,	62
workshop	62
fruits	62
MS	62
turned	62
relationships	62
colleges	62
sludge	62
refers	62
Here	62
plant.	62
accurate	62
transported	62
protected	62
hi@@	62
su@@	62
sagintayev	62
employee	62
350	62
s."	62
implemented,	62
3rd	62
wastewater	62
37	62
hydrocarbon	62
grades	62
hydro@@	62
easily	62
really	62
alloys	62
blue	61
heart	61
largely	61
"Nұr	61
li@@	61
manager	61
Administration	61
53	61
born	61
guaranteed	61
10,	61
Modern	61
recreational	61
speaking	61
compression	61
Council.	61
walls	61
pollutants	61
sports.	61
intermediate	61
attraction	61
unemployed	61
vertical	61
interstate	61
Water	61
6-@@	61
defining	61
C,	61
imported	61
attitude	61
sports,	61
articles	61
0.@@	61
hygienic	61
node	61
2011,	61
metrological	61
greater	61
visa	61
2018.	61
space.	61
Tourism	61
Nazarbayev's	60
generalized	60
dollars,	60
Con@@	60
Abay	60
results,	60
Some	60
advisory	60
bas@@	60
Kazakhstan:	60
y)	60
rice	60
interregional	60
president,	60
ment,	60
parliament,	60
hardware	60
exported	60
choosing	60
Housing	60
ago	60
ball	60
climatic	60
tion,	60
zone,	60
sulfuric	60
duty	60
parents	60
conversation	60
monuments	60
medicines	60
vibration	60
electromagnetic	60
Basic	60
bank,	60
ties,	60
insulation	60
6%,	60
chairmanship	60
Study	60
losses	60
outlined	60
army	60
century.	60
k.	60
differences	60
waves	60
investors,	60
partnership.	60
evidence	60
black	60
specifics	60
43	60
operation,	60
t"	60
comes	60
drugs	59
geography	59
optimize	59
China.	59
interface	59
headquarters	59
metropolitan	59
ren@@	59
supervision	59
ant	59
Baiterek	59
9%	59
State,	59
allowing	59
issuing	59
dual	59
lin@@	59
conditions.	59
reforms,	59
vegetables	59
2050	59
certificates	59
works,	59
hundred	59
fi@@	59
genetic	59
towns	59
Article	59
additives	59
officers	59
ecology	59
preserving	59
and@@	59
ra@@	59
applying	59
expect	59
maslikhats	59
ts.	59
extremism	59
purposes	59
exposure	59
anthropogenic	59
(T@@	59
treated	59
organization.	59
employers	59
mastering	59
gas,	59
experience.	59
ne@@	59
ministry,	59
rubber	58
modular	58
basics	58
addressed	58
nur@@	58
stability,	58
ers.	58
meters,	58
problems,	58
Use	58
ash@@	58
adopt	58
decreases	58
sp@@	58
i.e.	58
accessibility	58
asked	58
symbol	58
pasta	58
56	58
age,	58
2020.	58
-based	58
conceptual	58
contamination	58
2020"	58
himself	58
standards.	58
accelerate	58
streets	58
ev	58
ari@@	58
plan.	58
television	58
language.	58
Belarusian	58
file	58
consist	58
why	58
-1	58
political,	58
documents,	58
researchers	58
easy	58
generator	58
tri@@	58
ago,	58
estate	58
m,	58
o,	58
prove	58
regulations	58
e)	58
diversification	58
loads	58
audio	58
heated	57
managers	57
eternal	57
Japan	57
facilitate	57
meaning	57
ed@@	57
artists	57
AND	57
Uzbek	57
draw	57
informatization	57
pleased	57
Baikonur	57
ent	57
coating	57
bar@@	57
"on	57
support.	57
environment.	57
matter	57
oil,	57
offered	57
70%	57
professor	57
develops	57
95	57
specialists,	57
symbols	57
ton	57
defects	57
ization	57
message,	57
implements	57
static	57
molecular	57
read	57
Agreement	57
Capital	57
tic	57
sphere,	57
leave	57
held,	57
Mayor's	57
General's	57
integrity	57
Scientific	57
mine	57
seats	57
2000	57
particularly	57
calcium	57
cold	57
Ab@@	56
ation"	56
Korean	56
dy@@	56
pharmaceutical	56
words,	56
quite	56
~	56
increased.	56
pattern	56
connections	56
ta@@	56
looking	56
passengers	56
poor	56
disease	56
rail	56
store	56
occur	56
patterns	56
clinic	56
Museum	56
(Table	56
mo@@	56
64	56
29@@	56
68	56
accounts	56
27@@	56
extended	56
macroeconomic	56
limits	56
engine	56
nomination	56
proposes	56
s).	56
continuity	56
finding	56
dangerous	56
Polish	56
pages	56
body,	56
studies,	56
Uzbekistan,	56
unknown	56
cash	56
tour	56
banking	56
replacement	56
Their	56
ations,	56
inflation	56
classified	56
stabilization	56
Karaganda,	56
keys	56
mean	56
ds	56
computational	56
pump	56
smooth	56
involves	55
managed	55
3.@@	55
culture.	55
paying	55
feedback	55
tables	55
contacts	55
robot	55
rescue	55
Atameken	55
here,	55
considered,	55
"says	55
46	55
capital's	55
ina	55
law.	55
Digital	55
expenses	55
85	55
Council,	55
ity,	55
Sergey	55
ash	55
Here,	55
29,	55
heard	55
ring	55
floor	55
coordinating	55
which,	55
High	55
classical	55
touched	55
Arab	55
everyday	55
history,	55
Justice	55
visits	55
Reconstruction	55
recording	55
5,@@	55
chosen	55
outpatient	55
honorary	55
changes,	55
ek@@	55
Atyrau	55
multiple	55
39	55
installations	55
patient	55
accelerated	55
essence	55
26@@	55
Innovative	55
ha@@	55
acoustic	55
potential,	54
back	54
huge	54
comparative	54
instability	54
geometry	54
discipline	54
low-@@	54
reactions	54
on.	54
applicants	54
write	54
spacecraft	54
Policy	54
ma@@	54
flight	54
e"	54
Federation,	54
school,	54
6.@@	54
flat	54
purification	54
attacks	54
conflict	54
way,	54
activation	54
Only	54
hand	54
Microsoft	54
fund.	54
",	54
pieces	54
formula:	54
evaluated	54
corridor	54
microorganisms	54
missions	54
warm	54
universities,	54
navigation	54
combine	54
systems.	54
personality	54
ing;	54
peasant	54
58	54
ordinary	54
9,@@	54
men	54
nature,	54
forest	54
60@@	54
over@@	54
theorem	54
estimates	54
circles	54
brand	54
land,	54
hard	54
Commissioner	54
beam	54
57	54
approved.	54
ang@@	54
north	54
ministers	54
als	54
simplify	54
30,	54
05	54
update	54
5)	54
extensive	54
140	54
freedom	54
Kazakhstanis.	53
teacher,	53
aged	53
0,	53
3.	53
requirements.	53
deviation	53
men@@	53
music	53
(5@@	53
entrepreneur	53
relief	53
prosecutor's	53
[9]	53
flexibility	53
concern	53
Afghanistan	53
Republican	53
80%	53
carefully	53
University,	53
side,	53
cybersecurity	53
car@@	53
%)	53
reservoir	53
Election	53
Corporation	53
support,	53
commissioned.	53
elastic	53
orders	53
intersection	53
lighting	53
facing	53
consultations	53
supreme	53
forum.	53
disposal	53
twice	53
ally	53
crime	53
0,47	53
63	53
updating	53
funding	53
high-level	53
elections,	53
gained	53
differ	53
accidents	53
(D@@	53
duties	53
groups.	53
67	53
switch	53
acting	53
contaminated	53
la@@	53
Determination	53
acceleration	53
grant	53
Studies	53
host	53
justice	53
majilis	53
yr@@	53
workers,	53
thank	53
concentrated	53
visiting	53
illegal	53
poly@@	53
Air	53
separately	53
activity.	53
reading	52
boundaries	52
groups,	52
join	52
titanium	52
order,	52
(4@@	52
formulas	52
secretary	52
relatively	52
measures.	52
removal	52
non-proliferation	52
nominal	52
()	52
ov@@	52
decision-making	52
kazakhstani	52
wage	52
replaced	52
(M@@	52
present,	52
RK	52
Shanghai	52
bekov	52
biology	52
y."	52
microcredit	52
items	52
housing,	52
investigation	52
goes	52
personnel,	52
proportion	52
15%	52
field,	52
comfortable	52
(7@@	52
conditional	52
disk	52
residual	52
geodetic	52
(1@@	52
Consider	52
/	52
66	52
Design	52
growth.	52
JSC,	52
whether	52
mon@@	52
voting	52
dispersion	52
Minister.	52
predict	52
Li@@	52
angular	52
files	52
row	52
unite	52
commission,	52
instruct	52
commissions	52
classes,	52
entrepreneurship,	52
ity.	52
contained	52
Labor	52
accordingly,	52
company.	51
dependent	51
yn@@	51
figures,	51
adapt	51
2010,	51
triangle	51
unemployment	51
ph@@	51
Where	51
areas:	51
amending	51
audience	51
simultaneously	51
Italian	51
encryption	51
al)	51
correspond	51
Power	51
transnational	51
Hungarian	51
40@@	51
73	51
78	51
waters	51
values,	51
enrichment	51
simplified	51
standards,	51
ly@@	51
earth	51
(from	51
deepen	51
problems.	51
checked	51
used.	51
Altai	51
col@@	51
strict	51
attractive	51
businesses.	51
Armenia,	51
pe@@	51
smelting	51
du@@	51
databases	51
negotiations,	51
y:	51
ones	51
kh@@	51
University.	51
disabilities.	51
party,	51
letters	51
graduate	51
delegates	51
74	51
I.	51
emphasized.	50
phases	50
51	50
passes	50
Taraz	50
compulsory	50
multinational	50
worthy	50
community,	50
negatively	50
[10]	50
academy	50
strengthened	50
mixing	50
4.5	50
vegetation	50
says	50
acquired	50
signed.	50
confident	50
tal@@	50
go@@	50
Calculation	50
ological	50
po@@	50
comply	50
ons	50
Including	50
49	50
fast	50
Earth	50
currently,	50
sharp	50
structures,	50
roads,	50
fluctuations	50
ev.	50
overhaul	50
Azerbaijan,	50
run	50
realize	50
this.	50
penetration	50
wavelength	50
ment	50
folk	50
residue	50
50@@	50
60%	50
7%,	50
operates	50
anti-crisis	50
distinguished	50
owners	50
laser	50
enriched	50
built.	50
Akhmetov	50
wool	50
Amending	50
opera	50
62	50
answers	50
weather	50
France,	50
restore	50
later	50
os@@	50
housing.	50
induction	50
modules	49
Extraordinary	49
Kazakhstan,"	49
comparing	49
frame	49
Kazakhstan."	49
15,	49
lies	49
kind	49
talking	49
8.@@	49
enterprise.	49
sum	49
options	49
pure	49
propose	49
band	49
do@@	49
council,	49
feel	49
wastes	49
coordinated	49
ter	49
president's	49
rock	49
90%	49
realized	49
Treaty	49
1.3	49
accredited	49
160	49
o-@@	49
Infrastructure	49
publication	49
obstacles	49
breeding	49
2008	49
Convention	49
platforms	49
ia	49
servicemen	49
British	49
oc@@	49
participants.	49
(a)	49
abroad,	49
re-@@	49
ym@@	49
Azerbaijan	49
nm	49
contest	49
masters	49
involve	49
agriculture.	49
2.@@	49
keep	49
drying	49
1.6	49
An@@	49
alcohol	49
sometimes	49
situation.	49
street	49
entrepreneurship.	49
@@	49
tur@@	49
mayor	49
charity	49
conservation	49
joint-stock	48
Diagram	48
revenue	48
akh@@	48
subsidiary	48
y,"	48
Silk	48
off	48
policies	48
stimulating	48
materials.	48
discharge	48
economically	48
_	48
intelligence	48
White	48
driving	48
ish@@	48
occurred	48
yeast	48
550th	48
est	48
occurrence	48
talks,	48
issue,	48
stationary	48
0-@@	48
crimes	48
algebraic	48
professionals	48
ova,	48
mastered	48
humanity	48
min@@	48
8,@@	48
recognize	48
1%.	48
participant	48
acceptance	48
convention	48
an.	48
officials	48
transmitted	48
burning	48
calculations,	48
10-@@	48
Tur@@	48
care.	48
terrorist	48
track	48
2.7	48
failure	48
Modernization	48
attractiveness	48
markets.	48
Se@@	48
Tajikistan,	48
bills	48
microscope	48
reinforced	48
Order	48
veterinary	48
fill	47
joining	47
season	47
Singapore	47
tolerance	47
110	47
")	47
Depending	47
comprehensively	47
identifying	47
ensured	47
ed:	47
(2@@	47
manage	47
Physical	47
irrigated	47
group.	47
attack	47
she	47
auxiliary	47
Kazakh-@@	47
structure,	47
days.	47
res@@	47
Mar@@	47
replace	47
things	47
fulfilling	47
diversity	47
little	47
are:	47
sincerely	47
wholesale	47
fibers	47
Budget	47
[12]	47
schools.	47
logic	47
suggests	47
systematically	47
ic,	47
faced	47
25,	47
54	47
actually	47
businessmen	47
applications,	47
neutron	47
happy	47
debt	47
paragraph	47
adapted	47
2012.	47
36@@	47
codes	47
discusses	47
mobility	47
for@@	47
venture	47
De@@	47
76	47
bottom	47
Speaker	47
Mamin.	47
lake	47
artistic	47
5.	47
ies	47
belongs	47
lo@@	47
L.	47
man-made	47
belong	47
monetary	47
Participants	47
consent	47
Federal	47
aqueous	47
provided,	47
future"	47
Financial	47
yield	47
equivalent	47
celebrated	47
determined.	47
sal@@	47
messages	47
"one	47
fate	46
military-technical	46
ties.	46
200@@	46
didactic	46
non-ferrous	46
flexible	46
said,	46
kha	46
functionality	46
crisis.	46
electro@@	46
28@@	46
displacement	46
proper	46
peacekeeping	46
EXPO-2017.	46
plants,	46
labour	46
formations	46
implementation.	46
5.@@	46
mentioned	46
'@@	46
4.@@	46
ation:	46
goods.	46
enterprise,	46
eggs	46
gradual	46
UNESCO	46
Un@@	46
12,	46
seismic	46
1%,	46
glad	46
Company	46
laboratories	46
proud	46
wire	46
loading	46
1.2	46
graphs	46
Pro@@	46
Students	46
conclusions	46
J.	46
centralized	46
p.	46
part.	46
Ad@@	46
";	46
detected	46
true	46
parking	46
6%.	46
Kazakhstanis,	46
shells	46
partnerships	46
Human	46
observe	46
governments	46
importance.	46
secretariat	46
optimizing	46
tor@@	46
trans@@	46
remove	46
levels.	46
130	46
soon	46
flux	46
rooms	46
79	46
across	46
compare	46
instrument	45
ok@@	45
Plenipotentiary	45
Second	45
sulfide	45
circulation	45
placement	45
table,	45
8%,	45
desert	45
"concluded	45
score	45
programmes	45
Bek@@	45
ach@@	45
applies	45
cylindrical	45
control,	45
Abdykalikova	45
future."	45
el	45
2005	45
entertainment	45
basin	45
burden	45
associations,	45
ors	45
87	45
energy-saving	45
ators	45
asia	45
document,	45
C)	45
success.	45
generally	45
declared	45
three-dimensional	45
preventing	45
intention	45
incoming	45
ko	45
women's	45
ent@@	45
let	45
Nation	45
he@@	45
businesses,	45
insky	45
college	45
9,	45
vehicle	45
delegations	45
answered	45
restrictions	45
±	45
soldiers	45
ing"	45
av@@	45
disadvantages	45
victims	45
adjacent	45
conclude	45
accept	45
isolated	45
Support	45
sense	45
discussion,	45
lost	45
system;	45
As@@	45
chromium	45
nation.	45
XXI	45
summing	45
WTO	45
lecture	45
posts	45
97	45
provided.	45
passage	45
tin@@	45
segments	45
Supplementing	45
decline	45
exhibitions	45
slightly	45
Engineering	45
closer	45
ys@@	45
steps"	45
toxic	45
(R@@	45
archaeological	45
bacteria	45
5%.	45
af@@	45
intervals	45
Japan,	45
excess	44
screen	44
accompanied	44
o.	44
observer	44
stand	44
Alexander	44
digitalization	44
vacuum	44
Legislative	44
Acts	44
oscillations	44
creativity	44
Europe.	44
characterizes	44
km,	44
polymers	44
requirements,	44
ni@@	44
vulnerable	44
phone	44
–	44
Karim	44
baeva	44
appeal	44
democratic	44
ty@@	44
forces,	44
logistics,	44
going	44
Akhmetzhan	44
electrons	44
setting	44
investment.	44
lectures	44
km.	44
verification	44
representation	44
absolute	44
cm-1	44
safety,	44
territories	44
important,	44
developments	44
officially	44
Process	44
title	44
economies	44
rise	44
affordable	44
thousand.	44
majority	44
falls	44
fell	44
bay	44
11,	44
regression	44
7.@@	44
S)	44
supplies	44
sufficiently	44
35@@	44
-2	44
regulate	44
bu@@	44
sensitivity	44
religion	44
column	44
African	44
automatically	44
shortcomings	44
Global	44
@@	44
selecting	44
transform	44
designing	44
autonomous	44
City	44
(6@@	44
lifting	44
hydrolysis	44
clinics	44
catalyst	44
bed	44
ba@@	44
metric	44
Aktobe,	44
Games	44
sending	44
pre@@	44
matte	44
membrane	44
ites	44
all@@	44
basis,	44
veteran	44
loc@@	44
part,	44
occupy	44
School	44
network,	44
marks	44
networks,	44
7,@@	44
ted,	44
whole.	44
fulfilled	44
involving	44
Massimov	44
except	44
motivation	43
unification	43
pipes	43
carriers	43
played	43
news	43
gu@@	43
expensive	43
gen@@	43
weapons,	43
1.7	43
land.	43
қ@@	43
buses	43
sizes	43
design,	43
quality,	43
ste@@	43
ev,	43
e:	43
adopted.	43
2%,	43
overcome	43
ik@@	43
continuing	43
sowing	43
filtration	43
biometric	43
administration,	43
4th	43
resources.	43
results.	43
processing,	43
W	43
0,@@	43
Until	43
FOR	43
Turkmenistan	43
harm	43
rose	43
completed,	43
metallurgy	43
evaluating	43
norm	43
root	43
diagnosis	43
thoughts	43
opinions	43
collect	43
ous	43
material,	43
hour	43
division	43
Me@@	43
nanoparticles	43
person,	43
forget	43
chloride	43
traditions,	43
eliminating	43
11@@	43
5%,	43
never	43
a,"	43
commission.	43
10.@@	43
tasks.	43
ve@@	43
tan@@	43
ON	43
y;	43
multidisciplinary	43
legislation,	43
qualitatively	43
option	43
remained	43
bases	43
Ukrainian	43
ks	43
workers.	43
goals,	43
hall	43
salary	43
plot	43
up@@	43
stated	43
Korea,	43
medal	43
flood	43
pair	43
modernizing	43
parliamentarians	43
ate,	43
launched.	43
mental	43
out@@	43
emerging	43
Executive	43
resort	43
rights,	43
cities,	43
Holding	43
Recently,	43
reforms.	43
devices,	42
ity	42
appreciate	42
speak	42
(3)	42
Let	42
avoid	42
medals	42
С	42
parliament.	42
Medical	42
planned.	42
96	42
authoritative	42
terrorism,	42
Bi@@	42
decisive	42
repeated	42
69	42
schemes	42
82	42
respectively	42
cut	42
Alatau	42
thinking,	42
84	42
aims	42
Two	42
highway	42
First,	42
IN@@	42
cadmium	42
danger	42
6,@@	42
indicators,	42
Sar@@	42
deviations	42
trying	42
countering	42
40%	42
briefing	42
vast	42
petrochemical	42
ticket	42
Di@@	42
successes	42
Gas	42
plan@@	42
opened.	42
sciences	42
Youth	42
pavilions	42
university,	42
ts@@	42
uncertainty	42
EXPO-2017,	42
inter-ethnic	42
king	42
hazardous	42
unity,	42
compensation	42
tools,	42
skills,	42
saturated	42
bit	42
harvesting	42
0,52	42
Lake	42
0,49	42
rector	42
voters	42
sessions	42
attached	42
Test	42
radi@@	42
standardization	42
committee,	42
spirit	42
fractions	42
belonging	42
prices,	42
January-September	42
tree	42
value,	42
26,	42
wing	42
le	42
N.A.	42
CO@@	42
37@@	42
preferential	42
loop	42
nutrition	41
:@@	41
road,	41
personnel.	41
distinguish	41
450	41
Kazakhs	41
textbook	41
technology.	41
ho@@	41
77	41
candidacy	41
musical	41
sorption	41
focuses	41
crushed	41
cotton	41
transparent	41
improves	41
kinetic	41
potential.	41
ig@@	41
Big	41
moved	41
125	41
million,	41
graphite	41
3%,	41
peace,	41
telecommunications	41
one-time	41
friction	41
01	41
week,	41
pol@@	41
mus@@	41
introduced.	41
transactions	41
ver@@	41
Court	41
Node	41
son	41
crystal	41
drawings	41
Ex@@	41
cooperatives	41
Am@@	41
mothers	41
family,	41
Thermal	41
resistant	41
broad	41
St.	41
automotive	41
Middle	41
Employment	41
preserved	41
bak@@	41
".	41
Theater	41
bond	41
34@@	41
sovereign	41
geopolitical	41
d)	41
aware	41
work@@	41
implementation,	41
Taldykorgan	41
generations	41
anti-@@	41
Master	41
rapidly	41
dissemination	41
wages	41
Traditional	41
regulated	41
ventures	41
ICT	41
plots	41
(N@@	41
0,55	41
bal@@	41
documents.	41
tic@@	41
gaining	41
],	41
EXPO	41
er's	41
nationalities	41
allocation	41
cross	41
art,	41
tickets	41
awards	41
Italy	41
sk	41
trajectory	40
Turkic-speaking	40
edge	40
profit	40
liquids	40
State.	40
consulting	40
vitamins	40
data.	40
Finnish	40
youth,	40
synthesized	40
undergo	40
er-@@	40
diplomas	40
client	40
union.	40
organized.	40
copy	40
Features	40
investments.	40
(3@@	40
appear	40
learned	40
secret	40
on-@@	40
amino	40
ated,	40
fluid	40
assessed	40
property,	40
generation.	40
correction	40
Party	40
objects,	40
facts	40
"and	40
equations,	40
requiring	40
permissible	40
2%.	40
2007	40
months.	40
Land	40
India	40
Planning	40
mediation	40
analyses	40
entrusted	40
protocols	40
winner	40
1,500	40
parks	40
grinding	40
fruit	40
councils	40
month,	40
districts,	40
strategies	40
late	40
ves	40
(4)	40
eight	40
tion.	40
Together	40
Iran,	40
	40
Republic,	40
institution.	40
spend	40
exercise	40
t;	40
Conference	40
statistics,	40
(9@@	40
Network	40
developers	40
discrete	40
Integration	40
interfaith	40
e;	40
basis.	40
consistent	40
Summary	40
multi@@	40
"green	40
candidate	40
sorbent	40
diabetes	40
Internet,	40
war@@	40
2.4	40
random	40
permits	40
indicating	40
te	40
1.8	40
Ukraine,	40
exposed	40
ranking	40
elements,	40
Keywords	40
Group	40
al"	40
2.2	40
billion,	40
agents	40
reforming	40
gi@@	40
98	40
add	40
occupied	40
Report	40
(by	40
constructing	40
too	39
Mo@@	39
MPC	39
zone.	39
Commerce	39
A.@@	39
Major	39
Red	39
landscapes	39
tas@@	39
roadmap	39
residues	39
purpose,	39
directors	39
brick	39
disarmament	39
satisfaction	39
Pavlodar,	39
mat@@	39
38@@	39
install	39
displayed	39
snow	39
air@@	39
circuits	39
quantity	39
poverty	39
contributions	39
normative	39
Total	39
bill,	39
ative	39
conference.	39
–@@	39
magnesium	39
resident	39
pedagogy	39
III	39
gender	39
Change	39
0%	39
Words	39
planted	39
entities,	39
Heads	39
brain	39
counter	39
Resources	39
Akim	39
(H@@	39
ye@@	39
Bel@@	39
varies	39
senator	39
turns	39
Electronic	39
securities	39
0,43	39
71	39
san@@	39
exit	39
ical	39
panels	39
road.	39
flag	39
ml	39
kaznex	39
Implementation	39
Aral	39
wealth	39
Ural	39
containers	39
taught	39
conducts	39
periods	39
adsorption	39
works.	39
emotional	39
additionally	39
lists	39
5th	39
sources.	39
socio-political	39
indices	39
appeals	39
capita	39
der@@	39
nation,	39
Park	39
8-@@	39
"k@@	39
ask	39
Colonel	39
senators	39
Saparbayev	39
akimat,	39
Increasing	39
top@@	39
Software	39
2.6	39
0,45	38
Mamin	38
Physics	38
0,48	38
soft	38
yl	38
br@@	38
Poland	38
ms	38
solution,	38
necessary,	38
similarity	38
curves	38
conformity	38
mother	38
session,	38
cellular	38
city's	38
writing	38
station,	38
strategy,	38
enters	38
driver	38
unstable	38
talked	38
Server	38
cas@@	38
bayeva	38
α	38
Heat	38
carries	38
maps	38
×	38
Sciences	38
visible	38
increased,	38
roads.	38
Solar	38
ty	38
scales	38
detect	38
{@@	38
viscous	38
meetings,	38
pensions	38
producers.	38
dated	38
(5)	38
borders	38
protective	38
Afghan	38
alkaline	38
91	38
parties,	38
reality	38
States.	38
S-@@	38
(c)	38
oscillation	38
resolving	38
holidays	38
IP	38
points,	38
patriotism	38
_@@	38
linguistic	38
technique	38
compositions	38
pumping	38
os	38
Eastern	38
synthetic	38
1.4	38
confectionery	38
second-tier	38
produc@@	38
trees	38
dear	38
information.	38
gravity	38
Nur	38
ad	38
ding	38
collecting	38
warehouse	38
guest	38
Commonwealth	38
Bank,	38
0,53	38
Every	38
buildings,	38
Society	38
Winter	38
ownership	38
bulk	38
disabilities,	38
interview	38
actions,	38
model.	38
vision	38
hospitals	38
presidents	38
efficiency,	38
brings	38
ay	38
Kazakhstan;	38
(8@@	38
content,	38
houses.	38
problem,	38
continuously	38
2.3	37
P.	37
inter-@@	37
notes	37
origin	37
n-@@	37
important.	37
Solution	37
Before	37
conductor	37
fl@@	37
forecasting	37
um,	37
strive	37
polyimide	37
(including	37
Federation.	37
poisonous	37
thought	37
describing	37
ep@@	37
Almaty:	37
ship	37
gan@@	37
grounds	37
sa@@	37
demographic	37
ka	37
al-Farabi	37
tank	37
departments,	37
Space	37
manganese	37
Anti-Corruption	37
KZT@@	37
ment@@	37
multi-storey	37
Kazakhstan)	37
2030	37
Karatau	37
1/@@	37
4%,	37
sen@@	37
92	37
El@@	37
equation,	37
cars,	37
grateful	37
running	37
q@@	37
fin@@	37
ings	37
employment,	37
tor	37
membranes	37
religions	37
agreement.	37
ub@@	37
correlation	37
ut@@	37
ats	37
Rights	37
linked	37
com@@	37
2025	37
7-@@	37
μm	37
polynomial	37
ati@@	37
insufficient	37
ly,	37
investigate	37
holds	37
form@@	37
ality	37
transport.	37
guidance	37
Britain,	37
Timur	37
lu@@	37
buy	37
behind	37
generation,	37
corrosion	37
ecosystem	37
interdisciplinary	37
bai	37
Inter@@	37
president.	37
degrees	37
kin	37
m3	37
aspect	37
disputes	37
}	37
points.	37
Italy,	37
agencies,	37
bek@@	37
"in	37
fuel,	37
laying	37
founded	37
G.	37
municipal	37
4.4	37
remember	37
reports,	37
hotel	37
other.	37
9.@@	37
ci@@	37
educate	37
properties,	37
operations,	37
es."	37
fertility	37
ah@@	36
61	36
baev,	36
bank.	36
i,	36
kW	36
ly	36
i.	36
giving	36
possible,	36
7.5	36
5,000	36
0,51	36
eurozone	36
trip,	36
ovich	36
Nodal	36
carbonate	36
ded,	36
manner	36
ends	36
ed;	36
diamond	36
reservoirs	36
cheap	36
CEC	36
mu@@	36
other,	36
saw	36
cancer	36
country"	36
control.	36
(0@@	36
Si@@	36
0)	36
cavity	36
2.8	36
70@@	36
curriculum	36
food,	36
concentrate	36
ations.	36
2019.	36
addressing	36
arithmetic	36
management.	36
inclination	36
Next	36
agent	36
observation	36
sm@@	36
potatoes	36
marked	36
Be@@	36
diploma	36
an-@@	36
theories	36
rent	36
markets,	36
carrier	36
chambers	36
Standard	36
crisis,	36
ments	36
proves	36
Nurlan	36
villagers	36
n,	36
Man@@	36
[11]	36
knows	36
as,	36
semiconductor	36
khan	36
discussions	36
ev@@	36
Ko@@	36
Balkhash	36
13.@@	36
ally,	36
outstanding	36
21,	36
receipt	36
radioactive	36
inclusion	36
75%	36
lamps	36
animation	36
Asset	36
shares	36
Universiade	36
nominated	36
//@@	36
balanced	36
methods.	36
id	36
ce@@	36
parameters,	36
gathered	36
Java	36
comments	36
Certain	36
view,	36
three-@@	36
hybrid	36
aluminium	36
170	36
executed	36
Population	36
80@@	36
CI@@	36
commander	36
corps	36
dialogue,	36
ski	36
stars	36
st,	36
Nations	36
sorbents	36
ain@@	36
partially	36
Austrian	36
performs	36
exact	36
Victory	35
Co@@	35
camera	35
6)	35
Functional	35
cheese	35
treaty	35
controlling	35
welcoming	35
cable	35
sy@@	35
tive	35
russian	35
6.5	35
Measures	35
Customs	35
pi@@	35
hydroelectric	35
factors,	35
numerous	35
tradition	35
(A@@	35
high-speed	35
0,000	35
per@@	35
comparable	35
respectively,	35
january	35
reactors	35
House	35
dictionary	35
Content	35
clusters	35
Bo@@	35
reagents	35
agenda,	35
anov	35
d-@@	35
conferences	35
Windows	35
flour,	35
dried	35
89	35
pipe	35
16.@@	35
units,	35
ance	35
perceived	35
fact,	35
parametric	35
competitions,	35
ing:	35
(G@@	35
acute	35
(B@@	35
advertising	35
crossing	35
transferring	35
physiological	35
engines	35
authorities,	35
overview	35
partial	35
tion	35
adopted,	35
medicine,	35
blocks	35
besides	35
Ku@@	35
Environment	35
converted	35
Armenia	35
details	35
baev.	35
super@@	35
Spanish	35
M-@@	35
Xi	35
0,62	35
firing	35
awarding	35
although	35
west	35
cultural,	35
M)	35
Shymkent,	35
og@@	35
palace	35
divide	35
eng@@	35
11.@@	35
s'	35
inverse	35
ma	35
Independence	35
investments,	35
character	35
experiences	35
9%,	35
dance	35
formal	35
discovered	35
Canada,	35
matrices	35
Address	35
empty	35
supplemented	35
sheep	35
youth.	35
machinery	35
saturation	35
moves	35
Knowledge	35
possible.	35
fat	35
ics	35
k)	35
voluntary	35
owner	35
14,	35
ir	35
Any	35
engage	35
Google	35
(a	35
13,	35
resin	35
ized	35
inner	35
joined	35
assumed	35
Kazakh-Chinese	35
guide	35
existence	35
(I@@	35
amend	35
order.	35
protection,	35
Dr.	35
India,	35
uc@@	35
communicate	35
liability	35
AC	35
outer	35
ard	35
visualization	35
under@@	35
MPa	35
lived	35
rear	35
stations.	35
ancestors	34
agency,	34
expedition	34
history.	34
Dis@@	34
accessible	34
summed	34
marat	34
temperature,	34
Regulation	34
union,	34
tar@@	34
short-term	34
bol@@	34
Zhezkazgan	34
86	34
sheet	34
change,	34
irradiation	34
repeatedly	34
remuneration	34
transporting	34
Strategic	34
emission	34
tourism.	34
ters	34
au	34
nervous	34
understood	34
molecules	34
federal	34
ide@@	34
professions	34
first,	34
ment.	34
arises	34
sion	34
"N.	34
TRAINING	34
7)	34
phased	34
115	34
ratified	34
aev	34
elementary	34
105	34
opposite	34
texts	34
diagnostics	34
washing	34
catalysts	34
t:	34
competitions.	34
expertise	34
0,60	34
Bay@@	34
fulfillment	34
tube	34
Improving	34
rod	34
partners.	34
ages	34
communities	34
annually.	34
Average	34
20-@@	34
3.8	34
cheaper	34
water@@	34
pupils	34
way.	34
participants,	34
100@@	34
oxidized	34
parade	34
Along	34
regularly	34
getting	34
cereals	34
are@@	34
districts.	34
stay	34
modification	34
subordinate	34
s.@@	34
0,57	34
self-employed	34
conflicts	34
school.	34
purposes.	34
Classification	34
drop	34
organs	34
Darya	34
filler	34
federation	34
speaks	34
crude	34
communicative	34
behavior	34
influenced	34
Concept	34
Is@@	34
Identification	34
trade.	34
ta	34
hole	34
ess@@	34
leaving	34
ting,	34
bakytzhan	34
instruction	34
acquisition	34
dense	34
known,	34
prevents	34
derived	34
aktobe	34
Map	34
serving	34
anti@@	34
telegram	34
"M@@	34
le,	34
ge	34
coatings	34
mind	34
ethics	34
spectroscopy	34
yk@@	34
star	33
Canada	33
above,	33
spending	33
success,	33
line,	33
ya	33
Mobile	33
harmony,	33
0,71	33
Fourier	33
de,	33
IV	33
da	33
(7)	33
undergone	33
bronze	33
holiday,	33
orbit	33
fraternal	33
minister.	33
away	33
region's	33
199@@	33
sts	33
(x)	33
levels,	33
Representative	33
corn	33
22,	33
incomplete	33
high-precision	33
composition,	33
boarding	33
Kyzylorda,	33
"B.	33
assistance.	33
smaller	33
budgets	33
satisfy	33
deterioration	33
sil@@	33
6.	33
mobilization	33
air,	33
stages.	33
agrarian	33
Bauyrzhan	33
traditionally	33
believes	33
consolidation	33
cl@@	33
.kz	33
ol	33
rec@@	33
bur@@	33
dr@@	33
practically	33
memorial	33
literary	33
"energy	33
January-July	33
0,46	33
cadets	33
ded	33
reviewed	33
adaptive	33
simplification	33
Considering	33
vessels	33
deal	33
Kh@@	33
surgery	33
full-fledged	33
tactical	33
Fe@@	33
died	33
profitable	33
map,	33
Ministers	33
Or@@	33
Yerlan	33
continent	33
helped	33
versions	33
uk@@	33
bil@@	33
N.Nazarbayev	33
growing.	33
camp	33
configuration	33
teacher's	33
veterans,	33
turning	33
sign@@	33
up,	33
girls	33
arrangement	33
str@@	33
SO@@	33
electricity,	33
night	33
p,	33
Maximum	33
horse	33
Region	33
stage.	33
chemistry,	33
0,65	33
infant	33
For@@	33
exceeding	33
"is	33
Afghanistan,	33
cross-border	33
pairs	33
benzene	33
reduced,	33
JSC.	33
bureau	33
Number	33
31,	33
garbage	33
false	33
AB@@	33
repaired	33
cities.	33
perception	33
"K@@	33
wood	33
99	33
liquefied	33
Kokshetau	33
power,	33
pul@@	33
MA@@	33
scientific,	33
Bakytzhan	33
Ro@@	33
brown	33
retraining	33
site.	33
functions,	33
championship	33
unprecedented	33
invite	33
drainage	33
t,"	33
Media	32
strengthens	32
blade	32
crystalline	32
Cu	32
"kaz@@	32
st	32
outcomes	32
aerospace	32
autumn	32
quantum	32
cast	32
=@@	32
spaces	32
confirmation	32
46@@	32
Way	32
suggested	32
increases,	32
1,0@@	32
83	32
product,	32
ru@@	32
collector	32
(or	32
formed,	32
.,	32
mis@@	32
numerical	32
a's	32
ahead	32
dimension	32
Figures	32
precious	32
array	32
thirdly,	32
transformations	32
2009,	32
ant@@	32
forecasts	32
fillers	32
ourselves	32
uni@@	32
extracurricular	32
blades	32
expressions	32
innovation,	32
clothing	32
ated.	32
theory,	32
Prize	32
neutrons	32
knowledge.	32
displays	32
stations,	32
81	32
Although	32
fil@@	32
approve	32
Issekeshev	32
sovereignty	32
50-@@	32
site,	32
purified	32
her@@	32
now,	32
sport	32
mal@@	32
documentary	32
proof	32
Car@@	32
month.	32
regulates	32
expectancy	32
ani@@	32
N.@@	32
maslikhat	32
ar,	32
ceramic	32
w	32
"B@@	32
indicators.	32
Bur@@	32
committed	32
6]	32
EN@@	32
sam@@	32
probation	32
rel@@	32
biomass	32
accurately	32
terrain	32
(10@@	32
Syr	32
feasibility	32
listed	32
tions	32
1),	32
Indian	32
emphasize	32
floating	32
scattering	32
tension	32
transfers	32
IT@@	32
m2	32
mas@@	32
algorithm,	32
Ministry,	32
8%.	32
journalists	32
suspension	32
5.5	32
contrary,	32
ators,	32
pumps	32
Nuclear	32
Monitoring	32
ou@@	32
Assessment	32
ended	32
use.	32
juice	32
awareness	32
Greek	32
RA@@	32
pool	32
"eternal	32
fleet	32
gain	32
wheel	32
ys	32
c)	32
modernization,	32
high-@@	32
e-learning	32
(6)	32
strain	32
Q	32
off@@	31
pen@@	31
stores	31
records	31
europe	31
ation@@	31
two-@@	31
KazUPU	31
8)	31
cor@@	31
cap@@	31
differentiated	31
So	31
nitric	31
kul@@	31
88	31
Yessimov.	31
cylinder	31
Opening	31
amended	31
inclined	31
qu@@	31
shopping	31
residents.	31
arrival	31
yev	31
bonds	31
ot@@	31
binary	31
radical	31
forces.	31
libraries	31
definitions	31
enlarged	31
respiratory	31
tion@@	31
Effect	31
ary	31
	31
holdings	31
45@@	31
Enterprise	31
congress,	31
graduated	31
causing	31
purposes,	31
packages	31
Collective	31
prerequisites	31
Development.	31
code,	31
en,	31
Systems	31
scholarship	31
pan@@	31
correctness	31
cis	31
Hydro@@	31
island	31
closing	31
ans,	31
Putin	31
in-depth	31
2-3	31
maintained	31
completing	31
films	31
RO@@	31
include:	31
al.,	31
specify	31
atoms	31
science.	31
IS@@	31
30-@@	31
der,	31
consolidate	31
TE@@	31
birds	31
J	31
War,	31
eye	31
greatest	31
employer	31
(b)	31
mortgage	31
authorities.	31
33@@	31
phosphate	31
oxidizing	31
Cultural	31
evaporation	31
[3@@	31
nine	31
asset	31
quantities	31
built,	31
Nevertheless,	31
er"	31
exclude	31
15-@@	31
me,	31
Commission,	31
labor,	31
constructed	31
Kazakh,	31
morphology	31
240	31
Soil	31
commercialization	31
diseases,	31
nutritional	31
tro@@	31
hel@@	31
evening	31
thereby	31
button	31
tender	31
3,000	31
requests	31
sell	31
commissioned,	31
networks.	31
1.9	31
consideration.	31
delay	31
latter	31
Switzerland	31
modulation	31
Par@@	31
hol@@	31
bul@@	31
9-@@	31
("@@	31
s);	31
signature	31
bi	31
serves	31
val@@	31
Cloud	31
Kur@@	31
health.	31
Yessimov	31
welcome	31
essential	31
scanning	31
μ@@	31
box	31
24,	31
chains	31
evolution	31
calls	31
european	31
nano@@	31
No	31
bro@@	31
historic	31
	31
hy@@	31
compact	31
economics	31
at,	31
ayev	31
we@@	31
·	31
holiday.	31
background	31
startup	31
metals,	31
ation,"	30
g.	30
LED	30
Le@@	30
Processing	30
closure	30
ax@@	30
changes.	30
mel@@	30
bel@@	30
tenge).	30
114	30
h,	30
form,	30
-201@@	30
weapons.	30
fresh	30
ill@@	30
legislation.	30
sorting	30
ars	30
socio-cultural	30
golden	30
incidence	30
proportional	30
voter	30
Ili	30
3.3	30
Poland,	30
Committee,	30
Various	30
supervisory	30
commands	30
centuries	30
cur@@	30
smoke	30
morphological	30
casting	30
textile	30
party's	30
practice.	30
fac@@	30
let's	30
asynchronous	30
Kal@@	30
har@@	30
Im@@	30
territory,	30
Working	30
exposition	30
Optimal	30
ceremony,	30
counting	30
Mam@@	30
manual	30
thermo@@	30
sive	30
Access	30
Mus@@	30
Kazakh-Russian	30
outgoing	30
adding	30
hazard	30
components,	30
shift	30
Na@@	30
K-@@	30
transportation,	30
proceedings	30
ase	30
utilization	30
injuries	30
2050,	30
vote	30
hundreds	30
granules	30
ES@@	30
Local	30
crystals	30
longitudinal	30
2006	30
ly.	30
brands	30
000@@	30
hal@@	30
des	30
sar@@	30
approximation	30
Educational	30
Ac@@	30
ity;	30
greatly	30
intense	30
state's	30
developing.	30
radically	30
incomes	30
observations	30
ore@@	30
(F@@	30
larger	30
whole,	30
inorganic	30
dream	30
English.	30
Su@@	30
uneven	30
ambulance	30
]:	30
art.	30
8.	30
reaching	30
operation.	30
parties.	30
"National	30
deficit	30
transmitting	30
employs	30
diagrams	30
automate	30
twenty	30
interest,	30
sch@@	30
break	30
inefficient	30
then,	30
party.	30
Earth's	30
ionization	30
Several	30
axial	30
Pe@@	30
places.	30
MO@@	30
rays	30
Statistics	30
A)	30
alization,	30
polyethylene	30
Micro@@	30
vivid	30
ca@@	30
T-@@	30
detecting	30
99@@	30
convenience	30
interests,	30
ay,	30
settlements,	30
2020,"	30
seed	30
searching	30
adverse	30
potassium	30
or,	30
PC	30
metropolis	30
interreligious	30
interact	30
subsidizing	30
extent	30
strictly	30
ders	30
0,39	30
mil@@	30
%),	30
16,	30
cultures	30
projected	30
th,	30
death	30
Netherlands	30
quartz	30
replenished	29
parts,	29
indication	29
student,	29
ki@@	29
civic	29
rotor	29
emulsion	29
electrode	29
stops	29
valley	29
prosperous	29
responsibility,	29
β	29
Religious	29
jury	29
structures.	29
grids	29
Kingdom	29
sacred	29
characteristics,	29
so-called	29
um.	29
administration.	29
honored	29
ken@@	29
ron@@	29
uk	29
14,@@	29
either	29
dy	29
m.	29
experts.	29
93	29
Economy,	29
exhibits	29
shoes	29
communications,	29
Procedure	29
master's	29
producer	29
En@@	29
#	29
material.	29
sunflower	29
"Nrla	29
dark	29
bl@@	29
Modeling	29
Afghanistan.	29
rolling	29
18.@@	29
es),	29
cross-@@	29
P)	29
Android	29
Bu@@	29
renewal	29
three-shift	29
mathematics,	29
tions.	29
wanted	29
telephone	29
104	29
CA@@	29
kinematic	29
plate	29
ME@@	29
han@@	29
advice	29
pollination	29
mark	29
equation:	29
g,	29
gar@@	29
zhan	29
statement.	29
medi@@	29
mechanics	29
We@@	29
diversify	29
ann@@	29
morning	29
Time	29
k-@@	29
industri@@	29
legalized.	29
clarify	29
head@@	29
farming	29
Science,	29
CH@@	29
19.@@	29
contradictions	29
seeds	29
values.	29
star@@	29
obtained,	29
220	29
Future	29
strip	29
construct	29
ambient	29
Agricultural	29
employees,	29
photo@@	29
seminar,	29
ology,	29
overcoming	29
capacities	29
organization's	29
explore	29
wants	29
organisms	29
integration,	29
point,	29
Senate,	29
we,	29
kin@@	29
fodder	29
high-frequency	29
Iran.	29
occurring	29
Ukraine.	29
universiade	29
strategy.	29
age.	29
lifestyle	29
prominent	29
processes.	29
use,	29
sanatorium	29
wireless	29
sulfate	29
Germany.	29
ation."	29
taste	29
er)	29
ST	29
Rules	29
sponge	29
pa@@	29
legitimate	29
oxides	29
presenting	29
Th@@	29
office,	29
geology	29
infectious	29
ballet	29
leasing	29
7%.	29
nearest	29
landscaping	29
Turkey.	29
steps."	29
Kazakhmys	29
expert,	29
Bas@@	29
operators,	29
post@@	29
Project	29
asymptotic	29
karaganda	29
prediction	29
320	29
8.5	29
Dutch	29
agglomeration	29
universities.	29
lakes	29
funded	29
obvious	29
meat,	29
transformer	28
derivatives	28
USA	28
ps	28
intensifying	28
lose	28
a."	28
base,	28
Ber@@	28
belarus	28
ve,	28
"D@@	28
gl@@	28
"Information	28
Communication	28
];	28
house,	28
49@@	28
Partnership	28
pal@@	28
explosive	28
checking	28
simplicity	28
January-August	28
hours,	28
combines	28
"Expo-2017"	28
converter	28
4%.	28
separated	28
compressed	28
homeland	28
nations	28
Mal@@	28
la	28
graphical	28
95%	28
questions.	28
"Nursultan	28
Irtysh	28
turbulent	28
expenditures	28
tectonic	28
form.	28
granted	28
14.@@	28
ologists	28
onic	28
teachers.	28
participates	28
restored	28
chairmen	28
99.@@	28
importantly,	28
arms	28
zhan@@	28
m.@@	28
appoint	28
hydrodynamic	28
predicting	28
Uni@@	28
explanatory	28
lens	28
ban@@	28
justified	28
Summing	28
Ma@@	28
families,	28
ass@@	28
corruption.	28
ting.	28
EA@@	28
compatibility	28
gate	28
CIS,	28
frequent	28
ism	28
represent	28
Types	28
railways	28
destroyed	28
high,	28
neuro@@	28
Aerospace	28
hero	28
net	28
therapeutic	28
function,	28
1300	28
places,	28
Entrepreneurship	28
stabilize	28
supplementing	28
wise	28
settlements.	28
bakery	28
interdepartmental	28
admission	28
atom	28
%;	28
discovery	28
ammonium	28
Member	28
rising	28
Temperature	28
mountains	28
extract	28
TION	28
team,	28
gap	28
mesh	28
techniques	28
glucose	28
hands	28
water.	28
press.	28
holes	28
board,	28
ula	28
openness	28
learning,	28
Sultanov	28
tions,	28
octane	28
slope	28
Independent	28
introduced,	28
St@@	28
dictionaries	28
94	28
authentication	28
publishing	28
Unlike	28
departmental	28
Sch@@	28
nitrate	28
fragments	28
proximity	28
promotes	28
familiar	28
obstacle	28
39@@	28
card	28
ton@@	28
coincide	28
threshold	28
"best	28
property.	28
Georgia,	28
task,	28
friends	28
chlorine	28
disasters	28
nutrient	28
Opera	28
classic	28
ata	28
AC@@	28
tournament	28
3%.	28
innov@@	28
Fund,	28
together,	28
screening	28
committee.	28
planning,	28
ST@@	28
Malaysian	28
yellow	28
account.	28
challenge	28
Increase	28
initiatives,	28
vectors	28
sanctions	28
facilitated	28
houses,	28
Bak@@	28
Po@@	28
Day,	28
AR@@	28
welding	28
residence	28
customers	27
volumetric	27
document.	27
rid	27
Bureau	27
extraordinary	27
team.	27
yesterday	27
assistance,	27
simplifying	27
Palace	27
	27
lesson,	27
worldwide	27
Northern	27
rov	27
45%	27
ER@@	27
gaps	27
recycling	27
respectively.	27
confirming	27
mapping	27
Protocol	27
7.	27
hotels	27
real-time	27
Russian,	27
southeast	27
reads	27
severe	27
hearing	27
Cl@@	27
akov	27
enko	27
ambassadors	27
printed	27
"N@@	27
Services	27
0,58	27
Kazakhstan@@	27
"Employment	27
rule,	27
volunteers	27
18,	27
DC	27
Khanate	27
sensing	27
Al-Farabi	27
doctoral	27
professionalism	27
ors.	27
interacting	27
sion,	27
well-@@	27
CD	27
airlines	27
pose	27
Com@@	27
surveillance	27
Resource	27
Paris	27
mud	27
mit@@	27
mill	27
entities.	27
asi@@	27
degradation	27
ens@@	27
Zhan@@	27
village.	27
validity	27
fe@@	27
Complex	27
happen	27
mer@@	27
one-@@	27
flowers	27
ed)	27
Constitutional	27
literature,	27
capacity,	27
sor@@	27
Ministries	27
desired	27
bekov.	27
field.	27
modernization.	27
timing	27
maximize	27
ary@@	27
units.	27
treasury	27
a),	27
20.@@	27
17.@@	27
3-4	27
placing	27
incentive	27
replacing	27
assembly,	27
catalytic	27
gypsum	27
back@@	27
wi@@	27
g-global	27
-S@@	27
sewage	27
ity"	27
States,	27
ai,	27
b,	27
inflow	27
Hungary	27
well,	27
Al	27
sin@@	27
phones	27
ow@@	27
system@@	27
ventilation	27
Structure	27
represents	27
network.	27
www.@@	27
employed.	27
interconnected	27
terrorism.	27
compete	27
0,66	27
demonstrates	27
founder	27
linking	27
0,78	27
es,"	27
plans,	27
1.1	27
industrialization,	27
Ne@@	27
Akorda,	27
Kostanay,	27
inform	27
del@@	27
hyper@@	27
m)	27
nurlan	27
(9)	27
ser@@	27
Food	27
intervention	27
massive	27
e-commerce	27
Smart	27
kindergartens,	27
given.	27
gel	27
While	27
Serbian	27
injection	27
section,	27
Peace	27
heroes	27
230	27
post-Soviet	27
complaints	27
$	27
ans.	27
rules,	27
procedures,	27
[13]	27
lamb	27
win	27
gr@@	27
"Astana	27
the@@	27
TV	27
matters	27
supplement	27
Israeli	27
committees	27
akmola	27
slags	26
vehicles,	26
minimal	26
sixth	26
village,	26
Informatics	26
families.	26
stream	26
arose	26
't	26
officer	26
deposits,	26
fer@@	26
budgetary	26
minor	26
125@@	26
bands	26
Yes@@	26
explaining	26
ridge	26
vital	26
side.	26
foot	26
ize	26
stones	26
di	26
Permanent	26
corruption,	26
rights.	26
deeper	26
accreditation	26
Algorithm	26
aliyev	26
skill	26
tuberculosis	26
applicant	26
contributing	26
style	26
1200	26
proven	26
airports	26
valid	26
crushing	26
ary,	26
24.@@	26
11,@@	26
Britain	26
3.2	26
ha	26
angles	26
politics	26
run@@	26
change.	26
Bor@@	26
building,	26
substitution	26
lar@@	26
ner	26
Student	26
oncological	26
factories	26
familiarization	26
gas.	26
0,73	26
0,56	26
quota	26
yz@@	26
Canadian	26
climate,	26
shadow	26
station.	26
Laboratory	26
Finland	26
publications	26
g/@@	26
integration.	26
Sultanov.	26
l.	26
2.1	26
alone,	26
2.9	26
Structural	26
proteins	26
0,59	26
world-class	26
pavilion.	26
Syrian	26
steps.	26
19,	26
So@@	26
parental	26
inhabitants	26
22@@	26
with.	26
clustering	26
stabilizing	26
prices.	26
popularize	26
fee	26
reviews	26
photovoltaic	26
ready-made	26
employees.	26
furniture	26
yourself	26
specificity	26
NPP	26
all.	26
Having	26
tendency	26
ko@@	26
explanation	26
extremism,	26
15.@@	26
songs	26
tes	26
alk@@	26
interest.	26
Experimental	26
checks	26
Non-@@	26
movements	26
v.	26
C.	26
mr.	26
12.@@	26
Electric	26
Zhambyl,	26
properly	26
filtering	26
solvent	26
Calculations	26
uniting	26
personally	26
celebrates	26
selling	26
shapes	26
14-@@	26
civilization	26
dissolution	26
unauthorized	26
280	26
e-government	26
media.	26
memorandum,	26
research.	26
saved	26
consumed	26
C-@@	26
].	26
intake	26
industrial-innovative	26
leaves	26
rank	26
social,	26
trips	26
Cauchy	26
easier	26
Turkmenistan,	26
ographic	26
house.	26
ics,	26
roots	26
statehood	26
fractal	26
courage	26
homeland.	26
unites	26
contracting	26
harmonic	26
"green"	26
monopolies	26
Virtual	26
robots	26
wet	26
ked	26
speakers	26
rotating	26
Military	26
28,	26
congratulations	26
conscious	26
"nұrly	26
switched	26
hopes	26
E-@@	26
Samruk-kazyna	26
eeo	26
gray	26
9.5	26
IC@@	26
determined,	26
Decree	26
involved.	26
ul	26
tours	26
Spain,	26
refineries	26
cr@@	26
ideological	26
women.	26
flower	26
epidemiological	26
MP@@	26
teeth	26
0,67	26
extension	26
yn	26
binding	26
grand	26
ally.	26
ve	26
engineers	26
repairs	25
B)	25
bor@@	25
achievements,	25
rate,	25
invaluable	25
sedimentary	25
restoring	25
future,"	25
sharing	25
0,54	25
12%	25
2/@@	25
[2@@	25
agreements.	25
13,@@	25
ES	25
utilities	25
mandate	25
license	25
agreements,	25
m/s	25
convocation	25
customer	25
passive	25
waste,	25
communication,	25
leadership,	25
erg@@	25
issuance	25
belt,	25
format.	25
q	25
cop@@	25
slopes	25
Southern	25
whitewash	25
Cu@@	25
thermodynamic	25
b.@@	25
domain	25
arena	25
Additional	25
concluding	25
d"	25
analogues	25
subject,	25
g_l_k	25
char@@	25
composition.	25
monitored	25
44@@	25
force,	25
pit	25
1:	25
ry	25
trial	25
25.@@	25
dissolved	25
disaster	25
Honored	25
Open	25
photon	25
Hong	25
ech@@	25
monoxide	25
battery	25
tically	25
ness	25
ich@@	25
body.	25
opportunities.	25
nan@@	25
2025.	25
anov,	25
summit,	25
withstand	25
tests,	25
coolant	25
step,	25
older	25
inclusive	25
samples,	25
cultivation	25
indirect	25
computer,	25
gasification	25
you,	25
effective,	25
Through	25
town	25
tools.	25
ini@@	25
t."	25
1;	25
people),	25
picture	25
IC	25
broadcast	25
agro@@	25
Petersburg	25
minutes.	25
deeply	25
ter,	25
Uzbekistan.	25
above-mentioned	25
Georgia	25
geodynamic	25
Kyrgyzstan.	25
march	25
internship	25
progressive	25
3.1	25
packaging	25
T)	25
mg/kg	25
partners,	25
D)	25
locomotive	25
metallurgy,	25
ones.	25
doubt	25
conveyor	25
ery	25
banks.	25
AS@@	25
embankment	25
es).	25
(19@@	25
Azerbaijani	25
Three	25
attaches	25
wishes	25
May@@	25
highlighted	25
veterans.	25
inventory	25
decade	25
family.	25
an"	25
treat	25
charges	25
begin.	25
whom	25
Year	25
bekov,	25
"golden	25
planet	25
shaft	25
formulated	25
agribusiness	25
removing	25
khanov	25
gdp	25
costs,	25
SMEs	25
Andrei	25
Danial	25
visa-free	25
fatty	25
interference	25
3.7	25
Changes	25
Turk@@	25
arts	25
bon@@	25
7th	25
Simulation	25
alliance	25
wishing	25
Statistical	25
lamp	25
ors,	25
Aktau	25
microdistrict	25
conventional	25
ic.	25
і@@	25
necessity	25
terminals	25
my@@	25
posted	25
template	25
	25
revised	25
mini-@@	25
plants.	25
geophysical	25
Creation	25
asian	25
Safety	25
freedoms	25
zones,	25
0,40	25
cent.	25
M.@@	25
perceive	25
hydrochloric	25
justification	25
res,	25
aromatic	25
content.	25
Interactive	25
differs	25
st.	25
circular	25
impulse	25
hidden	25
Distribution	25
fiscal	25
breathing	25
Spain	25
treating	25
specialties,	25
Mer@@	25
electrodes	25
attend	25
dose	25
106	24
ted.	24
molecule	24
stability.	24
Arabia	24
reagent	24
visibility	24
Not	24
read@@	24
Concrete	24
Secondly,	24
Creating	24
85%	24
graphene	24
vitamin	24
en.	24
Abishevich	24
territory.	24
can@@	24
ong@@	24
ds,	24
ist	24
ham@@	24
gener@@	24
t/@@	24
designated	24
Aviation	24
tried	24
bet	24
proposed.	24
Abdikalikova	24
2017-2018.	24
aw@@	24
shaped	24
Judicial	24
processor	24
moments	24
aa.	24
Fund.	24
high-performance	24
Lithuania	24
Increased	24
5%),	24
MapReduce	24
0,68	24
offset	24
fic@@	24
January-November	24
ent.	24
k.@@	24
application,	24
8.3	24
sur@@	24
coast	24
Organization,	24
tion)	24
s?	24
wires	24
Belarus.	24
associations.	24
100-@@	24
trace	24
sliding	24
ess	24
ell@@	24
ports	24
Your	24
fore@@	24
ensemble	24
ner@@	24
separ@@	24
samruk-kazyna	24
Section	24
publish	24
start-up	24
investing	24
6.9	24
sun	24
preparatory	24
zhol,"	24
est@@	24
Mining	24
Egyptian	24
factors:	24
in-@@	24
subsistence	24
faculty	24
ranges	24
deputy,	24
To@@	24
climate.	24
cu@@	24
war,	24
warehouses	24
lowest	24
n.@@	24
solubility	24
a:	24
48@@	24
calendar	24
lubricants	24
ators.	24
ie@@	24
rating,	24
ny	24
":	24
builders	24
min	24
stresses	24
biogenic	24
ox@@	24
there.	24
employed,	24
licensing	24
workshops	24
Foundation	24
utility	24
photo:	24
generate	24
ack@@	24
tion"	24
Description	24
0,81	24
milk,	24
ically	24
Serbia	24
Large	24
millions	24
entrance	24
chose	24
(x	24
Sustainable	24
spheres,	24
Lo@@	24
bank's	24
intensification	24
fields,	24
monitors	24
performances	24
end@@	24
K.@@	24
rather	24
Kul@@	24
educated	24
Comparison	24
exhaust	24
Yesil	24
story	24
66@@	24
Swiss	24
person@@	24
Materials	24
globalization	24
respected	24
Forum,	24
began.	24
adjustment	24
Day.	24
calculates	24
College	24
02	24
550	24
3.4	24
medium,	24
massif	24
GAZ	24
shooting	24
harmony.	24
horses	24
queue	24
9th	24
addresses	24
reasonable	24
and.	24
	24
s/@@	24
manner.	24
post-@@	24
targets	24
designs	24
attach	24
variation	24
ism,	24
coal,	24
quasi-@@	24
september	24
deputies.	24
pat@@	24
ud@@	24
cryptographic	24
cooperative	24
advance	24
Technological	24
il	24
enhance	24
year's	24
instructions.	24
"C@@	24
continue.	24
initiative,	24
Other	24
ast@@	24
algebra	24
ED	24
respond	24
reac@@	24
disadvantage	24
Criminal	24
difficulties,	24
ordered	24
products;	24
certainly	24
follow	24
internet	24
faster	24
financing,	24
Otan"	24
Object	24
chamber,	24
suppliers	24
fractional	24
centre	24
cylinders	24
unity.	24
River,	24
el,	24
gravitational	24
m;	24
spectrometer	24
excluded	23
Israel	23
legality	23
Shi@@	23
item	23
beef	23
balls	23
procedural	23
stan@@	23
med@@	23
microscopy	23
[15]	23
flame	23
Amendments	23
(x@@	23
Aliyev	23
athletes,	23
women,	23
eva	23
ionic	23
Women's	23
assignment	23
12-@@	23
installing	23
Pre@@	23
16%	23
Indicators	23
ch,	23
Accordingly,	23
shock	23
ray	23
iterative	23
6.8	23
arbitration	23
fundamentally	23
operations.	23
exoskeleton	23
non-profit	23
6.3	23
[3	23
11-@@	23
imagine	23
force.	23
Presidential	23
hydropower	23
up.	23
Fuel	23
semi-finished	23
liters	23
ins	23
transaction	23
unions	23
"bright	23
	23
[14]	23
METHODOLOGY	23
!"	23
differentiation	23
"Kaz@@	23
hyperbolic	23
legally	23
STEM	23
videos	23
ferry	23
sec@@	23
benefits.	23
earthquake	23
offenses	23
crops,	23
used:	23
technical,	23
productivity,	23
inspected	23
coat	23
adults	23
december	23
Professional	23
greenhouses	23
generators	23
103	23
4.0	23
discussion.	23
Baibek.	23
amin@@	23
banks,	23
husbandry	23
IS	23
politics,	23
Akhmetov.	23
ce.	23
players	23
"a	23
simulate	23
90@@	23
brief	23
evacuation	23
ment)	23
2020."	23
fees	23
Mak@@	23
gin	23
orphans	23
set,	23
representing	23
summarize	23
Intellectual	23
aul@@	23
res	23
30.@@	23
compatriots	23
anyone	23
ait@@	23
court,	23
Products	23
ultimate	23
Satpaeva	23
expectations	23
zhanov	23
well-being.	23
reproductive	23
73@@	23
ons,	23
gre@@	23
drivers	23
r.@@	23
female	23
ish	23
5.2	23
k"	23
conditionally	23
it-@@	23
steels	23
encourage	23
simultaneous	23
person.	23
Then,	23
residents,	23
nuclei	23
circumstances	23
method@@	23
regulation,	23
rows	23
objects.	23
Agrarian	23
Idrissov	23
Faculty	23
2008,	23
raises	23
ch	23
underway.	23
summary	23
consolidated	23
ents	23
0,76	23
Tashkent	23
maternal	23
Marat	23
Matlab	23
orchestra	23
	23
extend	23
Measurement	23
subjected	23
theaters	23
EC@@	23
kinetics	23
tell	23
permission	23
forestry	23
198@@	23
stages:	23
ing-@@	23
TI@@	23
donor	23
institution,	23
accountable	23
synchronous	23
plates	23
Per@@	23
inertial	23
watering	23
deliver	23
departure	23
pride	23
symmetric	23
camps	23
growing,	23
21.@@	23
engineering.	23
zi@@	23
enov	23
landfills	23
Further	23
initiatives.	23
17,	23
anaerobic	23
va	23
ence	23
invest@@	23
Laplace	23
relating	23
improved.	23
soluble	23
servants.	23
van	23
apple	23
x,	23
pa	23
researcher	23
environments	23
met@@	23
assist	23
ologist	23
Bregg	23
storing	23
facilitates	23
(10)	23
Machine	23
resolved.	23
guaranteeing	23
characters	23
indicator,	23
delegation,	23
champion	23
bat@@	23
(with	23
yan@@	23
2]	23
stabilized	23
benefits,	23
artist	23
Khan	23
contrast	23
Abdykalikova.	23
stages,	23
Sk@@	23
tem@@	23
soil,	23
varieties	23
sincere	23
energy-efficient	23
word,	23
lam@@	23
Kok@@	23
examines	23
phosphoric	23
compilation	23
platform,	23
diplomacy	23
grouping	23
-20@@	23
Mongolia	23
fines	23
A,	23
is:	23
double-@@	23
fairly	23
restriction	23
sulphur	23
yk	23
menu	23
deputies,	23
memorable	23
standing	23
metro	23
ational	23
mg	23
ses	23
als,	23
[theta]	23
process@@	23
week.	23
museums	23
97.@@	23
reduced.	22
[2].	22
gradient	22
eaeu	22
council.	22
ment"	22
noticed	22
unlike	22
holy	22
me.	22
affairs,	22
Republic.	22
steady	22
happiness	22
Family	22
justice,	22
2050.	22
750	22
importance,	22
dor@@	22
nearby	22
lines,	22
Ba@@	22
Language	22
Theoretical	22
explosion	22
Simple	22
interlocutors	22
poisoning	22
elasticity	22
obliged	22
campaign,	22
e.@@	22
Chemistry	22
Street	22
coalition	22
sions	22
oper@@	22
fre@@	22
grain,	22
undergoing	22
Zhetysu	22
Step	22
reclamation	22
unusual	22
one,	22
Bal@@	22
Ste@@	22
∆@@	22
paths	22
model@@	22
welfare	22
weights	22
List	22
Serik	22
ence.	22
fans	22
Product	22
notification	22
Traffic	22
sectors.	22
Abdrakhmanov	22
employment.	22
recently,	22
selective	22
judge	22
unreasonable	22
es);	22
heritage,	22
symbolic	22
aly@@	22
bekova	22
ure	22
Murat	22
Policy,	22
ammonia	22
second-level	22
12,@@	22
rails	22
cathode	22
catering	22
et,	22
,@@	22
positions.	22
enti@@	22
Act	22
Cr@@	22
Center,	22
testing,	22
155	22
electronics	22
Mongolia,	22
ek	22
ga	22
adjust	22
log@@	22
parameterization	22
dialogue.	22
weighing	22
boiling	22
ga@@	22
exporting	22
grouped	22
Obtained	22
polar	22
school@@	22
America	22
ven@@	22
CHP	22
ideology	22
K,	22
Further,	22
filters	22
ens	22
sights	22
0,61	22
nowadays	22
sentences	22
112	22
sol@@	22
switching	22
institutes	22
I)	22
lymph	22
sed	22
heterogeneous	22
(1	22
distinctive	22
mission,	22
archive	22
code.	22
win@@	22
segment	22
This,	22
Defense,	22
15,@@	22
Myrzakhmetov	22
lift	22
decision,	22
IE	22
Arduino	22
AN@@	22
specialties.	22
05@@	22
object-oriented	22
ue	22
EL@@	22
Leaders	22
Preparation	22
sagintayev.	22
boilers	22
stimulation	22
managerial	22
Distance	22
fu@@	22
organoleptic	22
dri@@	22
ian	22
borne	22
Gu@@	22
extremely	22
germany	22
ING	22
tel@@	22
obtained.	22
propaganda	22
akhmetov	22
2,000	22
doctors,	22
Affordable	22
confirms	22
UN@@	22
5.8	22
-3@@	22
mor@@	22
saves	22
hectare	22
erosion	22
sectors,	22
quasi-public	22
reveal	22
gra@@	22
biologically	22
zha@@	22
ahko	22
Administrative	22
procedure,	22
reconstructed	22
tower	22
Mag@@	22
land@@	22
crystallization	22
ning	22
dismissed	22
Eurasia	22
ments,	22
"New	22
subsidiaries	22
0,41	22
directions.	22
however	22
eco@@	22
erlan	22
languages.	22
ease	22
single-@@	22
multidimensional	22
wh@@	22
absorb	22
compressor	22
ADS-B	22
sco	22
4.9	22
servicing	22
premises	22
happens	22
olog@@	22
class,	22
Kazatomprom	22
0,50	22
beyond	22
stopped	22
adequately	22
	22
animated	22
kV	22
ates,	22
governing	22
war.	22
atmosphere,	22
zhol@@	22
18,@@	22
dollar	22
mi@@	22
significance,	22
che@@	22
starch	22
steps,	22
problem.	22
replenish	22
forests	22
ability,	22
ed"	22
ants	22
Standards	22
identifies	22
ologist,	22
000	22
Cup	22
concerns	22
ku@@	22
groups:	22
lay	22
Sagintayev.	22
fisheries	22
july	22
strength,	22
mastery	22
d.@@	22
organizes	22
concerning	22
uninterrupted	22
175	22
ade	22
irradiated	22
junior	22
gardens	22
solution.	21
distributing	21
4.1	21
abilities,	21
concentr@@	21
home.	21
UK	21
any@@	21
Kazakh@@	21
peculiarity	21
logistic	21
Europe-Western	21
compiling	21
is.	21
ate)	21
He@@	21
se	21
equations:	21
narrow	21
briefly	21
servants,	21
garden.	21
commemorative	21
ele@@	21
190	21
holding.	21
Sun	21
water-@@	21
VI	21
03	21
tion:	21
granular	21
diverse	21
peak	21
enable	21
soci@@	21
information;	21
putting	21
tak@@	21
ang	21
4.2	21
old.	21
Mama	21
cameras	21
suburban	21
cardiovascular	21
16-@@	21
laws,	21
Sary@@	21
ation-@@	21
Ruslan	21
supplier	21
edition	21
difficulty	21
yttrium	21
Consumer	21
13%	21
enko.	21
loaded	21
Qu@@	21
criticism	21
two-dimensional	21
guard	21
Forum.	21
ground@@	21
wel@@	21
rot@@	21
210	21
conditions:	21
treatment,	21
27.@@	21
akov.	21
attributed	21
program@@	21
ong	21
Shymkent.	21
Internet.	21
heights	21
cre@@	21
DI@@	21
public,	21
260	21
Δ	21
precipitation	21
mag@@	21
sciences,	21
editor	21
Earlier,	21
cardiac	21
Vol@@	21
Nature	21
purity	21
doors	21
scattered	21
Agriculture,	21
50%.	21
geo@@	21
upbringing	21
schedule,	21
careful	21
empirical	21
worldview	21
needs,	21
guarantor	21
happening	21
cows	21
Competition	21
63@@	21
[1].	21
Dmitry	21
fair,	21
January-May	21
Integrated	21
acquiring	21
profitability	21
popularity	21
convert	21
Mon@@	21
continues.	21
da@@	21
co-@@	21
converting	21
devices.	21
1:@@	21
Lyapunov	21
6.7	21
gala	21
bike	21
juvenile	21
slow	21
dead	21
(U@@	21
certified	21
topic:	21
King	21
reveals	21
ur	21
elective	21
drops	21
state-@@	21
kazatomprom	21
collec@@	21
prosecutor	21
exercises,	21
Yuri	21
ban	21
zhambyl	21
ethical	21
ium	21
Lithuanian	21
turbines	21
γ	21
shot	21
9%.	21
144	21
power.	21
calling	21
Sho@@	21
Deputies	21
khanov.	21
MS@@	21
worker	21
armored	21
carbide	21
framework,	21
faces	21
till	21
bulak	21
PP@@	21
tomorrow	21
suggest	21
mak@@	21
GSM	21
simplifies	21
finance,	21
January-June	21
sites,	21
at.	21
Scientists	21
limitations	21
refinery	21
ties;	21
appears	21
identical	21
apartments.	21
trained.	21
translate	21
psychology	21
regional,	21
PR@@	21
6.6	21
alarm	21
facial	21
War.	21
Rec@@	21
vertices	21
situations,	21
%).	21
increases.	21
transformed	21
smell	21
formed.	21
Nigmatulin	21
biochemical	21
prestigious	21
fairs	21
m-@@	21
ak,	21
chronic	21
co	21
e."	21
witnessed	21
US@@	21
Ait@@	21
feeding	21
oilseeds	21
languages,	21
men,	21
mines	21
public@@	21
decisions,	21
hum@@	21
copolymer	21
others,	21
QMS	21
"A.	21
disability	21
produced.	21
VI@@	21
drafted	21
Beijing	21
landfill	21
tok@@	21
les	21
organizers,	21
adolescents	21
[1	21
Ay@@	21
2017-2018	21
ich	21
newspaper	21
liked	21
na@@	21
sts,	21
bank@@	21
"For	21
evolutionary	21
scale,	21
initially	21
system:	21
(up	21
extracted	21
"Best	21
Chief	21
Action	21
mankind	21
triangles	21
Neural	21
ded.	21
nucleus	21
ker	21
EDUCATION	21
g)	21
geographic	21
19,@@	21
Temir	21
1994	21
bar	21
tics	21
assets,	21
processors	21
alism	21
economical	21
Dependence	21
automobile	21
unanimously	21
Tas@@	21
experiment,	21
dam	21
hospital,	21
shymkent	21
6th	21
Az@@	21
child,	21
tanks	21
"Modernization	21
Pl@@	21
analysed	21
graph@@	21
holding,	21
intensively	21
actions.	21
starts	21
unnecessary	21
ideal	21
eliminates	20
semi-@@	20
commitment	20
lasted	20
aktau	20
Agro@@	20
scanner	20
[3].	20
Ali@@	20
ns	20
smallest	20
tics,	20
ra	20
internships	20
CON@@	20
gold,	20
Expo-2017.	20
prizes	20
medals.	20
our@@	20
nation@@	20
Mathematics	20
23,	20
1995	20
collapse	20
hours.	20
park,	20
general.	20
manufacturer	20
pollution,	20
PCM	20
amine	20
Zhoshybayev	20
decades	20
seats.	20
red,	20
figure,	20
silica	20
4.8	20
organized,	20
avi@@	20
Satpayev	20
Requirements	20
cradle	20
(t@@	20
men.	20
N-@@	20
confirm	20
schematic	20
Rus@@	20
AT@@	20
gul@@	20
divisions	20
structured	20
izing	20
prior	20
Effective	20
1).	20
ori@@	20
unit@@	20
Literature	20
(V@@	20
Emergency	20
opportunities,	20
towns,	20
RE@@	20
tor,	20
tunnel	20
establishes	20
	20
kept	20
ones,	20
stopping	20
responsibility.	20
transitions	20
0,77	20
"expo-2017"	20
activ@@	20
shu@@	20
heard.	20
payments,	20
visit.	20
Sal@@	20
recipients	20
allowance	20
maternity	20
landing	20
Index	20
excessive	20
3.6	20
mol/l	20
Agribusiness	20
revolution	20
acidity	20
projec@@	20
sti@@	20
akimats,	20
compound	20
ds.	20
horizons	20
finite	20
route,	20
Primary	20
ometric	20
han	20
30%.	20
presentations	20
2015-2016	20
reinforcement	20
127	20
sc@@	20
seconds	20
arsenic	20
match	20
ve.	20
so,	20
observance	20
))	20
th.	20
capsule	20
heuristic	20
floors	20
AS	20
hosted	20
robotic	20
increase.	20
movement,	20
paraffin	20
ator,	20
On@@	20
6.2	20
Guard	20
(e.g.	20
Singapore,	20
synchronization	20
controllers	20
repeat	20
sentence	20
stro@@	20
manifestation	20
Kazakh-Turkish	20
established,	20
construc@@	20
650	20
entropy	20
BA@@	20
ord@@	20
Innovation	20
chan@@	20
decent	20
proceedings,	20
goals.	20
accident	20
clays	20
study.	20
TPP	20
bill.	20
5.7	20
9)	20
des,	20
hand@@	20
Japan.	20
Bio@@	20
"Orientation	20
Formation	20
joints	20
guests.	20
generating	20
favor	20
ush@@	20
ity."	20
governors	20
2500	20
rectangular	20
mellitus	20
exchanging	20
eri@@	20
Omsk	20
wal@@	20
completeness	20
Alma-Ata	20
quarry	20
AB	20
K)	20
method.	20
Mass	20
longer	20
Young	20
leakage	20
repetition	20
particle	20
ling	20
0,63	20
november	20
TO	20
citizens'	20
steadily	20
agree	20
dam@@	20
9.	20
probe	20
iso@@	20
flash	20
sw@@	20
ovsky	20
noble	20
EEC	20
bending	20
counter@@	20
exporters	20
Tal@@	20
nature.	20
ick@@	20
relational	20
2009.	20
"I	20
"added	20
ines	20
paint	20
bricks	20
action.	20
purchases	20
Kokshetau,	20
ceiling	20
ground,	20
Ver@@	20
governance	20
wheels	20
interpretation	20
tin	20
portals	20
Heritage	20
report.	20
gymnasium	20
cho@@	20
(K@@	20
Associate	20
dec@@	20
ts)	20
man,	20
archival	20
limiting	20
dar@@	20
swimming	20
yp@@	20
diode	20
changed.	20
missile	20
Parliament,	20
gas-@@	20
Expo-2017,	20
reported,	20
paints	20
r.	20
iran	20
pain@@	20
shown.	20
print	20
50.@@	20
Managing	20
indicator.	20
electrolyte	20
PH@@	20
102	20
associate	20
Provides	20
terms,	20
0,42	20
designer	20
Nobel	20
sewerage	20
increasing.	20
meetings.	20
amylopectin	20
heat,	20
Bat@@	20
"Expo-2017."	20
kol	20
sold.	20
hen@@	20
(E@@	20
"new	20
hydrogels	20
se,	20
format,	20
ane	20
0,44	20
rooms,	20
plus	20
necessarily	20
Intelligent	20
arrive	20
ter.	20
sergeant	20
aki@@	20
mur@@	20
bin@@	20
Hungary,	20
mineralization	20
tom@@	20
CO2	20
Studio	20
acceptable	20
portal,	20
malignant	20
AD@@	20
Abai	20
terminology	20
Shu@@	20
type,	20
performers	20
coke	20
nozzle	20
aev.	20
specifically	20
No@@	20
guided	20
ka,	20
earlier,	19
Moscow.	19
ani	19
parabolic	19
tele@@	19
HTML	19
beauty	19
Next,	19
hierarchical	19
ous@@	19
Zhum@@	19
mix	19
anc@@	19
fuel.	19
Mat@@	19
Tul@@	19
operated	19
(8)	19
launched,	19
Tajik	19
and/or	19
oral	19
thirty	19
strengthened.	19
x.	19
translated	19
awareness-raising	19
dishes	19
aliev.	19
antenna	19
distribute	19
established.	19
labor.	19
Kumkol	19
leaders,	19
Tok@@	19
ays	19
2004	19
ary.	19
e-portfolio	19
Ge@@	19
cam@@	19
costs.	19
Gener@@	19
advisable	19
hor@@	19
Kan@@	19
engineer	19
hygiene	19
145	19
list,	19
Efficiency	19
9.3	19
mining,	19
gran@@	19
microbiological	19
subscribers	19
silicate	19
zoning	19
child's	19
Switzerland,	19
ame@@	19
30%,	19
marine	19
phase,	19
syn@@	19
users,	19
entity	19
skills.	19
"We	19
fair.	19
0,97	19
gaz@@	19
ver	19
votes	19
imposed	19
lease	19
a;	19
8.8	19
56@@	19
tractor	19
privatization.	19
isolation	19
salaries	19
2002	19
voluntarily	19
freely	19
Tokayev,	19
17%	19
Petropavlovsk	19
october	19
kal@@	19
fires	19
broadcasting	19
hu@@	19
Compliance	19
highways	19
education;	19
systems;	19
by@@	19
ure@@	19
mol@@	19
clean@@	19
aid	19
eidu	19
4.3	19
Trans@@	19
gaseous	19
der.	19
ala	19
EX@@	19
124	19
toponyms	19
subscription	19
attribute	19
valve	19
@	19
fol@@	19
uro@@	19
CE	19
begun.	19
triple	19
eyes	19
dic@@	19
ace@@	19
cutter	19
vari@@	19
list.	19
hear	19
convinced	19
surrounding	19
ate.	19
gathering	19
P-@@	19
W/@@	19
Vietnam	19
tim@@	19
studen@@	19
10%.	19
ships	19
"future"	19
ju@@	19
vo@@	19
Akh@@	19
ligh@@	19
deaths	19
clarified	19
1991	19
doctrine	19
map.	19
football	19
villages.	19
launching	19
oven	19
collections	19
Find	19
"A@@	19
exclusive	19
Poly@@	19
minimize	19
nationwide	19
arc	19
optimized	19
stor@@	19
Saryarka	19
4-5	19
Aman@@	19
1700	19
Current	19
democracy	19
Economics	19
low-frequency	19
Kum@@	19
dispersed	19
song	19
ks,	19
Future:	19
Ap@@	19
yev,	19
WITH	19
intentions	19
arena.	19
incorrect	19
Light	19
forums	19
ose	19
outlet	19
sk,	19
eliminated	19
thread	19
gal@@	19
shi@@	19
oath	19
associ@@	19
6.4	19
2025,	19
high.	19
play@@	19
Minimum	19
380	19
adviser	19
reserves,	19
Risk	19
suspended	19
gor@@	19
Automatic	19
term,	19
(Fig.	19
positions,	19
conver@@	19
informational	19
Tri@@	19
maslikhats,	19
ations:	19
9.6	19
copies	19
Composition	19
?"	19
Certification	19
fighting	19
MATLAB	19
LA@@	19
Senior	19
textbooks,	19
servers	19
dog	19
referred	19
Reference	19
locomotives	19
ations)	19
ideas,	19
acts.	19
borrowed	19
localization	19
solidarity	19
religions,	19
straight	19
President's	19
army.	19
ship@@	19
pesticides	19
protection.	19
Moscow,	19
+@@	19
@@	19
Firstly,	19
Gumilev	19
presented,	19
Agriculture.	19
red.	19
producers,	19
drill	19
Sea,	19
Found	19
electrochemical	19
leisure	19
complicated	19
ide	19
evidenced	19
hockey	19
part@@	19
8.2	19
vol@@	19
implicit	19
sanitation	19
PO@@	19
parliaments	19
SQL	19
attracts	19
ate@@	19
i-@@	19
0,38	19
postal	19
she@@	19
enterpris@@	19
efficiency.	19
limitation	19
"digital	19
reform,	19
shrubs	19
2012@@	19
defenders	19
workplace	19
paradigm	19
gifts.	19
10,@@	19
homeland,	19
Create	19
ali	19
analyzes	19
Romanian	19
models,	19
corps,	19
[4@@	19
ratings	19
p)	19
mixer	19
"as	19
pho@@	19
features,	19
20.	19
196@@	19
H.	19
meaningful	19
5.3	19
you.	19
LI@@	19
victory.	19
assured.	19
ana	19
competitiveness,	19
teleconference	19
Staff	19
Akmola,	19
medicinal	19
convicted	19
jubilee	19
urge	19
paper,	19
efficiently	19
enhanced	19
khan@@	19
non@@	19
games,	19
justify	19
technically	19
"T@@	19
assured	19
Kam@@	19
8.7	19
year-old	19
“@@	19
tt@@	19
alizing	19
enabling	19
istic	19
medicine.	19
exactly	19
alphabet.	19
age@@	19
learning.	19
Semey	19
sewing	19
Israel,	19
kazakhstanis	19
tungsten	19
bay@@	19
ID@@	19
Air@@	19
printer	19
formats	19
Experience	19
charged	19
tradition,	19
secure	19
CM@@	19
BO@@	19
107	19
charter	19
boron	19
more.	19
alcoholic	19
Initially,	18
n.a.	18
XML	18
Abay,	18
?@@	18
programm@@	18
max	18
Nodes:	18
condensate	18
members.	18
Book	18
substances,	18
Activities	18
grows	18
drip	18
pr@@	18
ank@@	18
unhindered	18
studio	18
him@@	18
lessons,	18
Min@@	18
itu@@	18
tenge),	18
65%	18
honey	18
por@@	18
broadband	18
unresolved	18
taxonomy	18
evalu@@	18
I,	18
father	18
nanotechnology	18
depletion	18
Gulshara	18
stronger	18
Growth	18
2003	18
cards	18
Joint	18
0,74	18
sharply	18
legisl@@	18
trafficking	18
one.	18
SS@@	18
chicken	18
jsc	18
extractant	18
multilayer	18
studied,	18
Val@@	18
Reduction	18
Au@@	18
25-@@	18
tex@@	18
him.	18
naval	18
poured	18
DNA	18
including:	18
grams	18
Artist	18
laureate	18
los@@	18
satellites	18
collision	18
phosphorite	18
microscopic	18
severity	18
calcul@@	18
finally	18
sequential	18
kan@@	18
January-February	18
students;	18
aids	18
dozens	18
solutions,	18
concentrates	18
estimates,	18
ties:	18
exists	18
Equipment	18
ran@@	18
ce	18
Kassym-generous	18
approving	18
dividing	18
(O@@	18
schoolchildren,	18
pellets	18
em	18
questionnaire	18
respondents	18
TO@@	18
excavations	18
religions.	18
shifts	18
or.	18
pastures	18
I-@@	18
jinping	18
occasion	18
ce:	18
lan@@	18
ches	18
relevant.	18
zo@@	18
fragment	18
develop@@	18
z,	18
abayev	18
season.	18
administrations	18
pre-trial	18
Baibek	18
mail	18
Zhak@@	18
sing	18
dimensional	18
stress-strain	18
road@@	18
ants,	18
tax,	18
books,	18
intelligentsia,	18
themselves,	18
falling	18
Country	18
bits	18
subsidy	18
Quantitative	18
author@@	18
ator@@	18
white,	18
CIS.	18
hotels,	18
lithium	18
adi@@	18
decision.	18
redistribution	18
urbanization	18
Astana-@@	18
comp@@	18
restaurant	18
solves	18
spherical	18
ering	18
Small	18
don@@	18
skoye	18
ionizing	18
"Third	18
tau	18
ko,	18
22.@@	18
innovation.	18
half-@@	18
unused	18
ts;	18
rain	18
proposals.	18
homogeneity	18
−	18
ambitious	18
Duissenova	18
fellow	18
negotiations.	18
coordinator	18
3]	18
incentives	18
group@@	18
diplomats	18
68@@	18
baev@@	18
modernized	18
Result	18
2030.	18
prerequisite	18
taxation	18
encountered	18
(L@@	18
Line	18
Export	18
owned	18
kum@@	18
uniformity	18
tells	18
8.4	18
2017-2018,	18
holders	18
insurance.	18
building.	18
Syria.	18
tol@@	18
gen	18
tre@@	18
combustible	18
g/l	18
ine@@	18
paintings	18
arm@@	18
theoretically	18
designers	18
horizon	18
te.	18
Radi@@	18
paired	18
mirror	18
ket@@	18
intelligentsia	18
ultrasonic	18
adhesion	18
CEO	18
normally	18
eco-@@	18
extinguishing	18
Artificial	18
decisions.	18
nov@@	18
Flash	18
(c@@	18
1,6@@	18
integrate	18
teaches	18
850	18
lan	18
respects	18
eu	18
regulator	18
Saryagash	18
ment;	18
historically	18
minutes,	18
friendship,	18
coins	18
ingots	18
ill	18
crew	18
Mu@@	18
compensate	18
Muk@@	18
opened,	18
sts.	18
transistor	18
Evaluation	18
absorbed	18
ps,	18
approved,	18
shows,	18
D,	18
baiterek	18
0,64	18
ң@@	18
gifted	18
filtered	18
ECE	18
	18
notice	18
good@@	18
Tor@@	18
(W@@	18
steps,"	18
perinatal	18
crime,	18
assembling	18
197@@	18
farm,	18
CO	18
contractors	18
rotary	18
wild	18
Active	18
SH@@	18
corporations	18
demonstration	18
Analytical	18
aroused	18
throughput	18
Unfortunately,	18
instructions,	18
farms,	18
Can	18
"ar@@	18
courts,	18
low@@	18
-2020	18
55@@	18
relay	18
seek	18
um-@@	18
(k@@	18
it's	18
es-@@	18
Mechanical	18
systematize	18
nanocomposite	18
professionals.	18
Veterans	18
Romania	18
tourists,	18
58@@	18
Euro@@	18
table.	18
Now,	18
yak@@	18
AP@@	18
li	18
Informatization	18
disclosure	18
polyclinic	18
capabilities,	18
patriotism,	18
Mineral	18
impacts	18
osis	18
Berdybek	18
june	18
Ros@@	18
campaign.	18
ferro@@	18
Ob@@	18
TB	18
electrolysis	18
pillar	18
voted	18
festival,	18
washed	18
path@@	18
mills	18
ous,	18
Ir@@	18
watch	18
B-@@	18
"Development	18
@@	18
Visual	18
antimonopoly	18
layout	18
[16]	18
pres@@	18
Building	18
0,72	18
regeneration	18
y),	18
Maple	18
speaker,	18
ler	18
Metallurgical	18
ECG	18
calm	18
tubular	18
eli@@	18
treaties	18
Issekeshev.	18
TBT	18
Example	18
election.	18
u-@@	18
cat@@	18
unlimited	18
MW@@	18
151	18
Ag@@	18
5.1	18
destroy	18
Projects	18
Karak@@	18
270	18
integr@@	18
board.	18
ble	18
beds	18
projection	18
|	18
namely	18
quality.	18
"for	18
strongly	18
procedures.	18
withdrawn	17
tors	17
subsidies.	17
alization	17
"Kazakh	17
peoples,	17
key@@	17
19th	17
zhanov,	17
API	17
distances	17
cul@@	17
condensation	17
slight	17
yu@@	17
processing.	17
vary	17
X-@@	17
(11)	17
coordin@@	17
test,	17
able,	17
05%	17
ic)	17
decontamination	17
Top@@	17
organizer	17
need.	17
movable	17
sel@@	17
Jordan	17
V.@@	17
Higher	17
ned	17
equipping	17
Ensuring	17
academ@@	17
Aktobe.	17
54@@	17
bandwidth	17
manner,	17
questions,	17
bit@@	17
Karab@@	17
60-@@	17
tru@@	17
see,	17
clinics,	17
4]	17
profiles	17
fr@@	17
Khanate,	17
approximately	17
abnormal	17
crimes,	17
Specific	17
seeing	17
vegetables,	17
Tajikistan.	17
result@@	17
index,	17
systematized	17
ago.	17
assistant	17
COMPUTER	17
ine,	17
home,	17
ies,	17
Je@@	17
ations;	17
Optimization	17
"P@@	17
dol@@	17
endurance	17
ultraviolet	17
nur	17
pavlodar	17
Kazavtodor	17
mention	17
Relations	17
task.	17
usual	17
adhere	17
made.	17
Bul@@	17
Hague	17
concept,	17
refer	17
101	17
pressure,	17
derivative	17
emul@@	17
prison	17
low-quality	17
received,	17
peoples.	17
Duissenova.	17
taken,	17
direc@@	17
verify	17
Bank.	17
3;	17
relate	17
At@@	17
Differential	17
sends	17
Her@@	17
ent,	17
reconstruct	17
bear	17
consumers,	17
Baurzhan	17
0,83	17
deadlines	17
orbital	17
characterize	17
function@@	17
crime.	17
influences	17
gifts	17
98@@	17
chemicals	17
Siberian	17
approaching	17
AT	17
boards	17
29.@@	17
circulatory	17
Participation	17
Syria	17
pulp	17
Mas@@	17
surface,	17
Bulgaria	17
luck	17
clothes	17
soldier	17
ON@@	17
Sha@@	17
decreased.	17
ov's	17
das	17
fixing	17
applications.	17
(e.g.,	17
vaccination	17
turkey	17
course.	17
devi@@	17
compaction	17
fuels	17
Frequency	17
Used	17
104.@@	17
highlight	17
@@	17
numbers,	17
value.	17
tam@@	17
Australia,	17
Australian	17
scal@@	17
but,	17
capillary	17
exception	17
January-October	17
∙	17
guests,	17
biosphere	17
exemption	17
images,	17
accumulate	17
stiffness	17
bs	17
coastal	17
Lesson	17
portal.	17
vehicles.	17
Created	17
pricing	17
buildings.	17
6.1	17
ferrous	17
interim	17
Comprehensive	17
"E@@	17
level@@	17
failures	17
hydrophobic	17
substantive	17
flow@@	17
photographs	17
position,	17
sis	17
holidays,	17
cited	17
more,	17
ara	17
ern@@	17
element,	17
slice	17
abstract	17
maintains	17
ers"	17
modelling	17
altitude	17
people)	17
mercury	17
ero@@	17
mir@@	17
harmonization	17
(200@@	17
media,	17
sing@@	17
acquire	17
[1@@	17
abandon	17
hospitality	17
Art	17
informative	17
u,	17
ain	17
Brazil,	17
ano@@	17
Coal	17
selects	17
examination,	17
Climate	17
challenges.	17
stick	17
DEVELOPMENT	17
acet@@	17
Hadoop	17
0,79	17
disturbed	17
fur@@	17
kernel	17
Semey,	17
advancement	17
machines,	17
0,70	17
el.	17
Econom@@	17
discount	17
fit	17
vacancies	17
multifunctional	17
Influence	17
obligations.	17
appreciates	17
Task	17
achievements.	17
effect,	17
rats	17
centres	17
lab@@	17
4.7	17
icity	17
Mir@@	17
destructive	17
equity	17
steps:	17
hunting	17
fire@@	17
cars.	17
14%	17
cleaned	17
28.@@	17
Ti@@	17
"R@@	17
indicative	17
Applications	17
pharmaceuticals,	17
citizen.	17
frames	17
mix@@	17
submitting	17
classify	17
systematization	17
Official	17
developing,	17
er;	17
ft	17
Fi@@	17
Vali@@	17
role.	17
77@@	17
2001	17
DE@@	17
goal.	17
20,@@	17
Parameters	17
military-industrial	17
infrared	17
ity:	17
equ@@	17
knew	17
lenses	17
two-day	17
Fe	17
moment,	17
colleges,	17
complement	17
P,	17
followed	17
Dossayev	17
survived	17
dan@@	17
yr	17
(15)	17
138	17
G-@@	17
uniqueness	17
Z.	17
sim@@	17
management;	17
considerable	17
step@@	17
wa@@	17
consumption,	17
educating	17
MB@@	17
atyrau	17
2;	17
planned,	17
ki	17
ris@@	17
Is	17
Once	17
ping,	17
cooled	17
VII	17
stimulates	17
outcome	17
dehydration	17
updated.	17
ib@@	17
dead@@	17
batteries	17
09@@	17
Arabia,	17
001	17
Bayanaul	17
chart	17
distilled	17
az	17
chapter	17
zhanov.	17
PC@@	17
explanations	17
old,	17
feelings	17
disciplinary	17
ignore	17
food@@	17
ministerial	17
erected	17
honest	17
mol	17
Suleimenov	17
0,69	17
continu@@	17
5]	17
agencies.	17
scenario	17
volume,	17
ram	17
provider	17
40.@@	17
politicians	17
Credit	17
assessment,	17
procurement.	17
dates	17
ously	17
inform@@	17
aesthetic	17
criticized	17
re	17
again,	17
exam	17
struggle	17
.kz.	17
portable	17
Level	17
individually	17
consciousness,	17
1998	17
sted	17
virtualization	17
damping	17
warming	17
(16@@	17
medicines,	17
villages,	17
route.	17
tion;	17
correspondence	17
Political	17
qualities,	17
EMG	17
numeric	17
architecture,	17
ts:	17
195@@	17
modeling,	17
frozen	17
phytosanitary	17
1,4@@	17
mobilize	17
house@@	17
Netherlands,	17
furnaces	17
faction	17
leveling	17
influencing	17
satisfied	17
ce"	17
Block	17
accoun@@	17
acquires	17
m/@@	17
dealing	17
1,200	17
microwave	17
Bar@@	17
patent	17
let@@	17
etc.,	17
PS	17
ley	17
sak@@	17
platform.	17
Indeed,	17
studied.	17
landscaped	17
tal	17
shu	17
a/@@	17
zon@@	17
significance.	17
ance,	17
subscriber	17
repaired.	17
Adilbek	17
airline	17
2020-20@@	17
sky,	17
ae@@	17
aeration	17
spare	16
Parliament.	16
York	16
progress,	16
17,@@	16
financing.	16
Brazil	16
colored	16
5;	16
discipline,	16
340	16
005	16
object,	16
Additions	16
joy	16
ast	16
valence	16
Strategy.	16
specialist,	16
colleague	16
introduces	16
kur@@	16
Directorate	16
ultimately	16
legacy	16
Petropavlovsk,	16
defense,	16
system"	16
18%	16
ozone	16
SI@@	16
2).	16
layer,	16
cobalt	16
message.	16
coated	16
154	16
Energy,	16
relaxation	16
Medicine	16
Enter	16
environment@@	16
Provision	16
[5@@	16
acts,	16
Changing	16
ic-@@	16
ble@@	16
attributes	16
Hyper@@	16
urg@@	16
buckwheat	16
equality,	16
agency.	16
leader.	16
den	16
ta,	16
def@@	16
60.@@	16
attempts	16
communic@@	16
day@@	16
Women	16
nur-sultan	16
know@@	16
kilometers.	16
surveys	16
existential	16
permit	16
dig@@	16
diaspora	16
tennis	16
unit,	16
0,86	16
Dauren	16
class@@	16
Tamara	16
iev	16
er:	16
pe	16
rid@@	16
Zhol	16
kov,	16
til@@	16
neck	16
Myrzakhmetov.	16
cracks	16
11]	16
updates	16
oil@@	16
sustainability	16
wait	16
summer,	16
grass	16
alized	16
allocated.	16
constitution,	16
wooden	16
GPS	16
Important	16
forward.	16
cinema	16
que	16
PS@@	16
disciplines,	16
afghanistan	16
lit@@	16
5.9	16
reaction,	16
aging	16
acy	16
153	16
cation	16
rol@@	16
farm.	16
n.nazarbayev.	16
bre@@	16
LL@@	16
violating	16
l,	16
prepared.	16
capacitor	16
ant,	16
-2020,	16
squares	16
sealing	16
planting	16
na	16
indeed,	16
understanding,	16
buyers	16
Syria,	16
couple	16
military-patriotic	16
client-server	16
Vietnamese	16
termination	16
inexpensive	16
cavities	16
reason,	16
asphal@@	16
kyrgyzstan	16
ologists,	16
Citizens	16
twenty-@@	16
recommendation	16
Function	16
innovations,	16
ation),	16
pass@@	16
definitely	16
Models	16
likely	16
-containing	16
1995,	16
edges	16
pipelines,	16
$1	16
patriotism.	16
merit	16
assimilation	16
proceeds	16
Gor@@	16
begun,	16
Rector	16
strains	16
moreover,	16
shown,	16
fitness	16
water-soluble	16
Linear	16
enshrined	16
Languages	16
ure,	16
Attorney	16
law@@	16
Children's	16
tissue	16
ED@@	16
network@@	16
wrote	16
hazards	16
equip	16
expected.	16
100%,	16
learns	16
dental	16
fun@@	16
understanding.	16
L)	16
porous	16
batch	16
rocket	16
destination	16
21-@@	16
tine	16
settings	16
Today's	16
hardness	16
Multimedia	16
sat@@	16
Samples	16
Dar@@	16
PRO@@	16
second,	16
milling	16
de)	16
ethyl	16
player	16
maxim@@	16
192	16
flu@@	16
a).	16
three-level	16
75@@	16
granulometric	16
1...	16
cent@@	16
22-@@	16
25%,	16
ym	16
auction	16
acidic	16
neutral	16
transistors	16
thi@@	16
campaigning	16
Mc@@	16
competence,	16
Cap@@	16
pu@@	16
new@@	16
TS	16
unscheduled	16
motto	16
stator	16
position.	16
undergraduates	16
deprivation	16
able.	16
pumped	16
auto@@	16
5.4	16
substrate	16
e-mail	16
NASSR	16
liberalization	16
contamin@@	16
2),	16
WTO,	16
(on	16
..	16
date.	16
repair,	16
reading.	16
stan	16
H2	16
diversifying	16
've	16
context,	16
Operation	16
motivational	16
vers@@	16
-2@@	16
nevertheless,	16
far,	16
develop,	16
90.@@	16
charging	16
tions:	16
work:	16
method:	16
activists	16
10th	16
transitional	16
functions:	16
theatrical	16
Abdi@@	16
trends,	16
bai@@	16
ment:	16
10,000	16
rope	16
_n@@	16
Egypt	16
cell@@	16
025	16
≤	16
ener@@	16
plans.	16
xi	16
region@@	16
Length	16
[5	16
sky.	16
received.	16
temporal	16
sk.	16
0,37	16
poets	16
optic	16
Sur@@	16
ving	16
jet	16
humans	16
ez@@	16
35%	16
breakthrough	16
commissions,	16
𝑖@@	16
Br@@	16
showing	16
cel@@	16
Saparbayev.	16
corrected	16
argon	16
mm)	16
exemplary	16
duties,	16
Electrical	16
politicians,	16
tens	16
chain,	16
...	16
Farabi	16
"astana	16
imaging	16
Set	16
park.	16
self-government	16
York,	16
His	16
kingdom	16
stochastic	16
sporting	16
satisfies	16
large,	16
ings,	16
firmly	16
unfortunately,	16
zation	16
0,75	16
instrumental	16
6%)	16
Kus@@	16
workshop,	16
penal	16
lat@@	16
creativity,	16
productions	16
invest"	16
cal@@	16
rationally	16
expres@@	16
aerodynamic	16
accounted	16
hydrological	16
screw	16
16,@@	16
Kun@@	16
necessary.	16
bio-@@	16
№	16
connects	16
frequencies	16
trac@@	16
mausoleum	16
"and"	16
photos	16
favorite	16
sections,	16
barrels	16
colors	16
x)	16
labeling	16
res.	16
EM@@	16
Cam@@	16
Automation	16
bound	16
endo@@	16
3.9	16
halls	16
industrialization.	16
taxes,	16
author's	16
pas@@	16
Av@@	16
0C	16
safety.	16
3000	16
foam	16
streams	16
deb@@	16
audience,	16
Semantic	16
econom@@	16
ist@@	16
clarification	16
controls	16
System@@	16
excavator	16
lawyers	16
arena,	16
sampling	16
train@@	16
explains	16
tor.	16
Labour	16
360	16
rapprochement	16
att@@	16
tax@@	16
low-enriched	16
Talas	16
developmental	16
means,	16
O)	16
returns	16
deadline	16
Free	16
kov	16
phosphates	16
scored	16
uz@@	16
accountability	16
dic	16
B.@@	16
bir@@	16
legalized	16
Shan	16
tape	16
small,	16
hair	16
"will	16
diseases.	16
seat	16
defined,	16
don't	16
cases.	16
Zhol@@	16
zher"	16
spontaneous	16
157	16
physics,	16
fibrous	16
Moldova,	16
Theory	16
ons.	16
on)	16
dominated	16
al;	16
channels,	16
time@@	16
tors,	16
Organiz@@	16
methodical	16
bone	16
february	16
farms.	16
defect	16
fish,	16
ker@@	16
Ben@@	16
export-oriented	16
includes:	16
hosting	16
its,	16
UR@@	16
proving	16
objec@@	16
person's	16
computer@@	16
petro@@	16
novelty	16
motors	16
Entrepreneurs,	16
"Capital	16
khanov,	16
seats,	16
cost-effective	16
Ballet	16
fluor@@	16
saline	16
2022	16
adjusted	15
Ser@@	15
interfaces	15
roc@@	15
ts"	15
","	15
leaders.	15
camel	15
Steps"	15
Plan,	15
copper,	15
practices,	15
Zn	15
talents	15
eighth	15
facility,	15
25,@@	15
volatile	15
Solving	15
қ	15
regard.	15
practic@@	15
08	15
confidently	15
web@@	15
server,	15
itself,	15
gamma	15
normalized	15
Mukhtar	15
ric@@	15
mg/@@	15
vessel	15
converters	15
tobacco	15
manifestations	15
ological,	15
trucks	15
generates	15
neurons	15
examining	15
ret@@	15
Samruk-Kazyna	15
striking	15
supplying	15
kov@@	15
Equations	15
Finance,	15
border.	15
interlocutor	15
Georgian	15
fuzzy	15
algorithmic	15
economics,	15
Transfer	15
infection	15
briefing,	15
ative,	15
headings	15
Optical	15
assessment.	15
07	15
prepared,	15
speed,	15
G)	15
MSW	15
Zha@@	15
Du@@	15
pp.	15
00-@@	15
15th	15
viewing	15
initiative.	15
265	15
7.7	15
Pakistan,	15
Africa	15
profession,	15
dependencies	15
Abu	15
understandable	15
waterproof	15
tend	15
136	15
standard.	15
kdb	15
standard,	15
Selection	15
opinion.	15
algorithms,	15
less@@	15
on;	15
journal	15
yev.	15
unemployed,	15
g;	15
sounds	15
subsequently	15
tic-@@	15
motor@@	15
increase,	15
Theorem	15
Beis@@	15
Determine	15
leg	15
aev,	15
osh@@	15
heads.	15
click	15
consciousness.	15
mid-@@	15
yar@@	15
20%.	15
summarized	15
demand.	15
[1-3]	15
knives	15
weeks	15
cli@@	15
specification	15
temirtau	15
(16)	15
Performance	15
Lu@@	15
difficulties.	15
examinations	15
KPI	15
’s	15
aviation,	15
Pulse	15
biggest	15
partner.	15
ders,	15
result.	15
bearing	15
facility.	15
vote.	15
announced.	15
50%,	15
attachment	15
belts	15
Part	15
abdykalikova	15
university.	15
Properties	15
03@@	15
kel@@	15
OR@@	15
242	15
ters,	15
Vi@@	15
customs,	15
tourists.	15
metropolis.	15
Open@@	15
insignificant	15
(at	15
fossil	15
browser	15
[6@@	15
apartments,	15
prizes.	15
products:	15
topographic	15
cream	15
aba@@	15
eva,	15
textiles	15
ethno@@	15
pre-school	15
life"	15
exist	15
GW	15
clarifying	15
integrating	15
"e-@@	15
timur	15
Practical	15
Presidents	15
20%,	15
sea,	15
nu@@	15
Kyzyl@@	15
Malaysia,	15
Australia	15
Vietnam,	15
high@@	15
II,	15
tive,	15
wor@@	15
zones.	15
transform@@	15
extradition	15
164	15
ar.	15
case.	15
orth@@	15
present@@	15
Oraz@@	15
assume	15
Unity	15
Availability	15
7%),	15
5%)	15
Railway	15
Strategy,	15
intensi@@	15
Abdullah	15
adjusting	15
lying	15
offshore	15
Turkmen	15
exempt	15
Zhumagaliyev	15
additive	15
english	15
tripartite	15
1,000	15
software,	15
crews	15
S,	15
firm	15
Bayes	15
elite	15
presidency	15
244	15
non-food	15
COVID-19	15
gets	15
9]	15
fifty	15
workplaces	15
fon@@	15
Standardization	15
dat@@	15
congratulatory	15
Border	15
Doctor	15
169	15
disarmament,	15
requirements:	15
1991,	15
assortment	15
specifications	15
tai	15
jan	15
skaya	15
miners	15
ism.	15
coaches	15
vibr@@	15
urged	15
Dubai	15
be,	15
development."	15
INFORMATION	15
adb	15
finish	15
predicted	15
turn@@	15
ity,"	15
shap@@	15
le.	15
32@@	15
Democratic	15
corporation,	15
installed,	15
provi@@	15
Sol@@	15
47@@	15
activated	15
oph@@	15
Health,	15
cattle,	15
sion.	15
centuries-old	15
leg@@	15
minerals,	15
fusion	15
ization,	15
acti@@	15
confidence-building	15
the"	15
stimulants	15
Mur@@	15
chaos	15
helicopters	15
other@@	15
hydrogenation	15
blasting	15
"beam	15
thick	15
plain	15
"explained	15
restored.	15
microfinance	15
proposals,	15
repaired,	15
mayors	15
EU.	15
ground.	15
Mathcad	15
equestrian	15
map@@	15
Kassymbek	15
homes	15
flask	15
5-6	15
asbestos	15
chamber.	15
89@@	15
foreigners	15
troops,	15
therapy	15
40-@@	15
burial	15
creation,	15
Mod@@	15
chi@@	15
neighbor	15
guidelines	15
commissioner	15
acetate	15
parent	15
barriers.	15
ger	15
Sam@@	15
Sto@@	15
caring	15
dal@@	15
execute	15
oul@@	15
Intergovernmental	15
Bulgaria,	15
DB@@	15
8.6	15
inertia	15
Wind	15
corpor@@	15
licenses	15
public.	15
seedlings	15
solutions.	15
Gre@@	15
1992,	15
ecu	15
unconditional	15
Senate.	15
ministry.	15
Assembly,	15
Vasily	15
registered.	15
country,"	15
pilots	15
_g@@	15
annually,	15
identified.	15
odor	15
pointed	15
Pr@@	15
Pa@@	15
2%)	15
agro-@@	15
peace.	15
outreach	15
p"	15
fermentation	15
(17)	15
amounting	15
pop	15
Te@@	15
scale.	15
continental	15
SYSTEM	15
55%	15
0.5	15
co-financing	15
Self-@@	15
expenditure	15
Surface	15
generalization	15
EAEU.	15
marking	15
1997	15
steppes	15
LLC	15
officials,	15
billions	15
kyzylorda	15
Conditions	15
perspective	15
etc	15
forecasts,	15
wheat,	15
exper@@	15
category.	15
august	15
done,	15
ves.	15
D-@@	15
everyone.	15
sitting	15
sions,	15
Acting	15
complexes.	15
Type	15
rov,	15
zin@@	15
ages,	15
7.6	15
woman	15
isothermal	15
photographed	15
embassy	15
changing,	15
imag@@	15
thorough	15
atory	15
poet	15
ats,	15
Assistant	15
Malaysia	15
bolat	15
selected,	15
season,	15
employ	15
8]	15
Raman	15
Computing	15
9.1	15
bab@@	15
ba	15
appreciation	15
2013@@	15
assisting	15
relates	15
crimes.	15
om	15
Indonesia	15
plastics	15
Hi@@	15
EHR	15
st-@@	15
ion@@	15
helping	15
described.	15
lac@@	15
Search	15
modeled	15
adequate	15
judges.	15
Olympiad	15
country."	15
are,	15
Kashagan	15
[4	15
privatization,	15
trainees	15
SE@@	15
momentum	15
Purpose	15
capability	15
literacy,	15
sub-@@	15
27,	15
session.	15
ite@@	15
ar-@@	15
𝐵@@	15
Sab@@	15
instance	15
din	15
)@@	15
zhol."	15
Members	15
green@@	15
music,	15
cycles	15
etc.)	15
AL@@	15
achieved.	15
Singaporean	15
Nikolai	15
aggregate	15
Expert	15
statements	15
mukhtar	15
convey	15
failed	15
aya	15
97%	15
193@@	15
Finally,	15
commerce	15
desertification	15
lay@@	15
abaev	15
ay.	15
2O@@	15
olo@@	15
withdrawal	15
UNT	15
fertilizer	15
(-@@	15
ber	15
ferroalloy	15
126	15
informing	15
tain@@	15
Thai	15
potatoes,	15
98%	15
continues,	15
abil@@	15
chlor@@	15
ron	15
memory,	15
textbook,	15
phon@@	15
non-compliance	15
V-@@	15
⨁@@	15
𝐾@@	15
initi@@	15
references	15
"was	15
2011.	15
78@@	15
orthogonal	15
someone	15
TED	15
Suleimenov.	15
contaminants	15
76@@	15
extends	15
ory	15
0,95	15
fighters	15
ations"	15
symmetry	15
receiver	15
responses	15
procurement,	15
clients	15
Mukh@@	15
Material	15
Discussion	15
Majilis.	15
valves	15
friend	15
ride	15
expo@@	15
firms	15
Honorary	15
sediments	15
book,	15
byte	15
bypass	15
p-@@	15
advis@@	15
altyn@@	15
demand,	15
cup	15
reproduction	15
instruc@@	15
masses	15
directions,	15
techn@@	15
flooded	15
paleontological	15
exoskeletons	14
unloading	14
Inform@@	14
condensed	14
Constitution,	14
Tu@@	14
India.	14
anomalies	14
Image	14
Problem	14
lights	14
M1	14
RES@@	14
ful	14
loses	14
concer@@	14
Interaction	14
magnitude	14
anchor	14
tariffs,	14
brothers	14
vis@@	14
ot	14
affairs.	14
si	14
ine)	14
consisted	14
elderly	14
ovich,	14
airspace	14
publicly	14
Teaching	14
iron-@@	14
puts	14
smailov.	14
Kazakh-American	14
stand@@	14
office.	14
overhead	14
Carbon	14
4%)	14
"Eternal	14
formulation	14
passeng@@	14
popul@@	14
A-@@	14
kindergartens.	14
alu@@	14
U-@@	14
LE@@	14
NO@@	14
forthcoming	14
Kazakh-Kyrgyz	14
nic@@	14
khanate	14
z.	14
Help	14
striving	14
Dalenov	14
function:	14
repayment	14
consultant	14
tea	14
identified,	14
twenty-first	14
informal	14
ick	14
unambiguous	14
distribu@@	14
(see	14
lieutenant	14
exhibitions,	14
Uses	14
parity	14
tenges	14
137	14
declarations	14
ei@@	14
Programming	14
generations,	14
May,	14
PRC	14
surprised	14
inspectors	14
toll	14
advent	14
lem@@	14
vapor	14
Leader	14
mass@@	14
8.9	14
Class	14
batyr	14
indicator@@	14
nursing	14
capitals	14
Igor	14
crucible	14
boxing	14
magne@@	14
Flow	14
163	14
Testing	14
Kurgan	14
Yak@@	14
tracks	14
accepts	14
Roman	14
Talgat	14
tablet	14
NS@@	14
humidification	14
sniper	14
battalion	14
u.	14
childhood	14
tear	14
voic@@	14
e,"	14
aspects,	14
chem@@	14
lin	14
returning	14
integral-differential	14
summit.	14
High-@@	14
detail.	14
sov	14
band@@	14
eo	14
pyramid	14
looks	14
athlete	14
blanks	14
jewelry	14
ge.	14
en-@@	14
3.0	14
Reports	14
"Nazarbayev	14
computers,	14
Shal@@	14
whe@@	14
grains	14
activate	14
gh@@	14
yst@@	14
	14
cou@@	14
ame	14
78%	14
minute	14
passport	14
1,7@@	14
2015;	14
development"	14
microcontroller	14
income,	14
neighbors	14
mood	14
curvature	14
tion-@@	14
philosophy	14
sai@@	14
runoff	14
company"	14
five-@@	14
rein@@	14
phil@@	14
atom@@	14
text,	14
je@@	14
airmobile	14
prescribed	14
acid,	14
um)	14
center@@	14
siz@@	14
founders	14
se.	14
sale.	14
cast@@	14
divi@@	14
prepares	14
fication	14
deals	14
therm@@	14
frameworks	14
1]	14
multi-level	14
knife	14
significantly.	14
prosperity.	14
fold	14
islamic	14
decorative	14
Work@@	14
Mad@@	14
Ter@@	14
fro@@	14
criteria,	14
barriers,	14
ate"	14
secular	14
tends	14
apparatus.	14
yonson	14
factory,	14
Minsk	14
(13@@	14
crucial	14
recognizing	14
carrot	14
ml@@	14
purposeful	14
needed,	14
acc@@	14
mostly	14
ab	14
bentonite	14
contractor	14
poorly	14
isolate	14
imov.	14
Armenia.	14
elemental	14
Erlan	14
departments.	14
Multi-@@	14
trilingual	14
185	14
types,	14
B-Learning	14
Gal@@	14
movement.	14
2019@@	14
tics.	14
adapting	14
formation,	14
braking	14
80-@@	14
4.6	14
06@@	14
Especially	14
conventions	14
EE@@	14
sands	14
sections.	14
au,	14
BR@@	14
"Digital	14
popularization	14
alkali	14
chinese	14
External	14
Ecu	14
b]	14
kindergarten,	14
regime.	14
mark@@	14
meat.	14
difficult.	14
raised.	14
satisfactory	14
Unified	14
235	14
extremism.	14
watched	14
oscillators	14
Ul@@	14
(t	14
interpreted	14
aggressive	14
mined	14
road"	14
beet	14
account,	14
excursion	14
hear@@	14
23-@@	14
originally	14
week@@	14
exponential	14
shipping	14
zhe@@	14
German@@	14
1-2	14
acrylic	14
polymerization	14
ve;	14
ratios	14
ZH@@	14
inlet	14
ear@@	14
und@@	14
as.	14
working,	14
dissociation	14
nuclear-free	14
F.	14
ArcGIS	14
0th	14
fair@@	14
citizen,	14
cadastral	14
Electro@@	14
32.@@	14
continued.	14
Nr	14
Initial	14
lifestyle,	14
Al-@@	14
(X@@	14
ko.	14
loans,	14
viol@@	14
process;	14
Ke@@	14
ings.	14
Ta@@	14
percent.	14
London,	14
border,	14
ful.	14
pric@@	14
polic@@	14
Kazakh-British	14
Revenue	14
modul@@	14
tranche	14
MI	14
solved.	14
powders	14
telecommunication	14
approach,	14
initiator	14
mobil@@	14
rov.	14
SP@@	14
leather	14
PHYSICS	14
frontal	14
Defence	14
photochemical	14
ono@@	14
scenarios	14
valu@@	14
alphabet,	14
Technology,	14
plenipotentiary	14
Egypt,	14
rejection	14
thousand,	14
continent.	14
ography,	14
vertex	14
les,	14
distribution,	14
pensioners	14
Omarov	14
monitoring,	14
port@@	14
permitting	14
there,	14
shafts	14
enemy	14
Cement	14
aer@@	14
³	14
Eurasia.	14
Waste	14
concerts	14
trafficking,	14
Python	14
crane	14
TA@@	14
interruption	14
classifying	14
Cluster	14
needed.	14
changed,	14
vel@@	14
iodine	14
ums	14
technologies"	14
Worl@@	14
giant	14
26.@@	14
Everyone	14
ely	14
ingot	14
sand@@	14
layers,	14
violent	14
centr@@	14
aliz@@	14
eth@@	14
PA@@	14
nucle@@	14
Tatar	14
refractive	14
Tasks	14
multiplier	14
3),	14
ity@@	14
scene	14
work;	14
warning	14
Golden	14
adsorbent	14
secrets	14
comman@@	14
USSR	14
spin	14
ake	14
geothermal	14
Output	14
Lieutenant	14
correctional	14
consultants	14
irreversible	14
zeolite	14
f.@@	14
[3-@@	14
CS@@	14
again.	14
sinusoidal	14
missions,	14
od	14
nerve	14
allo@@	14
Comparative	14
Processes	14
shared.	14
determinant	14
winning	14
visu@@	14
mamm@@	14
View	14
𝐴@@	14
travel@@	14
three-year	14
recognizes	14
"(@@	14
"),	14
2005,	14
Efficient	14
Aksu	14
meth@@	14
studi@@	14
autogenous	14
Education,	14
cle@@	14
ukraine	14
George	14
amylose	14
Heating	14
sense,	14
Enterprises	14
"S.	14
fail@@	14
one's	14
aling	14
rate.	14
Che@@	14
simplest	14
[4].	14
English,	14
teacher.	14
Reynolds	14
Radio	14
biathlon	14
extremist	14
missing	14
nor	14
monuments,	14
"Strategy"	14
"F@@	14
professionally	14
Ri@@	14
1.6%,	14
C/@@	14
MW.	14
RC@@	14
athletic	14
recall	14
assisted	14
accelerator	14
stat@@	14
Minister's	14
ID	14
139	14
rail@@	14
multifaceted	14
may@@	14
docking	14
"young	14
entrepreneur@@	14
tw@@	14
performance.	14
contradiction	14
pathological	14
Turkestan,	14
ade@@	14
Vari@@	14
Bre@@	14
game,	14
Peter	14
assigning	14
organ	14
Ca@@	14
exchanges	14
Tra@@	14
y's	14
fo@@	14
deposit,	14
submission	14
fying	14
sun@@	14
operability	14
junction	14
Center.	14
ff	14
o'clock	14
8.1	14
Stability	14
recruitment	14
successful.	14
insulin	14
floodplain	14
Sec@@	14
competitive,	14
micro-@@	14
04@@	14
ram@@	14
195	14
rye	14
visionary	14
specialization	14
another,	14
immediate	14
ok	14
ap	14
mechanisms,	14
decade,	14
storage,	14
province	14
heads,	14
nominations	14
ical,	14
-2015	14
Affairs.	14
Latvia,	14
registering	14
analogue	14
ia.	14
specific@@	14
ending	14
Ekibastuz	14
oring	14
coupling	14
Med@@	14
Movement	14
ai.	14
adequacy	14
purchasing	14
tasks:	14
adult	14
2021	14
concerned	14
examine	14
f.	14
feeling	14
negotiating	14
GA@@	14
Olympics	14
sailors	14
cm2	14
London	14
Mi@@	14
Ph@@	14
citizenship	14
Kazkontent	14
als.	14
Finland,	14
threats.	14
Aktogai	14
expressing	14
	14
ers:	14
breeding,	14
unt	14
2006,	14
Examples	14
performance,	14
Tan@@	14
fed	14
speeds	14
cross-country	14
silic@@	14
improved,	14
ography	14
rou@@	14
instru@@	14
national,	14
re.	14
sociological	14
"open	14
seventh	14
SDOH	14
ogram	14
man.	14
illumination	14
(2	14
transient	14
betov	14
provinces	14
Check	14
query	14
door	14
Rakhim@@	14
DBMS	14
Pi@@	14
[2	14
solv@@	14
Nov@@	14
phosph@@	14
artillery	14
tubes	14
sion)	14
device,	14
melons	13
ing."	13
3.4%,	13
Poroshenko	13
1,04	13
Bridge	13
mac@@	13
Eurasia,	13
Experts	13
900@@	13
applic@@	13
complex@@	13
Text	13
signal,	13
skating	13
eva.	13
non-standard	13
Bab@@	13
11.	13
status,	13
arian	13
retains	13
x	13
variables,	13
Mikhail	13
ayev.	13
Yel@@	13
Born	13
driver's	13
Demographic	13
vocal	13
nik@@	13
zhak@@	13
atov.	13
triangular	13
n)	13
(10	13
rhenium	13
turnover,	13
view@@	13
ties)	13
8%),	13
arable	13
cost@@	13
police,	13
E)	13
effects,	13
frac@@	13
156	13
UN.	13
focusing	13
203	13
13]	13
baking	13
adopting	13
109	13
din@@	13
tenge)	13
Kazkosmos	13
anova	13
sultanov	13
cyber@@	13
prosecutors	13
4%),	13
sample,	13
often,	13
baeva.	13
9.4	13
ts,"	13
Status	13
coding	13
sees	13
Go@@	13
expo-2017.	13
Volume	13
9.7	13
hour,	13
Gr@@	13
quick	13
bn	13
Stage	13
mechanism,	13
ceilings	13
muscle	13
decay	13
ai-@@	13
relatives	13
148	13
NET	13
EF@@	13
boat	13
biodiversity	13
Values	13
Akhmetov,	13
cement,	13
Indonesia,	13
fall,	13
beets	13
apparatus,	13
contract.	13
defended	13
alin	13
stressed.	13
treatment.	13
2020).	13
deformations	13
0,90	13
Methodological	13
A.D.	13
hydrogeological	13
drone	13
hospitals,	13
itself.	13
ogenic	13
Pacific	13
cellulose	13
Euro-@@	13
Thirdly,	13
energy"	13
base.	13
1992	13
kg,	13
industr@@	13
eric	13
OS	13
civilian	13
structure.	13
meadow	13
verb	13
courts.	13
:00	13
Gul@@	13
led@@	13
where:	13
Abai,	13
9.8	13
Passenger	13
metal@@	13
scientifically	13
time;	13
GDP	13
ural	13
gas@@	13
predictive	13
polluting	13
leader,	13
situations.	13
ecu/diakb	13
risks,	13
gin@@	13
geographically	13
centuries,	13
openly	13
215	13
creators	13
saved,	13
Kazakhstan-@@	13
carbohydrates	13
(b@@	13
Cre@@	13
architect	13
Washington	13
Chin@@	13
AL	13
KAZAKHSTAN	13
cm@@	13
2001,	13
Integr@@	13
Memorandum	13
year;	13
D.@@	13
flushing	13
d;	13
O,	13
evacuated	13
month@@	13
ail@@	13
tian	13
high-altitude	13
valleys	13
guar@@	13
variant	13
Sy@@	13
Em@@	13
workpiece	13
appliances	13
ves,	13
profits	13
0,34	13
Critical	13
Petri	13
Damu	13
providers	13
offering	13
indeed	13
multiplication	13
cooperating	13
consortium	13
@@	13
non-resource	13
authorization	13
ture	13
Drama	13
microdistrict,	13
els,	13
tel	13
listened	13
ff@@	13
Communications,	13
envisages	13
ML	13
methyl@@	13
Eurasi@@	13
happiness,	13
dielectric	13
drinks	13
atic	13
abai	13
mounted	13
dependen@@	13
product.	13
SiO2	13
2010.	13
ze@@	13
flora	13
AR	13
(12)	13
aren@@	13
Pakistan	13
metrology	13
Applied	13
transportation.	13
columns	13
port,	13
ent-@@	13
aerial	13
parts.	13
trainings	13
microprocessor	13
2015@@	13
"H@@	13
42@@	13
Bol@@	13
Sil@@	13
Word	13
sion@@	13
equated	13
Kazakh-Belarusian	13
expression:	13
everywhere	13
with@@	13
Eidu	13
Mol@@	13
difficult,	13
selected.	13
strips	13
sugar,	13
87@@	13
2012-201@@	13
startups	13
exploration,	13
count	13
Programs	13
La@@	13
ε	13
patients,	13
charge,	13
emphasis	13
interviews	13
military-@@	13
court.	13
Kairat	13
7.4	13
2010-201@@	13
good.	13
leaching	13
kol@@	13
Kos@@	13
194@@	13
tional	13
	13
mangistau	13
168	13
Alakol	13
oil.	13
Paris,	13
Ger@@	13
Secretariat	13
TP	13
Exchange	13
embarked	13
Rio	13
$10	13
bridges	13
(n@@	13
who,	13
privacy	13
syntax	13
ity)	13
Potential	13
barrier	13
e),	13
exten@@	13
operate.	13
mash@@	13
users.	13
Tokayev.	13
abolition	13
Selected	13
dyes	13
10.	13
on"	13
128	13
DF@@	13
1993,	13
versa	13
00C	13
emergencies	13
(T	13
namely,	13
hypo@@	13
alone	13
(14)	13
fluorography	13
literature.	13
risks.	13
Moreover,	13
Size	13
Kazagrofinance	13
borrowers	13
guides	13
harvest	13
parade.	13
tribute	13
channel@@	13
counterpart	13
seasonal	13
fies	13
excluding	13
tog@@	13
vic@@	13
Kazpost	13
inspections,	13
7.3	13
abayev.	13
	13
capacity.	13
subject.	13
yeva	13
erroneous	13
Orthodox	13
(as	13
carbonaceous	13
premium	13
;@@	13
lie	13
microdistricts	13
John	13
hom@@	13
envisaged.	13
43%	13
Austria	13
Methodology	13
sad@@	13
finishing	13
CS	13
cyber	13
(14@@	13
consular	13
tz	13
"national	13
Financing	13
macro@@	13
Plan@@	13
sunlight	13
financial,	13
brightness	13
Cor@@	13
g-@@	13
Fl@@	13
interests.	13
volunteer	13
pursued	13
compatible	13
enic	13
offices,	13
routes.	13
maslikhat,	13
Both	13
Kong	13
humanization	13
prevalence	13
Majilis,	13
roll@@	13
3,4@@	13
Cr	13
"peace.	13
Si	13
pulses	13
crust	13
cri@@	13
traction	13
2050:	13
mm.	13
Rural	13
118	13
spor@@	13
contour	13
Milan	13
Wi@@	13
philosophical	13
kha.	13
Upper	13
Paleozoic	13
defend	13
Ecological	13
badge	13
NPP,	13
06	13
confidential	13
"Construction	13
mode,	13
strong@@	13
traditions.	13
congratulation	13
jo@@	13
revival	13
Radiation	13
Ak	13
sem@@	13
complexes,	13
Turan	13
given,	13
seams	13
Hz	13
contingent	13
oldest	13
Almaty-@@	13
presently	13
2011-201@@	13
southeastern	13
business"	13
animals,	13
Commander-in-Chief	13
idea,	13
solvents	13
23,@@	13
176	13
Friendship	13
y).	13
equal@@	13
exports.	13
Architecture	13
able-bodied	13
taraz	13
255	13
57@@	13
megawatts	13
ged	13
rectors	13
explo@@	13
archi@@	13
Intelligence	13
),"	13
"with	13
10)	13
tracking	13
[21]	13
Long-term	13
retain	13
embassies	13
sudden	13
113	13
pen	13
corridor,	13
decades,	13
gri@@	13
Ni	13
Pavlodar.	13
limestone	13
wired	13
II@@	13
Pan@@	13
Madina	13
merged	13
linguistics	13
graduates.	13
1,5@@	13
ner,	13
types:	13
som@@	13
-2020.	13
april	13
Ts@@	13
bad@@	13
ically,	13
28%	13
attractions	13
radial	13
baurzhan	13
ble,	13
oxidative	13
Investigation	13
transformers	13
amorphous	13
molybdenum	13
suffered	13
gs	13
expanded.	13
PER@@	13
productivity.	13
simulated	13
Library	13
Factors	13
stadium	13
traffic,	13
2017@@	13
laws.	13
cartographic	13
141	13
mam@@	13
moratorium	13
zh	13
touch	13
pictures	13
from.	13
Islam	13
clearance	13
Kor@@	13
Select	13
negotiation	13
accepting	13
"Eurasian	13
open,	13
built-in	13
something	13
informed.	13
move@@	13
informatics,	13
Definition	13
subjects.	13
version,	13
bet@@	13
seaport	13
assembled	13
XX	13
04	13
January-March	13
Paralympic	13
acid@@	13
batyr@@	13
METHODS	13
Professor,	13
Nauryzbay	13
salinity	13
renal	13
147	13
non-residential	13
ce)	13
doubled	13
wash@@	13
allocating	13
sponsorship	13
Bragg	13
Kordai	13
67@@	13
Dat@@	13
tions)	13
threats,	13
315	13
might	13
developer	13
magazine	13
grade,	13
skilled	13
tensions	13
Marketing	13
izes	13
99%	13
melon	13
Cenozoic	13
RES	13
165	13
pos@@	13
ecosystems	13
5000	13
%.	13
Schrödinger	13
"kaznex	13
currents	13
(i)	13
ii@@	13
Sports,	13
machinery,	13
Sub@@	13
Creative	13
Taraz,	13
pleasant	13
Karaganda.	13
iteration	13
Almat@@	13
Hol@@	13
Zn@@	13
lik@@	13
special@@	13
"business	13
precinct	13
GB	13
Sergei	13
km@@	13
dyk@@	13
201@@	13
ometer	13
centric	13
sandy	13
420	13
malto@@	13
relieved	13
ster	13
transverse	13
ninth	13
yl-@@	13
ying	13
convex	13
27,@@	13
rocky	13
te,	13
walk	13
Religions	13
Col@@	13
h.	13
chin@@	13
Tien	13
earth's	13
biometrics	13
She@@	13
2030,	13
oscillatory	13
Altyn@@	13
Declaration	13
subjects,	13
𝑥@@	13
year)	13
Historical	13
competed	13
assault	13
mk@@	13
Phase	13
2,8@@	13
Sey@@	13
Xe	13
viral	13
geoinformation	13
piece	13
ARY	13
adjustments	13
yev@@	13
TB@@	13
revision	13
emitted	13
Decision	13
kzt	13
dining	13
Coordination	13
prin@@	13
Ash@@	13
ecotourism	13
region;	13
LLC,	13
communication.	13
ger@@	13
athletes.	13
bedding	13
password	13
C2	13
ura	13
deformed	13
experiencing	13
Page	13
meteorological	13
Sun@@	13
consultation	13
strongest	13
tion,"	13
carbon@@	13
0,93	13
ther@@	13
238	13
Full	13
tragic	13
hero@@	13
harmonious	13
infinite	13
tenge;	13
80%.	13
98.@@	13
gir@@	13
ass	13
readings	13
Pi	13
Typically,	13
tightening	13
admitted	13
gift	13
enc@@	13
atov	13
or"	13
liquid,	13
Understanding	13
humus	13
Proposed	13
demonstrating	13
also,	13
scholarships	13
mineralogical	13
convection	13
reg@@	13
sequences	13
wells,	13
chess	13
organism	13
surgical	13
intercultural	13
Nigmatulin.	13
manages	13
(s)	13
cooperatives,	13
ate-@@	13
satisfying	13
methyl	13
(Q@@	13
candidates.	13
listen	13
akim,	13
imov	13
hov	13
ine.	13
Subsoil	13
framework.	13
uncertain	13
PCE	13
ready.	13
vermiculite	13
user's	13
euros	13
condolences	13
wrestling	13
Greece	13
Life	13
years)	13
reading,	12
administr@@	12
PAK	12
estimating	12
3:	12
akimats.	12
fish@@	12
logistical	12
70s	12
go,	12
Recognition	12
talent	12
category,	12
orient@@	12
]@@	12
16th	12
k,"	12
specialty,	12
aly	12
exchange,	12
10%,	12
integrals	12
resonance	12
Petro@@	12
high-voltage	12
corridor.	12
carbides	12
Out@@	12
Ability	12
polarization	12
ic"	12
sexual	12
Seoul	12
254	12
1.3%,	12
politics.	12
ers;	12
thermoelectric	12
Tr@@	12
l-@@	12
anov.	12
146	12
"summed	12
cope	12
decreasing	12
painted	12
policies,	12
repeating	12
ura@@	12
he,	12
academician	12
ysh	12
draws	12
bankruptcy	12
two-level	12
way"	12
vol.	12
anode	12
and"	12
price.	12
τ	12
100.@@	12
tren@@	12
terms.	12
Steel	12
purpose@@	12
microcontrollers	12
met,	12
aev@@	12
District	12
them:	12
o"	12
scheme,	12
Worker	12
schedule.	12
trap	12
scalar	12
gone	12
kin.	12
enzymes	12
endothermic	12
clim@@	12
Individual	12
spent.	12
professionals,	12
els	12
cross@@	12
Azerbaijan.	12
2003,	12
vocabulary	12
administrators	12
roadside	12
Secretary-General	12
aris@@	12
proton	12
coun@@	12
factor,	12
0,28	12
care@@	12
ye	12
sp	12
2016-2017	12
countries:	12
152	12
Por@@	12
204	12
ve"	12
short-@@	12
0,36	12
Pb	12
User	12
	12
Astrakhan	12
factors.	12
abandoned	12
railway,	12
116	12
CF	12
Mil@@	12
Improvement	12
aman@@	12
chance	12
indicators:	12
op	12
constituting	12
Legal	12
tool,	12
hydrogel	12
Transportation	12
auditor	12
0,82	12
truly	12
expression,	12
Alternative	12
1%)	12
Compu@@	12
Kuanysh@@	12
(i@@	12
oils	12
extractive	12
ism@@	12
biotechnology	12
methodology,	12
fuel@@	12
2015-2019	12
fication,	12
backbone	12
assumption	12
Allows	12
musculoskeletal	12
cooperates	12
lives.	12
findings	12
Fo@@	12
themselves.	12
rates,	12
cosmodrome	12
motherland	12
18th	12
tau@@	12
qualifying	12
PHP	12
dominant	12
sausage	12
miner@@	12
Mul@@	12
inver@@	12
irregular	12
ER	12
radionuclides	12
Sor@@	12
non-linear	12
staff.	12
destin@@	12
said:	12
perpendicular	12
enrich	12
anti-terrorist	12
59@@	12
Kuz@@	12
pri@@	12
Dynamics	12
invariant	12
"she	12
forensic	12
fewer	12
manifested	12
revealing	12
Pho@@	12
fought	12
southwestern	12
venues	12
justice.	12
contractual	12
topography	12
Competence	12
Legislation	12
communications.	12
pasture	12
capital-@@	12
knowing	12
"smart	12
ina.	12
inability	12
0,85	12
du	12
orph@@	12
aci@@	12
Novosibirsk	12
kas@@	12
anticipation	12
deployed	12
akhko	12
188	12
31.@@	12
intra-@@	12
resumed	12
approach@@	12
usage	12
lag	12
cosmic	12
equival@@	12
ent)	12
Video	12
binder	12
dough	12
punishment	12
exceptional	12
Framework	12
R)	12
electromechanical	12
violated	12
SOLUTION	12
IL@@	12
Dirixle	12
employe@@	12
storm	12
jam@@	12
sco@@	12
help.	12
efforts,	12
quarterly	12
challenges,	12
finger	12
tribal	12
Maxim.	12
to:	12
aquatic	12
hypothesis	12
auction,	12
phenomena,	12
proliferation	12
proficiency	12
water-salt	12
Unions	12
Korea.	12
100th	12
shan@@	12
x1	12
rub@@	12
decide	12
vi	12
Ur@@	12
Ust-Kamenogorsk	12
hosts	12
higher,	12
van@@	12
River.	12
	12
i.e.,	12
Aigul	12
Expo,	12
buyer	12
deformation,	12
formul@@	12
produced,	12
proxy	12
landmark	12
number,	12
2011@@	12
vote,	12
excitation	12
Bir@@	12
ometry	12
topic.	12
entitled	12
ashk@@	12
alloxan	12
priorities.	12
312	12
performed,	12
Children	12
sh	12
parks,	12
anti-nuclear	12
diet	12
[20]	12
Rate	12
clinics.	12
observed,	12
UL@@	12
poses	12
exciton	12
readmission	12
General,	12
Form	12
flotation	12
pronounced	12
place)	12
issues:	12
ching	12
sturgeon	12
ite,	12
bek.	12
720	12
highway.	12
association.	12
k:	12
wintering	12
ace	12
fertilizers,	12
ethnographic	12
ton,	12
ks.	12
operators.	12
transport;	12
hem@@	12
vice-@@	12
OP@@	12
EC	12
Dossayev.	12
competence.	12
bri@@	12
lina	12
chron@@	12
teams.	12
Latvia	12
totality	12
wonderful	12
mound	12
ting@@	12
Words:	12
defective	12
There,	12
ts),	12
86@@	12
subsidized	12
photographic	12
5.6	12
question,	12
prompt	12
coincided	12
Fatherland	12
DA@@	12
Audit	12
linearly	12
Asi@@	12
mov	12
dB	12
President,	12
tour@@	12
ownership,	12
parti@@	12
technologically	12
equipment;	12
expo-2017,	12
"white	12
audit,	12
team@@	12
Norway,	12
UN,	12
pov	12
motion,	12
"Al@@	12
archives	12
polypropylene	12
consumers.	12
previously,	12
ceremony.	12
(about	12
Romania,	12
mathematically	12
towns.	12
(12@@	12
ech	12
consultations,	12
wheeled	12
limited.	12
expands	12
made,	12
dietary	12
pm@@	12
Ol@@	12
dur@@	12
Istanbul	12
analog@@	12
2013-201@@	12
ence,	12
battle	12
meaning@@	12
1,02	12
live.	12
gather	12
low-temperature	12
evening,	12
calculation,	12
Svetlana	12
Mangistau,	12
January-April	12
regime,	12
four-@@	12
protons	12
T.@@	12
rep@@	12
Obtaining	12
9000	12
hearings	12
decreases,	12
500@@	12
exhibited	12
utilities,	12
tract	12
working.	12
lime	12
refraction	12
search,	12
allocates	12
Geometric	12
suggestions	12
M,	12
human@@	12
ch.	12
ii	12
"native	12
gene	12
Latvian	12
lowland	12
fundamentals	12
accommodation	12
Excel	12
pregnant	12
use@@	12
Measuring	12
290	12
m"	12
USING	12
conservation,	12
pop@@	12
cy@@	12
flav@@	12
of@@	12
pavilion,	12
kt@@	12
rally	12
ovna	12
inov	12
gy@@	12
raster	12
globalization,	12
abilities.	12
VAT	12
Examination	12
SMEs,	12
Char@@	12
09	12
Copper	12
subsidize	12
abo@@	12
staged	12
480	12
Cas@@	12
95.@@	12
non-financial	12
supported.	12
Kha	12
ecu,	12
August,	12
111	12
ances	12
seeks	12
korea	12
japan	12
mono@@	12
chromatographic	12
ening	12
non-invasive	12
exploits	12
(Kazakh	12
aircraft.	12
educators	12
Region,	12
black@@	12
cardi@@	12
pharmac@@	12
Add	12
ess,	12
acy,	12
method;	12
passports	12
ating.	12
akims,	12
kulov	12
reserve,	12
alcohols	12
term.	12
3.1%,	12
installed.	12
lock	12
Already	12
reputation	12
reflective	12
225	12
Fer@@	12
plas@@	12
Ag	12
Landscape	12
app	12
flammable	12
thermometer	12
otan	12
Zh.@@	12
October,	12
171	12
clubs	12
𝐵	12
𝐾	12
limit@@	12
"Western	12
competen@@	12
7]	12
interpolation	12
Bulgarian	12
oz@@	12
fly	12
senate	12
bra@@	12
Muslim	12
firstly	12
assign	12
ignition	12
you@@	12
averages	12
rules.	12
depression	12
form:	12
itation	12
ke	12
Consideration	12
Harmon@@	12
Determining	12
IP@@	12
sha@@	12
solemnly	12
tumor	12
Kaztransgaz	12
refined	12
breaking	12
State's	12
functions.	12
DU@@	12
Elements	12
inert	12
uncontrolled	12
ili@@	12
stabilizer	12
ial	12
experimentally	12
Unit	12
poland	12
Nar@@	12
stepnogorsk	12
Zholy	12
ways,	12
CT	12
EU@@	12
lactic	12
declaring	12
inv@@	12
San@@	12
Y.	12
popular@@	12
snow@@	12
management"	12
Kazakhstani,	12
barley	12
business@@	12
assets.	12
hash	12
decree.	12
E,	12
basins	12
long-@@	12
winding	12
1998,	12
disconnected	12
xi@@	12
kg/m3	12
lasts	12
325	12
Polic@@	12
Sem@@	12
\@@	12
corporation.	12
controller	12
berry	12
mad@@	12
Industrialization	12
prisoners	12
7.8	12
poems	12
tooth	12
bek,	12
ICAL	12
Ratio	12
Markov	12
stocks	12
sul@@	12
chenko	12
M2	12
museum,	12
Strength	12
Insurance	12
seeking	12
yields	12
husbandry,	12
ET@@	12
topics,	12
bought	12
zhoshybayev	12
support@@	12
consulate	12
Stepnogorsk	12
gene@@	12
bozumbayev.	12
alim@@	12
kol,	12
independently,	12
resources;	12
together.	12
classroom	12
spirit,	12
smartphones	12
hydrox@@	12
Nor@@	12
observed.	12
(30@@	12
inary	12
humanity,	12
ve-@@	12
fied	12
memorandums	12
gate@@	12
Africa,	12
tests.	12
populations	12
Alma-Ata,	12
cos@@	12
book@@	12
WDM	12
Do	12
race	12
ven	12
nomenclature	12
Hungary.	12
0,27	12
Very	12
international,	12
money,	12
υ	12
wind,	12
vertically	12
Mold@@	12
thermonuclear	12
biology,	12
Combating	12
eds	12
bayev@@	12
zhanova	12
23.@@	12
coil	12
AA@@	12
@@	12
tic,	12
capture	12
Best	12
births	12
Science.	12
pharmaceuticals	12
enhancing	12
professional,	12
distric@@	12
freezing	12
declare	12
set@@	12
Oryn@@	12
all-@@	12
Sh.	12
aliyev,	12
gasoline,	12
AP	12
front-line	12
01@@	12
Fil@@	12
demands	12
politician	12
mankind.	12
multilevel	12
legal,	12
accounting,	12
constraints	12
buc@@	12
opposition	12
stands	12
Belgium,	12
0,88	12
documentaries	12
182	12
•	12
Don@@	12
depot	12
Trump	12
z)	12
continue,	12
Metrological	12
sis,	12
Ecology	12
Direct	12
Received	12
Sak@@	12
Platform	12
Tables	12
(USA)	12
Austria,	12
ments:	12
Men@@	12
fiber-optic	12
explosives	12
Hydrogen	12
metering	12
shar@@	12
domains	12
F)	12
profession.	12
tors.	12
evenly	12
charitable	12
Paul	12
increasing,	12
13-@@	12
understands	12
pay@@	12
them@@	12
azar@@	12
su	12
able@@	12
prototype	12
prop@@	12
issued.	12
gardens,	12
race,	12
phosphogypsum	12
Polymer	12
"expo-2017."	12
Atomic	12
three-sector	12
courses,	12
ford	12
Turgai	12
hub.	12
sovereignty,	12
preferences	12
lung	12
yard	12
mg/l	12
ls	12
handling	12
caspian	12
discoveries	12
triang@@	12
Қ@@	12
topic,	11
reconciliation	11
pm.kz.	11
Invest@@	11
Studen@@	11
DO@@	11
Determines	11
cottage	11
Defining	11
chemical,	11
dictionary,	11
buses,	11
PP	11
108	11
convicts	11
categories.	11
condition@@	11
23%	11
Four	11
Tatyana	11
show@@	11
cup@@	11
anomaly	11
Lagrange	11
alia	11
priori	11
"c@@	11
Technologies"	11
[11@@	11
appl@@	11
Iman@@	11
individu@@	11
H1	11
excursions	11
checkpoints	11
19%	11
SDR	11
erial	11
ming	11
ness,	11
dispute	11
Sa@@	11
interoperability	11
fabric	11
174	11
amaranth	11
Lack	11
active.	11
writ@@	11
cations	11
transboundary	11
tremendous	11
zhy@@	11
bilingual	11
12-year	11
PPP	11
disappeared	11
ably	11
plains	11
530	11
lexical	11
ia,	11
Mount	11
liber@@	11
statehood,	11
re,	11
traces	11
degree,	11
pasta,	11
broad@@	11
dependency	11
ting;	11
methods:	11
Spatial	11
no.	11
bulldozer	11
senator,	11
SCIENCE	11
bozumbayev	11
sought	11
manufacturers.	11
city"	11
drum	11
religion,	11
lig@@	11
ada	11
15]	11
fiberglass	11
Sweden	11
deployment	11
Logical	11
179	11
bags	11
ent:	11
collaboration	11
K;	11
Graph	11
-oriented	11
collects	11
water)	11
migrants	11
reactive	11
c.	11
merger	11
Kazakh-German	11
"n@@	11
Dynamic	11
resistance,	11
bubbles	11
test@@	11
grammar	11
Employees	11
monopoly	11
fa@@	11
ills	11
classes:	11
platinum	11
we're	11
disruption	11
reduc@@	11
Kazakh-Hungarian	11
vely	11
Parallel	11
abrasive	11
denote	11
Accounts	11
so.	11
ye,	11
ene@@	11
CR@@	11
TECHNOLOGY	11
ethylene	11
Khanate.	11
Sapar@@	11
testing.	11
Ansh@@	11
expenses,	11
tokayev	11
38.@@	11
R,	11
2,500	11
vanadium	11
"information	11
zero,	11
(after	11
BI	11
stretching	11
[23]	11
(river)	11
Russi@@	11
≈	11
ster@@	11
big@@	11
sell@@	11
Har@@	11
2016@@	11
programme.	11
Ways	11
)/@@	11
fire,	11
declining	11
Aksh@@	11
digit	11
inequalities	11
fide	11
impressive	11
Cartesian	11
oxidant	11
suit	11
oil-@@	11
T,	11
singer	11
aries.	11
CE@@	11
laboratory,	11
army,	11
"baiterek"	11
smartphone	11
geomorphological	11
als;	11
discrimination	11
2.4%.	11
handle	11
APPLICATION	11
d:	11
Significant	11
insoluble	11
tization	11
ward	11
toponymic	11
buffer	11
Dzhaksybekov	11
pendulum	11
Tax	11
invitations	11
terrestrial	11
mountainous	11
graphically	11
professionals'	11
damaged	11
grants.	11
year@@	11
Calculated	11
show,	11
registered,	11
Speci@@	11
boys	11
20,000	11
ensured.	11
regi@@	11
liquidation	11
teacher@@	11
pi	11
Limit	11
bucket	11
rescuers	11
syntactic	11
slop@@	11
troops.	11
December,	11
conjunction	11
2007,	11
conflicts,	11
installation,	11
attempt	11
emphasizes	11
instruments,	11
2015-2016,	11
auspices	11
pyrolysis	11
cab@@	11
gravel	11
Defines	11
suff@@	11
annum	11
generations.	11
oily	11
ais@@	11
pon@@	11
Different	11
Works	11
TH@@	11
immersion	11
valuation	11
Summit	11
tumors	11
encrypted	11
$2	11
develop.	11
Review	11
Zhety@@	11
combin@@	11
storey	11
dro@@	11
mod@@	11
dent	11
bekova.	11
70.@@	11
"20	11
sold,	11
cytogenetic	11
impede	11
conditioning	11
Thus	11
anniversary.	11
Taldykorgan,	11
kairat	11
70-@@	11
consideration,	11
individual,	11
f,	11
doses	11
Army	11
256	11
Zhansugurov	11
agan	11
watercourses	11
Third	11
persons.	11
kazakh-@@	11
HTTP	11
$4@@	11
observers,	11
eu@@	11
208	11
non-oil	11
virtu@@	11
asse@@	11
(d	11
conferences,	11
accommod@@	11
Ush@@	11
Fig.	11
alpine	11
influential	11
olympic	11
hon@@	11
Vis@@	11
TING	11
object.	11
kok@@	11
secur@@	11
nomad	11
drink	11
nomads	11
ple@@	11
Emirates	11
Anti-@@	11
ome@@	11
thinking.	11
predetermined	11
chlorination	11
palm	11
jac@@	11
(especially	11
(in@@	11
rap@@	11
knowledge@@	11
fied.	11
multicomponent	11
Tim@@	11
unsuitable	11
85@@	11
accep@@	11
Chancellor	11
sausages	11
monomers	11
drama	11
yz	11
Mor@@	11
cooperatives.	11
*	11
Without	11
metadata	11
[6].	11
Hor@@	11
eless	11
spreading	11
Parliamentary	11
2015-2019,	11
heritage.	11
%@@	11
expertise,	11
sweet	11
Gold	11
hospital.	11
ici@@	11
"economic	11
GP	11
merits	11
ies.	11
Company"	11
principles,	11
drives	11
shorter	11
ex-@@	11
15.	11
des@@	11
regul@@	11
copolymers	11
professors	11
r,	11
parameters:	11
parents,	11
be.	11
incubation	11
Net@@	11
earth@@	11
sealed	11
oval	11
ath@@	11
contract,	11
operator@@	11
situ@@	11
duplicate	11
valent	11
Device	11
ank	11
extrabudgetary	11
Norwegian	11
KZT	11
Kaztransoil	11
retreat	11
Muhammad	11
35-@@	11
ty,	11
detox	11
y.@@	11
Voltage	11
interaction,	11
stake	11
cores	11
composites	11
Zhas@@	11
Chec@@	11
curved	11
0.	11
partnerships.	11
gear	11
synchron@@	11
obstacles,	11
name,	11
consume	11
tes@@	11
logo	11
bones	11
inferior	11
1.1%,	11
goats	11
Auezov	11
yesterday's	11
embedded	11
banknotes	11
favourable	11
Film	11
atam@@	11
floods	11
loans.	11
lists.	11
Mutual	11
variance	11
flowing	11
disorders	11
Obviously,	11
reconstructed.	11
clinic.	11
industrial,	11
Analyzing	11
Government.	11
Exhibition	11
consistency	11
revise	11
arbek	11
Karas@@	11
transmitter	11
prismatic	11
Detection	11
1.2%,	11
conform@@	11
stag@@	11
microclimate	11
mechan@@	11
factor@@	11
𝑦@@	11
fur	11
640	11
Get	11
an's	11
jum@@	11
astro@@	11
Vice-@@	11
Temirtau	11
tolerant	11
Protec@@	11
apples	11
Iz@@	11
100%.	11
co.	11
proactive	11
BC	11
conveyed	11
ethno-@@	11
helium	11
kWh	11
mercy	11
36%	11
"K.	11
lowering	11
briefing.	11
odd	11
document@@	11
gai	11
wood@@	11
tra@@	11
10.5	11
film@@	11
inf@@	11
Model@@	11
question.	11
(0)	11
child@@	11
inverter	11
bas	11
(except	11
noticeable	11
supercomputers	11
strong,	11
@@	11
agricultural,	11
slows	11
elements.	11
boar@@	11
au-@@	11
BM@@	11
nigmatulin	11
Develop	11
"a"	11
(X	11
off-@@	11
September,	11
line.	11
ald@@	11
ach	11
NaCl	11
spinal	11
remembered	11
updated,	11
centners	11
controversial	11
deeds	11
tan	11
Mun@@	11
Sym@@	11
rati@@	11
cabinet	11
Sea.	11
identity,	11
im	11
representatives.	11
que@@	11
kers	11
phrase	11
clothes,	11
Tools	11
resting	11
hearts	11
recover	11
History	11
Sher@@	11
piston	11
Course	11
violence	11
O-@@	11
shale	11
entrepreneur,	11
4%).	11
graduates,	11
classes.	11
outlines	11
signed,	11
gy	11
classifications	11
aliev	11
deprived	11
megacities	11
69@@	11
8th	11
ce;	11
"we	11
ideas.	11
readers	11
tion."	11
Multi@@	11
ect@@	11
consumption.	11
ents,	11
Justice,	11
ash,	11
fishing	11
non-state	11
January-December	11
Oz@@	11
room.	11
elongation	11
writes	11
participate.	11
machine-building	11
32%	11
manufacturers,	11
header	11
talgat	11
relevant,	11
quarrying	11
chang@@	11
asymmetric	11
way@@	11
third-party	11
maritime	11
fir@@	11
Specialists	11
Academic	11
9.2	11
Establishment	11
TIONS	11
ICD	11
insects	11
bath	11
transit,	11
Tokyo	11
judges,	11
Holding,	11
spectrometry	11
1%),	11
Assembly.	11
physically	11
res)	11
218	11
eas@@	11
New@@	11
𝐶@@	11
Mountain	11
Pressure	11
pheromones	11
Ancient	11
tly	11
territories,	11
al:	11
butter	11
bis@@	11
OL@@	11
CC@@	11
following:	11
ments;	11
Method@@	11
MW,	11
Value	11
embankments	11
atov,	11
ji	11
Portland	11
ANALYSIS	11
fund's	11
collection,	11
trust,	11
maker	11
begin,	11
advances	11
arsen@@	11
7%)	11
founding	11
rac@@	11
excise	11
say@@	11
Zhy@@	11
MI@@	11
droplet	11
370	11
Kin@@	11
legalize	11
fashion	11
secretaries	11
atbek	11
Generation	11
retained	11
Ker@@	11
gan	11
Mukhamediuly	11
searched	11
Addressing	11
Kinect	11
categories:	11
bachel@@	11
Tar@@	11
electronically	11
face-to-face	11
akov,	11
del	11
located.	11
Noise	11
"W@@	11
standardized	11
clo@@	11
classifier	11
Produc@@	11
Techn@@	11
BL@@	11
persons,	11
limited,	11
ises@@	11
460	11
curricula	11
inclu@@	11
flooring	11
populated	11
0,84	11
arch@@	11
ery,	11
"Golden	11
allowable	11
representatives,	11
x2	11
enrolled	11
2,58	11
1,01	11
f)	11
Kulagin	11
covered.	11
member,	11
orphanages	11
orphans,	11
multi-agent	11
accumulator	11
bounded	11
non-core	11
increasingly	11
shutdown	11
glory	11
migration,	11
signatures	11
Lianyungang	11
cooking	11
ao@@	11
Avenue	11
Residents	11
z-@@	11
C;	11
Density	11
lectures,	11
KazNTU	11
Zhumagulov.	11
stroke	11
accidents,	11
compile	11
economy"	11
liver	11
augmented	11
jumping	11
Ken@@	11
net@@	11
histor@@	11
microdistrict.	11
turnout	11
clock	11
log	11
Omar@@	11
chromatograph	11
fluids	11
Mohammed	11
ins,	11
Oleg	11
Kol@@	11
Payments	11
Bud@@	11
welded	11
Azil@@	11
Ga@@	11
selectivity	11
arri@@	11
spec@@	11
helio@@	11
serial	11
suspen@@	11
concre@@	11
arrays	11
15-20	11
Base	11
spot	11
place),	11
LMS	11
nanostructured	11
variability	11
Flo@@	11
granule	11
quarries	11
medical,	11
EK@@	11
prosecution	11
Uz@@	11
regimes	11
deposit@@	11
diffraction	11
g20	11
khan,	11
coincides	11
ls.	11
cosmonaut	11
subjective	11
cy	11
Field	11
Atmospheric	11
tly,	11
Second,	11
announce	11
psych@@	11
acquaintance	11
measure@@	11
Yerzhan	11
Hospital	11
ac	11
winter,	11
happen@@	11
outdated	11
Q-@@	11
closest	11
creatively	11
ung	11
sl@@	11
Nikol@@	11
v,	11
accretion	11
t),	11
Donald	11
wealth,	11
Autonomous	11
detector	11
950	11
publication.	11
N/@@	11
4,000	11
volumes,	11
kaolin	11
mul@@	11
Kusherbayev	11
ated@@	11
anywhere	11
instruments.	11
toxicity	11
helicopter	11
ched	11
agree@@	11
diatomite	11
Source	11
Biotechnology	11
ism,"	11
tr	11
Logistics	11
Forms	11
achieve@@	11
Var@@	11
prevail	11
abstr@@	11
chlorides	11
competently	11
set.	11
26%	11
digitization	11
obligation	11
script	11
drain	11
elaborated	11
percent,	11
consciously	11
Zhe@@	11
skiing	11
evidence,	11
proced@@	11
metry	11
"Almaty	11
Communist	11
aff@@	11
GO@@	11
pac@@	11
anti-terrorism	11
commonwealth	11
sentenced	11
pork	11
seri@@	11
grad@@	11
Zhilstroysberbank	11
540	11
suggestion	11
dataset	11
shop	11
Alim@@	11
ef@@	11
A/@@	11
kv@@	11
including,	11
Providing	11
colleagues.	11
74@@	11
[17]	11
gol@@	11
shrub	11
sculpture	11
GP@@	11
Year@@	11
attention.	11
help,	11
Jo@@	11
neighbor@@	11
peroxide	11
tum@@	11
certifying	11
0С	11
Mamin,	11
misfit	11
mm@@	11
worn	11
08@@	11
ongoing.	11
0.7	11
somewhat	11
brotherhood	11
ionites	11
assistan@@	11
pipeline.	11
Ai@@	11
sex	11
Shar@@	11
s!	11
rit@@	11
Zhumagulov	11
connec@@	11
MODE	11
Academy,	11
Regi@@	11
location,	11
seg@@	11
rarely	11
commanders	11
holder	11
rated	11
Lithuania,	11
Tex@@	11
Ric@@	11
refractory	10
leader@@	10
manage@@	10
ment,"	10
a.m.	10
steel,	10
cultural-humanitarian	10
flow,	10
Teachers	10
solids	10
Kore@@	10
exports,	10
Mamytbekov.	10
formulae	10
teach@@	10
open.	10
Innovations	10
highway,	10
microcredit,	10
Advanced	10
status.	10
Putin.	10
artifacts	10
amplifier	10
SR	10
marketing,	10
"kazakh	10
tourism@@	10
ashev	10
ation);	10
circu@@	10
microcredits	10
red@@	10
one-dimensional	10
thy	10
row@@	10
well-being,	10
monopolists	10
concert.	10
seminars,	10
na,	10
barrel	10
flies	10
kin,	10
disperse	10
refinement	10
1-	10
encounter	10
own,	10
survey,	10
corpus	10
ver"	10
3,5@@	10
3%)	10
2050,"	10
ness.	10
enhancement	10
documented	10
cost-effectiveness	10
229	10
symbols,	10
water;	10
molar	10
tab@@	10
corner	10
MP	10
historians,	10
broken	10
es?	10
impaired	10
Relations,	10
Duma	10
archeology	10
intersectoral	10
Kazakh-Uzbek	10
Ulan	10
Mongolian	10
enough.	10
Bai@@	10
biotechnological	10
experi@@	10
coherent	10
rises	10
preparation.	10
periodically	10
non-traditional	10
paper@@	10
consult@@	10
ge-@@	10
shipped	10
heat-resistant	10
12.	10
approaches,	10
pec@@	10
Communal	10
believed	10
IEEE	10
Payment	10
Pen@@	10
singers	10
Kapparov	10
abdi@@	10
runway	10
"My	10
multivariate	10
function.	10
dep@@	10
high-temperature	10
"Fundamentals	10
nar@@	10
forums,	10
swe@@	10
natural-@@	10
88@@	10
Govern@@	10
School@@	10
Telecommunications	10
unsuccessful	10
g/cm3	10
Organization.	10
victory,	10
exc@@	10
Construc@@	10
undergraduate	10
n;	10
metov.	10
sail@@	10
Kash@@	10
countryside	10
mode.	10
len@@	10
frost	10
circles,	10
Auto@@	10
5.5%,	10
l.@@	10
later,	10
enova	10
ysh@@	10
good,	10
tac@@	10
time:	10
acqu@@	10
rad@@	10
Under@@	10
23.	10
283	10
gam@@	10
specialist@@	10
broader	10
museum.	10
	10
role,	10
film,	10
onal	10
immune	10
expected,	10
Situations	10
Industry,	10
education"	10
Shows	10
reimbursement	10
Process@@	10
gro@@	10
sov,	10
leaf	10
electrolytic	10
2.6%,	10
kilograms	10
diamonds,	10
icing	10
Cuban	10
biom@@	10
fier	10
anth@@	10
manipulator	10
6%).	10
Sup@@	10
nut	10
serv@@	10
7.9	10
windows	10
homework	10
nanos@@	10
differenti@@	10
"Made	10
professionalization	10
Argentine	10
level:	10
free.	10
sediment	10
massifs	10
rifle	10
hit	10
spectrum,	10
tov	10
veness	10
paren@@	10
restaurants	10
δ	10
achievement,	10
makers	10
P/@@	10
or-@@	10
celestial	10
14]	10
gardens.	10
federated	10
nce	10
cooper@@	10
regulators	10
enzyme	10
networking	10
Dirichlet	10
available,	10
110@@	10
Kazakhstani.	10
concession	10
separator	10
short,	10
expl@@	10
frequently	10
Existing	10
purposefully	10
2008.	10
detectors	10
65@@	10
scaling	10
House,	10
de.	10
feels	10
das@@	10
tires	10
northeastern	10
subparagraph	10
las	10
total@@	10
eria	10
Center@@	10
authors,	10
characteristics:	10
carbonate-@@	10
euro@@	10
Investors	10
nets	10
Correc@@	10
frequency,	10
algae	10
tail@@	10
intangible	10
spar@@	10
descendants	10
home@@	10
saparbayev	10
beach	10
RT@@	10
solu@@	10
weeks,	10
spirituality	10
immunity	10
Belgian	10
ä@@	10
healthcare,	10
Khan@@	10
rheological	10
Pal@@	10
Boz@@	10
colleagues,	10
promised	10
calorie	10
45-@@	10
ministries,	10
MAPLE	10
chest	10
UK,	10
clinic@@	10
Studying	10
117	10
Ti	10
Zhul@@	10
campaigns	10
prevention,	10
mentors	10
Sim@@	10
refusal	10
5g	10
four@@	10
22%	10
layer;	10
grin@@	10
medium-term	10
subway	10
EM	10
ical-@@	10
delivering	10
pp@@	10
TRA@@	10
ology.	10
kam@@	10
urban@@	10
Arts	10
20-30	10
Point	10
Viktor	10
Gar@@	10
balances	10
well.	10
reactivity	10
achieved,	10
Monetary	10
state"	10
Peoples	10
Accounting	10
Reduced	10
technogenic	10
agrochemical	10
bird	10
tissues	10
offenses,	10
abl@@	10
O2	10
class.	10
side@@	10
ever	10
ates.	10
Memory	10
ination	10
participation,	10
event@@	10
spring,	10
0,29	10
enables	10
Denote	10
SP	10
needs.	10
speech.	10
Service,	10
Court.	10
enz@@	10
summits	10
1500	10
Tol@@	10
peasants	10
assessments	10
bad	10
managers,	10
ces.	10
eral	10
introductory	10
ol,	10
clarified.	10
'll	10
to,	10
exploration.	10
ality,	10
FAC@@	10
TOR@@	10
future@@	10
orientation,	10
kara	10
madina	10
Mongolia.	10
Mn@@	10
Prosecutor's	10
three-stage	10
TC	10
maturity	10
ellipse	10
122	10
antennas	10
manifest@@	10
Online	10
askar	10
Jun@@	10
sharpness	10
Massimov.	10
Hel@@	10
granting	10
ating,	10
(such	10
ative.	10
professions,	10
1.6%	10
amount,	10
presentation.	10
Even	10
squ@@	10
boiled	10
clinic,	10
porosity	10
eggs,	10
pregnancy	10
2-	10
strateg@@	10
erv@@	10
ethanol	10
self-realization	10
Berlin	10
dauren	10
28th	10
sultans.	10
"Affordable	10
ulf@@	10
phen@@	10
modulated	10
packets	10
4;	10
world@@	10
temporarily	10
amazing	10
sko	10
load@@	10
ing,"	10
cer@@	10
peace@@	10
self-organization	10
branches,	10
Steps	10
Capit@@	10
river,	10
enormous	10
43@@	10
smo@@	10
Ni@@	10
Pol@@	10
tomatoes	10
full-@@	10
oxide,	10
[45]	10
36.@@	10
vich	10
rigidity	10
acrylamide	10
innovations.	10
aqu@@	10
hard@@	10
vin@@	10
sher@@	10
Judges	10
postgraduate	10
TFE	10
Erik	10
bank"	10
delays	10
dissolve	10
aircraft,	10
counter-@@	10
equally	10
terminate	10
reorganization	10
0,89	10
square.	10
told.	10
secretariat,	10
0.3	10
Thank	10
Plan.	10
Wi-Fi	10
everyone,	10
suppli@@	10
briquette	10
athlon	10
queries	10
unclear	10
pris@@	10
Gi@@	10
resume	10
patrol	10
pigs	10
photons	10
heter@@	10
northwest	10
Pollution	10
Mazhilis	10
witness	10
accelerators	10
PPE	10
SES	10
Servic@@	10
muscles	10
1,00	10
Univers@@	10
Inter-Parliamentary	10
_ns@@	10
study;	10
vulnerabilities	10
melt	10
prone	10
comfort	10
obligations,	10
(d@@	10
heat-@@	10
5.5%	10
simply	10
0,30	10
dump	10
warn	10
tied	10
Len@@	10
Appendix	10
capitalization	10
schedules	10
ise	10
impression	10
ELICIT	10
check@@	10
sour	10
bench	10
journ@@	10
path,	10
zhum@@	10
SE	10
authority.	10
&@@	10
Programme	10
region)	10
[3-5]	10
soul	10
ums,	10
OECD	10
victories	10
metr@@	10
SU@@	10
Expo.	10
plo@@	10
Southeast	10
18-@@	10
unfavorable	10
festival.	10
resources:	10
ily	10
tech	10
records,	10
realizing	10
land,"	10
ity-@@	10
tivity	10
Vyacheslav	10
ston@@	10
"to	10
nұrly	10
Web@@	10
amateur	10
Therefore	10
ao	10
cleanliness	10
beer	10
consolidating	10
24-@@	10
genus	10
claims	10
die	10
prob@@	10
certific@@	10
settling	10
ments.	10
"ak@@	10
и	10
Nurzhan	10
volumes.	10
pub@@	10
kN	10
Daniyar	10
EU,	10
inten@@	10
kent	10
wto	10
inductive	10
Do@@	10
bachelor's	10
modern@@	10
all"	10
radiation,	10
tolerance,	10
possibil@@	10
alists	10
t's	10
Greece,	10
learners	10
Earth,	10
hydroxide	10
gallery	10
alle@@	10
Portfolio	10
Rau.	10
fied,	10
Dzhakupov	10
ka@@	10
Below	10
slowdown	10
Sheikh	10
preference	10
diodes	10
furniture,	10
blockchain	10
adheres	10
"people's	10
Crimean	10
illegally	10
observing	10
summarizing	10
lith@@	10
india	10
degrees,	10
collap@@	10
ses,	10
wildlife	10
Pri@@	10
volcanic	10
influx	10
winners,	10
Characteristics	10
pedagog@@	10
anu@@	10
minors	10
"social	10
Direc@@	10
121	10
fruit@@	10
ca	10
light,	10
index@@	10
hills	10
slaughter	10
breast	10
tourism;	10
openings	10
(0	10
emulsions	10
reality:	10
2015-2017,	10
11th	10
actors	10
example:	10
extrac@@	10
sed,	10
vill@@	10
0.2%,	10
ases	10
August.	10
$5	10
furnace,	10
nation's	10
meter@@	10
moderator	10
trade@@	10
free,	10
i-th	10
War@@	10
revenues,	10
ius	10
collateral	10
9%),	10
sagintayev,	10
Integral	10
rocks,	10
ad,	10
Shavkat	10
represent@@	10
Kob@@	10
ons"	10
kd@@	10
geography,	10
O.	10
things,	10
BASED	10
resettlement	10
60%,	10
now.	10
520	10
liqui@@	10
1%).	10
7.2	10
Kap@@	10
Supervision	10
advancing	10
allocated,	10
shield	10
methods;	10
sow	10
truth	10
autonomy	10
path.	10
privatized	10
stereo@@	10
0,80	10
fruits,	10
$6@@	10
medic@@	10
arguments	10
penalties	10
𝑛@@	10
advise	10
"Saparbayev	10
consultative	10
Res@@	10
izer	10
Kain@@	10
isol@@	10
Weight	10
parts:	10
excavation	10
datasets	10
Translation	10
feed@@	10
2007@@	10
male	10
tone	10
accelerating	10
state."	10
Hon@@	10
158	10
championship,	10
hev,	10
manufacturing,	10
profession@@	10
102.@@	10
euros.	10
17-@@	10
Market	10
knowledge-intensive	10
Syn@@	10
ites,	10
access@@	10
129	10
Hu@@	10
composed	10
1994.	10
conciliation	10
vibrations	10
DD	10
polymeric	10
cost,	10
peaks	10
displaying	10
awards.	10
Sometimes	10
bytes	10
2%).	10
Labor@@	10
Tom@@	10
Ris@@	10
America,	10
5-8	10
Delphi	10
"Informatics"	10
40%,	10
Christmas	10
Robotics	10
bicycle	10
alignment	10
°@@	10
,000	10
relation@@	10
development;	10
attention,	10
Pharmaceutical	10
mask	10
Stat@@	10
weak@@	10
parks.	10
surprising	10
Questions	10
galiyev,	10
etym@@	10
fa	10
1999	10
college.	10
Prospects	10
newborn	10
regulation.	10
sary@@	10
elbasy	10
energy-@@	10
hide	10
revolution.	10
subsidies,	10
01%	10
championship.	10
countrymen	10
crops.	10
precision	10
presiden@@	10
(e@@	10
motivated	10
April,	10
vers	10
"Center	10
RAN@@	10
stratigraphic	10
104@@	10
cardinal	10
loose	10
il-@@	10
The@@	10
1994,	10
sai	10
Money	10
fauna	10
taxes.	10
activity;	10
dramatically	10
Drilling	10
deriv@@	10
ativ@@	10
Chinese,	10
Cur@@	10
age)	10
um"	10
descent	10
police.	10
etc.).	10
hood	10
Inspection	10
0;	10
6-7	10
zhuasbaev	10
re-equipment	10
ltd	10
less,	10
forward,	10
bin	10
policies.	10
(MPC)	10
added,	10
cells,	10
estimation	10
body's	10
Kazagro@@	10
adapts	10
d,"	10
injury	10
screen@@	10
canada	10
list@@	10
performed.	10
nutrients	10
losing	10
programme,	10
schedul@@	10
ole	10
alin@@	10
metal,	10
SM@@	10
-2000	10
deman@@	10
reasons,	10
privileges	10
mat	10
series,	10
shoc@@	10
etc.),	10
normalization	10
y?	10
locations	10
rely	10
ula,	10
resolutions	10
triumph	10
dx	10
ase@@	10
27%	10
abbreviated	10
tane	10
alternating	10
ml/min	10
glob@@	10
Muslims	10
example.	10
Turkmenistan.	10
aries	10
Ban@@	10
ang,	10
ATM	10
LA	10
202@@	10
agglomer@@	10
collectives	10
101.@@	10
supply.	10
dul@@	10
anna	10
articles,	10
March,	10
236	10
Rayymbek	10
traveler	10
headquarters,	10
Mbps	10
375	10
decreased,	10
,”	10
autumn-winter	10
ge,	10
evapor@@	10
snap	10
Met@@	10
Zone	10
pole	10
t).	10
aea	10
supporters	10
analytics	10
Common@@	10
oli@@	10
ations."	10
Subsequently,	10
Will	10
Armenian	10
Cossack	10
Renewable	10
Ask@@	10
12)	10
Technologies,	10
ades	10
weapon	10
answ@@	10
sources;	10
𝐷	10
telecom	10
Functions	10
2-4	10
interconnection	10
curriculum,	10
/s	10
tool@@	10
bent	10
priority.	10
undeniable	10
signals,	10
ers)	10
802	10
TA	10
journalists.	10
desktop	10
honey,	10
thermostat	10
confront	10
children@@	10
Educ@@	10
required,	10
barium	10
Asia-Pacific	10
75%,	10
consistently	10
rink	10
publishes	10
ograph	10
replenishment	10
association,	10
470	10
Combustion	10
polynomials	10
agan@@	10
isation	10
investigated.	10
600-@@	10
MB	10
Projec@@	10
kov.	10
facili@@	10
sin	10
villagers,	10
MS)	10
Ivan	10
granite	10
Reserve	10
revi@@	10
wheel@@	10
meg@@	10
kilometer	10
RSA	10
atameken	10
compres@@	10
conin	10
registration.	10
≥	10
bailiffs	10
Δ@@	10
website.	10
Bukhtarma	10
voc@@	10
open@@	10
mini-centers	10
agro	10
navig@@	10
categor@@	10
flush	10
vit@@	10
adsorbents	10
architects	10
2015-2017	10
Kazakhtelecom	10
symbol@@	10
Quantity	10
replaces	10
phone,	10
tow@@	10
expanded,	10
once.	10
typ@@	10
2050"	10
Isk@@	10
Club	10
Party,	10
below.	10
[1]:	10
Game	10
0.6	10
Sat@@	10
4.1%,	10
(17@@	10
results;	10
"Kazakhstan"	10
workforce	10
430	10
130@@	10
lg@@	10
impurity	10
Saparbayev,	10
97@@	10
Om@@	10
circumstances,	10
logging	10
correc@@	10
federations	10
Office.	10
17th	10
samples.	10
harvesters	10
Cour@@	10
pouring	10
TRACE	10
roller	10
participation.	10
kil@@	10
Ang@@	10
t	10
lecture,	10
tested.	10
berg	10
WA@@	10
fund@@	10
Government,	10
dem@@	10
liter@@	10
garden,	10
metallurgists	10
z_r@@	10
eeo,	10
permeability	9
70%.	9
type:	9
objectively	9
ZrN	9
surprise	9
accompanying	9
"modern	9
CSS	9
JavaScript	9
heroic	9
trusting	9
𝑚@@	9
oxidizer	9
institution@@	9
resolved,	9
tight	9
robotics,	9
Criterion	9
runs	9
supervised	9
aluminum,	9
transmit	9
advantages,	9
graphics,	9
prestige	9
kazakhstan-@@	9
interpre@@	9
Regul@@	9
(using	9
tg	9
aps	9
heva	9
Adaptation	9
"Social	9
suppress	9
rau	9
ontology	9
warmly	9
storms	9
convene	9
alloy,	9
roo@@	9
Rys@@	9
"east@@	9
whol@@	9
crow@@	9
editorial	9
vacancies.	9
	9
undertaken	9
4),	9
Yelzhan	9
eagle	9
wisdom	9
moderate	9
rays,	9
objectivity	9
breed	9
Quartz	9
135	9
formula,	9
sovereignty.	9
lists,	9
temperatures,	9
ists,	9
tenth	9
commerci@@	9
Pat@@	9
ce-@@	9
Fri@@	9
Operational	9
artic@@	9
igh@@	9
concepts,	9
Has@@	9
vicinity	9
(2.@@	9
himself.	9
enjoy	9
front.	9
atten@@	9
5%).	9
dialog	9
implantation	9
preserv@@	9
end.	9
started,	9
weakening	9
deserves	9
CH	9
club,	9
figurative	9
200-@@	9
2000,	9
blowing	9
100,000	9
copper@@	9
bears	9
cen@@	9
𝑇@@	9
ne	9
escence	9
comparison,	9
Coordinating	9
San	9
Uralsk	9
Silicon	9
Governments	9
maximizing	9
compilers	9
Transl@@	9
Darkhan	9
Myrz@@	9
absorbs	9
moderating	9
2014-2015,	9
Conversion	9
but@@	9
lesson.	9
aching	9
studies.	9
fencing	9
electr@@	9
posters	9
invented	9
equality.	9
polys@@	9
functioning.	9
odynamic	9
large-@@	9
officers.	9
information-@@	9
flo@@	9
sound@@	9
licens@@	9
carrots	9
elliptic	9
sole	9
Medic@@	9
lim@@	9
technostress	9
Program@@	9
alumina	9
Valery	9
404	9
pedestrian	9
view.	9
well@@	9
medicines.	9
tly.	9
observ@@	9
know-how	9
6M@@	9
colonel	9
underwater	9
1.9%,	9
1.7%,	9
torque	9
before,	9
Natalya	9
Def@@	9
Polym@@	9
ha.	9
amendment	9
his/her	9
fixation	9
separating	9
guardians	9
connector	9
kenov.	9
Diffusion	9
	9
forecast,	9
grace	9
Ermegiy@@	9
Khor@@	9
applied,	9
elliptical	9
extru@@	9
Clay	9
[12@@	9
ties"	9
renew	9
clu@@	9
Steam	9
lump	9
Or	9
specifying	9
intentional	9
Plat@@	9
disper@@	9
waste-free	9
impressions	9
succ@@	9
ily@@	9
Usually	9
mother@@	9
chromate	9
degree.	9
CU	9
city-forming	9
Equation	9
View@@	9
don	9
452	9
Continuous	9
nauryz	9
materials;	9
temir@@	9
OK@@	9
milking	9
socialization	9
Monopolies,	9
wider	9
administrative-territorial	9
spent,	9
(p@@	9
price,	9
revenues.	9
injured	9
speeches	9
Black	9
Emirati	9
Netherlands.	9
earlier.	9
ent"	9
LE	9
SCHOOL	9
ently,	9
ome	9
ners	9
21,@@	9
hydrodynamics	9
15-20%	9
topology	9
subscri@@	9
accordingly	9
precisely	9
shell,	9
royal	9
rigid	9
refriger@@	9
capac@@	9
services;	9
airbus	9
planes	9
Secondary	9
KZ@@	9
precisely,	9
literate	9
Two-@@	9
eni@@	9
geosystem	9
Database	9
honestly	9
multiplying	9
(a@@	9
monument.	9
director.	9
simulations	9
berdybek	9
Swedish	9
development:	9
successful,	9
Kassymbek.	9
Home	9
"Plan	9
signaling	9
spill	9
"kazagro@@	9
govern@@	9
$20	9
soil@@	9
interactions	9
conflict,	9
crystalliz@@	9
chias@@	9
video@@	9
relax	9
concrete,	9
500-@@	9
W,	9
stainless	9
nam@@	9
identi@@	9
eat	9
fulfills	9
grounds,	9
inventions	9
patriots	9
convergence	9
dance,	9
20-year	9
Prevention	9
Forecast	9
thoroughly	9
tunn@@	9
sor	9
outcomes.	9
[8@@	9
ships.	9
iev@@	9
ISO@@	9
bod@@	9
stamps	9
ky@@	9
shu.	9
30th	9
Ra@@	9
Uralsk,	9
Interior	9
shops	9
facilitating	9
killed	9
review,	9
intercontinental	9
Program,	9
robo@@	9
diamond-@@	9
impregnated	9
oralmans	9
expresses	9
BI@@	9
facts,	9
burns	9
201	9
"Energy	9
EXPO.	9
Guests	9
existence,	9
ministers,	9
Corporation,	9
switches	9
idrissov	9
Chain	9
ecology"	9
unacceptable	9
ene	9
nanotubes	9
shel@@	9
order:	9
login	9
Dr@@	9
at-@@	9
hev.	9
m3/@@	9
Nat@@	9
Zhi@@	9
misunderstanding	9
zhi@@	9
globe	9
corps.	9
involved,	9
error@@	9
repairs.	9
index.	9
grand@@	9
Anatoly	9
las@@	9
prospecting	9
Underground	9
varying	9
impairment	9
anal@@	9
academy,	9
Saken	9
Dossaev.	9
@@	9
countri@@	9
audit@@	9
extracting	9
coach	9
0,91	9
azerbaijan	9
newborns	9
experiments,	9
11)	9
sions.	9
determined:	9
sit@@	9
Abdr@@	9
Cisco	9
Farabi's	9
distortion	9
request,	9
mobilizing	9
cattle.	9
staff,	9
sides.	9
restructuring	9
convenient,	9
deputy.	9
priv@@	9
proper@@	9
1,8@@	9
slee@@	9
computerization	9
Ate"	9
azh@@	9
My	9
N,	9
BU@@	9
ads	9
visas	9
Jul@@	9
properties.	9
implement@@	9
veri@@	9
ophthalm@@	9
module,	9
optim@@	9
Batyr	9
reaffirmed	9
defined:	9
eliminated,	9
Alma-Ata.	9
"gold	9
passengers,	9
historical,	9
measurements,	9
tari@@	9
Conduc@@	9
far@@	9
pathology	9
accumulates	9
"In	9
center"	9
dou@@	9
evaluated.	9
segmentation	9
il,	9
cro@@	9
hydrostatic	9
disease,	9
requesting	9
agre@@	9
Tokaev	9
load,	9
journalists,	9
electron@@	9
mechanism.	9
bus,	9
hist@@	9
Universiade,	9
fault	9
inherent	9
ets.	9
minim@@	9
ode	9
Yas@@	9
%,	9
indigenous	9
T2	9
Lianyungan	9
Nano@@	9
uli@@	9
chain@@	9
"s@@	9
pathogens	9
ald	9
out:	9
akhmet@@	9
Annual	9
Ig@@	9
$1.5	9
diving	9
Helsinki	9
can't	9
m.,	9
а@@	9
precipitate	9
Step@@	9
nothing	9
bom@@	9
-3	9
whiteboard	9
complementary	9
Church	9
socio-@@	9
rings	9
Electron	9
League	9
aset	9
Cy@@	9
spectr@@	9
med.	9
affine	9
standardization,	9
lattice	9
state-owned	9
improvement,	9
insulating	9
37.@@	9
hydrogen@@	9
BL	9
undeveloped	9
tures	9
equals	9
signature.	9
situational	9
Tatarstan	9
-4@@	9
coefficient,	9
(15@@	9
M3	9
ician	9
islands	9
ano	9
inpatient	9
348	9
(j@@	9
Alash	9
eg@@	9
requested	9
Shu.	9
bers	9
servant	9
turkish	9
teaching,	9
memor@@	9
suffer	9
ance@@	9
feedlot	9
Band	9
const	9
confidence,	9
prism	9
pm	9
Sharyn	9
modulus	9
Kinetic	9
harms	9
10-4	9
ferroalloys	9
exhibitions.	9
de;	9
sian	9
AN	9
2%),	9
(16.@@	9
11%	9
keeping	9
nov	9
shots	9
simpler	9
_ns_ns@@	9
rice,	9
website,	9
hev	9
market@@	9
gun@@	9
Comp@@	9
database,	9
2009-201@@	9
systemically	9
hex@@	9
strati@@	9
ed-@@	9
Phosphorus	9
Physicochemical	9
accord	9
alik@@	9
tations	9
garrison	9
exclusion	9
fertile	9
tier	9
RGP	9
manag@@	9
-Kazakh	9
Problems	9
2017"	9
ized,	9
copper-@@	9
exchange.	9
diagram,	9
$100	9
synergistic	9
355	9
Dra@@	9
lifestyle.	9
Users	9
ensembles	9
5-7	9
smailov	9
Rehabilitation	9
northeast	9
[5].	9
amplification	9
7,000	9
legendary	9
166	9
Child@@	9
2.3%.	9
scarcity	9
treasury.	9
programmatic	9
child.	9
Ustirt	9
48%	9
ship,	9
univers@@	9
𝑗	9
enov.	9
Early	9
ae	9
ee@@	9
absorbing	9
debate	9
stakeholders	9
intensified	9
info@@	9
Future,"	9
"Road	9
determin@@	9
adilbek	9
endocrin@@	9
dispensary	9
143	9
prohibition	9
flows.	9
90s	9
objectives.	9
50th	9
window"	9
hung@@	9
evsky	9
Sagintayev	9
corrective	9
acceler@@	9
eries	9
sens@@	9
au.	9
excited	9
Batalov.	9
hostel	9
ging	9
block@@	9
painting	9
phd	9
va,	9
uranium,	9
clin@@	9
aria	9
capital@@	9
civilization,	9
migration.	9
developers,	9
Connec@@	9
H2O	9
Amount	9
source,	9
(without	9
	9
micro-	9
BC@@	9
viewers	9
Opportunities	9
project"	9
Tam@@	9
m),	9
Maktaaral	9
prospect	9
Electrochemical	9
pavilions,	9
ionite	9
techno@@	9
unfortunately	9
rul@@	9
Recep	9
Erdogan	9
𝑆@@	9
0,96	9
italy	9
Pul@@	9
Practice	9
daily.	9
easy.	9
pair,	9
ore,	9
(table	9
LO@@	9
programmed	9
defence	9
295	9
Heavy	9
Ju@@	9
execu@@	9
ted:	9
alikhan	9
step-by-step	9
Sin@@	9
Police	9
tasked	9
will,	9
aking	9
rates.	9
ance.	9
non-thermal	9
fractals	9
sym@@	9
June,	9
"d@@	9
fattening	9
ATION	9
sorb@@	9
cred@@	9
journey	9
kindergarten.	9
ying,	9
liquidated	9
phrases	9
KazNU	9
Direction	9
myself	9
arti@@	9
TQM	9
apk	9
Chem@@	9
glaciers	9
effec@@	9
jak@@	9
sec	9
engineers,	9
dan	9
whatever	9
seminar.	9
Den@@	9
self-employed,	9
trou@@	9
mams	9
economists	9
Kapchagai	9
ombudsman	9
muham@@	9
Khal@@	9
maintenance,	9
Confederation	9
Gauss	9
Reduce	9
[19]	9
ability.	9
slowed	9
(1/3)	9
GRA@@	9
politically	9
mentary	9
cinema,	9
2.2%	9
livestock,	9
critic@@	9
kidney	9
h)	9
cod@@	9
ical)	9
iter@@	9
metropolis,	9
new,	9
tz@@	9
Nazarbayeva	9
weap@@	9
Bolat	9
PP)	9
microflora	9
(Russian	9
dynamics,	9
440	9
presentations,	9
production:	9
ics"	9
protocol,	9
reform.	9
Calculate	9
MM	9
geosystems	9
ers-@@	9
Up@@	9
're	9
C:	9
cluster,	9
aa	9
181	9
parade,	9
macro-@@	9
Rail@@	9
kumys	9
welcomed	9
(00@@	9
crown	9
sheets	9
buses.	9
assemble	9
violations.	9
done.	9
exams	9
chooses	9
Nur-Sultan	9
deterministic	9
smel@@	9
Dam@@	9
port.	9
3%),	9
parasitic	9
transi@@	9
ru	9
Deformation	9
2D	9
morph@@	9
coagulant	9
kova	9
uzbekistan	9
unifying	9
roof	9
question@@	9
absent	9
Bukh@@	9
15.2	9
slices	9
magnetron	9
here@@	9
stri@@	9
world,"	9
sion"	9
purpose.	9
contracts.	9
SIMULATION	9
clarity	9
utiliz@@	9
technology:	9
metallic	9
133	9
"International	9
retirement	9
holistic	9
Dec@@	9
ganov	9
79@@	9
intern@@	9
Kazalinsky	9
spe@@	9
kw@@	9
explored	9
10-20	9
1000@@	9
road."	9
C++	9
announ@@	9
Ily@@	9
prospec@@	9
le-@@	9
adverti@@	9
neither	9
characteristics.	9
car,	9
Geology	9
optional	9
accumul@@	9
inauguration	9
education:	9
knowledge;	9
origins	9
Pres@@	9
receivers	9
5.0	9
ktz	9
phonon	9
ung@@	9
Proceedings	9
ving,	9
"State	9
attacks,	9
box@@	9
Records	9
occupying	9
uly	9
bus@@	9
[24]	9
clear@@	9
sn	9
panels,	9
annex	9
gg@@	9
Failure	9
MODEL	9
us"	9
212	9
385	9
video,	9
progres@@	9
candidat@@	9
Lebanese	9
NI@@	9
28,@@	9
contours	9
Private	9
serik	9
azi@@	9
i)	9
tis	9
translating	9
Assistance	9
sion-@@	9
AV@@	9
Croatian	9
asks	9
Zhamishev	9
able)	9
drawings,	9
jec@@	9
heroism	9
consul	9
EO@@	9
components:	9
Hum@@	9
Estonia	9
Moldova	9
effectively.	9
range@@	9
steppe,	9
region:	9
barrier-free	9
Issekeshev,	9
inspect	9
refused	9
lungs	9
excav@@	9
Inclu@@	9
Geological	9
emergency,	9
341	9
full-time	9
folklore	9
facilit@@	9
market"	9
𝑅@@	9
Sino-@@	9
Disadvantages	9
ratify	9
Volkov	9
y!	9
Sig@@	9
Provide	9
afraid	9
ishev	9
310	9
Glass	9
Tasmagambetov.	9
rapil	9
83@@	9
R.@@	9
9.9	9
reed	9
densely	9
Xi@@	9
Serpukhov	9
job.	9
library.	9
Harmony	9
inaccessible	9
financi@@	9
traditimic	9
legalized,	9
hectare.	9
diameters	9
compensating	9
misuse	9
60%.	9
stress,	9
Petro	9
Nan@@	9
favorably	9
quarantine	9
Amazon	9
α-@@	9
educational,	9
anniversary,	9
ways:	9
SCADA	9
AO	9
(to	9
EHR-integrated	9
hubs	9
restored,	9
honor.	9
sketch	9
zhu@@	9
tayev	9
EBRD	9
pers	9
compensated	9
XX@@	9
Conver@@	9
Therm@@	9
deficiency	9
Tselinograd	9
money.	9
peroxidase	9
yal@@	9
arcs	9
trust.	9
enter@@	9
nik	9
lag@@	9
ography@@	9
9%)	9
ge"	9
meant	9
sible	9
electrocardi@@	9
Mandatory	9
dismissal	9
Future."	9
right,	9
presentation,	9
XII	9
risk,	9
ov-@@	9
U.	9
Indic@@	9
167	9
courtyard	9
mold	9
initiate	9
SiO@@	9
singular	9
manifesto	9
45.	9
road,"	9
stone,	9
Be	9
scholars	9
Companies	9
131	9
chips	9
reform@@	9
n"	9
harvested	9
rivers,	9
landscap@@	9
ro	9
helmet	9
beds,	9
𝑖	9
Survey	9
energ@@	9
kon@@	9
FORMATION	9
reliably	9
poles	9
liberal	9
emi@@	9
ship.	9
there@@	9
Crime	9
Force	9
induc@@	9
Otan,"	9
neutr@@	9
ized.	9
eff@@	9
anim@@	9
forth	9
arsh@@	9
acid-@@	9
room,	9
droplets	9
referen@@	9
Expl@@	9
AI	9
USB	9
weekends	9
kg@@	9
owns	9
maslikhat.	9
ishing	9
gas)	9
Tashkent,	9
el-@@	9
imit@@	9
budge@@	9
ambetov	9
driven	9
histogram	9
collectors	9
Real	9
practices.	9
compounds,	9
24.	9
neuron	9
kovsky	9
ists	9
[67]	9
manipul@@	9
accuracy,	9
dismantling	9
long@@	9
likelihood	9
Initi@@	9
tired	9
multi-vector	9
continent,	9
I'm	9
2.3%	9
Sunday	9
cyclic	9
phones,	9
Soft@@	9
custom@@	9
(h@@	9
beams	9
(III)	9
salinization	9
Weapons	9
tajikistan	9
L2	9
programming,	9
main@@	9
craft	9
[2]:	9
microbial	9
Treatment	9
crossings	9
ter-@@	9
ets	9
tanks,	9
none	9
Concentration	9
assumes	9
camp@@	9
yg@@	9
privatiz@@	9
"zhas	9
remin@@	9
Three-@@	9
kor@@	9
Overview	9
stream@@	9
contents	9
curren@@	9
zer@@	9
fields.	9
surfaces,	9
chrome	9
Equ@@	9
de:	9
vacationers	9
simul@@	9
taken.	9
Senator	9
importing	9
Lin@@	9
pragmatism	9
os,	9
cord	9
Registration	9
understand@@	9
participant@@	9
14.5	9
initiators	9
Lav@@	9
registration,	9
vsky	9
arbitr@@	9
ation's	9
2005.	9
three-day	9
(23@@	9
chemically	9
(T)	9
musicians	9
rooms.	9
10-15%	9
formulate	9
oecd	9
environment;	9
routes,	9
db	9
games.	9
10]	9
Architectural	9
cros@@	9
fan	9
Ulba	9
trees,	9
emanating	9
biog@@	9
notation	9
@@	9
Latin.	9
globally	9
Territory	9
Domestic	9
permits,	9
ASP	9
approached	9
tical	9
abay	9
é	9
library,	9
filed	9
congress.	9
Sweden,	9
distinguishes	9
zoo	9
13th	9
ri	9
fy	9
physi@@	9
at"	9
A.,	9
ese@@	9
sinusoid	9
alin.	9
appealed	9
tain	9
ef	9
Between	9
l"	9
german	9
cos	9
l)	9
ole@@	9
second-order	9
00,	9
(201@@	9
dum@@	9
paper.	9
evich	9
emo@@	9
visually	9
priority,	9
GIS	9
chip	9
-2014	9
range,	9
ino	9
theft	9
matic	9
serge@@	9
views,	9
a2	9
migr@@	9
on:	9
semantics	9
tus	9
DLP	9
12.5	9
Photo@@	9
j)	9
Liquid	9
physic@@	9
12:00	9
selenium	9
aksh@@	9
183	9
1996	9
stere@@	9
disconnection	9
Syrdarya	9
kha,	9
creativity.	9
Shu,	9
fluorescence	9
satisfied,	9
scar@@	9
claim	9
celebrating	9
deduc@@	9
ovka,	9
pe,	9
Jaksybekov	9
user,	9
methacrylate	9
kay@@	9
Kon@@	9
kaumetova	9
40th	9
(since	9
(18@@	9
(J@@	9
vic	9
arms,	9
1100	9
honest@@	9
+,	9
2,9@@	9
(taking	9
white@@	9
break@@	9
"Capital."	9
sigh@@	9
expense.	9
heater	9
Suzak	9
of"	9
members,	9
wol@@	9
supervision,	9
Government's	9
optimum	9
yt@@	9
anuar	9
lianyungang	9
plac@@	9
path"	9
airborne	9
"government	9
waveleng@@	9
2021,	9
Ten@@	9
felt	9
west,	9
ecology,	9
mid@@	9
untimely	9
underwent	9
>:	9
kazsat-3	9
winds	9
physici@@	9
essays	9
shores	9
Karkaraly	9
point)	9
ich,	9
commission@@	9
audited	9
Foundation,	9
132	9
Ram@@	9
duc@@	9
ption,	9
sk-@@	9
Proof	9
turnover.	9
seminar-meeting	9
antioxidant	9
confessional	9
п@@	9
strengthened,	9
Bakhyt	9
effective.	9
turkmenistan	9
pests	9
Eeo	9
antioxidants	9
substations	9
Five	9
Kairbekova	9
var@@	9
auditing	9
resonant	9
soviet	9
km),	9
"white,"	9
Houses	8
Metropolitan	8
"Capital"	8
builds	8
reflec@@	8
director,	8
competitors	8
TD	8
SL	8
SD	8
relies	8
improvements	8
Petroleum	8
Sarsen@@	8
ities	8
Denis	8
night.	8
transformation.	8
simple,	8
persi@@	8
friends.	8
consumes	8
3,7@@	8
86%	8
pleas@@	8
Division	8
scores	8
tov.	8
seminars.	8
Orenburg	8
Interior,	8
ontological	8
Kuandyk	8
Nazarbayev@@	8
dus@@	8
hour.	8
Kyzylorda.	8
accompany	8
constants	8
fest	8
Economy.	8
certificate.	8
Paras@@	8
reconstruction,	8
Advantages	8
Caucasus	8
morphometric	8
CES	8
u"	8
"capital-@@	8
0,32	8
Attention	8
ila	8
Country"	8
reli@@	8
distinguishing	8
impurities,	8
90%.	8
Zo@@	8
eration	8
GD@@	8
tions;	8
chro@@	8
flights.	8
verbal	8
authentic@@	8
cryp@@	8
data;	8
gold-@@	8
ME	8
centur@@	8
(Figures	8
th)	8
Shy@@	8
USA,	8
glazing	8
them;	8
purchased.	8
Bishkek	8
Kozh@@	8
Actions	8
cha@@	8
ze,	8
ary)	8
systems:	8
ball@@	8
Karat@@	8
93%	8
gab@@	8
audience.	8
Scienti@@	8
Transformer	8
basically	8
DP	8
window@@	8
ush	8
ancy	8
ren	8
Like	8
tuple	8
number.	8
step.	8
system-@@	8
akk	8
Extraction	8
Deep	8
Remote	8
Tel@@	8
income.	8
country@@	8
mangystau	8
spectrometers	8
moderniz@@	8
higher.	8
book.	8
min.	8
modifier	8
ature	8
societies	8
2045	8
Duration	8
electrification	8
offences	8
reflexive	8
0.2	8
Gra@@	8
mission@@	8
ares	8
2.4%,	8
unlikely	8
1.3%	8
ha,	8
hatred	8
gases,	8
signs,	8
substanc@@	8
Tek@@	8
Kong,	8
airports,	8
Repair	8
nor@@	8
pyro@@	8
electric@@	8
Thickness	8
fracture	8
L.@@	8
administrator	8
3.2%.	8
db@@	8
ne,	8
cyberspace	8
brigade	8
great@@	8
physiology	8
revealed.	8
sciences.	8
2020;	8
refrigerator	8
shop@@	8
eeu	8
reuse	8
Coordin@@	8
remind	8
nat@@	8
Street,	8
locomotives,	8
language"	8
cour@@	8
frequency-@@	8
voting,	8
assi@@	8
staffing	8
employ@@	8
oda	8
Humidity	8
nit@@	8
PCs	8
Vibration	8
tool.	8
.k@@	8
LAN	8
program:	8
Norway	8
184	8
thrust	8
S.@@	8
Sap@@	8
sko@@	8
Sample	8
sult@@	8
emis@@	8
Module	8
0T	8
pseudo-@@	8
glycol	8
bac@@	8
dres@@	8
prom@@	8
Ata	8
Baltic	8
Tran@@	8
8-10	8
democratization	8
aster	8
kilometers,	8
cascade-probabilistic	8
finances	8
alumin@@	8
Grain	8
ellip@@	8
cargoes	8
se)	8
papers	8
Kazakh.	8
youngest	8
airport,	8
improper	8
verbs	8
inexhaustible	8
Zh	8
motherhood	8
crimin@@	8
hybrids	8
Universal	8
Applying	8
47th	8
Security,	8
thes@@	8
tants	8
Batalov	8
ent;	8
layered	8
text@@	8
September.	8
drought	8
10.8	8
innovators	8
cu	8
(OH)	8
cosine	8
fuels,	8
Grid	8
tation	8
Sh	8
𝐸@@	8
mai@@	8
achieves	8
Ambassad@@	8
io@@	8
searches	8
hil@@	8
191	8
Play	8
compli@@	8
diplom@@	8
Zhar@@	8
Pipeline	8
fellows	8
partitions	8
cycl@@	8
"B.@@	8
legs	8
roles	8
RF	8
south-east	8
chambers,	8
c"	8
buil@@	8
Tool	8
mammals	8
Sag@@	8
Shymk@@	8
Mexico,	8
ware@@	8
Bog@@	8
arov.	8
Computational	8
hydrometeorological	8
[78]	8
award.	8
2021.	8
tification	8
exhaustion	8
evaluations	8
proceed	8
ABC	8
AG@@	8
Chelyabinsk	8
Shui	8
1,06	8
DIA	8
taxpayers	8
zone;	8
sn@@	8
mail@@	8
accelerates	8
circus	8
conductors	8
3K	8
computer.	8
sociology	8
diagnosing	8
books.	8
87%	8
hi	8
sampl@@	8
237	8
aktog@@	8
0.8%,	8
0.7%,	8
devaluation	8
principles:	8
Migration	8
discover	8
ants.	8
27-@@	8
bottle	8
rab@@	8
12th	8
concep@@	8
blowdown	8
measurement,	8
delegations,	8
FPI	8
medalist	8
Yermekbayev	8
ken	8
Large-scale	8
presidium	8
host@@	8
job,	8
ky	8
Ty@@	8
fluorescent	8
life@@	8
historians	8
competitiveness."	8
Brazilian	8
contradictory	8
W/m2	8
sized	8
206110	8
"fee	8
elled	8
intolerance	8
aifc	8
Andatpa:	8
2016-2020.	8
faith	8
tetra@@	8
powers.	8
onc@@	8
72nd	8
implies	8
upon.	8
adop@@	8
ters.	8
2015)	8
chilled	8
tive.	8
application.	8
methan@@	8
ysis	8
preci@@	8
duplication	8
france	8
Rel@@	8
ativity	8
94@@	8
memorandum.	8
cracking	8
lemma	8
metabolic	8
logically	8
DIFFERENTIAL	8
1.2%	8
ark@@	8
Rom@@	8
pack@@	8
"Kazakhstan-2050."	8
democracy,	8
radioecological	8
ding,	8
factories,	8
condition,	8
Estonian	8
spreads	8
sure@@	8
rs	8
02@@	8
fairs,	8
3.8%,	8
pigment	8
ograms	8
Festival	8
alog@@	8
semi-desert	8
Shap@@	8
technologies;	8
son@@	8
nano-@@	8
unmanned	8
123	8
(EC@@	8
)"	8
discharges	8
length,	8
magnetodiode	8
stabiliz@@	8
flood@@	8
Administr@@	8
598	8
advantageous	8
gram	8
optics	8
institute.	8
prosper@@	8
Particular	8
elements:	8
essi@@	8
names,	8
farmers.	8
bid@@	8
evna	8
1988	8
[9@@	8
forms,	8
Germans	8
Area	8
respect,	8
ie	8
resh@@	8
2009@@	8
ACTIV@@	8
3).	8
slides	8
on-board	8
repe@@	8
it?	8
"Strategy	8
commented	8
Myn@@	8
Kazakh-French	8
Strati@@	8
Consciousness,"	8
analyz@@	8
found@@	8
rain@@	8
consent,	8
daul@@	8
Poland.	8
enhances	8
behavioral	8
Alta@@	8
distor@@	8
impres@@	8
322	8
operator.	8
obliges	8
fall.	8
revive	8
"In@@	8
polym@@	8
1997,	8
STUDENTS	8
karim	8
Zhanazhol	8
Repe@@	8
dimension@@	8
cran@@	8
utilities.	8
leas@@	8
eag@@	8
proceedings.	8
mm,	8
hydrogenerator	8
issekeshev	8
arch	8
preparation,	8
Kokshetau.	8
kokshetau	8
consum@@	8
logarithmic	8
launches	8
crises	8
usefulness	8
yaz@@	8
Automated	8
KM@@	8
760	8
caviar	8
Dem@@	8
(A)	8
thesaurus	8
SC@@	8
RI@@	8
f1	8
Suleimen	8
theaters,	8
mast@@	8
1970	8
U,	8
fear	8
tures,	8
Transition	8
confectionery,	8
Regions	8
ces,	8
Na	8
reactor,	8
Region.	8
archae@@	8
mun@@	8
auctions	8
fatigue	8
mosque	8
required.	8
ripening	8
ticket.	8
eli	8
Inst@@	8
delegate	8
12%.	8
sulf@@	8
resolution,	8
planet.	8
Lab@@	8
glue	8
JS@@	8
reasons.	8
"economy	8
acids,	8
Which	8
encapsulation	8
inspector	8
alist	8
hour@@	8
Biostimulator	8
hepatitis	8
balneological	8
competitive.	8
men's	8
ty;	8
trail	8
celebrations	8
Intensity	8
verse	8
kl@@	8
concluded,	8
Veter@@	8
Association,	8
uniformly	8
files,	8
primeminister.kz.	8
(GOST	8
order@@	8
flows,	8
It's	8
sessions,	8
lighting,	8
roadway	8
Shalkar	8
cool@@	8
initiation	8
RG@@	8
Commission.	8
decrees	8
geodesy	8
10-12	8
Workers	8
jump	8
marriage	8
assembly.	8
ules	8
pressures	8
Form@@	8
hous@@	8
divides	8
contrac@@	8
Designed	8
57.@@	8
variable,	8
200.@@	8
Cyrillic	8
30)	8
mountain@@	8
standardiz@@	8
Fredholm	8
targeting	8
LEGO	8
fif@@	8
pressu@@	8
undefined	8
admire	8
Personal	8
indicated.	8
Rad@@	8
thesis	8
corners	8
declar@@	8
decomposed	8
Conten@@	8
bridge,	8
systems)	8
Biological	8
264	8
de-@@	8
plant's	8
menov	8
Hospit@@	8
hierarchy	8
NDVI	8
interrelated	8
volleyball,	8
e).	8
organiz@@	8
Society,	8
Consciousness"	8
obol@@	8
ping	8
Baku	8
cm.	8
two-stage	8
"If	8
conflicts.	8
weed	8
Navier-Stokes	8
betov,	8
ight	8
copying	8
Preparations	8
346	8
opinions,	8
EDUCATIONAL	8
ansh@@	8
defender	8
Cho@@	8
metallurgical,	8
blog@@	8
Year,	8
benz@@	8
tion),	8
kg)	8
lyceum	8
sulphate	8
symphony	8
ence"	8
architec@@	8
habitat	8
saxaul	8
fal@@	8
(q@@	8
health@@	8
aler@@	8
95@@	8
ion-@@	8
domain@@	8
looked	8
semiconductors	8
Technologi@@	8
Airport	8
fruitful.	8
qi	8
ready,	8
analytically	8
penitentiary	8
troph@@	8
iro@@	8
darkhan	8
Phy@@	8
doub@@	8
yan	8
issued,	8
enclosing	8
kul	8
Objects	8
Aulie@@	8
cereal	8
lear@@	8
UNESCO,	8
pt	8
announcement	8
MCIS	8
Magnetic	8
Stream	8
assimil@@	8
winged	8
GA	8
epic	8
pit@@	8
Vienna	8
writer	8
fc	8
worsen@@	8
3-5	8
necess@@	8
[1-2]	8
opposed	8
Vitaly	8
ental	8
sand,	8
festivals	8
eurasia	8
mg@@	8
found.	8
bel	8
hall.	8
SU	8
Teacher	8
respectivel@@	8
vaccine	8
Geneva	8
Possible	8
service@@	8
Give	8
recti@@	8
molecule,	8
entirely	8
educates	8
faculties	8
mothers,	8
ides	8
Sultanov,	8
appeared,	8
Formulas	8
fix	8
HR@@	8
conscientious	8
35%.	8
506	8
powers,	8
routing	8
7.1	8
street@@	8
palace.	8
Merk@@	8
material@@	8
two-phase	8
Zher	8
skillfully	8
myst@@	8
mentation	8
BAS@@	8
TE	8
outputs	8
Oh@@	8
sing,	8
norm@@	8
odic	8
acceptor	8
gate"	8
upgrade	8
concentrator	8
panels.	8
yarn	8
recommendations,	8
hab@@	8
ymbetov	8
sho@@	8
graphs,	8
weekly	8
ve:	8
transparency,	8
39,@@	8
Atyrau,	8
marathon	8
Signature	8
Victory.	8
324	8
mol/@@	8
7.5%,	8
pharma	8
MHz	8
Lorentz	8
decrease,	8
melody	8
gn@@	8
turbulence	8
branched	8
generous	8
guardianship	8
resu@@	8
Tests	8
polyclinics	8
MES	8
excavators	8
expo.	8
graduation	8
immigrants	8
competencies.	8
15%.	8
percent@@	8
alik	8
three-tier	8
Astan@@	8
radii	8
wastes,	8
E-learning	8
malfunction	8
wav@@	8
iness	8
polymetallic	8
Fin@@	8
concept.	8
employers.	8
noise,	8
replic@@	8
prom	8
activities;	8
sagadat	8
monothermite	8
pledge	8
north-@@	8
stimul@@	8
390	8
lots	8
res;	8
(4.@@	8
mistakes	8
recep@@	8
literacy.	8
Nura	8
Wil@@	8
3.5%,	8
1"	8
paralysis	8
exer@@	8
totally	8
25%.	8
transshipment	8
overload	8
significantly,	8
lom@@	8
regularities	8
SME	8
shal@@	8
explores	8
regulations,	8
40%.	8
popularizing	8
Mom	8
Single-@@	8
non-positional	8
desig@@	8
Can@@	8
Akishev	8
loneliness	8
seam	8
134	8
mountains,	8
2015-201@@	8
ourselves,	8
rhythm	8
excludes	8
respect.	8
quality"	8
"it	8
0.8%.	8
pair.	8
ceramics	8
2011-2020	8
8%)	8
peers	8
potentially	8
betov.	8
XIII	8
sab@@	8
inhibits	8
2:	8
girl	8
365	8
Aydar@@	8
Clinical	8
share@@	8
ich.	8
quartz-@@	8
Partners	8
aus@@	8
desi@@	8
lets	8
vege@@	8
table@@	8
perfect	8
sag@@	8
Olympics.	8
export-import	8
timed	8
dreams	8
Gazette	8
KAZUTZU	8
downloaded	8
abaeva	8
ile	8
mm/@@	8
reserves.	8
nec@@	8
color,	8
Competi@@	8
means.	8
aggregation	8
row,	8
releases	8
Ce@@	8
endocrine	8
adhering	8
mechanisms.	8
𝑗@@	8
cm,	8
disc	8
titles	8
african	8
770	8
243	8
blast	8
granulating	8
(+	8
«@@	8
ea	8
dams	8
RB@@	8
10-11,	8
reactors,	8
Gl@@	8
"at	8
monomer	8
pneumatic	8
graduating	8
shape,	8
symbolizes	8
smoking	8
explained,	8
lecturer	8
oba	8
Optim@@	8
vertebrate	8
Chamber,	8
replenishing	8
clear,	8
temperature.	8
playing	8
syria	8
scientist,	8
corridors	8
Connection	8
multiplied	8
obtained:	8
Fiber	8
1.9%	8
trends.	8
ZATION	8
calibrated	8
175th	8
24%	8
𝑀@@	8
On-@@	8
plantations	8
surgery,	8
2014-2015	8
aef	8
Ogem	8
ton-@@	8
9;	8
harvesting.	8
messaging	8
"old"	8
parents.	8
saving,	8
heaters	8
cam	8
selfless	8
hostels	8
285	8
oncology	8
old@@	8
reconstructed,	8
187	8
mission.	8
voltages	8
th-@@	8
Solutions	8
IDE@@	8
eshev	8
third-@@	8
mm;	8
COMP@@	8
MATHEMATICS	8
institutes,	8
coagulation	8
ty.	8
control@@	8
bott@@	8
expects	8
concludes	8
antagonistic	8
laureates	8
distan@@	8
thri@@	8
Persons	8
guys	8
courses.	8
learn@@	8
reception,	8
Serbia.	8
leadership.	8
otherwise	8
ras@@	8
pointing	8
Wang,	8
"from	8
era,	8
electric,	8
checked.	8
Why	8
ishev,	8
timeliness	8
"friend@@	8
TF@@	8
staff@@	8
ment-@@	8
t2	8
Matrix	8
B2	8
eclipse	8
ics.	8
adds	8
Cop@@	8
mg/m3	8
0,24	8
/h	8
headquarters.	8
candidates,	8
omy@@	8
3.9%	8
km2	8
QU@@	8
EAT	8
Railways	8
label	8
Slovak	8
bb@@	8
October.	8
fateful	8
Enforcement	8
Glu@@	8
offices.	8
airport.	8
2019).	8
sq	8
delegation.	8
Improved	8
breadwinner	8
555	8
Zholdas@@	8
alov,	8
Population,	8
impeccable	8
flashes	8
concentration,	8
Clu@@	8
re-export	8
Dan@@	8
service"	8
online.	8
geometr@@	8
Nauryz@@	8
caravan	8
sustain@@	8
captured	8
rif@@	8
emit	8
5),	8
student.	8
go.	8
steam,	8
elling	8
deliveries	8
knowledge-based	8
newspapers	8
Ze@@	8
Star@@	8
Land@@	8
son.	8
Zhay@@	8
Press	8
Planning,	8
tle	8
breaks	8
Bro@@	8
Lob@@	8
axi@@	8
qualifications,	8
keyev	8
molding	8
[34]	8
wake	8
reconnaissance	8
"un@@	8
b).	8
st"	8
V)	8
n.nazarbayev	8
214	8
Ospanova	8
2,7@@	8
ing),	8
Eng@@	8
tons),	8
8;	8
Express	8
David	8
Erbolat	8
trunk	8
19.5	8
Carbon@@	8
disappears	8
bian	8
data:	8
east,	8
VIII	8
(w@@	8
Islam,	8
calculated.	8
repairing	8
nice	8
830	8
oun@@	8
Consequently,	8
Biogas	8
gradients	8
fting	8
narrowing	8
quotas	8
bend	8
arched	8
attacker	8
Kunan@@	8
Networking	8
detec@@	8
Atam@@	8
convolutional	8
18.	8
arg@@	8
hani	8
epo@@	8
0,31	8
balance,	8
[1-4]	8
Indi@@	8
card,	8
MathCad	8
probabilistic	8
Specialized	8
song@@	8
yogurt	8
ridges	8
consciousness."	8
Tenge.	8
performances,	8
Iran@@	8
Amanzholov	8
RN@@	8
minimizing	8
(B)	8
Chi@@	8
reimbur@@	8
Tole@@	8
suffering	8
quanti@@	8
republican,	8
ce."	8
2000-@@	8
Mukhamed@@	8
unchanged.	8
zonal	8
@@	8
CC	8
meteor@@	8
Sciences,	8
kegoc	8
criteria.	8
1,00@@	8
bees	8
aggravation	8
makhan@@	8
uch@@	8
nigmatulin.	8
audi@@	8
Offens@@	8
care"	8
hire	8
Mg@@	8
character,	8
conducted,	8
1,600	8
threatens	8
ties,"	8
2016-2018	8
ale	8
N)	8
urbanized	8
pale	8
reflex	8
ver-@@	8
information"	8
05-@@	8
Public-Private	8
mom	8
synthes@@	8
otan"	8
employing	8
dish	8
cycle,	8
gauge	8
ands	8
Committee.	8
(that	8
ped	8
e7	8
TECHNOLOGIES	8
mass,	8
scientists.	8
choir	8
councils,	8
patients.	8
period;	8
Anti-Crisis	8
Smol@@	8
specializes	8
268	8
ule	8
ail	8
grandchildren	8
recycled	8
Recommended	8
pine	8
cross-sectional	8
rating.	8
deci@@	8
California	8
Forest	8
kulov,	8
duty.	8
saf@@	8
і	8
brotherly	8
declaration,	8
Mg	8
det@@	8
salty	8
repository	8
pun@@	8
substance,	8
dos	8
2014-2015.	8
(according	8
inaugur@@	8
labor@@	8
quin@@	8
wolf	8
election,	8
organization@@	8
stam@@	8
promises	8
KB	8
om,	8
depicting	8
vacant	8
Sultan@@	8
Common	8
contacting	8
206	8
unchanged	8
pap@@	8
shore	8
manu@@	8
November,	8
EA	8
muk@@	8
age,"	8
ownership.	8
activities:	8
Strengthening	8
actic	8
ney	8
V,	8
hydr@@	8
latin	8
neoplasms	8
textbook@@	8
converts	8
tit@@	8
husbandry.	8
invest.	8
erra	8
Dol@@	8
Has	8
Color	8
level;	8
astic	8
esc@@	8
re-election	8
wagons	8
punch	8
urgently	8
wrong	8
isopropyl	8
doubled.	8
cultures,	8
202	8
TR@@	8
LOG@@	8
temir	8
device.	8
patriot	8
confidentiality	8
payment,	8
stom@@	8
405	8
met.	8
[9-@@	8
Specifies	8
"al@@	8
Forces,	8
shoo@@	8
luminescence	8
ts."	8
Communic@@	8
fest@@	8
2004,	8
disciplin@@	8
PM@@	8
copied	8
communicating	8
opar@@	8
stic@@	8
diame@@	8
egov	8
man-@@	8
salt,	8
training;	8
violations,	8
packag@@	8
ut	8
toponymy	8
ingu@@	8
	8
vending	8
cycling	8
geolocation	8
68.@@	8
anar	8
Poisson	8
rupture	8
ineffective	8
Hilbert	8
17.5	8
2010@@	8
Kir@@	8
"Kazakhstan-2050,"	8
akes	8
champions	8
zhar@@	8
eigen@@	8
conical	8
Road@@	8
elevator	8
posed	8
RESEARCH	8
lessons.	8
egg	8
306	8
fingers	8
distillation	8
mayor's	8
responsible,	8
color@@	8
low-level	8
word@@	8
eline	8
heights.	8
Reducing	8
stack	8
mer	8
window,	8
specializing	8
alism,	8
heart.	8
keyboard	8
al,"	8
distributors	8
Relative	8
Document	8
consciousness"	8
cube	8
cat	8
ozon@@	8
22%.	8
arc@@	8
B,	8
calm@@	8
amen@@	8
C),	8
kinds	8
burn	8
kg.	8
cosmodrome,	8
food.	8
Maria	8
commitments	8
ence@@	8
workings	8
Tole	8
positional	8
pre-processing	8
pil@@	8
Finance.	8
ers'	8
Sign	8
heading	8
psychologists	8
stones,	8
azak@@	8
Good	8
Glob@@	8
pair@@	8
Bet@@	8
6),	8
"saryark@@	8
Shol@@	8
economy."	8
periods,	8
oil-bitumen	8
Commission@@	8
transmitters	8
21%	8
inefficiency	8
mukhambetov	8
technological,	8
co,	8
chassis	8
KA@@	8
12.4	8
smoothing	8
astr@@	8
cabinet@@	8
47.@@	8
curve,	8
modifying	8
tenge/@@	8
Duissenova,	8
Abaya	8
spraying	8
testifies	8
Abil@@	8
blu@@	8
heat@@	8
chairman,	8
nitro@@	8
t?	8
Reliability	8
esi@@	8
hev@@	8
tast@@	8
15%,	8
transmit@@	8
kyzyl@@	8
supposed	8
termin@@	8
spring.	8
impoverishment	8
championships	8
signal@@	8
loved	8
milli@@	8
secrecy	8
Konstantin	8
settled	8
Mexico	8
36-@@	8
cipher	8
Salidat	8
ced	8
Burabai	8
List@@	8
approach.	8
kes@@	8
epidemic	8
Show	8
endangered	8
enk@@	8
parliamentarian	8
self-government,	8
emotions	8
gluten	8
arrow	8
awak@@	8
spectators	8
Court,	8
8,000	8
"Healthy	8
ments)	8
Chil@@	8
terminal,	8
accessed	8
4.5%	8
detachment	8
packet	8
Blum	8
updat@@	8
workload	8
sector@@	8
trained,	8
BAZ	8
dB@@	8
Constitution.	8
tetrahed@@	8
textbooks.	8
");	8
insurance,	8
Zh.	8
hanov	8
begin@@	8
systems"	8
Commander	8
shor@@	8
Sp@@	8
packaging,	8
2.9%	8
Batyr@@	8
Shak@@	8
happened	8
seems	8
Points	8
free-@@	8
ipo	8
colleges.	8
canceled	8
disturbances	8
GN@@	8
Aldaberg@@	8
σ	8
penetrate	8
Say@@	8
referral	8
Investments	8
miners,	8
tent	8
paraff@@	8
ware	8
tobe	8
osce	8
m1	8
calibration	8
detention	8
instructors	8
imova	8
Ni-@@	8
702	8
2022.	8
competitiveness.	8
(average	8
interfer@@	8
aid.	8
mitigation	8
shaping	8
trend.	8
ber)	8
tickets.	8
@@	8
Runge-Kutt	8
printers	8
evidence-based	8
Myrzakhmetov,	8
size,	8
n_ns	8
ine"	8
matrix,	8
anbaev	8
mechanism@@	8
posi@@	8
Scheme	8
nominations.	8
formalization	8
conduc@@	8
strategically	8
world."	8
blocking	8
it)	8
26,@@	8
sectional	8
"Kazakhstan,"	8
neg@@	8
EFB	8
antitrust	8
tayev,	8
ranking.	8
published.	8
gt	8
27th	8
Bitumen	8
Routing	8
November.	8
thrown	8
[4]:	8
Japan@@	8
feat	8
aph@@	8
compartment	8
Package	8
medium-@@	8
ult@@	8
neutralization	8
(P<.00@@	8
problems:	8
eating	8
ma,	8
2014-2016	8
115@@	8
Nog@@	8
works:	8
corporation"	8
coc@@	8
autom@@	8
options,	8
subsystem	8
ak"	8
Kazak@@	8
gall@@	8
TS@@	8
potato	8
multi-criterion	8
destinations	8
streaming	8
PM	8
";"	8
9001	8
о@@	8
minds	8
Spectral	8
weigh@@	8
insi@@	8
Yun@@	8
ZnO	8
Belarusian,	8
Gen@@	8
platforms.	8
Ed@@	8
sergeants	8
or's	8
math	8
P2O5	8
pel@@	8
Polytechnic	8
Noting	8
kmᶾ/zhylyna	8
non-metallic	7
packed	7
heav@@	7
Bec@@	7
2.3%,	7
3.3%,	7
4.3%.	7
process"	7
WTO.	7
youn@@	7
stu@@	7
14-15	7
gentle	7
pixel	7
Libr@@	7
ary"	7
sof@@	7
binds	7
Low	7
thing,	7
electronics,	7
shortest	7
imports.	7
polydisperse	7
threaded	7
Zhigalov	7
structure@@	7
221	7
3d	7
Creates	7
throwing	7
ranging	7
traffic.	7
dog@@	7
information:	7
dignity	7
coupled	7
fla@@	7
neighbors,	7
tation,	7
it;	7
genre	7
population's	7
ned,	7
(13)	7
"se@@	7
tap@@	7
reason@@	7
Kazakhstan?	7
bay,	7
jiang	7
rov@@	7
guarantees,	7
ji@@	7
ms,	7
constitute	7
Code.	7
summarizes	7
interview.	7
Graphics	7
akim's	7
Bishimbayev	7
ine-@@	7
dimensionless	7
variables:	7
Akhmet	7
importantly	7
tomorrow,	7
Capacity	7
spiral	7
breakdown	7
Vasilenko	7
Michael	7
ation).	7
agit@@	7
Jordanian	7
victories.	7
cooler	7
al's	7
sat	7
oriental	7
Education,"	7
enabled	7
Korgalzhyn	7
2011-2015	7
224	7
Costa	7
roofing	7
bordered	7
Limited	7
7.5%	7
ethn@@	7
OpenGL	7
])	7
ayev,	7
ferromagnetic	7
ZhEO@@	7
nің	7
ka-@@	7
hands,	7
absentee	7
35,@@	7
MATHEMATICAL	7
independen@@	7
Kyrgyz@@	7
eing-@@	7
aud@@	7
Motherland,	7
templates	7
sulphuric	7
grazing	7
giz	7
operational-@@	7
dress	7
audits	7
useful,	7
circuit,	7
Vice-Minister	7
64%	7
electricity.	7
Spain.	7
competences	7
tribes	7
Ile	7
orphanage	7
interfere	7
analyzed.	7
samruk-@@	7
act@@	7
94%	7
ACM	7
conserv@@	7
Correlation	7
crowns	7
4.2.@@	7
Center"	7
floor@@	7
theater,	7
ks@@	7
inspiration	7
intuitive	7
Posi@@	7
Geo@@	7
Metal	7
margin	7
automated.	7
𝑦	7
data)	7
"gol@@	7
Discrete	7
no,	7
[14@@	7
visitors.	7
Above	7
inscription	7
80.9	7
ful,	7
Presidium	7
Ural@@	7
Those	7
usup@@	7
chairman.	7
catch	7
Identify	7
Cambridge	7
modules,	7
Kuryk	7
Much	7
fats	7
hydrocarbons,	7
Famil@@	7
XIX	7
(usually	7
exothermic	7
flooding	7
Addres@@	7
properties:	7
ated)	7
[...]
